memory_initialization_radix = 16;
memory_initialization_vector =
fe00,fe02,fefe,0000,fefe,fefe,fefe,0002,0602,fe00,fcfe,fcfc,fefe,0000,fcfc,00fc,0002,fe00,fefc,fefc,0000,0000,0000,fefe,fefc,02fe,fefc,fafc,fe00,00fe,fefe,00fe,fcfe,fcfe,fcfe,fcfc,fefc,00fe,fefe,fe00,fefe,fcfe,00fc,fefe,fafe,fefc,fefe,fefe,0000,fefe,fefe,fefe,fafc,fefe,fefe,fe00,fefe,fefe,fefc,fefe,0000,fcfc,fefe,fe00,fefe,00fe,fcfe,00fe,fe00,fcfe,fcfe,fefe,fefe,fefe,fefe,fcfc,fe02,fefe,fefe,fefe,fefe,fefe,fe00,fcfe,fcfc,0000,0000,fefe,fefe,fefe,fefe,fefe,fefe,fe00,0000,fefe,fefe,fefe,fefe,fefe,fefe,fcfc,0000,0000,fefe,00fe,fefe,fefe,fefe,fefe,fe02,fefc,fefe,fefe,fefe,fe00,fefe,fefe,fefc,0000,fefe,fcfe,fefe,00fe,fe00,fefe,fefe,fe02,fefc,fefe,fefe,00fe,00fe,fefe,fefe,00fe,fe00,00fe,fefe,fefe,0000,fefe,fefe,00fe,fe02,fefe,fefe,fefe,fefe,fe00,fefe,fefe,fefe,fc02,fe00,fefe,fefe,0000,fefe,00fe,fefe,fefe,fcfc,fcfc,fefc,fe00,fefe,fefe,fefe,0000,00fe,fcfc,fcfc,fefe,fe00,fefe,fefe,fefe,00fe,fcfe,fefe,fefe,0000,fefe,fefe,fefe,fefe,fe00,0000,00fe,00fe,fefe,fefe,fefe,fefe,fefe,fe00,fe00,00fe,0000,fefe,fefe,fe00,fefe,fcfe,0000,fe00,fefe,00fe,fefe,fefe,fefe,fefe,00fe,0000,00fe,0000,fefe,fefe,fefe,00fe,fefe,fe00,fefe,00fe,fe00,fefe,fefe,fefe,fc00,fe00,00fe,fefe,00fe,fe00,fefe,fefe,0000,0000,0000,0000,0000,0000,fefe,fefe,fe00,fe00,00fe,fefe,0000,fefe,fefe,fefe,fefe,fc00,fefe,fefe,fefe,fefe,fefe,fefe,fefe,0000,fe00,00fe,fefe,fefe,fefe,fefe,fefe,00fe,0000,fefe,fe00,fefe,fe00,0000,fefe,0000,02fa,0000,00fe,0000,fefe,fe02,fe00,0000,0000,0200,f800,f800,0200,fefc,fcfa,fcfc,04fc,0200,fe00,fefe,fcfe,fafc,fafc,fafa,fcfe,0000,00fe,fcfc,00fe,fefc,fcfa,fefc,fcfc,fafe,00fe,fe00,fcfe,fcfe,fcfc,fafc,fefe,fcfe,fefe,0000,fa00,fcfc,fefe,fcfe,fcfe,fe00,fefe,fefc,fefc,fefe,fe00,fefe,fefe,fefe,00fe,fc00,0200,00fe,fefe,fefe,fefe,fefe,fefe,fefe,fefa,fefe,fcfc,fefc,fefe,fefe,fefe,fcfe,fefa,fefe,fe00,fefe,fefe,fcfe,fefe,fefe,fe00,fefe,fe02,fefe,fefe,00fe,0000,fefe,fe00,0000,fefc,fcfe,fefe,fefe,fefe,fe00,fe00,fefc,fefe,fefe,fefc,fefe,fefe,00fe,fefe,fefe,fcfe,0200,fcfe,fefe,fefe,00fe,00fe,00fe,fcfc,fcfe,fcfc,fcfc,fefc,fefe,fefe,fefe,00fe,fcfa,fefc,fefe,fefe,fefe,00fe,fe00,fe00,fefc,fc00,fe00,fefe,fefe,fefe,00fe,fefe,fefe,fc00,0000,fefc,fefe,fefe,fefe,00fe,00fe,fefc,fcfe,fefc,fefe,fefe,fefe,fefe,fefe,fefc,fcfe,fe02,fc00,fefe,fefe,00fe,fefe,fefe,fefe,00fe,0000,fefe,fefe,fefe,fe00,fefe,fefe,fefe,fefe,fe00,fefe,fefe,0000,fefe,fefe,fefe,fcfe,00fe,fefe,fefe,fefe,fe00,fefe,fefe,fa00,02fc,fe00,fefe,fefe,fefe,fefe,fefe,fefe,00fe,fcfc,fefe,fefe,fe00,00fe,00fe,fefe,00fe,0002,fefc,00fe,fefe,fefe,fefe,fefe,fefc,fe00,fe00,fefc,fefe,fefe,0000,fefe,fefe,02fe,0004,fefc,fefe,fefe,fefe,fefe,fc00,fe00,fe02,0000,fefe,fe00,fefe,00fe,fefe,00fe,0200,0202,fcfe,0000,fe00,fefe,fe00,fefe,0400,fe00,02fe,fe00,fefe,fefe,fefe,fefe,0000,0402,0204,fefa,fefe,fefe,fefe,fefe,00fe,0202,02fe,fe00,fefa,fe00,fefe,fc00,02fe,00fc,0202,fe04,fcfe,fcfe,fefe,0000,fe04,fefc,0000,0202,0000,fa04,fe00,fefe,0402,0200,0000,fefe,0000,0000,0000,0000,0000,0000,0000,0000,0000,0000,0000,0000,0000,0000,0000,0000,0000,0000,0000,0000,0000,0000,0000,0000,0000,0000,0000,0000,0000,0000,0000,0000,0000,0000,0000,0000,0000,0000,0000,0000,0000,0000,0000,0000,0000,0000,0000,0000,0000,0000,0000,0000,0000,0000,0000,0000,0000,0000,0000,0000,0000,0000,0000,0000,0000,0000,0000,0000,0000,0000,0000,0000,0000,0000,0000,0000,0000,0000,0000,0000,0000,0000,0000,0000,0000,0000,0000,0000,0000,0000,0000,0000,0000,0000,0000,0000,0000,0000,0000,0000,0000,0000,0000,0000,0000,0000,0000,0000,0000,0000,0000,0000,0000,0000,0000,0000,0000,0000,0000,0000,0000,0000,0000,0000,0000,0000,0000,0000,0000,0000,0000,0000,0000,0000,0000,0000,0000,0000,0000,0000,0000,0000,0000,0000,0000,0000,0000,0000,0000,0000,0000,0000,0000,0000,0000,0000,0000,0000,0000,0000,0000,0000,0000,0000,0000,0000,0000,0000,0000,0000,0000,0000,0000,0000,0000,0000,0000,0000,0000,0000,0000,0000,0000,0000,0000,0000,0000,0000,0000,0000,0000,0000,0000,0000,0000,0000,0000,0000,0000,0000,0000,0000,0000,0000,0000,0000,0000,0000,0000,0000,0000,0000,0000,0000,0000,0000,0000,0000,0000,0000,0000,0000,0000,0000,0000,0000,0000,0000,0000,0000,0000,0000,0000,0000,0000,0000,0000,0000,0000,0000,0000,0000,0000,0000,0000,0000,0000,0000,0000,0000,0000,0000,0000,0000,0000,0000,0000,0000,0000,0000,0000,0000,0000,0000,0000,0000,0000,0000,0000,0000,0000,0000,0000,0000,0000,0000,0000,0000,0000,0000,0000,0000,0000,0000,0000,0000,0000,0000,0000,0000,0000,0000,0000,0000,0000,0000,0000,0000,0000,0000,0000,0000,0000,0000,0000,0000,0000,0000,0000,0000,0000,0000,0000,0000,0000,0000,0000,0000,0000,0000,0000,0000,0000,0000,0000,0000,0000,0000,0000,0000,0000,0000,0000,0000,0000,0000,0000,0000,0000,0000,0000,0000,0000,0000,0000,0000,0000,0000,0000,0000,0000,0000,0000,0000,0000,0000,0000,0000,0000,0000,0000,0000,0000,0000,0000,0000,0000,0000,0000,0000,0000,0000,0000,0000,0000,0000,0000,0000,0000,0000,0000,0000,0000,0000,0000,0000,0000,0000,0000,0000,0000,0000,0000,0000,0000,0000,0000,0000,0000,0000,0000,0000,0000,0000,0000,0000,0000,0000,0000,0000,0000,0000,0000,0000,0000,0000,0000,0000,0000,0000,0000,0000,0000,0000,0000,0000,0000,0000,0000,0000,0000,0000,0000,0000,0000,0000,0000,0000,0000,0000,0000,0000,0000,0000,0000,0000,0000,
00fe,fcfc,fa00,fefe,00fc,fcfa,fcfe,0600,0004,fefa,0000,fafe,f8fa,fefc,f8fc,00fe,00fe,fa00,fcfc,faf6,fcfe,fefe,fefe,fefc,fefa,0204,fcfa,fefa,fafe,fefc,fefc,fefc,fefc,fcfc,fe04,fcfa,fefe,fcfa,fefe,fefe,fefc,fefe,faf8,00fe,fafc,fafc,00fe,fcfc,fefe,fe00,fefe,fe02,fafe,0000,fefc,fcfe,fcfc,0000,fcfc,00fe,fefe,0400,0002,fe00,fcfc,fefc,fe00,00fe,fefe,0002,0204,fefe,fcfc,fefc,fefe,fefc,fe04,fcfc,0202,fe00,fcfa,fcfc,fe00,fefe,fcfa,fafe,02fc,fefe,fcfc,fcfc,fefe,fefe,fefc,fafa,fc00,fefc,0000,fcfc,fefe,fefe,fcfe,fefe,0002,00fe,0002,fefe,fcfc,fefe,fefe,fcfe,fc02,fefe,0200,0000,fefe,fcfc,00fe,fefc,00fa,fc00,0002,0002,00fe,fcfe,fefe,fe00,fefe,fcfe,faf8,00fe,0000,fe00,fefc,00fe,fc00,fe00,fafc,fcf8,0404,0202,0000,00fe,fefe,fefe,fe02,fefc,00fc,0404,0202,fefe,fefe,fe00,fefe,fa00,fafc,0200,0204,fefe,fefe,fefe,fefe,0200,fafa,fafc,0200,0000,fcfe,fefe,fefe,fefe,fe00,fafa,fefc,0200,fefe,fefe,fefe,fefe,04fe,fcfe,fcfc,00fc,0000,fefe,fefe,fefe,fefe,0000,0000,fefe,0000,fcfe,fefe,fefe,fefe,fafa,00fe,0000,fe00,0404,fcfc,fefe,fefe,fefe,fcfe,fefc,fefc,0200,fe02,fcfc,fefe,fefc,fe00,fcfc,fe00,fefe,0404,fcfc,fefc,fefe,fefe,fe00,fcfc,fefe,0000,0204,fcfe,fe00,fefe,0000,fe00,fefe,0000,0402,fe00,fcfe,fcfe,00fe,fe00,fcfc,0000,0402,0808,fcfe,fefe,fefe,fcfe,fcfc,fcfc,0000,0202,fc00,fcfe,fefe,fc00,fefe,fefc,fcfc,0000,0202,fefc,fefe,0000,fcfe,fefe,fcfc,fefe,0200,fc00,fefc,fefe,0004,0000,fefe,fefc,fe00,0000,fe02,fefe,04fc,0000,0000,00fe,fefc,fe02,f8fe,fcfe,0000,0202,f800,fcfe,fa00,fafc,f4f8,fefa,fefa,0202,fcfc,faf8,0200,f6fc,f8fe,f8f8,fcfc,0002,0204,00fc,fe00,0002,fefc,fcfc,fafa,fefc,04fe,fc04,fe00,00fe,fa00,fe00,0000,fcfc,fe00,f802,f604,fefe,0002,0000,0204,fcfe,0002,0600,fcfe,fefc,0004,0204,0202,0002,00fa,fefe,0600,fefc,0402,0402,0200,fe00,0000,0002,0602,fe00,fefc,fe00,0204,0002,fefc,0200,06fe,0004,fe00,0402,0202,0200,fe00,fefe,0000,0000,0402,fe00,02fe,0202,0202,fefc,fe04,fe02,04fe,fefc,fcfe,0004,0002,fe00,0400,00fc,fa00,fc02,fefc,00fc,fefc,0000,fe00,0000,fe06,06fc,fefc,fcfc,fe00,fe00,0000,0000,00fc,fe02,0002,fcfa,fefc,0000,00fe,fcfe,fcfe,00fc,0008,fefc,fafc,0000,0202,0002,00fe,fefe,fc02,0000,fcfc,fcfa,0202,0002,fefe,fc00,fe02,0200,fefe,fafc,fefc,0202,fefc,00fe,fe00,fafc,fcfe,fcfe,fcfc,fefe,fefe,fcfc,fefe,0000,0004,fc00,fcfc,fcfc,0000,fefc,fefc,fe02,00fe,0602,00fe,fcfe,fefc,fcfe,fcfc,fe00,00fc,fa06,0406,fefe,fefe,0000,fcfe,00fe,00fe,0200,00fe,fc00,fefc,00fe,fefe,fcfc,fe00,f8fe,0200,fe00,fcfc,fefc,fefe,fefc,fe00,04fc,0000,00fe,fcfc,fcfe,fefe,fefc,fefe,fefe,fcfc,0002,fefc,fcfc,fefe,fc00,fefc,fefc,00fe,fc00,fa02,fefc,fcfc,fefe,fcfc,fe00,02fc,02fa,0604,fafe,fefc,fefc,fefe,fefc,fafc,fe00,0600,fe00,00fc,fcfc,fefe,fcfc,fefe,fefa,0600,0800,04fc,fcfe,fefe,fcfe,00fe,fefe,0600,0000,0402,fe04,fcfe,fefe,fefe,fe00,00fe,0202,0006,02fc,fe00,fefa,fefe,04fe,fefe,0400,0600,0002,04fe,0004,0202,fefe,00fe,0202,0202,0000,fc00,0202,0000,0200,fe06,fafe,00fa,0004,fc00,fa08,0402,02fe,0600,0202,fe02,fefc,0202,0000,0000,0000,0000,0000,0000,0000,0000,0000,0000,0000,0000,0000,0000,0000,0000,0000,0000,0000,0000,0000,0000,0000,0000,0000,0000,0000,0000,0000,0000,0000,0000,0000,0000,0000,0000,0000,0000,0000,0000,0000,0000,0000,0000,0000,0000,0000,0000,0000,0000,0000,0000,0000,0000,0000,0000,0000,0000,0000,0000,0000,0000,0000,0000,0000,0000,0000,0000,0000,0000,0000,0000,0000,0000,0000,0000,0000,0000,0000,0000,0000,0000,0000,0000,0000,0000,0000,0000,0000,0000,0000,0000,0000,0000,0000,0000,0000,0000,0000,0000,0000,0000,0000,0000,0000,0000,0000,0000,0000,0000,0000,0000,0000,0000,0000,0000,0000,0000,0000,0000,0000,0000,0000,0000,0000,0000,0000,0000,0000,0000,0000,0000,0000,0000,0000,0000,0000,0000,0000,0000,0000,0000,0000,0000,0000,0000,0000,0000,0000,0000,0000,0000,0000,0000,0000,0000,0000,0000,0000,0000,0000,0000,0000,0000,0000,0000,0000,0000,0000,0000,0000,0000,0000,0000,0000,0000,0000,0000,0000,0000,0000,0000,0000,0000,0000,0000,0000,0000,0000,0000,0000,0000,0000,0000,0000,0000,0000,0000,0000,0000,0000,0000,0000,0000,0000,0000,0000,0000,0000,0000,0000,0000,0000,0000,0000,0000,0000,0000,0000,0000,0000,0000,0000,0000,0000,0000,0000,0000,0000,0000,0000,0000,0000,0000,0000,0000,0000,0000,0000,0000,0000,0000,0000,0000,0000,0000,0000,0000,0000,0000,0000,0000,0000,0000,0000,0000,0000,0000,0000,0000,0000,0000,0000,0000,0000,0000,0000,0000,0000,0000,0000,0000,0000,0000,0000,0000,0000,0000,0000,0000,0000,0000,0000,0000,0000,0000,0000,0000,0000,0000,0000,0000,0000,0000,0000,0000,0000,0000,0000,0000,0000,0000,0000,0000,0000,0000,0000,0000,0000,0000,0000,0000,0000,0000,0000,0000,0000,0000,0000,0000,0000,0000,0000,0000,0000,0000,0000,0000,0000,0000,0000,0000,0000,0000,0000,0000,0000,0000,0000,0000,0000,0000,0000,0000,0000,0000,0000,0000,0000,0000,0000,0000,0000,0000,0000,0000,0000,0000,0000,0000,0000,0000,0000,0000,0000,0000,0000,0000,0000,0000,0000,0000,0000,0000,0000,0000,0000,0000,0000,0000,0000,0000,0000,0000,0000,0000,0000,0000,0000,0000,0000,0000,0000,0000,0000,0000,0000,0000,0000,0000,0000,0000,0000,0000,0000,0000,0000,0000,0000,0000,0000,0000,0000,0000,0000,0000,0000,0000,0000,0000,0000,0000,0000,0000,0000,0000,0000,0000,0000,0000,0000,0000,0000,0000,0000,0000,0000,0000,0000,0000,0000,0000,0000,0000,0000,0000,
0000,fc00,fcfc,0000,fefe,fcfc,fe00,0000,0602,fa00,fefe,fefe,fefe,fefe,fefc,fefc,0000,fe00,00fe,fefc,fe00,00fe,fefe,fefe,fefc,fefe,fcfe,fcfc,fe00,fe00,fefe,fefe,fcfe,fefe,fe02,fefe,fefe,fefc,fe00,00fe,fefe,fefe,fcf8,fe00,fefc,fefe,fe00,fefe,fefe,fefe,fefe,fe00,fc00,0000,00fe,fe00,fefe,fefe,fefc,0000,0002,0000,0000,0000,fefe,fefe,fefe,00fe,0000,0002,fefe,0000,0000,fefe,fefe,fefc,fe02,0000,0000,0000,00fe,fefe,fefe,fefe,fcfc,fefe,0202,0000,fe00,fe00,fefe,fefe,fcfe,fefc,0000,fefe,00fe,fefe,fefe,fefc,fefe,fcfc,0000,00fe,00fe,0000,00fe,fefe,fefe,fefe,fe02,fe00,0000,00fe,fefe,fefe,fefc,fefe,fefc,0000,fe00,fefe,fefe,fefe,fefe,fefe,fefe,fefc,fcfc,fe00,fefe,fefe,fefe,fefe,fefe,00fe,fefe,fcfe,fefe,fefe,fefe,fefe,fefe,fefe,fc00,fefe,fcfe,fefe,fefe,fefe,fefe,fefe,fe00,fc00,fe00,fefc,fefe,fefe,fefe,00fe,fefe,fe00,fcfe,fcfe,fefe,fefe,fefe,fefe,fefe,00fe,fefe,fefc,fefc,00fe,fefe,fefe,fefe,fefe,fefe,fcfc,fefe,fefe,fefe,fefe,fefe,0000,0000,fefe,0000,0000,fefe,fefe,fefe,fefe,fe00,fefe,0000,0000,fefe,fefe,fefe,fefe,fe00,0000,fefc,fe00,00fe,fefe,fefe,fefe,00fe,fe00,fe00,0000,fe00,fcfe,fefe,fefe,00fe,fefe,fefe,fe00,fe00,fefe,fefe,fefe,fefe,fe00,fefe,fe00,0002,00fe,fefe,fefe,fefe,fefe,fefe,00fe,0000,0000,fe00,fefe,fefe,fefe,0000,fefe,fe00,00fe,fe00,fefe,fefe,fefe,fefe,00fe,fe00,fefe,fefe,fefe,fefe,fefe,fcfc,fe00,0000,fe00,00fe,fefe,fefe,fefe,00fe,fefe,fe00,0204,fe00,00fe,fefe,fefe,00fe,fefc,0000,02fe,0000,0000,0000,fefe,0000,fc00,0000,fe00,0000,f604,f802,fc02,fefc,faf6,fafa,02fa,0000,02fe,fafe,fcfc,f8fa,f8fa,fafa,fefc,0000,fefc,fcfc,00fe,fcfc,fcfa,fcfc,fcfc,fcfa,fefc,fc00,fafa,fcfe,fcfc,fcfc,fefc,fcfc,0000,fefe,fc00,fcfc,fc00,fcfc,fefe,fefe,fefe,fefa,fefe,00fe,0000,fefe,fefe,fe00,fcfe,fafe,0400,0000,fefe,fefe,fefe,00fe,fefe,fcfc,fef8,fefc,fefc,fefc,00fe,fefe,0000,fcfe,fefc,fefe,fe00,fe00,fefe,00fe,00fe,fefe,00fe,fcfc,fe00,fefe,fe00,0000,0000,fefe,fe00,fcfe,fcfa,fcfc,00fe,fefe,fefe,0000,fe00,00fc,fcfe,fefe,fefc,fefe,fe00,00fe,fefe,fcfe,fcfe,0400,fcfe,fefe,fefe,fefe,fe00,fefe,fcfc,fafe,fafc,fcfc,fefe,fefe,fefe,fefe,00fe,fefa,fcfe,fefc,fefe,fefe,fefe,fe00,fefe,fcfc,00fc,fefc,fefc,fefe,fefe,fefe,fefe,fcfe,fcfe,fcfe,fefc,fefe,fefe,fefe,fefe,fefe,fefc,fafe,fcfc,fefc,fefe,fefe,fefe,fefe,fefe,fefe,0202,fcfe,fefe,fefe,fefe,fefe,fefe,fefe,0000,fe00,00fe,0000,fefe,fe00,fefe,00fe,00fc,fc00,fe00,00fe,fefe,fefe,fefe,fefe,fefe,fefe,fefe,fefe,fe00,fefe,fefe,fefe,00fe,fa00,0000,fefe,fefe,fefe,fefe,fe00,fefe,fefe,fefc,fcfc,fefe,fefe,fefe,fefe,0000,fefc,fe00,fe04,fefc,fefe,fefe,fefe,00fe,00fe,00fe,fcfc,fefe,fefe,fefe,fefe,fefe,fe00,fefe,0000,0002,fefe,fefe,fefe,fefe,fefe,fefe,fe00,02fe,fefe,fefc,fefe,fefe,fefe,fefe,00fc,0200,0000,fcfc,fefe,fefe,fefe,fefe,fefe,02fe,fc02,fe00,fe00,fefe,fefe,fefe,0000,fefe,0202,0004,fefc,fcfe,fefe,fefe,00fe,00fe,fe02,00fe,0200,fefe,00fe,fe00,fefe,02fe,02fe,fe02,0004,fe00,fa00,0000,fe02,fc02,fcfe,fefe,0402,fe02,fc08,fefe,fefe,0202,fe00,00fe,02fe,0002,0000,0000,0000,0000,0000,0000,0000,0000,0000,0000,0000,0000,0000,0000,0000,0000,0000,0000,0000,0000,0000,0000,0000,0000,0000,0000,0000,0000,0000,0000,0000,0000,0000,0000,0000,0000,0000,0000,0000,0000,0000,0000,0000,0000,0000,0000,0000,0000,0000,0000,0000,0000,0000,0000,0000,0000,0000,0000,0000,0000,0000,0000,0000,0000,0000,0000,0000,0000,0000,0000,0000,0000,0000,0000,0000,0000,0000,0000,0000,0000,0000,0000,0000,0000,0000,0000,0000,0000,0000,0000,0000,0000,0000,0000,0000,0000,0000,0000,0000,0000,0000,0000,0000,0000,0000,0000,0000,0000,0000,0000,0000,0000,0000,0000,0000,0000,0000,0000,0000,0000,0000,0000,0000,0000,0000,0000,0000,0000,0000,0000,0000,0000,0000,0000,0000,0000,0000,0000,0000,0000,0000,0000,0000,0000,0000,0000,0000,0000,0000,0000,0000,0000,0000,0000,0000,0000,0000,0000,0000,0000,0000,0000,0000,0000,0000,0000,0000,0000,0000,0000,0000,0000,0000,0000,0000,0000,0000,0000,0000,0000,0000,0000,0000,0000,0000,0000,0000,0000,0000,0000,0000,0000,0000,0000,0000,0000,0000,0000,0000,0000,0000,0000,0000,0000,0000,0000,0000,0000,0000,0000,0000,0000,0000,0000,0000,0000,0000,0000,0000,0000,0000,0000,0000,0000,0000,0000,0000,0000,0000,0000,0000,0000,0000,0000,0000,0000,0000,0000,0000,0000,0000,0000,0000,0000,0000,0000,0000,0000,0000,0000,0000,0000,0000,0000,0000,0000,0000,0000,0000,0000,0000,0000,0000,0000,0000,0000,0000,0000,0000,0000,0000,0000,0000,0000,0000,0000,0000,0000,0000,0000,0000,0000,0000,0000,0000,0000,0000,0000,0000,0000,0000,0000,0000,0000,0000,0000,0000,0000,0000,0000,0000,0000,0000,0000,0000,0000,0000,0000,0000,0000,0000,0000,0000,0000,0000,0000,0000,0000,0000,0000,0000,0000,0000,0000,0000,0000,0000,0000,0000,0000,0000,0000,0000,0000,0000,0000,0000,0000,0000,0000,0000,0000,0000,0000,0000,0000,0000,0000,0000,0000,0000,0000,0000,0000,0000,0000,0000,0000,0000,0000,0000,0000,0000,0000,0000,0000,0000,0000,0000,0000,0000,0000,0000,0000,0000,0000,0000,0000,0000,0000,0000,0000,0000,0000,0000,0000,0000,0000,0000,0000,0000,0000,0000,0000,0000,0000,0000,0000,0000,0000,0000,0000,0000,0000,0000,0000,0000,0000,0000,0000,0000,0000,0000,0000,0000,0000,0000,0000,0000,0000,0000,0000,0000,0000,0000,0000,0000,0000,0000,0000,0000,0000,0000,0000,0000,0000,0000,0000,0000,0000,0000,0000,0000,0000,0000,0000,
0000,fc00,fcfc,0000,fefe,fefe,fe00,0200,0602,fc00,fefe,fafe,fefe,fe00,fefc,fefa,0000,fc02,fefc,fcfc,fe00,fefe,fefe,fefe,fefe,0002,fefe,fcfc,fe00,fefe,fefe,fefe,fcfe,fcfc,fe02,fcfc,fcfe,fefe,fefe,fefe,fefe,fefe,fcf8,fe02,fcfc,fefe,fefe,fcfe,fefe,fe00,fefe,0002,fefe,fefc,00fe,fefe,fefe,fefe,fefe,0202,0204,00fe,0200,0000,fcfe,fefe,fefe,00fe,0000,0202,fe00,fe00,fefe,fefe,fefe,fcfc,0002,0200,0002,0000,00fe,fefe,fefe,fefc,fcfc,fe00,0404,0002,fe00,fefe,fefe,fefe,fefe,fcfc,0202,00fe,00fe,fefe,fefe,fefe,fcfe,fcfc,0002,0000,00fe,0000,fefe,fefe,fefe,fefe,0006,fefe,0200,00fe,0000,fefe,fefc,fefc,fefc,0202,0000,00fe,fe00,fefe,fefe,fefe,fefe,00fe,fcfc,0000,fefe,fefe,fefe,fefe,fefe,00fe,fefe,fefe,fefe,fefe,fefe,00fe,fefe,00fe,fc02,fefc,fcfe,fefe,fefe,fefe,fefe,fefe,fefe,fc00,fe00,fefe,fefe,fefe,fefe,00fe,fefe,fefe,fcfc,fcfe,fefc,fefe,fefc,fefe,fefe,fefe,fefe,fcfc,fefc,fefe,fefe,fefe,fefe,fefe,fefe,fcfc,fefe,00fe,fefe,fefe,fefe,fe00,00fe,fcfc,0000,0000,00fe,fefe,fefe,00fe,fefe,fcfc,0000,0002,0000,fefe,fefe,fefe,fefe,fe00,fcfc,0000,0000,fe00,fefe,fefe,00fe,fefe,fe00,00fe,0200,fe00,fefe,fefe,fefe,fefe,00fe,fcfe,0000,0000,fe00,fefe,fefe,fefe,fefe,fe00,0000,0000,fefe,0000,fe00,fefe,fefe,0000,0000,0202,0000,0000,0000,fefc,00fe,fefe,fefe,00fe,0000,fe00,fefe,fcfe,fefe,fefe,fc00,0000,00fe,fefe,fefe,fefe,fefc,fefe,0000,fefe,00fe,fe00,fefe,fefe,fcfe,fefe,fe00,0006,0000,0000,00fe,fe00,0000,fefe,fe00,02fa,0002,0000,fefe,fe00,0002,fe02,0000,0000,0002,f602,f802,00fe,00fc,fcf8,fafa,00fa,fe02,fefe,fefe,fe00,f8fc,f8fc,fafa,fefe,0000,fafc,fcfc,fefc,fcfe,fefc,fefe,fcfc,fcfc,02fe,fc00,fcfc,fa00,fcfc,fcfe,fefc,fcfc,00fe,00fe,fa00,fcfc,fcfe,fcfe,fe00,fe00,fe00,fcfa,fcfc,00fe,0000,0000,0000,fe00,fefe,fc00,0200,02fe,0002,00fe,00fe,fe00,fe00,fefe,fcf8,fefc,00fe,00fe,00fe,fefe,fe00,fcfe,fefa,fefe,fe00,0000,0002,fe00,0000,fefe,0000,fefc,fc00,0000,0000,0000,0000,fe00,fe00,0000,fcf8,fefc,00fe,fe00,00fe,0000,fe00,fefa,fc00,fefe,fefc,fefe,0000,0000,fe00,fefe,fc00,02fe,fcfe,fefe,00fe,fefe,0000,00fe,fcfc,f800,fafc,fcfc,fefc,fefe,00fe,fefe,fefe,fef8,fcfe,fefe,fe00,fefe,fefe,fefe,fe00,fcfe,fefc,fefe,fefc,fcfe,fefe,fefe,fefe,fcfe,fcfe,fe00,fcfa,fcfe,fefc,fefe,fefe,fefe,fefe,fe00,fefc,fcfe,fcfc,fefe,fefe,fefe,fefe,fe00,0002,fcfe,fe00,fcfe,fefe,fefe,fefe,fe00,02fe,0000,00fe,fefe,fefe,fefe,fefe,00fe,00fc,fe00,fe02,fefe,fefe,fefe,fefe,fefe,fefe,fefc,0000,fe00,fefe,fefe,fefe,00fe,fefe,fa00,0000,fefe,fefe,fefe,fefe,fe00,fefe,fefc,fefe,fcfe,fefc,fefe,fefe,fefe,fefe,fefc,00fe,0004,fefe,fefc,fefe,fefe,fefe,fefe,fefe,fcfe,0002,fefe,fefe,fcfe,fefe,fefe,fefe,0000,fc02,fe00,fefe,fefc,fefe,fefe,fcfe,fe00,0200,0002,fefc,fefe,fefe,fefe,fefe,00fc,02fe,0400,fcfe,00fe,fefe,fefe,fefe,fefe,0600,fcfe,0200,fe00,fefe,fefe,fefe,0000,0000,0202,0202,00fc,fc00,fefc,fefe,fefe,fefe,0000,0200,0200,fefc,00fe,00fe,fefe,00fe,02fc,fe02,0004,fe00,fc00,fefe,0000,fe04,fafc,fe00,0402,fe00,fc0c,fefe,0000,0204,fe02,fefe,00fe,00fe,0000,0000,0000,0000,0000,0000,0000,0000,0000,0000,0000,0000,0000,0000,0000,0000,0000,0000,0000,0000,0000,0000,0000,0000,0000,0000,0000,0000,0000,0000,0000,0000,0000,0000,0000,0000,0000,0000,0000,0000,0000,0000,0000,0000,0000,0000,0000,0000,0000,0000,0000,0000,0000,0000,0000,0000,0000,0000,0000,0000,0000,0000,0000,0000,0000,0000,0000,0000,0000,0000,0000,0000,0000,0000,0000,0000,0000,0000,0000,0000,0000,0000,0000,0000,0000,0000,0000,0000,0000,0000,0000,0000,0000,0000,0000,0000,0000,0000,0000,0000,0000,0000,0000,0000,0000,0000,0000,0000,0000,0000,0000,0000,0000,0000,0000,0000,0000,0000,0000,0000,0000,0000,0000,0000,0000,0000,0000,0000,0000,0000,0000,0000,0000,0000,0000,0000,0000,0000,0000,0000,0000,0000,0000,0000,0000,0000,0000,0000,0000,0000,0000,0000,0000,0000,0000,0000,0000,0000,0000,0000,0000,0000,0000,0000,0000,0000,0000,0000,0000,0000,0000,0000,0000,0000,0000,0000,0000,0000,0000,0000,0000,0000,0000,0000,0000,0000,0000,0000,0000,0000,0000,0000,0000,0000,0000,0000,0000,0000,0000,0000,0000,0000,0000,0000,0000,0000,0000,0000,0000,0000,0000,0000,0000,0000,0000,0000,0000,0000,0000,0000,0000,0000,0000,0000,0000,0000,0000,0000,0000,0000,0000,0000,0000,0000,0000,0000,0000,0000,0000,0000,0000,0000,0000,0000,0000,0000,0000,0000,0000,0000,0000,0000,0000,0000,0000,0000,0000,0000,0000,0000,0000,0000,0000,0000,0000,0000,0000,0000,0000,0000,0000,0000,0000,0000,0000,0000,0000,0000,0000,0000,0000,0000,0000,0000,0000,0000,0000,0000,0000,0000,0000,0000,0000,0000,0000,0000,0000,0000,0000,0000,0000,0000,0000,0000,0000,0000,0000,0000,0000,0000,0000,0000,0000,0000,0000,0000,0000,0000,0000,0000,0000,0000,0000,0000,0000,0000,0000,0000,0000,0000,0000,0000,0000,0000,0000,0000,0000,0000,0000,0000,0000,0000,0000,0000,0000,0000,0000,0000,0000,0000,0000,0000,0000,0000,0000,0000,0000,0000,0000,0000,0000,0000,0000,0000,0000,0000,0000,0000,0000,0000,0000,0000,0000,0000,0000,0000,0000,0000,0000,0000,0000,0000,0000,0000,0000,0000,0000,0000,0000,0000,0000,0000,0000,0000,0000,0000,0000,0000,0000,0000,0000,0000,0000,0000,0000,0000,0000,0000,0000,0000,0000,0000,0000,0000,0000,0000,0000,0000,0000,0000,0000,0000,0000,0000,0000,0000,0000,0000,0000,0000,0000,0000,0000,0000,0000,0000,0000,0000,0000,0000,0000,0000,0000,0000,0000,0000,
02fe,fa02,f2f0,f6f0,f4f0,f2f2,faf2,0202,0406,f4fc,f0f2,f4f2,e2e6,ece8,e8ec,f6ec,00fc,f800,f2ec,f0ec,f4f6,ecea,f0ec,f8f2,fcfc,0004,f2fc,eaf0,fef8,f6fa,f2f2,f4ee,fafa,fefe,0204,eeee,00fa,0604,fafc,f6f6,fef6,02fa,0000,f0f6,f6f2,0a0a,0406,fc00,fcfa,0602,fe02,f800,f6f2,0c04,1014,060a,0202,080a,0a0a,fcfe,eeec,04fe,1618,1012,0a0a,0606,0c0c,0000,eeee,fafa,160e,1414,1014,0c0e,080a,0608,f0fc,f8f0,0e06,1214,140e,0a0c,0608,0804,0002,f4f2,0806,0a0c,0a08,0004,fcfc,080c,0002,f4f4,0402,0208,00fe,fcfe,fafa,0a06,0c0c,fcfa,fefc,0402,fafe,f8f8,fcfc,02fa,0a0a,f2fc,fcfa,080c,fc00,fc00,fefc,fc00,0408,0810,f2f4,0800,0608,0408,00fe,00fc,0602,0a00,f6fe,00fe,0608,0604,0202,fefc,0000,fe02,020c,f8f4,0602,0004,0000,fe00,0200,0202,04fe,f6fc,0608,0204,00fe,fe00,fefe,00fe,fefe,0204,f4f8,0202,fcfe,fefc,fcfc,fe04,0002,02fe,f8fe,06fe,fe02,fcfc,fafc,fcfa,00fe,00fe,0000,faf8,0204,faf8,fafc,fafc,fefc,fcfa,0000,fafa,04fe,0000,f6f8,faf6,faf8,fefc,0200,fa00,fafa,0002,fcfc,faf8,fafa,fcfa,0200,0002,f8f8,fef8,fcfc,f8fa,fafa,f8fc,02fe,0200,f8f6,fcfc,fe00,fafc,fcf8,fe02,fefe,0002,f802,f8f6,fcfc,0000,00fe,0202,0200,0400,fe02,f2f8,00fc,fcfe,fefe,0604,060a,0204,fe02,f8f8,fcf8,f8f8,f8f6,00fa,080c,0204,00fc,f8f6,fcf8,fefe,f6f6,f2f2,0400,fefc,fafa,02fc,fcfa,00fe,fcfc,fafa,fcfa,fefe,fefa,fefa,fe00,fe00,0000,fcfc,0000,fefe,f8fa,fcfc,02fe,0000,0000,fe00,00fe,0000,fafe,02f8,00fc,fefc,fefe,0002,0200,fe00,fc00,f6f8,f8fa,fefc,0000,00f6,0402,0202,0002,f6f6,fef6,f8f8,fe00,fe00,0000,fe02,08fe,f4f2,fefe,0600,0604,06f6,080e,06fc,f402,f8f6,0206,0404,0404,0004,02fc,0410,fe02,0004,0608,02fe,0a0a,0a06,0c0c,0200,0c02,0a06,0a0a,0808,0a06,100e,1610,0602,0200,0600,080e,0c0a,100e,1616,1818,1616,06f8,04fc,0c08,0e10,1212,1c16,1a1c,1c1c,0004,0402,0400,1414,1412,1612,1c1c,1a1e,0814,00fa,fefc,1412,1216,1412,1c1a,1214,040c,02fe,0206,1004,1414,0a0a,1010,0406,0200,02fc,f6fa,02fe,1214,0004,fefe,fcfe,fefa,f6f6,faf6,fefc,160e,020a,f2f2,f8f2,fafa,fa00,02fc,fefa,1004,060e,f4f8,f2f2,f6f6,0200,f4f6,faf6,fc00,0c10,f8f6,f4f6,f2f4,f8f6,f6fc,f4f4,fcf8,0a04,f4fe,f6f6,f4f6,f2f2,fcf8,fcf6,f6f0,0004,fe08,f6f4,f2f6,f0f2,f0f0,f8fc,f0f8,fefa,0400,f4f4,f6f6,f2f2,f0f0,f8f6,fcfa,f2ee,fefc,fc02,f4fa,f6f8,f6f6,f6f4,f8f8,fcfe,fcf6,0000,fcfe,fafa,faf8,f8fa,f8fa,fa00,f8f4,fefc,f6fc,fefe,00fc,fcfe,f8fa,fcfa,00fc,fafc,f6f4,fefa,fefc,fe00,fefe,f8f8,fefe,fcf6,00fe,f8fa,fefe,0200,0004,fafe,fafc,f4f8,0804,f6f6,fcf8,0202,0604,0004,fafe,faf4,f4f6,fa00,f6f4,fafa,0604,080a,0202,f8f8,f6f2,00fa,f4f6,f8f4,fefc,0a08,0606,fc00,e8f2,f8f4,0004,f6f6,f8f4,0400,0606,0000,f2f4,f4ee,fa00,f2fc,f4f2,fefe,fe00,0002,fcfc,ecee,faf2,0200,f6f4,f6f8,fcfe,fcfc,fcfa,f8f4,f6f2,0cfc,faf8,fcf2,faf2,fafa,f8f8,fef6,f8ee,fcfe,fcfa,fef6,f6fe,fafc,faf8,fef8,00fa,fcfa,fa08,f8fe,fcf6,faf8,fefe,f8fc,fe00,f6f4,fefa,f600,f8fe,f6f4,00fe,fcfc,fe02,00fc,fefa,fc02,fafc,fcf6,fcfa,02fc,fef8,fcfe,00f8,fefe,0400,f4fe,faf8,0004,faf6,fcf8,00fa,00fc,0a02,f600,faf4,f8f4,f4fa,fef8,f8fa,00fa,fefa,02fe,0000,0000,0000,0000,0000,0000,0000,0000,0000,0000,0000,0000,0000,0000,0000,0000,0000,0000,0000,0000,0000,0000,0000,0000,0000,0000,0000,0000,0000,0000,0000,0000,0000,0000,0000,0000,0000,0000,0000,0000,0000,0000,0000,0000,0000,0000,0000,0000,0000,0000,0000,0000,0000,0000,0000,0000,0000,0000,0000,0000,0000,0000,0000,0000,0000,0000,0000,0000,0000,0000,0000,0000,0000,0000,0000,0000,0000,0000,0000,0000,0000,0000,0000,0000,0000,0000,0000,0000,0000,0000,0000,0000,0000,0000,0000,0000,0000,0000,0000,0000,0000,0000,0000,0000,0000,0000,0000,0000,0000,0000,0000,0000,0000,0000,0000,0000,0000,0000,0000,0000,0000,0000,0000,0000,0000,0000,0000,0000,0000,0000,0000,0000,0000,0000,0000,0000,0000,0000,0000,0000,0000,0000,0000,0000,0000,0000,0000,0000,0000,0000,0000,0000,0000,0000,0000,0000,0000,0000,0000,0000,0000,0000,0000,0000,0000,0000,0000,0000,0000,0000,0000,0000,0000,0000,0000,0000,0000,0000,0000,0000,0000,0000,0000,0000,0000,0000,0000,0000,0000,0000,0000,0000,0000,0000,0000,0000,0000,0000,0000,0000,0000,0000,0000,0000,0000,0000,0000,0000,0000,0000,0000,0000,0000,0000,0000,0000,0000,0000,0000,0000,0000,0000,0000,0000,0000,0000,0000,0000,0000,0000,0000,0000,0000,0000,0000,0000,0000,0000,0000,0000,0000,0000,0000,0000,0000,0000,0000,0000,0000,0000,0000,0000,0000,0000,0000,0000,0000,0000,0000,0000,0000,0000,0000,0000,0000,0000,0000,0000,0000,0000,0000,0000,0000,0000,0000,0000,0000,0000,0000,0000,0000,0000,0000,0000,0000,0000,0000,0000,0000,0000,0000,0000,0000,0000,0000,0000,0000,0000,0000,0000,0000,0000,0000,0000,0000,0000,0000,0000,0000,0000,0000,0000,0000,0000,0000,0000,0000,0000,0000,0000,0000,0000,0000,0000,0000,0000,0000,0000,0000,0000,0000,0000,0000,0000,0000,0000,0000,0000,0000,0000,0000,0000,0000,0000,0000,0000,0000,0000,0000,0000,0000,0000,0000,0000,0000,0000,0000,0000,0000,0000,0000,0000,0000,0000,0000,0000,0000,0000,0000,0000,0000,0000,0000,0000,0000,0000,0000,0000,0000,0000,0000,0000,0000,0000,0000,0000,0000,0000,0000,0000,0000,0000,0000,0000,0000,0000,0000,0000,0000,0000,0000,0000,0000,0000,0000,0000,0000,0000,0000,0000,0000,0000,0000,0000,0000,0000,0000,0000,0000,0000,0000,0000,0000,0000,0000,0000,0000,0000,0000,0000,0000,0000,0000,0000,0000,0000,0000,0000,0000,0000,0000,0000,0000,0000,0000,0000,
0000,fcfe,fcfa,fe00,00fc,fcfc,fe00,0200,0202,0000,fefe,fafc,fcfe,fcfe,fcfa,fefa,fefe,fa00,00fc,fefc,0000,fefe,fcfe,fcfe,00fc,0200,fefc,fefe,fe02,00fe,fefe,fefc,fcfe,fefc,fe02,fefc,fefe,fefc,fefe,fefe,fcfe,fcfe,fcfa,fe00,fcfe,fefe,fefe,fcfe,fefe,fcfe,fefe,0002,fc00,fcfe,fefe,fefe,fefe,fefe,fefe,0200,0004,00fe,fefe,0000,fefc,fefe,fefe,00fe,0000,0000,fefe,fefe,fefe,fefc,fefe,fcfc,0002,0200,fe00,0000,fe00,fefe,fcfe,fcfe,fcfc,00fe,0202,0000,0000,fefe,fefe,fcfe,fcfe,fefc,0000,fe00,00fe,0000,fefe,fefe,fefe,fcfc,0000,0000,00fe,00fe,0000,00fe,fefe,fefe,fe04,fc00,00fe,00fe,fe00,fefe,fefe,fefe,00fa,0000,fefe,fefe,fefe,fefe,fe00,00fe,fefe,fefe,fcfe,0000,fefe,fefe,00fe,fefe,fefe,00fe,fefe,0000,0000,fefe,0000,fe00,fefe,fefe,fe00,02fe,0000,00fe,fefe,fefe,fefe,fefe,00fe,fe00,0004,fcfe,fefe,fefe,fefe,00fe,fefe,fe00,fefe,fcfe,fefe,fefe,fefe,fefe,fefe,fefe,fe00,fefe,fefc,fefe,fefe,fefe,fefe,fefe,00fe,fefe,fefe,fefe,00fe,fefe,fefe,fefe,00fe,0202,0202,fe00,0000,fefe,fefe,fe00,fefe,fefe,0202,0002,fe00,fe00,fefe,fefe,fefe,fefe,fefe,0002,0000,fe00,fe00,fefe,fefe,fefe,0000,0000,0000,fe00,00fe,fefe,fefe,fefe,fefe,fefe,0000,fefe,fefe,0000,fefe,fefe,fefe,0000,0000,0000,fefe,0000,0000,fefe,fefe,00fe,0002,0202,fe00,0000,0000,fefe,fefe,00fe,fefe,0000,0000,00fe,0000,fefe,fefe,fefe,fc00,00fe,fefe,fefe,fe00,fefe,fefe,fefe,0000,fe00,00fe,fefe,fefe,fcfe,fefe,fefe,00fe,00fe,fefe,fe00,fefe,fefe,00fe,fefc,0000,02f8,0000,00fe,fefe,fefe,fc00,fc00,00fe,fe00,0000,f800,fa00,02fe,fefc,faf8,fafa,00fa,fe00,fefe,fefe,fe00,f8fc,f8fc,fafa,fc00,0000,fcfc,fefe,00fe,fcfc,fefc,fefe,fcfc,fafc,00fe,fc00,fefe,fcfe,fcfc,fcfc,fefe,fefc,0200,fe00,fc00,fefc,fe00,fcfe,fefe,fe00,fefe,00fa,fcfa,00fe,0002,0000,0000,fe00,fefc,fe00,02fe,00fe,0000,00fe,fe00,0000,fefe,fcfc,fefa,fcfe,fcfe,00fc,fefe,fefe,0000,fcfe,fefa,fefc,0000,fe00,0000,00fe,fefe,fefe,00fe,00fc,fc02,00fe,00fe,0000,fe00,0000,fe00,0000,fcfa,fcfc,00fe,fefe,fefe,00fe,0000,fefa,fa00,fefe,fefc,fefe,fefe,00fe,fefe,fefe,fc00,02fe,fafe,fefe,fefc,fefe,fefe,00fe,fcfc,fa00,fafc,fcfc,fefc,fefc,fefe,fefe,fefe,fefa,fefa,fefe,fe00,fefe,fefe,fefe,0000,fcfe,fafe,fefc,fefe,fefe,fefe,fefe,fefe,fe00,fcfe,fe00,fefa,fefe,fcfe,fefe,fefe,00fe,fefe,fc00,fefc,fefc,fefc,fcfc,fefe,fefe,fefe,fefe,fe00,fe00,fe00,fcfe,fefe,fefe,00fe,fe00,00fc,0000,00fe,fefe,fefe,fefe,fefc,00fe,00fc,fc00,fe02,fefe,fefe,fefe,fefe,fefe,fefc,fefc,0000,fe00,fefe,fefe,fe00,fefe,fefe,f8fe,00fe,fc00,fefe,fefe,fefe,fefe,fe00,fcfc,fefc,fafe,fefe,fefe,fefe,fefe,00fe,fefc,fefe,0002,fefe,fefc,fefe,fefe,fefe,fefe,00fe,fcfe,fe02,fefc,fcfe,fefe,fefe,fcfe,fefe,00fe,fe04,fe00,fefe,fefc,fefe,fefe,fcfe,fefe,00fe,0002,fefc,fefe,fefe,fefe,fefe,00fe,0400,0000,fcfe,fefe,fefe,fefe,00fe,fefc,0200,fc00,00fe,fe00,fefe,fefe,00fe,0000,fefe,0202,0204,fef8,fc00,fefe,fefe,fefe,00fe,fc00,0200,0000,fefc,fefe,fefe,fcfe,00fe,02fc,0002,fe04,fcfe,fcfe,fefe,fe00,fe04,fcfc,fefe,0400,fafe,fa04,fefe,00fe,0400,fe02,00fe,00fc,04fe,0000,0000,0000,0000,0000,0000,0000,0000,0000,0000,0000,0000,0000,0000,0000,0000,0000,0000,0000,0000,0000,0000,0000,0000,0000,0000,0000,0000,0000,0000,0000,0000,0000,0000,0000,0000,0000,0000,0000,0000,0000,0000,0000,0000,0000,0000,0000,0000,0000,0000,0000,0000,0000,0000,0000,0000,0000,0000,0000,0000,0000,0000,0000,0000,0000,0000,0000,0000,0000,0000,0000,0000,0000,0000,0000,0000,0000,0000,0000,0000,0000,0000,0000,0000,0000,0000,0000,0000,0000,0000,0000,0000,0000,0000,0000,0000,0000,0000,0000,0000,0000,0000,0000,0000,0000,0000,0000,0000,0000,0000,0000,0000,0000,0000,0000,0000,0000,0000,0000,0000,0000,0000,0000,0000,0000,0000,0000,0000,0000,0000,0000,0000,0000,0000,0000,0000,0000,0000,0000,0000,0000,0000,0000,0000,0000,0000,0000,0000,0000,0000,0000,0000,0000,0000,0000,0000,0000,0000,0000,0000,0000,0000,0000,0000,0000,0000,0000,0000,0000,0000,0000,0000,0000,0000,0000,0000,0000,0000,0000,0000,0000,0000,0000,0000,0000,0000,0000,0000,0000,0000,0000,0000,0000,0000,0000,0000,0000,0000,0000,0000,0000,0000,0000,0000,0000,0000,0000,0000,0000,0000,0000,0000,0000,0000,0000,0000,0000,0000,0000,0000,0000,0000,0000,0000,0000,0000,0000,0000,0000,0000,0000,0000,0000,0000,0000,0000,0000,0000,0000,0000,0000,0000,0000,0000,0000,0000,0000,0000,0000,0000,0000,0000,0000,0000,0000,0000,0000,0000,0000,0000,0000,0000,0000,0000,0000,0000,0000,0000,0000,0000,0000,0000,0000,0000,0000,0000,0000,0000,0000,0000,0000,0000,0000,0000,0000,0000,0000,0000,0000,0000,0000,0000,0000,0000,0000,0000,0000,0000,0000,0000,0000,0000,0000,0000,0000,0000,0000,0000,0000,0000,0000,0000,0000,0000,0000,0000,0000,0000,0000,0000,0000,0000,0000,0000,0000,0000,0000,0000,0000,0000,0000,0000,0000,0000,0000,0000,0000,0000,0000,0000,0000,0000,0000,0000,0000,0000,0000,0000,0000,0000,0000,0000,0000,0000,0000,0000,0000,0000,0000,0000,0000,0000,0000,0000,0000,0000,0000,0000,0000,0000,0000,0000,0000,0000,0000,0000,0000,0000,0000,0000,0000,0000,0000,0000,0000,0000,0000,0000,0000,0000,0000,0000,0000,0000,0000,0000,0000,0000,0000,0000,0000,0000,0000,0000,0000,0000,0000,0000,0000,0000,0000,0000,0000,0000,0000,0000,0000,0000,0000,0000,0000,0000,0000,0000,0000,0000,0000,0000,0000,0000,0000,0000,0000,0000,0000,0000,0000,0000,0000,0000,0000,0000,0000,0000,0000,0000,
0000,fc00,fcfe,04fc,fe00,fe00,fcfe,fc00,0604,fe02,0000,0408,0202,fe00,00fe,00fa,00fe,fc02,02fe,04fe,fe00,00fc,fe00,fefe,fcfc,fefe,fefa,fcfa,fc04,fcfe,fefe,fefe,fcfc,fcfc,fafa,fefa,0002,fefe,fcfc,0202,fefe,fefc,faf8,fefe,fcfc,fe00,fcfe,fe00,fe00,0000,fefe,fe00,fa00,fcfc,fefe,00fe,00fc,00fe,00fc,00fc,fc00,fafa,fe00,00fe,fefe,00fe,fe00,fcfc,fefe,fefe,fefc,fe00,fefe,fcfa,0200,fe00,fe04,fefc,00fe,0000,fe00,fc00,fefe,0200,fc00,fefe,0200,0002,fe02,0000,fefe,fefe,fe02,f8fc,0202,0002,0000,fefe,fe00,fefe,00fe,fafe,00fe,0004,0202,00fe,fefe,fefe,fc00,fe02,fe02,fafc,0200,fefc,fe00,fefc,0202,0202,fcfc,0000,0000,fe00,fefe,fefe,0200,0000,fefc,fe06,fafa,0200,fe00,fefc,fefc,0202,fc00,00fe,fe00,fcfa,0206,00fe,0002,0000,fc00,00fc,fc02,fcfa,0200,0404,0200,0002,00fc,fcfa,fcfe,fc00,fafe,0200,0404,0202,fcfe,fcfe,fefc,02fe,fcfc,fcfc,0402,0202,fefe,0200,fcfc,fefe,0002,fcfc,fefe,0002,0002,00fe,fafc,fefe,fe00,fafa,fefe,00fe,0000,fe00,fe00,fcfa,fefc,fafc,00fe,0000,fefe,fe00,fe00,fafc,fcfe,fefc,00fe,0002,fe00,00fe,00fe,fefe,fefe,fefc,fafc,fe00,0200,fcfc,0000,fcfc,fefe,fcfe,fc00,00fc,fefe,fe00,00fe,fe00,00fe,fefe,fcfc,fcfc,fcfc,fc00,fcfc,0000,fefe,fefe,fcfe,fcfe,00fe,00fe,fcfc,fefe,0202,fcfe,fcfc,fcfe,fefe,0000,fefe,0202,0202,0002,fafc,fefe,fcfe,00fe,fefe,00fe,fefe,0000,fefe,fefe,fafe,00fe,fefe,fefc,0000,fe00,fc00,fefc,0002,fefe,00fe,fefe,fefc,fe00,fcf8,fcfc,0002,fefe,fe00,0000,fcfe,fefe,f8fa,fefc,0200,02f6,fefe,00fe,fefe,fcfc,fa00,fcfc,fefa,fc04,0002,fc06,fa02,0602,02fe,00f6,fafa,02f8,0000,00fc,06fc,fefe,f6fe,f6f8,fafa,f8fc,0206,fe00,fafc,fe00,02fe,00fa,faf6,fcfc,fa00,00fe,fefe,fcfc,fc02,fefe,f8fc,00fe,fafc,00fe,04fe,fe00,fafa,fefe,fafa,0200,fcfe,0004,00fa,fefe,fe00,fafa,fe00,fefe,0002,0000,fc04,0800,0000,fcfe,fefe,fefe,0402,02fe,0004,fcf8,fafc,fc00,0200,fefe,0000,0000,fefe,f8fe,fc00,0000,0200,0204,0000,0002,00fe,fe00,fcfc,fefc,fe00,0404,0000,00fe,fefc,0004,fefe,02fa,00fe,00fe,0002,fefe,00fe,0200,fefe,fe00,0000,fefc,0002,fcfe,0000,fefc,0200,fa00,08fe,fe00,00fe,0000,fefc,0000,0606,0002,00fc,02fc,fafa,0000,fefe,0200,0000,0006,fcfc,fefa,0000,fe00,00fe,00fe,0000,0400,fcfc,f600,fe02,fcfe,fefe,0202,0202,0202,fcfe,fc02,0202,0202,fefe,0000,0202,0000,fefe,fe00,04fc,fefe,fe00,fefe,0200,0202,fe00,fefc,02fe,060a,0002,0000,fefc,00fe,0000,00fe,fefe,00fe,0000,0000,fefe,fefc,0200,00fe,00fe,fefc,fefc,fe02,fefc,fefe,00fe,fefe,fefe,00fe,fcfc,00fe,fefe,00fe,fefe,0000,0000,fefc,fafc,0200,fe02,fefe,00fe,fefe,fefe,fe00,fefc,fe02,fc04,fefa,fc00,fcfe,00fe,fefc,fefe,fefe,0006,fafc,fefc,fcfe,fefc,fefe,fc02,02fc,f6fe,fcf8,fefe,fefe,fefc,00fe,0000,0000,0204,0404,fafc,00fe,fcfe,fefe,fe00,fefe,0000,fc02,fefe,fe00,fcfe,fefc,fefe,0002,fe00,04fc,0202,fefe,00fe,fefe,fefc,0002,fe00,0404,04fc,0000,0002,fefe,00fe,fcfe,0000,0000,0802,060a,fefa,fe02,fe00,fefe,fe00,fe00,02fe,fefe,fefe,00f8,fc02,0000,fe00,0400,fcfc,fe02,0004,00fe,02fe,00fe,0002,fe02,faf8,fe00,0002,fcfc,fc04,0200,00fe,0202,fe00,0206,00fe,0000,0000,0000,0000,0000,0000,0000,0000,0000,0000,0000,0000,0000,0000,0000,0000,0000,0000,0000,0000,0000,0000,0000,0000,0000,0000,0000,0000,0000,0000,0000,0000,0000,0000,0000,0000,0000,0000,0000,0000,0000,0000,0000,0000,0000,0000,0000,0000,0000,0000,0000,0000,0000,0000,0000,0000,0000,0000,0000,0000,0000,0000,0000,0000,0000,0000,0000,0000,0000,0000,0000,0000,0000,0000,0000,0000,0000,0000,0000,0000,0000,0000,0000,0000,0000,0000,0000,0000,0000,0000,0000,0000,0000,0000,0000,0000,0000,0000,0000,0000,0000,0000,0000,0000,0000,0000,0000,0000,0000,0000,0000,0000,0000,0000,0000,0000,0000,0000,0000,0000,0000,0000,0000,0000,0000,0000,0000,0000,0000,0000,0000,0000,0000,0000,0000,0000,0000,0000,0000,0000,0000,0000,0000,0000,0000,0000,0000,0000,0000,0000,0000,0000,0000,0000,0000,0000,0000,0000,0000,0000,0000,0000,0000,0000,0000,0000,0000,0000,0000,0000,0000,0000,0000,0000,0000,0000,0000,0000,0000,0000,0000,0000,0000,0000,0000,0000,0000,0000,0000,0000,0000,0000,0000,0000,0000,0000,0000,0000,0000,0000,0000,0000,0000,0000,0000,0000,0000,0000,0000,0000,0000,0000,0000,0000,0000,0000,0000,0000,0000,0000,0000,0000,0000,0000,0000,0000,0000,0000,0000,0000,0000,0000,0000,0000,0000,0000,0000,0000,0000,0000,0000,0000,0000,0000,0000,0000,0000,0000,0000,0000,0000,0000,0000,0000,0000,0000,0000,0000,0000,0000,0000,0000,0000,0000,0000,0000,0000,0000,0000,0000,0000,0000,0000,0000,0000,0000,0000,0000,0000,0000,0000,0000,0000,0000,0000,0000,0000,0000,0000,0000,0000,0000,0000,0000,0000,0000,0000,0000,0000,0000,0000,0000,0000,0000,0000,0000,0000,0000,0000,0000,0000,0000,0000,0000,0000,0000,0000,0000,0000,0000,0000,0000,0000,0000,0000,0000,0000,0000,0000,0000,0000,0000,0000,0000,0000,0000,0000,0000,0000,0000,0000,0000,0000,0000,0000,0000,0000,0000,0000,0000,0000,0000,0000,0000,0000,0000,0000,0000,0000,0000,0000,0000,0000,0000,0000,0000,0000,0000,0000,0000,0000,0000,0000,0000,0000,0000,0000,0000,0000,0000,0000,0000,0000,0000,0000,0000,0000,0000,0000,0000,0000,0000,0000,0000,0000,0000,0000,0000,0000,0000,0000,0000,0000,0000,0000,0000,0000,0000,0000,0000,0000,0000,0000,0000,0000,0000,0000,0000,0000,0000,0000,0000,0000,0000,0000,0000,0000,0000,0000,0000,0000,0000,0000,0000,0000,0000,0000,0000,0000,0000,0000,0000,0000,0000,0000,0000,0000,
00fe,060a,fefa,fcfe,fcf8,080e,fafe,faf8,f800,02fe,f6f2,f4fc,f0f4,08fa,0a08,fcfa,fc00,02fc,f406,00fa,e6ec,f2f4,0a06,f6f6,fcfa,0608,f8f8,faf8,f2f8,eae8,04fc,fc04,f6fa,f400,fcfc,f6f8,fcfe,e4e8,f6ec,0806,02fa,f4fa,fafe,f6f6,0200,e6ee,e6e0,0602,fe02,fefc,f6fc,f4f4,fefa,f0f8,e4de,00f2,0202,fcfc,f6fe,f8f8,f6f6,0204,e4ea,f2e6,0604,0204,fefe,f6f8,f2f0,02f8,ecf2,e4e2,0200,0002,00fe,f8fa,fa02,f8fa,fa00,e4e6,fef4,0206,fefe,0004,f0ee,f2f8,00fe,eaf2,f0e2,0604,fefa,fe00,f8fc,fcfe,00f8,fe06,e8e4,0404,0002,fe00,fcfe,f8f8,f8f0,0600,eaf2,00f4,0208,fcfa,fe00,f8f6,f404,02fc,fe02,f0ee,0808,fcfc,fefc,fafa,06fc,f4f4,0402,f2f2,0804,f6fc,fcfa,fcfc,fcf8,f8fc,04fc,0006,fefa,fe0a,fefc,fcfa,f8fa,f8fa,f8f8,0402,fcfe,0604,fefc,f8fa,faf8,fcfc,fafc,0202,0006,0000,fe02,fe00,fafa,fcfa,f8fa,0200,0002,fefe,0202,0200,fc00,fafc,fe00,0202,0200,0002,0000,0002,fcfe,fe02,0200,fafe,fcfc,0404,fefe,0202,0200,0402,0404,fe02,fe00,fefe,0202,fefc,fe00,0404,0202,0006,f8fa,f8f6,02fe,fafe,0000,0402,0002,0202,fc00,f6f6,fafa,fefe,fe00,0402,0000,fcfc,0002,fcfa,fcf8,fafc,0000,0202,0204,fe00,fefe,f6f8,fafc,fe00,fcfe,02fe,0000,fe00,fcfc,fcfa,f8f6,00fe,fafa,0000,0002,fefe,fe00,fafa,f6f6,faf8,fcfe,0000,00fe,fcfe,fefe,fafc,f6fa,02fc,fcfa,fafa,0002,fcfc,fcfc,fcfc,f6f4,fcf6,f8f8,fefc,fc00,fe00,fcfa,fcfe,f2f6,fcfc,0200,fcfc,00fc,fc00,fafe,fafc,f4f4,f4f6,fefc,f8fa,fcfe,fafc,fcfe,fcfe,f8fa,f6f4,00fc,020a,fefc,fcfe,fafa,f8fc,f8f8,f8f8,f6f6,04fc,fcf8,fefe,faf4,fcfc,f2f6,f4fa,f8f8,fcfc,0000,0e0e,1218,0a12,fc00,0804,0608,080e,0a0c,0606,100e,1212,0408,fe04,0606,0600,0a10,0a0c,120a,0808,fe0a,00fe,0602,0002,0afe,100a,0c04,060a,0c0e,f8fa,00fe,0202,fcfe,0a0c,1006,0612,0a04,fafe,f8f8,0808,02fe,0202,0802,080c,0206,0404,f2f6,02fe,0000,fcfe,0e04,0e0a,020c,0a0a,f6fe,fef6,0808,fcfc,0400,0408,1004,0202,0206,f4f2,0c0c,fe02,00fc,0c02,0e06,020e,0606,f6f8,0c06,000c,02fa,0206,0806,0804,0402,fc00,02f4,0c0e,f8f6,0200,fe0a,0808,0206,0406,f4f8,1010,f2f8,fcfa,0004,fafa,0602,0a04,f8fa,0cfc,fa08,00fc,fc02,0004,fefe,0604,fa04,faf6,0c12,faf2,0400,0802,0808,0808,0002,faf8,0c06,eef0,0204,0406,0208,0a0a,fafe,fafa,02fe,f80a,02fc,0806,0608,0604,0402,fafc,0400,0a08,faf2,0804,0606,0602,0c08,fe02,00fe,0200,eef8,0202,0406,0204,0a08,0604,00fc,0202,fe00,fcf4,0604,0200,02fc,0402,02fc,0402,fafa,f8f8,0000,f8fe,fc00,fe00,000a,0600,fe04,fcfa,fefc,fe02,fcfc,fcfc,0402,fe00,0408,f6f8,fc00,00fe,fe04,fafa,04fa,0602,0804,fcfe,02fe,0000,02fe,fefc,0002,0604,fefe,0002,fcf8,fe02,fcfe,fefe,fa00,fe04,060c,0404,fcfe,0202,fefe,0000,00fe,fcfe,0e04,0408,fe02,fefe,fe02,fafc,fe00,fcfe,0604,0406,0404,00fe,0402,fcfc,fe00,00fe,fcfe,0204,0406,0200,0200,0404,0000,fe02,fc00,0000,0406,0206,0000,0604,0404,0202,0006,fcfe,0c06,0808,0404,0200,0804,0206,0406,fe04,06fe,0406,0404,0204,0400,0808,0406,0206,0202,0c04,0806,0402,0206,0a04,080a,0606,0004,0602,040e,0006,0604,0404,0608,0206,0406,0408,0600,0806,0000,0202,0204,0204,0606,0604,0404,0808,0406,0204,0602,fe02,0204,0006,fc04,fe04,0000,0000,0000,0000,0000,0000,0000,0000,0000,0000,0000,0000,0000,0000,0000,0000,0000,0000,0000,0000,0000,0000,0000,0000,0000,0000,0000,0000,0000,0000,0000,0000,0000,0000,0000,0000,0000,0000,0000,0000,0000,0000,0000,0000,0000,0000,0000,0000,0000,0000,0000,0000,0000,0000,0000,0000,0000,0000,0000,0000,0000,0000,0000,0000,0000,0000,0000,0000,0000,0000,0000,0000,0000,0000,0000,0000,0000,0000,0000,0000,0000,0000,0000,0000,0000,0000,0000,0000,0000,0000,0000,0000,0000,0000,0000,0000,0000,0000,0000,0000,0000,0000,0000,0000,0000,0000,0000,0000,0000,0000,0000,0000,0000,0000,0000,0000,0000,0000,0000,0000,0000,0000,0000,0000,0000,0000,0000,0000,0000,0000,0000,0000,0000,0000,0000,0000,0000,0000,0000,0000,0000,0000,0000,0000,0000,0000,0000,0000,0000,0000,0000,0000,0000,0000,0000,0000,0000,0000,0000,0000,0000,0000,0000,0000,0000,0000,0000,0000,0000,0000,0000,0000,0000,0000,0000,0000,0000,0000,0000,0000,0000,0000,0000,0000,0000,0000,0000,0000,0000,0000,0000,0000,0000,0000,0000,0000,0000,0000,0000,0000,0000,0000,0000,0000,0000,0000,0000,0000,0000,0000,0000,0000,0000,0000,0000,0000,0000,0000,0000,0000,0000,0000,0000,0000,0000,0000,0000,0000,0000,0000,0000,0000,0000,0000,0000,0000,0000,0000,0000,0000,0000,0000,0000,0000,0000,0000,0000,0000,0000,0000,0000,0000,0000,0000,0000,0000,0000,0000,0000,0000,0000,0000,0000,0000,0000,0000,0000,0000,0000,0000,0000,0000,0000,0000,0000,0000,0000,0000,0000,0000,0000,0000,0000,0000,0000,0000,0000,0000,0000,0000,0000,0000,0000,0000,0000,0000,0000,0000,0000,0000,0000,0000,0000,0000,0000,0000,0000,0000,0000,0000,0000,0000,0000,0000,0000,0000,0000,0000,0000,0000,0000,0000,0000,0000,0000,0000,0000,0000,0000,0000,0000,0000,0000,0000,0000,0000,0000,0000,0000,0000,0000,0000,0000,0000,0000,0000,0000,0000,0000,0000,0000,0000,0000,0000,0000,0000,0000,0000,0000,0000,0000,0000,0000,0000,0000,0000,0000,0000,0000,0000,0000,0000,0000,0000,0000,0000,0000,0000,0000,0000,0000,0000,0000,0000,0000,0000,0000,0000,0000,0000,0000,0000,0000,0000,0000,0000,0000,0000,0000,0000,0000,0000,0000,0000,0000,0000,0000,0000,0000,0000,0000,0000,0000,0000,0000,0000,0000,0000,0000,0000,0000,0000,0000,0000,0000,0000,0000,0000,0000,0000,0000,0000,0000,0000,0000,0000,0000,0000,0000,0000,0000,0000,0000,0000,0000,0000,
00fe,fc00,fc00,fe00,fefe,fcfc,fe00,0200,0402,00fe,fefe,fcfe,fe00,fe00,fefc,fefc,0000,fe00,00fc,fefc,0000,00fe,fefe,fefe,fefe,00fe,fefc,fcfe,0002,00fe,fcfe,00fe,fefe,fcfe,fe02,fe00,fefc,fefe,fefe,fefe,fe00,fcfe,fcfa,fefe,fafe,fefc,fefe,fcfe,fefe,fefe,fefe,fe00,fcfe,fefe,fefe,fefe,fefe,00fe,fefe,0000,0002,fe00,fefe,fe00,fcfe,0000,fefe,00fe,0000,0000,fefe,fe00,fe00,fefe,fe00,fefc,0004,00fe,fe00,fefe,fe00,fefe,fe00,fefe,fcfc,00fe,0000,fefe,fe00,fe00,fefe,fefe,fcfe,fcfe,0000,fefe,fefe,fe00,fefe,fefe,fefe,fcfc,fefe,0000,fefe,fefe,fefe,fefe,fefe,fefe,fc00,fefe,fefe,fefe,fefe,fefe,fefe,fefe,fefc,0000,fefe,fefe,00fe,fefe,fe00,fe00,fefe,00fe,fefc,fefe,fefe,fe00,fefe,00fe,fefe,00fe,00fe,fefe,fe00,00fe,fe00,fefe,00fe,00fe,fe02,fefe,fcfe,fefe,fe00,00fe,fefe,fe00,fe00,fe02,fe00,fefc,fefe,00fe,fefe,00fe,fefe,fc00,fcfc,fcfc,fefc,fefe,fefe,fefe,fefe,00fe,fefe,fcfc,fcfc,fefe,00fe,fefe,fefe,fefe,00fe,fcfa,fefe,fefe,fefe,fefe,fefe,fefe,fefe,fefe,fe00,00fe,fefe,fe00,fefe,00fe,fefe,fefe,fefe,fe00,0000,00fe,fefe,fefe,fefe,fefe,fcfc,0000,fe00,fefe,fefe,fefe,fefe,fefe,fefe,0200,0000,00fe,fefe,fefe,fefe,fefe,fefe,fefe,0000,0000,fefe,fe00,00fe,fe00,fefe,fcfe,00fe,00fe,fe00,0000,00fe,fefe,fefe,0000,fefe,0000,0002,fefe,fe00,fefe,fefe,00fe,fe00,fe00,0000,0000,fefe,fefe,fefe,fefe,fc00,fefe,fefe,fefe,fefe,fefe,fcfc,fefe,0000,fe00,0000,fefe,fefe,fefe,fefe,fefe,fefe,0000,00fe,0000,0000,fefe,0000,00fe,0000,02f6,0002,0000,0000,fe00,0002,fe02,00fe,fc00,0000,f802,f600,0000,fefc,faf6,fcfa,04fc,0002,fe00,fefe,fcfe,f8fa,f8fc,f8fa,fc00,0000,fefc,fcfa,00fc,fcfc,fafc,fcfa,fcfc,fafa,0000,fe00,fafe,fafc,fcfa,fafc,fcfc,fcfc,fe00,00fe,fa00,fcfc,fcfe,fcfc,fefe,0002,fe00,fefa,fefe,fefe,0000,fefe,fefe,fe00,00fe,fc00,0200,00fe,fe00,fefe,fe00,00fe,fe00,fe00,fcfa,fcfc,fcfa,fefc,00fe,fefe,00fe,fefe,fcfc,fefe,fe00,fe00,fefe,fefe,fefe,fe00,0000,fcfc,fc00,fefe,fefe,00fe,00fe,00fe,fe00,0000,fcfc,fcfc,fefe,fefe,fefe,fe00,fe00,00fa,fe02,00fc,fefc,fefe,fefe,fefe,fe00,fefe,fc00,04fe,fcfe,fefe,fefe,fefe,0000,0000,fcfc,fa00,fcfe,fcfc,fefe,fefe,fefe,fefe,fefe,fef8,fefc,fefe,fc00,fefe,fefe,0000,0000,fcfc,fcfe,fefe,fefe,fefe,fefe,fefe,fefe,fcfe,fc00,fe02,fefa,fcfe,fefe,fefe,00fe,00fe,fefc,fcfc,fefc,fefe,fefe,fefe,fefe,fefe,fcfc,fcfe,0202,fcfe,fefe,fefe,fefe,fefe,00fe,fefe,00fc,fe00,00fe,fefe,fefe,0000,fefe,fefe,fefc,0000,fe00,00fe,fefe,fefe,fefe,fefe,00fe,fefe,fe00,fe00,fefe,fefe,00fe,fefe,fefe,f8fe,fefe,fe00,fefe,fefe,fefe,fefe,fefe,fcfc,fefe,fcfe,00fe,fefe,fefe,fefe,0000,fefc,00fe,fc04,fefe,fefe,fefe,fefe,00fe,fefe,fefe,fcfe,fe00,00fc,fefe,fefe,fefe,fe00,fefe,00fe,0204,fcfe,fefe,fefe,fefe,fefe,fc00,00fe,0202,0000,fefc,fefe,fefe,fefe,fefe,00fe,0400,00fe,fcfc,fe00,fefe,fefe,0000,fefe,04fe,fe02,0000,fcfe,fefe,fefe,fefe,00fe,fefe,0404,0200,fcf8,fcfc,fcfe,fefe,fefe,fefe,fc02,0000,0200,fcfe,fefe,00fe,fe00,0200,00fe,0000,0006,fe00,fc00,fe00,0002,fc04,fcfc,fe00,0204,fc00,fc08,00fe,fe00,0402,0002,fefe,fefe,00fe,0000,0000,0000,0000,0000,0000,0000,0000,0000,0000,0000,0000,0000,0000,0000,0000,0000,0000,0000,0000,0000,0000,0000,0000,0000,0000,0000,0000,0000,0000,0000,0000,0000,0000,0000,0000,0000,0000,0000,0000,0000,0000,0000,0000,0000,0000,0000,0000,0000,0000,0000,0000,0000,0000,0000,0000,0000,0000,0000,0000,0000,0000,0000,0000,0000,0000,0000,0000,0000,0000,0000,0000,0000,0000,0000,0000,0000,0000,0000,0000,0000,0000,0000,0000,0000,0000,0000,0000,0000,0000,0000,0000,0000,0000,0000,0000,0000,0000,0000,0000,0000,0000,0000,0000,0000,0000,0000,0000,0000,0000,0000,0000,0000,0000,0000,0000,0000,0000,0000,0000,0000,0000,0000,0000,0000,0000,0000,0000,0000,0000,0000,0000,0000,0000,0000,0000,0000,0000,0000,0000,0000,0000,0000,0000,0000,0000,0000,0000,0000,0000,0000,0000,0000,0000,0000,0000,0000,0000,0000,0000,0000,0000,0000,0000,0000,0000,0000,0000,0000,0000,0000,0000,0000,0000,0000,0000,0000,0000,0000,0000,0000,0000,0000,0000,0000,0000,0000,0000,0000,0000,0000,0000,0000,0000,0000,0000,0000,0000,0000,0000,0000,0000,0000,0000,0000,0000,0000,0000,0000,0000,0000,0000,0000,0000,0000,0000,0000,0000,0000,0000,0000,0000,0000,0000,0000,0000,0000,0000,0000,0000,0000,0000,0000,0000,0000,0000,0000,0000,0000,0000,0000,0000,0000,0000,0000,0000,0000,0000,0000,0000,0000,0000,0000,0000,0000,0000,0000,0000,0000,0000,0000,0000,0000,0000,0000,0000,0000,0000,0000,0000,0000,0000,0000,0000,0000,0000,0000,0000,0000,0000,0000,0000,0000,0000,0000,0000,0000,0000,0000,0000,0000,0000,0000,0000,0000,0000,0000,0000,0000,0000,0000,0000,0000,0000,0000,0000,0000,0000,0000,0000,0000,0000,0000,0000,0000,0000,0000,0000,0000,0000,0000,0000,0000,0000,0000,0000,0000,0000,0000,0000,0000,0000,0000,0000,0000,0000,0000,0000,0000,0000,0000,0000,0000,0000,0000,0000,0000,0000,0000,0000,0000,0000,0000,0000,0000,0000,0000,0000,0000,0000,0000,0000,0000,0000,0000,0000,0000,0000,0000,0000,0000,0000,0000,0000,0000,0000,0000,0000,0000,0000,0000,0000,0000,0000,0000,0000,0000,0000,0000,0000,0000,0000,0000,0000,0000,0000,0000,0000,0000,0000,0000,0000,0000,0000,0000,0000,0000,0000,0000,0000,0000,0000,0000,0000,0000,0000,0000,0000,0000,0000,0000,0000,0000,0000,0000,0000,0000,0000,0000,0000,0000,0000,0000,0000,0000,0000,0000,0000,0000,0000,0000,0000,0000,0000,0000,0000,
fe02,fc00,fcf4,0602,02fe,0200,fefe,fe00,f600,00fe,eef6,f6f6,fefa,faf8,fcfe,fcf4,04fe,04fc,f4f6,eaec,eeec,fefa,0402,fe02,fefe,0004,f2f2,e2ec,ecec,fcf8,0202,fefe,f4fa,0400,fafa,e8ea,e4e2,fcf4,0004,0004,00fc,fcf6,fafa,e8f0,e2de,eae0,0200,0604,fc02,0000,04fe,f8fa,dadc,dad8,00fa,0604,0404,0402,0006,00fc,e0ee,dcda,f6ea,0606,0c08,080c,0608,0802,e4f0,d8d8,e8e0,0604,0808,080a,0a0c,fcfc,000c,dce6,e4e2,04fc,0806,0608,0408,f4f8,fcfa,e0f2,e6de,f4ea,0a08,0606,fc02,eaf0,f2ec,f4fc,e4de,eaec,100a,0406,f6fa,e8ec,e2e4,f6f0,e6f0,eeea,0afc,040a,f8fc,ecee,e8e6,eae8,f2f8,eae2,f8f4,1214,fafe,f0f6,f0f2,eef4,f8f0,eae8,f4ee,160c,fe04,f6fa,faf6,0000,f8f8,ecfc,f0ea,04fe,0816,f8fa,faf8,0402,0406,f6f4,ecee,fefc,140e,fafc,fcfc,fefc,0806,fc02,e8f0,faf4,0a04,fc06,f8f8,fcfa,0602,0606,f8f6,f6ec,0400,0c10,f6f8,faf8,fcfc,0604,fc02,eef6,fef8,0602,fc02,fcfa,fafc,fefe,0608,fafc,f0ec,fefc,080a,f8fa,00fe,fefe,0202,fafe,f0f4,fcfa,0402,fe00,fefe,fefe,0000,0206,fafa,f6f4,02fe,0604,0000,0000,0402,0200,fcfa,f6f6,f8f6,02fe,0002,0202,0002,0000,fe02,fafa,f8fa,fcfe,0200,0000,0202,0204,0200,f8fc,f8f6,fafa,00fe,0000,0200,0404,0204,0202,faf8,f8fa,fcfc,00fe,0200,0200,0004,fefe,f8fa,fcfa,fcf8,fcfa,0200,00fe,00fe,0000,fcfc,fefa,fafa,fafa,00fe,0000,0000,fafc,f6f4,fcfa,fafa,fe00,fcfe,0000,00fe,fafe,f8f8,fcfa,02fe,fcfc,00fe,fe02,00fe,fcfe,f8fa,f4f2,00fc,fefa,0000,0002,0202,00fc,fcfe,f6f6,fefc,0006,fefe,0204,0002,02fe,fcfe,f4f8,fcfa,0802,fcf4,fafc,0400,fcfe,fefc,fc00,f8f8,02fe,0000,080c,0e06,040a,0200,0402,0604,1208,0e0c,0e08,060e,0c06,f8fc,02fc,00fe,0c0a,0a08,0812,0a0c,0608,fe00,0002,0002,00fe,0c0c,0808,0e06,fe02,00fe,0402,fe00,00fe,0a08,0e10,0406,000a,0408,02fe,0406,fe02,02fc,0e0e,0814,fe0a,0200,fe02,0604,fefe,00fc,080c,0406,0804,0202,080a,0804,fe02,0404,0c0c,080c,0202,0804,0e06,0604,060e,0002,0c08,fc06,0c04,0606,0204,0c0e,100e,fe00,0204,0004,04fe,0406,fe08,1212,0e08,000a,0200,0002,fefe,060e,0402,1008,0a0e,0a10,faf6,0000,02fe,1414,0604,0404,1410,120e,f4fa,0200,0204,0c0c,0614,fc00,0c06,0a0c,fc04,fef8,0404,0806,0e08,08fe,0604,0e0e,0808,f4f0,0404,0408,0200,fcfc,0404,100c,0606,f0f8,0400,0404,0004,fcfc,00fe,060e,080e,fe04,faf2,0204,0402,fefa,f6fc,02fa,0e0e,0206,f2f2,0400,0402,0000,fafa,02fe,0e10,0a0c,f6fa,fef8,fe02,00fe,0000,faf6,04fe,0c0a,fafc,f4f0,0000,00fe,fefc,fe04,f802,080a,0208,f6fa,f8f8,fefe,fefc,00fe,fefa,fe00,060a,fcfc,f6f8,0000,fefe,fe02,fc04,04fc,0806,0000,fafc,fcf8,fe02,fefe,0200,00fe,fcfe,0002,fcfa,f8fc,0000,0200,0402,fc00,fefa,0604,fa00,fefc,fafa,0404,0204,0000,0000,08fc,0202,0000,fefe,0200,fc00,fa00,f8fa,0000,0204,0000,0000,fcfe,0000,fefe,fcfe,0200,02fc,fe04,0402,fe00,00fe,0000,0002,0002,0404,0404,0604,0000,0000,fe00,0200,0408,fe04,0e04,0208,0200,0002,fefe,0400,0808,0206,08fe,0606,0000,fefe,0402,fefc,0002,080a,0006,fe00,0206,02fe,0204,0002,0406,0204,0800,04fc,0206,fe00,0402,0200,00fe,fc00,fe06,fe06,fef6,0200,02fc,00fc,0802,04fa,00fe,02fa,0402,0606,fefc,fe02,fe04,fc02,f8fa,fc0a,020a,f6fc,0000,0000,0000,0000,0000,0000,0000,0000,0000,0000,0000,0000,0000,0000,0000,0000,0000,0000,0000,0000,0000,0000,0000,0000,0000,0000,0000,0000,0000,0000,0000,0000,0000,0000,0000,0000,0000,0000,0000,0000,0000,0000,0000,0000,0000,0000,0000,0000,0000,0000,0000,0000,0000,0000,0000,0000,0000,0000,0000,0000,0000,0000,0000,0000,0000,0000,0000,0000,0000,0000,0000,0000,0000,0000,0000,0000,0000,0000,0000,0000,0000,0000,0000,0000,0000,0000,0000,0000,0000,0000,0000,0000,0000,0000,0000,0000,0000,0000,0000,0000,0000,0000,0000,0000,0000,0000,0000,0000,0000,0000,0000,0000,0000,0000,0000,0000,0000,0000,0000,0000,0000,0000,0000,0000,0000,0000,0000,0000,0000,0000,0000,0000,0000,0000,0000,0000,0000,0000,0000,0000,0000,0000,0000,0000,0000,0000,0000,0000,0000,0000,0000,0000,0000,0000,0000,0000,0000,0000,0000,0000,0000,0000,0000,0000,0000,0000,0000,0000,0000,0000,0000,0000,0000,0000,0000,0000,0000,0000,0000,0000,0000,0000,0000,0000,0000,0000,0000,0000,0000,0000,0000,0000,0000,0000,0000,0000,0000,0000,0000,0000,0000,0000,0000,0000,0000,0000,0000,0000,0000,0000,0000,0000,0000,0000,0000,0000,0000,0000,0000,0000,0000,0000,0000,0000,0000,0000,0000,0000,0000,0000,0000,0000,0000,0000,0000,0000,0000,0000,0000,0000,0000,0000,0000,0000,0000,0000,0000,0000,0000,0000,0000,0000,0000,0000,0000,0000,0000,0000,0000,0000,0000,0000,0000,0000,0000,0000,0000,0000,0000,0000,0000,0000,0000,0000,0000,0000,0000,0000,0000,0000,0000,0000,0000,0000,0000,0000,0000,0000,0000,0000,0000,0000,0000,0000,0000,0000,0000,0000,0000,0000,0000,0000,0000,0000,0000,0000,0000,0000,0000,0000,0000,0000,0000,0000,0000,0000,0000,0000,0000,0000,0000,0000,0000,0000,0000,0000,0000,0000,0000,0000,0000,0000,0000,0000,0000,0000,0000,0000,0000,0000,0000,0000,0000,0000,0000,0000,0000,0000,0000,0000,0000,0000,0000,0000,0000,0000,0000,0000,0000,0000,0000,0000,0000,0000,0000,0000,0000,0000,0000,0000,0000,0000,0000,0000,0000,0000,0000,0000,0000,0000,0000,0000,0000,0000,0000,0000,0000,0000,0000,0000,0000,0000,0000,0000,0000,0000,0000,0000,0000,0000,0000,0000,0000,0000,0000,0000,0000,0000,0000,0000,0000,0000,0000,0000,0000,0000,0000,0000,0000,0000,0000,0000,0000,0000,0000,0000,0000,0000,0000,0000,0000,0000,0000,0000,0000,0000,0000,0000,0000,0000,0000,0000,0000,0000,0000,0000,
fefc,0a00,f8f2,fcf8,0006,02fc,f8f8,fefe,fe04,f6fe,f8f6,f6ee,fcf8,f8fc,fafa,f8f8,02fc,f6fc,fe00,faf6,f0f2,0000,fcfa,fa02,fef4,02fe,0802,f6f8,f8fa,fcfc,fe00,fefa,f8f8,f2fe,fe02,f802,f4f4,faf8,fafa,fafa,fefe,f8fe,0a0a,0206,f4fa,f4f6,faf8,fefc,00fe,0600,0002,0402,0200,faf8,fe00,fcfa,fefe,0000,fefe,0402,fe04,fe00,fcfc,fcfc,0002,0202,00fe,0404,0402,0400,0002,00fe,0000,0204,0402,0406,06fe,0204,0200,0204,0202,0402,0604,0402,fe00,fef8,f2f6,0000,00fe,0004,0402,0206,0202,f6f6,fafc,fcf8,00fe,00fe,00fe,00fe,0002,f4f6,f8f6,fafc,fefe,fe00,fcfe,fefc,fcfc,fcfc,0602,0202,0408,0606,0202,fafa,f8fc,f8f6,f6ee,0408,1412,0e0e,0606,0000,00fe,faf8,f4f4,0206,0c06,1618,080c,0406,fefe,fa00,f8f6,fafc,fa00,0600,0e14,080a,0002,0404,0000,0202,fa00,eae6,fcf0,0202,0202,0200,fe00,0406,f600,eaf0,d4dc,e4e2,f6f2,fefc,0200,0404,0202,fc04,eaf0,dee4,eee8,f8f8,fcf8,0402,0204,fafa,fefe,f4f6,f2f2,fcf8,fafc,00fc,0602,fcfc,fe02,fefc,fcfe,fafa,fcfc,fefe,0202,fa00,faf8,fcfc,fefa,f8f8,fcfc,00fe,fe00,0000,fafc,fefc,0000,fc00,00fe,fefe,00fe,0000,fcfa,fafc,fefa,fcfa,fefc,fcfc,fafc,fefe,fefe,fcfc,f0f2,f6f8,fafc,fe02,fefc,fefa,fcfc,fafa,f8fa,eae4,f0ee,02fe,0000,fafc,fefc,f8fa,fcfc,ecf4,eeee,faf6,fefe,fcfe,fefe,00fe,00fe,fef8,f6f4,f8f8,00fc,00fc,fcfe,0200,fe00,f8fa,fafc,00fe,fafc,fafa,fcfe,0000,0002,fafe,fefc,0000,0206,fafc,fefc,0000,fefc,fafc,fefc,fefa,0806,0404,fefe,00fe,00fe,fcfc,fefe,0002,0200,0606,0202,00fc,fefe,f8fe,fcfa,04f2,fe04,0402,0806,0404,0000,0002,f6fa,0404,0200,0202,fafa,fafc,fcfe,02fe,02fa,0808,0400,0808,fe04,fe02,04fe,0008,0002,fcfc,0802,0c06,00fc,0400,0402,0002,fc00,fcfc,08fe,0a08,0608,fc02,0000,fe02,fe02,fc00,0408,0c0a,0c04,fe0a,fefc,0404,0404,0202,00fe,0006,0cfe,0410,fc00,0000,0004,0402,0204,0604,0006,0800,f6f8,faf8,0404,0404,0604,0000,fcfc,0208,000a,fefe,fefa,0000,0000,0200,fefc,0400,0004,fefc,f6f6,fcfa,fcfa,fcfc,fafe,fafa,0402,0006,fcfc,fafa,f8f8,fafa,00fe,fef8,0802,0a04,fefe,00fe,fcfe,00fe,fefc,fafe,fcf6,0000,fe04,0806,0406,0402,0602,0402,fefe,0808,0404,faf6,0606,060a,0808,0608,0006,0804,0000,fc02,f8f6,0604,0a0a,080a,0606,fefe,fefe,fa0e,f0f4,f2ee,0402,0406,0200,0000,fafa,00fc,fc04,e4e8,e8e4,f8f6,fcfa,0200,fafc,fcfc,04f8,f8fe,e6ec,e0e0,eeea,f8f6,fafa,faf8,fcfe,040a,0204,f6f8,eeee,f8f4,fcfc,fcfc,fcfa,02f8,1814,1212,0206,fe00,0400,fe02,02fe,02f6,120c,1c1e,1414,0c0c,0808,0606,0002,fcfe,0000,1414,1a1e,1216,0c0c,080c,0608,060a,fefe,0404,1812,1416,0e12,0a0c,0606,0404,fe02,04fc,0204,0e0e,0a0c,0a08,0404,0202,0206,0404,fcfa,faf4,0200,0204,fe02,0402,fefa,0afe,0a08,eef4,f4ee,faf6,fafa,02fe,0000,0204,0a06,f8fc,eeee,f0ec,f2f2,fefe,0202,fefe,0c02,0a08,f8fa,f2f2,f2f2,fef8,fe00,fcfa,0600,0e04,0000,0000,fcfa,fefa,02fe,fafc,fefa,080a,0c02,0804,0402,0002,0202,fcfc,02f8,0600,0a04,00fc,0806,0808,0604,0000,fe00,0204,0802,020a,fcfe,0804,0608,0404,0202,0802,02fe,0204,fcf8,04fc,0404,0602,0406,0202,0602,06fe,040c,fe02,fafe,fafa,0402,0204,0402,0202,0608,0000,fe02,00fa,00fa,02fe,0202,0404,0202,0602,0000,0000,0000,0000,0000,0000,0000,0000,0000,0000,0000,0000,0000,0000,0000,0000,0000,0000,0000,0000,0000,0000,0000,0000,0000,0000,0000,0000,0000,0000,0000,0000,0000,0000,0000,0000,0000,0000,0000,0000,0000,0000,0000,0000,0000,0000,0000,0000,0000,0000,0000,0000,0000,0000,0000,0000,0000,0000,0000,0000,0000,0000,0000,0000,0000,0000,0000,0000,0000,0000,0000,0000,0000,0000,0000,0000,0000,0000,0000,0000,0000,0000,0000,0000,0000,0000,0000,0000,0000,0000,0000,0000,0000,0000,0000,0000,0000,0000,0000,0000,0000,0000,0000,0000,0000,0000,0000,0000,0000,0000,0000,0000,0000,0000,0000,0000,0000,0000,0000,0000,0000,0000,0000,0000,0000,0000,0000,0000,0000,0000,0000,0000,0000,0000,0000,0000,0000,0000,0000,0000,0000,0000,0000,0000,0000,0000,0000,0000,0000,0000,0000,0000,0000,0000,0000,0000,0000,0000,0000,0000,0000,0000,0000,0000,0000,0000,0000,0000,0000,0000,0000,0000,0000,0000,0000,0000,0000,0000,0000,0000,0000,0000,0000,0000,0000,0000,0000,0000,0000,0000,0000,0000,0000,0000,0000,0000,0000,0000,0000,0000,0000,0000,0000,0000,0000,0000,0000,0000,0000,0000,0000,0000,0000,0000,0000,0000,0000,0000,0000,0000,0000,0000,0000,0000,0000,0000,0000,0000,0000,0000,0000,0000,0000,0000,0000,0000,0000,0000,0000,0000,0000,0000,0000,0000,0000,0000,0000,0000,0000,0000,0000,0000,0000,0000,0000,0000,0000,0000,0000,0000,0000,0000,0000,0000,0000,0000,0000,0000,0000,0000,0000,0000,0000,0000,0000,0000,0000,0000,0000,0000,0000,0000,0000,0000,0000,0000,0000,0000,0000,0000,0000,0000,0000,0000,0000,0000,0000,0000,0000,0000,0000,0000,0000,0000,0000,0000,0000,0000,0000,0000,0000,0000,0000,0000,0000,0000,0000,0000,0000,0000,0000,0000,0000,0000,0000,0000,0000,0000,0000,0000,0000,0000,0000,0000,0000,0000,0000,0000,0000,0000,0000,0000,0000,0000,0000,0000,0000,0000,0000,0000,0000,0000,0000,0000,0000,0000,0000,0000,0000,0000,0000,0000,0000,0000,0000,0000,0000,0000,0000,0000,0000,0000,0000,0000,0000,0000,0000,0000,0000,0000,0000,0000,0000,0000,0000,0000,0000,0000,0000,0000,0000,0000,0000,0000,0000,0000,0000,0000,0000,0000,0000,0000,0000,0000,0000,0000,0000,0000,0000,0000,0000,0000,0000,0000,0000,0000,0000,0000,0000,0000,0000,0000,0000,0000,0000,0000,0000,0000,0000,0000,0000,0000,0000,0000,0000,0000,0000,0000,0000,0000,0000,0000,0000,0000,0000,0000,
fc00,080a,fe06,00fe,0408,080e,0200,0006,0a00,0600,0400,0202,0a0c,0e0c,0406,fa02,0204,0c0c,1010,0c0c,060a,0606,080c,fcfe,0000,0802,1004,140e,0404,0404,0402,060a,0602,0002,0600,0c10,0408,0002,0000,0604,0206,fefe,0a08,0e06,0e10,0400,0204,0604,0c0a,fa00,f8fc,0804,0a10,0408,0604,0202,0808,0406,fefa,0404,120e,0606,0402,0004,0402,0402,fefe,fcfc,120a,0a0c,0406,0202,0202,0002,fefc,fafc,04f6,0c0c,0608,0608,0604,0202,fafa,fefe,00f8,0a04,0608,0a0a,0204,0002,fafe,fefa,fc02,0608,080e,0602,0406,0202,fcfe,f8f8,00fc,fefe,0408,00fe,0606,0202,fe02,fefc,00fc,fe00,0c0a,fc00,0600,0206,0202,00fc,fcfc,0202,f8fa,040c,00fe,0404,0000,fe00,fcfe,00fe,00fe,0e0e,0404,0604,0202,fcfe,00fe,0200,fefc,faf4,0c0a,0808,0606,fc00,fefe,0402,fe02,f6f6,0a08,0a08,0406,fcfe,00fc,0404,0206,f6f6,faf4,0608,0606,f8fa,faf6,0604,0606,fa00,f0f0,fc02,faf4,fafc,f2f6,0600,0808,0406,f2f2,fcf6,eeee,f6f8,f4f8,f8f0,0a0c,0806,f800,eef0,eef2,f2ee,f8f6,ecf2,0800,0608,0004,f4f8,02f8,ecea,f4f4,f4f8,f8ee,0806,0406,fefc,f6f4,f0f0,f8f6,faf8,f2f2,00fc,0606,fe00,fafe,fe02,faf4,fefa,f8fa,f6f2,02fe,0402,fe00,fcfa,fafc,0002,fcfe,f4f4,f8f8,0002,0000,f8fa,fcfe,fefe,fefe,f8fa,f8f6,00fe,0402,fcfe,fcfa,0002,fcfe,fcfc,f8f6,fafa,0200,fe00,f8fa,fcfc,0202,f8fa,f8fa,fafa,fefe,0002,0000,fafa,0806,0206,fcfc,fafa,fefc,0402,0002,fcfc,04fe,0a08,0208,00fc,fcfa,00fe,0204,0202,fc00,00fc,0604,0404,fe00,fe00,0808,0200,fafe,0402,02fe,0606,0404,0202,0602,fe02,0406,0602,fa00,0404,0406,0806,0804,0202,0404,0200,0200,06fc,fc0a,0202,0802,0002,fcfa,fc0a,f808,0600,0a00,f8fe,02fe,f4f8,f8f6,f8fa,fc02,06fc,0206,fe00,f2f2,fafa,f2f4,f4f4,04f8,08fc,0208,0002,f0f0,f8f8,f8f8,f8fa,eeee,0608,0406,0004,f4f8,faf6,f8fa,f8f8,f2f6,f4f2,0202,0602,fa02,f8f4,fefe,f8f8,f6f8,eef0,0400,0c02,fe02,f4f6,fafc,fefc,fafa,f8f8,f4f2,04fe,fe08,f8f6,f8f6,fefa,0000,0000,fcfa,06fa,0800,fcf8,f6f8,f6f6,0200,0200,0000,fafa,fa02,0400,f8fe,f6fa,fafa,0002,fe00,0404,0c02,0e02,fcfa,fcfa,f8f8,0604,00fe,0202,02fe,0806,0208,fefe,fafa,04fc,0406,0000,0806,0000,060a,0000,fcfc,fcfc,0606,0204,0808,0004,040a,fe08,0002,0000,0200,0402,0a08,080c,0802,060c,fefc,0402,00fe,0400,0808,0a08,0202,0e0a,f800,00fa,fe00,00fe,0a06,0606,0608,140a,0202,f6f8,fcfa,fefe,0806,080c,0208,0606,060c,f0f4,f2f2,fcf8,0402,100c,0404,0606,1612,0800,eaf0,f6f2,0204,0e08,0408,0200,0a06,0e0a,e8f8,eef0,fef8,0604,060c,0000,0604,0808,0608,f4e8,f4f6,0402,0e0c,0000,02fe,0604,0206,f8fe,fcfc,00fe,0c08,0406,fc00,fefe,0a0a,0404,00f8,0204,0806,0a0c,0002,fefc,fefc,0c08,0204,0806,0806,0808,0206,fe00,fcfc,06fe,000a,0604,0404,080c,0808,0204,fcfe,0400,0608,0a08,0006,0604,0808,0404,fcfc,00fc,0804,0a04,0204,fefe,0604,0404,fe00,0002,0606,040a,080a,fe00,0400,0406,00fe,0200,0204,060a,060a,fefe,fc00,0404,0002,0200,fe06,0200,0808,fe02,fcfa,0000,0202,0002,04fe,0200,0a00,1008,fcfc,fcfc,0200,fe00,fefe,00fc,0800,0400,0406,f8f8,00f8,fc00,0000,0602,0c04,0602,0808,fe08,f6fa,fafe,fefe,fefe,0204,0608,1208,1206,040c,fcfe,02fe,04fe,0802,0c0a,0802,fe0a,0000,0000,0000,0000,0000,0000,0000,0000,0000,0000,0000,0000,0000,0000,0000,0000,0000,0000,0000,0000,0000,0000,0000,0000,0000,0000,0000,0000,0000,0000,0000,0000,0000,0000,0000,0000,0000,0000,0000,0000,0000,0000,0000,0000,0000,0000,0000,0000,0000,0000,0000,0000,0000,0000,0000,0000,0000,0000,0000,0000,0000,0000,0000,0000,0000,0000,0000,0000,0000,0000,0000,0000,0000,0000,0000,0000,0000,0000,0000,0000,0000,0000,0000,0000,0000,0000,0000,0000,0000,0000,0000,0000,0000,0000,0000,0000,0000,0000,0000,0000,0000,0000,0000,0000,0000,0000,0000,0000,0000,0000,0000,0000,0000,0000,0000,0000,0000,0000,0000,0000,0000,0000,0000,0000,0000,0000,0000,0000,0000,0000,0000,0000,0000,0000,0000,0000,0000,0000,0000,0000,0000,0000,0000,0000,0000,0000,0000,0000,0000,0000,0000,0000,0000,0000,0000,0000,0000,0000,0000,0000,0000,0000,0000,0000,0000,0000,0000,0000,0000,0000,0000,0000,0000,0000,0000,0000,0000,0000,0000,0000,0000,0000,0000,0000,0000,0000,0000,0000,0000,0000,0000,0000,0000,0000,0000,0000,0000,0000,0000,0000,0000,0000,0000,0000,0000,0000,0000,0000,0000,0000,0000,0000,0000,0000,0000,0000,0000,0000,0000,0000,0000,0000,0000,0000,0000,0000,0000,0000,0000,0000,0000,0000,0000,0000,0000,0000,0000,0000,0000,0000,0000,0000,0000,0000,0000,0000,0000,0000,0000,0000,0000,0000,0000,0000,0000,0000,0000,0000,0000,0000,0000,0000,0000,0000,0000,0000,0000,0000,0000,0000,0000,0000,0000,0000,0000,0000,0000,0000,0000,0000,0000,0000,0000,0000,0000,0000,0000,0000,0000,0000,0000,0000,0000,0000,0000,0000,0000,0000,0000,0000,0000,0000,0000,0000,0000,0000,0000,0000,0000,0000,0000,0000,0000,0000,0000,0000,0000,0000,0000,0000,0000,0000,0000,0000,0000,0000,0000,0000,0000,0000,0000,0000,0000,0000,0000,0000,0000,0000,0000,0000,0000,0000,0000,0000,0000,0000,0000,0000,0000,0000,0000,0000,0000,0000,0000,0000,0000,0000,0000,0000,0000,0000,0000,0000,0000,0000,0000,0000,0000,0000,0000,0000,0000,0000,0000,0000,0000,0000,0000,0000,0000,0000,0000,0000,0000,0000,0000,0000,0000,0000,0000,0000,0000,0000,0000,0000,0000,0000,0000,0000,0000,0000,0000,0000,0000,0000,0000,0000,0000,0000,0000,0000,0000,0000,0000,0000,0000,0000,0000,0000,0000,0000,0000,0000,0000,0000,0000,0000,0000,0000,0000,0000,0000,0000,0000,0000,0000,0000,0000,0000,0000,0000,0000,0000,0000,0000,
0000,fcfa,fcfc,fefe,00fc,fafe,fe00,02fe,0202,0000,00fe,f8fc,fefe,fefe,fefc,fefa,fefe,fc00,0000,fcfc,00fe,fefe,fefe,fcfe,fefc,0200,00fe,fcfc,fe02,fefe,fcfc,fefe,fcfe,fcfc,0408,0202,fafe,fefa,fefc,fefc,fefe,fcfe,fefa,0806,fafc,fafc,fcfc,fcfc,fefe,fcfe,fefe,080a,fe02,fefe,fefe,fefe,fefe,fefe,fefc,080a,0406,0808,0204,0000,fcfe,fefe,fcfe,fefe,0604,0a08,0004,fefe,fefe,fefe,fefe,fefc,fe04,02fe,0204,fe00,fefe,fcfe,fcfe,fcfc,fcfc,fcfa,0400,00fe,fe00,fcfe,fefe,fefe,fefe,fafa,0002,fcfc,fcfc,fefe,fcfc,fcfc,fefe,fafc,0000,fefe,fcfc,fe00,fefe,fefe,fefe,fefe,fe04,fcfe,fefa,00fc,fe00,fefe,fefc,fefe,fefa,0000,fefc,fefe,00fe,fefe,fefe,fe00,fefe,00fa,fafc,fe00,fcfe,fefe,fe00,fefc,fefe,fefe,fefc,fefe,fefe,fefc,00fe,00fe,fefe,0000,f800,fef8,fcfe,fefc,fefe,fefe,fefe,fefe,fefe,f8fc,fc00,fefe,fefe,fefe,fefe,00fe,fe00,f8fc,fcfa,fefe,fcfc,fefe,fefe,fefe,00fe,fefe,f8fc,fcfa,fcfc,00fe,fefe,fefe,fefe,fefe,fcfc,f6f6,fefc,fefe,fefe,fefe,fefe,fefe,00fe,f8fc,fefe,fefe,fe00,fefe,fefe,fefe,fefe,fcfa,0002,00fe,00fe,fcfe,fcfe,fefe,fe00,fe00,00fc,0000,0202,fe00,fefc,fefe,fefe,fefe,fe00,0404,00fe,0002,fcfe,fefe,fefe,fefe,00fe,fcfe,fe00,fe00,fefe,fefe,fefe,fefe,fefe,0002,fefe,0000,fe00,fe00,fefe,fefe,fefe,0000,fe00,0000,0000,0000,fe00,fefc,fefe,00fe,fefe,fefc,0000,fefe,fe00,fcfe,fefe,fefe,fe00,00fe,fefe,fefc,fe00,fefe,fcfc,fefe,0000,0000,0000,0000,fefe,fe00,fefe,00fe,0000,0000,fefe,00fe,00fe,0000,0200,fcfc,0000,00fc,0000,0000,00fe,fe00,0002,fe02,00fe,fe00,0000,f402,fa02,00fe,fcfc,fcfa,faf8,fefc,0002,fefc,fefe,00fc,f8f8,f8f8,f8fc,fefe,00fe,fafa,fefc,fe00,fcfa,fafa,fefc,fafe,fefa,fe02,fe02,0000,fafc,f8f8,fcfe,fcfc,fcfc,0000,00fc,fc06,0200,fefe,0002,fcfe,0204,00fe,00fc,0202,0604,0808,0002,00fe,fe00,00fc,fa00,0402,0000,0806,00fe,fefc,fefc,fefc,fefc,fcf8,fcfc,00fc,0002,0000,fefc,fefe,fe00,fefa,fafc,fafe,0202,0000,0000,00fe,fefe,fe00,fcfa,fa00,0202,fcfc,fe00,0000,0000,fe00,fefe,fef8,fef8,fefe,fefe,fefe,00fe,fe00,00f8,0002,00fc,fefa,fcfc,00fe,0000,fefe,fcfc,fe02,08fe,fafc,fefc,00fe,fefe,0000,fe00,fafa,f802,f800,fcfa,fefc,fcfc,fefe,fe00,fefe,fafa,fcfc,fcfe,fe00,fefc,fcfc,fe00,0000,fcfc,00fa,fefe,fcfc,fcfc,fcfc,fefe,fefc,fafe,fefe,fafe,fefa,fefe,fcfc,fefe,fefe,00fc,fcfe,fcfe,fe00,fcfc,fefe,fcfc,fefe,fcfe,fcfc,fcfe,0004,fefc,fe02,fcfe,fefc,fefe,fefe,fefe,02fe,0404,00fe,fcfe,fefc,00fe,fefe,00fc,00fa,fc00,fc00,fefe,fefe,fefe,fefe,fcfe,fefc,fcfa,fe00,0000,fcfc,fefe,fefe,00fe,fefe,fcfe,fc02,fefe,fcfc,fcfe,fefe,fefe,fc00,fefc,fefc,fcfe,00fc,fcfc,fefe,fcfc,fefe,fef8,fe00,fe00,00fc,fefc,fefc,fefe,00fe,fefe,fefc,fafe,0202,fefc,fcfe,fcfe,fefe,fefe,00fc,0200,fe04,fcfe,fefe,fefc,fcfe,fefc,fcfe,02fc,0202,0002,fefc,fcfe,fefe,fefe,fefc,02fc,0000,02fe,fc00,fc00,fefe,fefc,00fe,fcfe,04fe,fcfe,0202,fefe,fcfe,fefe,00fe,fefe,fefc,0804,0404,fefa,fcfe,fefc,fc00,fcfe,fefc,00fe,0402,00fe,fefe,0000,00fe,fc00,00fe,02fc,0000,fe06,fe04,f800,00fe,fc02,fc08,fcfa,0000,0404,fefe,fc0c,fcfe,fe00,0402,0004,fefe,00fe,00fe,0000,0000,0000,0000,0000,0000,0000,0000,0000,0000,0000,0000,0000,0000,0000,0000,0000,0000,0000,0000,0000,0000,0000,0000,0000,0000,0000,0000,0000,0000,0000,0000,0000,0000,0000,0000,0000,0000,0000,0000,0000,0000,0000,0000,0000,0000,0000,0000,0000,0000,0000,0000,0000,0000,0000,0000,0000,0000,0000,0000,0000,0000,0000,0000,0000,0000,0000,0000,0000,0000,0000,0000,0000,0000,0000,0000,0000,0000,0000,0000,0000,0000,0000,0000,0000,0000,0000,0000,0000,0000,0000,0000,0000,0000,0000,0000,0000,0000,0000,0000,0000,0000,0000,0000,0000,0000,0000,0000,0000,0000,0000,0000,0000,0000,0000,0000,0000,0000,0000,0000,0000,0000,0000,0000,0000,0000,0000,0000,0000,0000,0000,0000,0000,0000,0000,0000,0000,0000,0000,0000,0000,0000,0000,0000,0000,0000,0000,0000,0000,0000,0000,0000,0000,0000,0000,0000,0000,0000,0000,0000,0000,0000,0000,0000,0000,0000,0000,0000,0000,0000,0000,0000,0000,0000,0000,0000,0000,0000,0000,0000,0000,0000,0000,0000,0000,0000,0000,0000,0000,0000,0000,0000,0000,0000,0000,0000,0000,0000,0000,0000,0000,0000,0000,0000,0000,0000,0000,0000,0000,0000,0000,0000,0000,0000,0000,0000,0000,0000,0000,0000,0000,0000,0000,0000,0000,0000,0000,0000,0000,0000,0000,0000,0000,0000,0000,0000,0000,0000,0000,0000,0000,0000,0000,0000,0000,0000,0000,0000,0000,0000,0000,0000,0000,0000,0000,0000,0000,0000,0000,0000,0000,0000,0000,0000,0000,0000,0000,0000,0000,0000,0000,0000,0000,0000,0000,0000,0000,0000,0000,0000,0000,0000,0000,0000,0000,0000,0000,0000,0000,0000,0000,0000,0000,0000,0000,0000,0000,0000,0000,0000,0000,0000,0000,0000,0000,0000,0000,0000,0000,0000,0000,0000,0000,0000,0000,0000,0000,0000,0000,0000,0000,0000,0000,0000,0000,0000,0000,0000,0000,0000,0000,0000,0000,0000,0000,0000,0000,0000,0000,0000,0000,0000,0000,0000,0000,0000,0000,0000,0000,0000,0000,0000,0000,0000,0000,0000,0000,0000,0000,0000,0000,0000,0000,0000,0000,0000,0000,0000,0000,0000,0000,0000,0000,0000,0000,0000,0000,0000,0000,0000,0000,0000,0000,0000,0000,0000,0000,0000,0000,0000,0000,0000,0000,0000,0000,0000,0000,0000,0000,0000,0000,0000,0000,0000,0000,0000,0000,0000,0000,0000,0000,0000,0000,0000,0000,0000,0000,0000,0000,0000,0000,0000,0000,0000,0000,0000,0000,0000,0000,0000,0000,0000,0000,0000,0000,0000,0000,0000,0000,0000,0000,0000,0000,0000,0000,0000,
04fc,0004,0804,1814,0c0a,0608,0806,fe06,fe02,00fc,fcfa,0608,0e0e,0e04,1410,0afe,0408,0600,fe08,fcfa,0200,0606,100c,040a,fc04,0002,faf2,f0f4,0200,0c0c,0c0e,0206,fcfc,0802,fefe,eef0,02fe,0e0a,0a0e,0406,02fe,fcfc,f2f4,f2f6,fef6,0608,120e,060a,fafc,fcfc,fe00,f4f4,f2f0,0a08,100c,1012,00fe,f6f8,0004,f6f8,f4f2,0800,0a06,1010,f8fc,fafa,faf4,fc00,f0f6,fafa,0408,080a,f6fe,f4f0,f0f0,f6fa,fc06,f8f4,0806,0804,f6f8,ecea,f0f0,f4f2,fef8,fafa,04fe,0200,fafe,f4f4,f6fa,f4f4,f2f0,fa04,0204,0002,fe00,fcfe,fefa,f6f4,eeee,fcf4,0608,0004,fefe,fcfc,fcfc,fc00,fafe,f8f8,fc02,0808,0200,fefe,fcfc,0202,0a08,0002,0606,0400,0402,fe00,fe00,0202,0a04,0c0c,0c08,f8fc,00fe,fe00,0000,fefe,0202,0c0a,0a0a,040c,fafe,fefe,fefe,fafe,00fe,0604,0606,0a0a,fcfa,fafe,fe00,00fe,fefc,0204,0002,0404,0404,fefe,fefe,0000,0000,fe00,fefc,0404,0004,fafa,fcfc,0200,00fe,0000,fefe,02fe,0200,0602,fcfc,0000,0204,0200,fe00,fafc,0000,fafc,00fa,fefe,0400,0404,0002,fc00,fcfa,0000,0202,fe02,0200,0204,0204,00fe,fefe,fefe,00fc,fefe,fefc,0200,0002,fefe,0000,fcfe,fcfa,0204,fc00,fcfe,0000,fefe,0200,f8fc,fafa,02fc,fcfc,fefc,02fe,fe00,fefe,f6fa,f8f6,fcf4,fe04,fafc,fafa,fefe,f8f8,f0f6,f2f2,f4f6,fefc,fafc,f4f4,f6f4,f6f8,f2f0,eeec,f2ec,f6f2,0000,f2f0,eaec,eeec,ecee,e6e4,e8ea,f0ee,fcfa,f4f8,f0f0,e8e8,eaec,e8ea,e8ee,eef0,f8f0,0002,f2f4,ecee,e6ea,eaea,eaea,e8ec,ecee,fe00,f6fa,f6f4,eef2,f0f2,f2ea,f0e8,f2f2,fcf4,0208,f4f6,f4f4,f4f0,f4f6,f2ec,f2e8,f8f6,02fe,f8fe,f4f8,f8f8,fe02,f4f6,fcf2,f6f4,f8fc,0200,0c12,1610,040e,0604,0000,0002,0806,06fe,06fe,100a,0808,faf6,fefa,f8fc,04fe,0600,0004,1208,0606,f8fe,fafa,fefa,f2f0,04fc,fafc,0e06,080e,0002,fcf4,f8fa,f0f0,f2ec,0210,0002,0c08,0406,f6fc,fcfc,f4fa,eaea,fcfc,f802,0406,0406,fe02,fefa,fcfa,e6e8,eeea,0408,0202,0402,0202,fcfc,fafa,e8ec,f0e8,fcf6,f800,0404,0202,00fe,fe02,f0f4,f6f0,fcf8,0404,fcfc,0408,0404,0200,fefe,fefe,0806,0404,fc02,0202,0406,00fe,0002,0802,0808,0e0c,fe0a,fcf8,0406,fc02,0002,0000,0808,0806,0a0a,fcfa,0608,0404,0402,0206,0a08,060a,0202,fe02,f6fc,0404,0204,0202,0404,080c,fafc,0200,fcfe,080c,0404,0200,0204,0806,fc04,f4f2,fafc,fafa,0404,fe00,0402,0204,0002,f6f8,faf4,fa00,fefc,0202,00fe,0204,0202,00fe,fefe,0200,f802,fe04,0202,0200,0000,0002,0000,00fc,0200,fefe,00fe,fcfe,fefe,0000,0202,0204,00fe,fa04,fefe,fefe,fcfa,00fe,fe02,0002,fe02,0206,fc08,fcfe,fefc,fe00,0202,0200,00fc,fcfa,fe00,0002,0000,fefc,0202,0202,0400,f8fe,0200,0006,00fe,00fe,0000,0402,0604,fe04,02fe,00fe,0202,fe00,0202,0404,0806,0402,00fe,04fc,040e,00fe,02fe,0202,0808,0004,0604,020a,02fa,0404,fe02,0402,0602,0004,0404,fe00,fc06,0004,02fc,0402,0402,0000,0802,0206,0204,06fe,fafe,0402,0406,0202,0804,080a,0602,0000,0404,0202,0a06,0404,0604,0606,0406,00fe,0804,0408,06fe,0204,0002,fe02,0006,00f8,04fe,fe0c,fe00,00fe,fe00,fefe,f6fe,fa04,0208,0200,0604,f6f8,fa00,fafe,f4fc,fcfc,0800,06fe,020c,fe00,fcfa,f2f8,f8f4,f8f4,0006,0404,fcf4,0004,fcf8,f6f0,eeee,f4f0,fef4,0200,f4f8,060e,f8fe,ecf4,e4f0,e8ee,f8f2,fa00,0608,f0fc,0000,0000,0000,0000,0000,0000,0000,0000,0000,0000,0000,0000,0000,0000,0000,0000,0000,0000,0000,0000,0000,0000,0000,0000,0000,0000,0000,0000,0000,0000,0000,0000,0000,0000,0000,0000,0000,0000,0000,0000,0000,0000,0000,0000,0000,0000,0000,0000,0000,0000,0000,0000,0000,0000,0000,0000,0000,0000,0000,0000,0000,0000,0000,0000,0000,0000,0000,0000,0000,0000,0000,0000,0000,0000,0000,0000,0000,0000,0000,0000,0000,0000,0000,0000,0000,0000,0000,0000,0000,0000,0000,0000,0000,0000,0000,0000,0000,0000,0000,0000,0000,0000,0000,0000,0000,0000,0000,0000,0000,0000,0000,0000,0000,0000,0000,0000,0000,0000,0000,0000,0000,0000,0000,0000,0000,0000,0000,0000,0000,0000,0000,0000,0000,0000,0000,0000,0000,0000,0000,0000,0000,0000,0000,0000,0000,0000,0000,0000,0000,0000,0000,0000,0000,0000,0000,0000,0000,0000,0000,0000,0000,0000,0000,0000,0000,0000,0000,0000,0000,0000,0000,0000,0000,0000,0000,0000,0000,0000,0000,0000,0000,0000,0000,0000,0000,0000,0000,0000,0000,0000,0000,0000,0000,0000,0000,0000,0000,0000,0000,0000,0000,0000,0000,0000,0000,0000,0000,0000,0000,0000,0000,0000,0000,0000,0000,0000,0000,0000,0000,0000,0000,0000,0000,0000,0000,0000,0000,0000,0000,0000,0000,0000,0000,0000,0000,0000,0000,0000,0000,0000,0000,0000,0000,0000,0000,0000,0000,0000,0000,0000,0000,0000,0000,0000,0000,0000,0000,0000,0000,0000,0000,0000,0000,0000,0000,0000,0000,0000,0000,0000,0000,0000,0000,0000,0000,0000,0000,0000,0000,0000,0000,0000,0000,0000,0000,0000,0000,0000,0000,0000,0000,0000,0000,0000,0000,0000,0000,0000,0000,0000,0000,0000,0000,0000,0000,0000,0000,0000,0000,0000,0000,0000,0000,0000,0000,0000,0000,0000,0000,0000,0000,0000,0000,0000,0000,0000,0000,0000,0000,0000,0000,0000,0000,0000,0000,0000,0000,0000,0000,0000,0000,0000,0000,0000,0000,0000,0000,0000,0000,0000,0000,0000,0000,0000,0000,0000,0000,0000,0000,0000,0000,0000,0000,0000,0000,0000,0000,0000,0000,0000,0000,0000,0000,0000,0000,0000,0000,0000,0000,0000,0000,0000,0000,0000,0000,0000,0000,0000,0000,0000,0000,0000,0000,0000,0000,0000,0000,0000,0000,0000,0000,0000,0000,0000,0000,0000,0000,0000,0000,0000,0000,0000,0000,0000,0000,0000,0000,0000,0000,0000,0000,0000,0000,0000,0000,0000,0000,0000,0000,0000,0000,0000,0000,0000,0000,0000,0000,0000,0000,0000,0000,0000,0000,0000,0000,0000,
0000,fe02,fcfc,fefe,fefe,fcfc,fe00,0000,0402,fefe,fcfc,fcfc,fe00,fe00,fcfe,fefa,0000,fc00,fefc,fcfc,fe00,fefe,fefe,fefe,fefc,02fe,fefa,fcfc,fe00,fefe,fe00,fefe,fcfe,fefe,fc00,fefc,fefc,00fe,0000,fefe,fefe,fcfe,fefa,fefe,fcfe,fefe,0000,fefe,fefe,fefe,00fe,fe00,fafe,fefe,fe00,fe00,fefe,00fe,fefe,fefe,0000,fefe,fe00,fe00,fefe,00fe,fefe,00fe,00fe,0000,fefe,fefe,fefe,fefe,fefe,fefc,fe02,fe00,fe00,fefe,fefe,fefe,fefe,fefe,fcfc,00fe,0202,00fe,fe00,fefe,fefe,fefe,fefe,fe00,0000,fefe,fefe,fe00,fefe,fefe,fefe,fcfc,00fe,00fe,fe00,0000,fefe,fefe,fefe,fefe,fe00,fefe,fefe,fefe,fe00,fefe,fefe,fefe,00fc,0200,fe00,fefe,fefe,fefe,fe00,fe00,fefe,fe00,fefc,0000,00fe,fefe,00fe,fefe,fe00,0000,fefc,fefe,0000,fefe,fe00,fe00,fefe,00fe,fe00,00fc,fefe,fe00,fefe,00fe,fefe,fefe,00fe,fc00,fe02,fe00,fefe,fefe,fefe,fefe,fefe,fe00,fcfc,fcfe,fefc,fefe,fefe,fefe,fefe,fefe,fe00,fefc,fefe,fefe,fefe,fefe,00fe,fefe,02fe,fefc,fefe,fefe,fefe,fefe,fefe,fe00,fefe,0000,0000,00fe,fefe,fe00,fefe,fefe,fefe,fefe,0002,fe00,fe00,fefe,fefe,fefe,fefe,fe00,fcfe,0000,00fe,fefe,0000,00fe,fe00,fefe,fefe,00fe,00fe,fefe,fefe,fefe,fefe,fefe,00fe,fefe,fefe,fefe,fefe,fefe,fefe,fefe,fefe,fefe,fe00,00fe,fefe,fefe,fefe,fefe,fefe,0000,fefe,fe00,fe00,fe00,fe00,fefe,fefe,00fe,fe00,fefe,fefe,fefe,fefe,fcfe,fe00,00fe,fe00,00fe,fefe,fcfe,fe00,fefe,fefc,fe00,0000,fefe,00fe,fefe,fefe,fefe,fcfe,fefe,00fe,0000,0000,0000,fefe,fefe,0000,fefe,0000,02fa,0002,00fe,0000,fefe,fe02,fc00,0000,fe00,0200,f602,f6fe,00fe,00fc,faf8,fcfa,00fa,0000,fc02,fefe,fcfc,f8f8,f8fc,fcfc,fefe,02fe,fcfc,fefc,00fa,fcfc,fcfc,00fe,fcfe,fafc,fefe,fcfe,fcfc,fafc,fcfc,fcfc,fefc,fcfc,00fe,fefe,fa00,fafc,fcfe,fcfc,00fe,fefe,fefe,fcf8,fcfa,00fc,fe00,fefe,fefe,fefe,fefc,fcfc,02fe,fefe,fefe,fefe,fcfe,00fe,fefe,fefc,fefc,fefe,fcfa,fefc,00fe,fcfe,fefe,fefe,fefa,fefc,fefe,fefe,fefe,fcfe,fefe,fefe,00fe,fefc,fc00,fefc,fefe,fefe,0000,fe00,fe00,0000,faf8,fcfc,fefe,fefe,fefe,fefe,0000,fefa,fcfe,fefc,fefc,fefe,fefe,fefe,fefe,fefe,fa00,0000,fafe,fefc,fefe,fefe,00fe,fefe,fafc,f8fe,fafc,fcfc,fefe,fefe,fefe,fefe,fefe,fef8,fefa,fefe,fe00,fefe,fefe,fefe,00fe,fcfc,fafc,fefc,fefe,fefe,fefe,fefe,fe00,fcfe,fafe,fe00,fefa,fefe,fcfe,fefe,fefe,00fe,fefc,fcfe,fcfc,fcfc,fefc,fefe,fefe,fefe,fefc,fefe,0200,fcfe,fe00,fcfe,fefc,fefe,fefe,fe00,02fe,fe00,fefe,fefe,fefc,fefe,fefe,fefe,fefc,fefe,fe00,fefe,fefe,fefe,fefe,fefe,00fe,fe00,fefe,fe00,fefe,fefe,fefe,fefe,fcfe,f800,00fe,fefe,fefe,fefe,fefe,fefe,fefe,fefe,fefc,fcfc,fefe,fefe,fefe,fefe,fefe,fefc,fefe,fe02,fefc,fefe,fefe,fefe,fefe,fefe,02fe,fcfc,fe02,fefe,fefe,fefe,fefe,fefe,fefe,00fc,fe04,fcfe,fefe,fefe,fefe,fefe,fcfe,fe00,0000,0002,fefc,fefe,fefe,fefe,fefe,fefe,0400,0000,fefc,fe00,fefe,fcfe,fefe,fefe,0400,fc00,00fe,fcfe,fcfe,fcfe,fefe,00fe,fe00,0200,0000,fcf8,fefe,fefc,fcfe,00fe,fefe,fe02,00fe,0000,fcfa,fefe,fefe,fcfe,fefe,00fc,fe02,0004,fafe,fcfc,fe00,fe00,fc04,fafc,fefe,0202,fcfe,fa06,fefe,fefe,0404,0000,fefe,fefc,fefc,0000,0000,0000,0000,0000,0000,0000,0000,0000,0000,0000,0000,0000,0000,0000,0000,0000,0000,0000,0000,0000,0000,0000,0000,0000,0000,0000,0000,0000,0000,0000,0000,0000,0000,0000,0000,0000,0000,0000,0000,0000,0000,0000,0000,0000,0000,0000,0000,0000,0000,0000,0000,0000,0000,0000,0000,0000,0000,0000,0000,0000,0000,0000,0000,0000,0000,0000,0000,0000,0000,0000,0000,0000,0000,0000,0000,0000,0000,0000,0000,0000,0000,0000,0000,0000,0000,0000,0000,0000,0000,0000,0000,0000,0000,0000,0000,0000,0000,0000,0000,0000,0000,0000,0000,0000,0000,0000,0000,0000,0000,0000,0000,0000,0000,0000,0000,0000,0000,0000,0000,0000,0000,0000,0000,0000,0000,0000,0000,0000,0000,0000,0000,0000,0000,0000,0000,0000,0000,0000,0000,0000,0000,0000,0000,0000,0000,0000,0000,0000,0000,0000,0000,0000,0000,0000,0000,0000,0000,0000,0000,0000,0000,0000,0000,0000,0000,0000,0000,0000,0000,0000,0000,0000,0000,0000,0000,0000,0000,0000,0000,0000,0000,0000,0000,0000,0000,0000,0000,0000,0000,0000,0000,0000,0000,0000,0000,0000,0000,0000,0000,0000,0000,0000,0000,0000,0000,0000,0000,0000,0000,0000,0000,0000,0000,0000,0000,0000,0000,0000,0000,0000,0000,0000,0000,0000,0000,0000,0000,0000,0000,0000,0000,0000,0000,0000,0000,0000,0000,0000,0000,0000,0000,0000,0000,0000,0000,0000,0000,0000,0000,0000,0000,0000,0000,0000,0000,0000,0000,0000,0000,0000,0000,0000,0000,0000,0000,0000,0000,0000,0000,0000,0000,0000,0000,0000,0000,0000,0000,0000,0000,0000,0000,0000,0000,0000,0000,0000,0000,0000,0000,0000,0000,0000,0000,0000,0000,0000,0000,0000,0000,0000,0000,0000,0000,0000,0000,0000,0000,0000,0000,0000,0000,0000,0000,0000,0000,0000,0000,0000,0000,0000,0000,0000,0000,0000,0000,0000,0000,0000,0000,0000,0000,0000,0000,0000,0000,0000,0000,0000,0000,0000,0000,0000,0000,0000,0000,0000,0000,0000,0000,0000,0000,0000,0000,0000,0000,0000,0000,0000,0000,0000,0000,0000,0000,0000,0000,0000,0000,0000,0000,0000,0000,0000,0000,0000,0000,0000,0000,0000,0000,0000,0000,0000,0000,0000,0000,0000,0000,0000,0000,0000,0000,0000,0000,0000,0000,0000,0000,0000,0000,0000,0000,0000,0000,0000,0000,0000,0000,0000,0000,0000,0000,0000,0000,0000,0000,0000,0000,0000,0000,0000,0000,0000,0000,0000,0000,0000,0000,0000,0000,0000,0000,0000,0000,0000,0000,0000,0000,0000,0000,0000,0000,0000,0000,0000,0000,
0000,fe00,f8f8,02fe,00fc,fcfc,fe00,0202,0604,fefe,00fc,fcfa,0200,00fc,fefc,00fe,0000,00fe,fefc,00fa,0402,fefe,00fe,fcfe,fe00,0400,fefc,fafa,fa00,fefe,fe00,fefc,fefc,fcfe,fe04,faf8,0200,0404,fefe,00fc,fefc,fcfe,fefa,fe00,00fc,fe00,fcfe,fcfc,fefe,fcfe,fefe,0004,fe00,fefa,fefe,fefc,fefe,fe00,fcfc,00fe,0002,0200,0402,fefe,fefc,0000,fefe,fcfe,00fe,0204,0204,0604,fe00,00fe,fefe,fefc,fa04,0202,0200,0402,0202,00fe,fefe,fefc,fafc,fcfc,0400,0400,0002,0000,0000,fcfe,fe00,fcfa,fafc,0002,0000,fefe,fefe,fcfe,fefc,00fe,fa02,fafa,fcfe,fcfc,00fe,fefe,fcfe,0000,fc04,0000,fefc,fefe,fcfc,fefe,fefc,0000,0200,fe04,0604,fefe,fcfc,fefe,fefe,0000,0000,fcfc,04fe,0204,fe00,fefe,fe00,fefe,fe00,0000,fefa,02fe,0200,fefe,0000,fefe,00fe,0000,0002,fafa,fe02,fefe,0200,fefe,fefe,0000,fefe,fc02,fefe,fefe,0000,fefe,fcfe,fefe,fe00,fe00,fafc,0202,0002,fcfe,fcfc,fe00,fefe,fefe,00fe,0000,0204,fe00,fcfe,fefc,fefe,fefe,0400,fefc,0204,0200,fefe,fefe,fefe,fe00,fefe,fafe,0202,0404,fcfe,fefc,fefe,00fe,fefe,fcf6,fefc,fefe,fcfc,fcfc,fefe,0000,fcfe,fefc,fcfc,fe02,fefe,fefc,fefc,00fe,fe00,00fe,faf8,0400,0202,fafc,fcfc,fefc,0000,fefe,0000,0204,0202,fcfe,fefe,fcfc,fefe,0004,fefe,fef8,0204,0002,fcfe,fcfe,00fc,0202,0002,00fe,fefe,0000,fe00,fcfc,fafc,0000,0202,00fe,fafc,fcfe,fefe,fcfe,0000,fcfe,0000,fc00,fe00,fcfc,fefe,0000,00fe,fe00,00fc,0000,fefe,fcfc,fefe,0000,fefe,fefe,fcfe,0002,00fe,fe02,00fe,00fe,0202,0200,fe00,00fc,0000,04fa,0000,00fe,0002,0000,0000,fcfe,0000,0200,0000,f802,fc04,fc00,08fe,fef6,00fc,00f8,fe04,0608,02fa,fa00,f8fc,fafa,f8f6,fcfe,0000,0000,fcfe,fcfa,fafa,fcfc,fafc,fafa,fefa,0604,0000,fafa,f8fc,fcfa,faf8,00fc,fcfc,0004,0406,f600,f8fc,fafa,fcfa,fefa,fefc,02fe,00fc,fefc,0000,fcfc,fefe,fafa,fefe,fe00,fc00,04fe,fcf8,fe04,0200,fcfe,fcfe,0200,02fe,fafc,fcfe,02fe,fe02,0002,fefe,0002,fc02,0202,0000,f8fe,0400,0404,0002,02fe,fe00,04fe,fafe,f800,0000,0200,0202,0000,fefe,fe00,fafe,fefc,fcfc,0000,0200,00fe,fefe,fe00,fefa,fe06,fefc,00fa,0200,0200,0000,00fe,00fe,fefe,0000,fc00,00fc,0000,0002,0000,fefe,0400,0604,fe00,fc00,0004,0204,0000,0002,0002,00fc,fe00,00fe,02fe,0204,0402,0200,fe02,02fc,04fa,00fe,fcf8,0400,fe00,0204,0200,fcfe,0400,0000,00fc,fcfc,fefe,fe00,fefe,0000,fefc,f8fc,0200,fefc,00fe,fefe,fcfe,fefe,fefe,0006,0202,fc00,0000,0000,fe00,fefc,fe00,00fe,fe04,fe02,fefe,0000,fe00,fefe,fefe,0202,0000,fe06,fc00,0200,fe00,fefe,fefe,0200,f800,00fc,0000,0000,fefe,fefe,fefc,00fe,0400,fe06,00fe,0000,fe00,fefe,fefe,00fe,0200,0400,fe00,fcf8,fefe,0000,fefc,fefe,00fe,0202,fa04,0000,fefe,00fe,fcfc,fefe,00fe,0200,00fe,f802,02f8,00fe,fe00,fefc,fefe,0000,02fe,00fe,0000,fefe,fc00,fefe,fefc,fefc,0000,fc00,0400,02fa,fefc,fefe,fefe,fe00,00fe,0000,04fe,0000,fef8,fefe,fefe,fe00,fefe,0002,0204,0202,0202,fefa,fcfe,fe00,0000,00fe,0202,fe02,0604,06fe,02fe,fefe,02fe,0000,02fe,0604,fe00,0606,02fe,00fa,fe00,00fe,0000,0202,fe08,0202,fa08,fe02,0002,0202,fc02,0404,0002,fe08,08fe,fc0a,fe00,fefe,fe02,0206,fe02,0004,fe02,0000,0000,0000,0000,0000,0000,0000,0000,0000,0000,0000,0000,0000,0000,0000,0000,0000,0000,0000,0000,0000,0000,0000,0000,0000,0000,0000,0000,0000,0000,0000,0000,0000,0000,0000,0000,0000,0000,0000,0000,0000,0000,0000,0000,0000,0000,0000,0000,0000,0000,0000,0000,0000,0000,0000,0000,0000,0000,0000,0000,0000,0000,0000,0000,0000,0000,0000,0000,0000,0000,0000,0000,0000,0000,0000,0000,0000,0000,0000,0000,0000,0000,0000,0000,0000,0000,0000,0000,0000,0000,0000,0000,0000,0000,0000,0000,0000,0000,0000,0000,0000,0000,0000,0000,0000,0000,0000,0000,0000,0000,0000,0000,0000,0000,0000,0000,0000,0000,0000,0000,0000,0000,0000,0000,0000,0000,0000,0000,0000,0000,0000,0000,0000,0000,0000,0000,0000,0000,0000,0000,0000,0000,0000,0000,0000,0000,0000,0000,0000,0000,0000,0000,0000,0000,0000,0000,0000,0000,0000,0000,0000,0000,0000,0000,0000,0000,0000,0000,0000,0000,0000,0000,0000,0000,0000,0000,0000,0000,0000,0000,0000,0000,0000,0000,0000,0000,0000,0000,0000,0000,0000,0000,0000,0000,0000,0000,0000,0000,0000,0000,0000,0000,0000,0000,0000,0000,0000,0000,0000,0000,0000,0000,0000,0000,0000,0000,0000,0000,0000,0000,0000,0000,0000,0000,0000,0000,0000,0000,0000,0000,0000,0000,0000,0000,0000,0000,0000,0000,0000,0000,0000,0000,0000,0000,0000,0000,0000,0000,0000,0000,0000,0000,0000,0000,0000,0000,0000,0000,0000,0000,0000,0000,0000,0000,0000,0000,0000,0000,0000,0000,0000,0000,0000,0000,0000,0000,0000,0000,0000,0000,0000,0000,0000,0000,0000,0000,0000,0000,0000,0000,0000,0000,0000,0000,0000,0000,0000,0000,0000,0000,0000,0000,0000,0000,0000,0000,0000,0000,0000,0000,0000,0000,0000,0000,0000,0000,0000,0000,0000,0000,0000,0000,0000,0000,0000,0000,0000,0000,0000,0000,0000,0000,0000,0000,0000,0000,0000,0000,0000,0000,0000,0000,0000,0000,0000,0000,0000,0000,0000,0000,0000,0000,0000,0000,0000,0000,0000,0000,0000,0000,0000,0000,0000,0000,0000,0000,0000,0000,0000,0000,0000,0000,0000,0000,0000,0000,0000,0000,0000,0000,0000,0000,0000,0000,0000,0000,0000,0000,0000,0000,0000,0000,0000,0000,0000,0000,0000,0000,0000,0000,0000,0000,0000,0000,0000,0000,0000,0000,0000,0000,0000,0000,0000,0000,0000,0000,0000,0000,0000,0000,0000,0000,0000,0000,0000,0000,0000,0000,0000,0000,0000,0000,0000,0000,0000,0000,0000,0000,0000,0000,0000,0000,0000,0000,0000,0000,
fe02,0804,0200,fc00,0006,06fa,f200,02fa,0c08,fcfe,fe04,0a02,0202,fafe,0400,0004,f802,f8fa,fe00,fc00,fc00,fafa,f2f8,f8f0,06fe,f4fe,fe02,0800,fcf6,f2f0,f6f4,f6f2,fafa,fafe,fcfc,0002,fafc,faf6,f6f8,f4f2,fcee,00fc,f8fe,fcf6,fefe,fcfa,f4fa,ecf0,f2ec,fef8,fc00,fafc,fefc,fafe,fa00,f0f2,eef0,eeee,fefa,fafc,fafa,fcfc,0404,f4f4,f4f0,ece8,f4f4,fcfc,fafa,fefa,0200,f6fc,f0f2,f2f6,f0f2,faf2,f4f2,fefc,0200,fe04,f4f2,f8f4,f4f4,f2f2,f2f4,f6fa,0204,0404,f6f6,f6f6,f2f8,f4f6,f6f2,fef8,02fe,fefe,fc00,fcfc,fafa,fa00,f0f4,f6f6,fcf8,fafc,00fe,fefa,f6fa,fefe,0002,ece6,faf8,faf8,fafa,fcfe,0202,00fa,0404,f0fc,f6e8,f6f8,fafe,0202,00fe,fafc,0604,0606,e8ea,f8fa,fcfa,0402,fcfc,0202,0600,0408,f604,f8f2,f8fc,0202,0206,00fc,fefe,0608,0a08,f2f0,fcfc,fcfe,0604,00fc,0202,0804,060a,fc08,00fe,00fc,0202,0004,0604,00fe,0a0a,0606,fcfe,0202,0202,0408,0402,0206,0a06,0a08,0404,fcfc,0404,0404,0204,0a08,0400,0808,0a0a,080a,0002,0600,0608,0806,0408,0808,100c,0806,fe04,0202,0802,0606,080a,0402,0804,080c,060c,0002,0200,060a,080a,0404,0404,0a0a,0404,fe00,0000,0400,0402,0406,0002,0200,fcfe,f8fa,0008,0200,fcfe,0404,fefe,fcfc,fcfe,f8fc,fcfc,fcfc,fcfc,fcfa,fcfe,fcfa,fcfa,f6f8,f4f0,fe04,fcfc,fafa,fcfe,f8f8,fcfc,fcfc,f2f4,fcfa,f6fa,faf8,fcfa,f8f8,fcfa,fefc,fafc,faf8,fafc,f8f8,fafa,fcfc,faf8,fcfe,0000,fe00,0002,f8fa,fcfc,fefc,f8f8,fcfe,fefa,0604,0400,faf8,fcfc,fcfe,faf8,f8fc,fafc,0202,0208,0204,fcfe,fefc,f6fc,f8fc,faf8,fefe,0c08,04fc,fcfc,0402,fcf8,f8f4,f8f8,fcfc,0200,040a,0002,00fe,02fc,00fc,0204,0204,0004,fc00,0400,0206,fc02,fc00,00f8,fe00,0608,02fe,0c02,0a04,0000,fc02,f8f8,0404,0c08,0a0e,fefa,0406,fc10,f8f8,f4f2,00fc,0a06,0c10,0806,0afe,0e0a,fafe,eaf6,f8f2,0402,0e0a,0a0c,04fa,06fc,fefc,f0f6,f0ec,0200,0406,0a0a,0a0a,0600,0c0a,f4fc,f2f4,fefa,0404,0806,0602,0008,0202,fa02,f6f6,fef6,0002,0202,0004,0600,0404,080e,f6f6,fafa,0204,0402,0202,fefe,0606,04fc,00f4,fef8,00fe,00fe,0002,fefe,00fe,0202,120c,00fe,fe00,0002,0404,fefc,fefe,0a00,0a08,0202,0202,0404,0404,fe02,fcfc,fafe,0204,1002,0808,0406,0406,0408,fcf8,f6fc,f800,0402,04fe,080a,0608,0604,fafe,fcf8,f8f8,0006,1206,0c08,0608,0202,0004,02fe,fafc,00fa,0604,0a06,080a,0206,0200,0200,fe00,fa00,0002,100c,0c0a,0002,fc00,0206,0000,00fe,f6f2,0202,0406,0004,fcfc,0400,fe00,fc02,fa04,fe00,0a06,0602,f8fc,fcfa,0204,0200,0000,f6f8,0400,0806,f6fc,fafa,0402,fcfe,0202,fc02,0200,0a00,fefe,fcf8,fcf8,fe00,0000,0204,00fe,0406,fefc,fefc,fe00,0002,00fe,0402,00fe,0404,020c,f8fc,fefc,0200,0200,0002,fa00,0606,020a,f8fe,fefc,0200,0402,0202,0000,fcfa,0806,060e,f8f6,00fc,0604,0202,0202,f6f8,04fe,0e06,f604,fafa,0402,0204,0200,fcfe,fafa,0604,0402,f6f8,fefc,0402,0000,fcfe,fefc,fc02,0206,f800,faf6,fe00,f8f8,fcfa,fcfa,f6f4,08fe,020a,f6f6,fcfa,f6f6,fafa,fcfc,f6f6,f8fc,0004,0204,faf8,f8fa,faf6,fcfa,fcfe,f2f2,0000,0a0c,fefe,fcfc,f4f4,fefe,fe00,0600,fafe,0600,0206,0200,fafe,02fc,fefc,00fe,fef8,0c04,0c0a,0606,0204,fcfe,0006,0002,080c,0802,0006,0606,0c06,0400,080a,0408,100e,0c0a,0404,160a,0000,0000,0000,0000,0000,0000,0000,0000,0000,0000,0000,0000,0000,0000,0000,0000,0000,0000,0000,0000,0000,0000,0000,0000,0000,0000,0000,0000,0000,0000,0000,0000,0000,0000,0000,0000,0000,0000,0000,0000,0000,0000,0000,0000,0000,0000,0000,0000,0000,0000,0000,0000,0000,0000,0000,0000,0000,0000,0000,0000,0000,0000,0000,0000,0000,0000,0000,0000,0000,0000,0000,0000,0000,0000,0000,0000,0000,0000,0000,0000,0000,0000,0000,0000,0000,0000,0000,0000,0000,0000,0000,0000,0000,0000,0000,0000,0000,0000,0000,0000,0000,0000,0000,0000,0000,0000,0000,0000,0000,0000,0000,0000,0000,0000,0000,0000,0000,0000,0000,0000,0000,0000,0000,0000,0000,0000,0000,0000,0000,0000,0000,0000,0000,0000,0000,0000,0000,0000,0000,0000,0000,0000,0000,0000,0000,0000,0000,0000,0000,0000,0000,0000,0000,0000,0000,0000,0000,0000,0000,0000,0000,0000,0000,0000,0000,0000,0000,0000,0000,0000,0000,0000,0000,0000,0000,0000,0000,0000,0000,0000,0000,0000,0000,0000,0000,0000,0000,0000,0000,0000,0000,0000,0000,0000,0000,0000,0000,0000,0000,0000,0000,0000,0000,0000,0000,0000,0000,0000,0000,0000,0000,0000,0000,0000,0000,0000,0000,0000,0000,0000,0000,0000,0000,0000,0000,0000,0000,0000,0000,0000,0000,0000,0000,0000,0000,0000,0000,0000,0000,0000,0000,0000,0000,0000,0000,0000,0000,0000,0000,0000,0000,0000,0000,0000,0000,0000,0000,0000,0000,0000,0000,0000,0000,0000,0000,0000,0000,0000,0000,0000,0000,0000,0000,0000,0000,0000,0000,0000,0000,0000,0000,0000,0000,0000,0000,0000,0000,0000,0000,0000,0000,0000,0000,0000,0000,0000,0000,0000,0000,0000,0000,0000,0000,0000,0000,0000,0000,0000,0000,0000,0000,0000,0000,0000,0000,0000,0000,0000,0000,0000,0000,0000,0000,0000,0000,0000,0000,0000,0000,0000,0000,0000,0000,0000,0000,0000,0000,0000,0000,0000,0000,0000,0000,0000,0000,0000,0000,0000,0000,0000,0000,0000,0000,0000,0000,0000,0000,0000,0000,0000,0000,0000,0000,0000,0000,0000,0000,0000,0000,0000,0000,0000,0000,0000,0000,0000,0000,0000,0000,0000,0000,0000,0000,0000,0000,0000,0000,0000,0000,0000,0000,0000,0000,0000,0000,0000,0000,0000,0000,0000,0000,0000,0000,0000,0000,0000,0000,0000,0000,0000,0000,0000,0000,0000,0000,0000,0000,0000,0000,0000,0000,0000,0000,0000,0000,0000,0000,0000,0000,0000,0000,0000,0000,0000,0000,0000,0000,0000,0000,0000,0000,0000,0000,0000,0000,0000,
0000,fa00,fcfa,fefe,00fe,fcfc,fefe,0002,0004,fcfe,fefe,fafe,fefc,fefe,fcfc,fefa,0002,fc00,fcfc,faf8,fc00,fefe,fe00,fefe,fcfc,0404,fcfa,f8f8,f6fc,fcfe,fefe,0000,fcfe,fcfc,fc02,f8f8,fafc,0000,fefe,fefe,fefe,fefe,f8f6,fafe,faf8,fe00,fcfe,fcfe,fefe,fe00,fefc,fafe,f8fa,00fe,0000,fefe,fefe,0000,fefe,fe00,fcfc,fef8,0000,0202,fefe,0000,fcfe,fefe,fc00,fcfa,fefe,fefe,fefe,00fe,0000,fcfc,fc00,fcfa,fefe,00fe,fefe,fefe,fefe,fefe,fcfc,fa02,0002,00fe,fefe,fefe,fefe,fefe,fefe,fafe,00fe,fefe,0000,fefe,fefe,fefe,fefe,fcfc,0202,0404,0202,0000,0000,fefe,fcfe,fcfe,0002,00fe,0402,0200,0000,fefe,fefe,fefe,fefc,0202,0400,0002,0000,fefe,fefe,fefe,fefe,fc00,fefe,0202,00fe,fefe,fefe,fefe,fefe,00fe,fefc,02fe,0000,fefe,fefe,fe00,fefe,00fe,fc00,00fe,fefe,fefe,fefe,fe00,fefe,fefe,fefe,fafc,fe00,fcfe,fefe,fefe,fefe,0000,00fe,00fe,f6f8,fefc,fefe,fefe,fefe,fefe,fefe,fefe,fafc,fafa,fefc,fefe,0000,fefe,fe00,fe00,fefe,fafc,fefe,0000,0000,fefe,fefe,fefe,fefe,fefe,0000,0200,0002,fe00,fe00,00fe,fefe,fcfa,0202,0202,0000,0000,0000,fe00,fefe,fefe,fefe,0004,0000,fe00,0000,0000,fefe,fefe,fe00,0200,0002,fefe,0200,fe00,fefe,fcfe,fefe,fcfe,0002,fe00,fefe,0200,fe00,fefe,fefe,0000,0200,0000,fcfc,0000,0000,fefe,fefc,00fe,0200,0002,fe00,0002,0202,fefe,fefe,fefe,fefc,0000,0000,00fc,0000,fcfe,fefe,fefe,fa00,02fe,fefe,fefc,0002,0200,fefc,fefe,0000,fefe,fe00,fefe,fefe,0000,fefe,00fe,fefe,0002,fefe,fefe,fefe,0000,0002,fcfe,0000,04f8,0000,0000,fefe,fc00,0002,fc00,fefe,0000,0002,fc04,fa06,0404,00fe,fafa,faf8,00fa,00fe,fe02,fe02,0000,fafe,f8fe,fcfc,fefe,0408,fafe,00fe,0002,fe04,fefe,fefe,fe00,00fc,fefc,fc00,fefc,0004,fcfe,fcfe,0000,fafe,0202,00fe,fc02,fcfc,0202,00fe,fcfe,fe02,0204,00fc,fc02,fefe,fe00,0002,0000,0002,04fe,00fe,0202,00fe,fe02,fefc,fefc,fefe,00fe,fcfe,02fe,fefc,fcfc,fcfc,fefe,fefe,0000,0002,fefe,fe00,fc02,fefc,00fe,fefe,0000,00fe,0202,fcfa,fe00,fcfe,0000,00fe,0000,0200,fe02,0400,02fa,fefe,00fe,0002,0000,0002,fe00,fcfe,fe00,fe02,fcfc,0400,0202,0200,fe00,fefc,fc02,0604,0002,fefe,0202,00fe,0000,fe00,fefc,fc02,fc00,fafc,00fe,fe00,fe00,fefe,fefe,fefe,0000,fe00,fefe,00fe,fefe,fefe,0200,fefe,fcfc,0000,fefe,fefc,fefe,fefe,fefe,fe02,fcfe,0202,fefc,fcfc,fcfe,fe00,fe00,00fe,0000,fe02,00fc,fcfe,fefc,fefc,fefe,fe00,00fe,0002,040a,fe00,fefe,fcfc,00fe,0000,00fe,0002,0202,0002,fefe,fefe,00fe,0000,00fe,0000,0000,fe02,fe00,0000,0000,0000,0000,fe02,00fe,fcfe,0200,fe00,00fe,00fe,0000,0000,fefe,fe02,0002,0200,fe00,fe00,0000,0000,0000,fcfe,fcfe,fe00,fefc,00fe,fe00,fefe,0000,00fc,0000,0000,fcfc,fefc,fefe,fefe,fe00,fefe,fefe,fcfe,0000,fefc,fefe,fefc,fefe,fefe,0000,0204,0002,fa00,fefc,fcfc,fefe,fefe,fc00,0000,0000,0002,fe00,fefc,fefe,fefc,fefe,00fe,00fc,0604,fc00,fe00,fefe,00fc,0200,fefe,0400,fafe,0600,0004,fefe,fefc,fefe,00fe,fefe,fe02,0406,fefc,fe00,00fe,0000,0000,00fe,0202,0400,fefe,02fa,0004,fefe,fc00,02fc,00fc,fc00,fe02,fc00,fefc,00fe,0002,0004,fafe,0000,0600,0000,fe0a,00fe,0000,0404,0004,fe00,fefe,0000,0000,0000,0000,0000,0000,0000,0000,0000,0000,0000,0000,0000,0000,0000,0000,0000,0000,0000,0000,0000,0000,0000,0000,0000,0000,0000,0000,0000,0000,0000,0000,0000,0000,0000,0000,0000,0000,0000,0000,0000,0000,0000,0000,0000,0000,0000,0000,0000,0000,0000,0000,0000,0000,0000,0000,0000,0000,0000,0000,0000,0000,0000,0000,0000,0000,0000,0000,0000,0000,0000,0000,0000,0000,0000,0000,0000,0000,0000,0000,0000,0000,0000,0000,0000,0000,0000,0000,0000,0000,0000,0000,0000,0000,0000,0000,0000,0000,0000,0000,0000,0000,0000,0000,0000,0000,0000,0000,0000,0000,0000,0000,0000,0000,0000,0000,0000,0000,0000,0000,0000,0000,0000,0000,0000,0000,0000,0000,0000,0000,0000,0000,0000,0000,0000,0000,0000,0000,0000,0000,0000,0000,0000,0000,0000,0000,0000,0000,0000,0000,0000,0000,0000,0000,0000,0000,0000,0000,0000,0000,0000,0000,0000,0000,0000,0000,0000,0000,0000,0000,0000,0000,0000,0000,0000,0000,0000,0000,0000,0000,0000,0000,0000,0000,0000,0000,0000,0000,0000,0000,0000,0000,0000,0000,0000,0000,0000,0000,0000,0000,0000,0000,0000,0000,0000,0000,0000,0000,0000,0000,0000,0000,0000,0000,0000,0000,0000,0000,0000,0000,0000,0000,0000,0000,0000,0000,0000,0000,0000,0000,0000,0000,0000,0000,0000,0000,0000,0000,0000,0000,0000,0000,0000,0000,0000,0000,0000,0000,0000,0000,0000,0000,0000,0000,0000,0000,0000,0000,0000,0000,0000,0000,0000,0000,0000,0000,0000,0000,0000,0000,0000,0000,0000,0000,0000,0000,0000,0000,0000,0000,0000,0000,0000,0000,0000,0000,0000,0000,0000,0000,0000,0000,0000,0000,0000,0000,0000,0000,0000,0000,0000,0000,0000,0000,0000,0000,0000,0000,0000,0000,0000,0000,0000,0000,0000,0000,0000,0000,0000,0000,0000,0000,0000,0000,0000,0000,0000,0000,0000,0000,0000,0000,0000,0000,0000,0000,0000,0000,0000,0000,0000,0000,0000,0000,0000,0000,0000,0000,0000,0000,0000,0000,0000,0000,0000,0000,0000,0000,0000,0000,0000,0000,0000,0000,0000,0000,0000,0000,0000,0000,0000,0000,0000,0000,0000,0000,0000,0000,0000,0000,0000,0000,0000,0000,0000,0000,0000,0000,0000,0000,0000,0000,0000,0000,0000,0000,0000,0000,0000,0000,0000,0000,0000,0000,0000,0000,0000,0000,0000,0000,0000,0000,0000,0000,0000,0000,0000,0000,0000,0000,0000,0000,0000,0000,0000,0000,0000,0000,0000,0000,0000,0000,0000,0000,0000,0000,0000,0000,0000,0000,0000,0000,0000,0000,0000,0000,0000,
00fe,00fc,faf6,fefe,02fe,fefe,0200,02fe,0002,00fc,fefe,fafa,fafe,00fe,00fe,fefa,fefe,fefe,fcfc,fafa,fefe,fefe,fe00,fefe,fe00,0404,fafc,fafa,fafa,0200,fefe,00fe,fcfe,00fe,0000,fcfa,fafc,0400,0004,00fe,fefe,fcfc,fcf8,fcfe,fcfc,0204,0204,fefe,fefe,fcfe,fefc,fcfe,fcfa,0200,0202,fefe,fefe,fefe,fefe,0002,fefe,fefa,0404,0002,fe00,fcfe,fcfe,00fe,fcfe,fefc,0000,0202,fe00,fe00,fefe,fefc,0002,fcfc,fefe,0002,00fe,fe00,fe00,fcfe,fefc,fc00,00fe,02fe,0000,00fe,fe00,fe00,fefe,fcfa,fcfc,fe00,fe00,fefe,0000,fefe,fefe,fcfc,0002,00fe,fefe,fefe,0000,0000,fefe,fefe,fe04,fe00,0200,0000,0000,fefe,fefe,fefe,00fc,0002,0402,0002,0000,00fe,00fe,fefe,fefe,fefc,fcfa,0202,0202,00fe,fe00,fefe,fefe,0000,fafa,fcfa,00fe,fe00,fe00,fe00,fefe,fefe,fa00,fcfc,fcfe,00fe,fefe,fefe,fefe,fefe,fefe,fcfc,fe00,fcfe,fefe,fefe,fefe,00fe,00fe,fefe,fafc,fcfc,fefe,fefe,fefe,fefe,fefe,0000,fe00,fefe,fefc,fe00,fefe,fefe,fefe,fefe,fefe,fefe,fefe,fefe,0000,fefe,fefe,fefe,fefe,0000,0202,0000,0000,0000,fefe,00fe,fefe,fafc,0000,0000,fefe,fe00,fefe,fefe,fefe,fefe,fefc,00fe,fefe,0000,fefc,fefe,fefe,fefe,0000,fe00,0002,fe00,fefe,fefe,fefe,fefe,fefe,0002,fe00,fe00,00fe,00fe,fe00,fefe,fefe,0200,0002,fe00,fcfe,0000,00fe,fefe,fefe,00fe,0002,0000,fe00,0000,0000,fefe,fefe,00fe,fefe,0000,0000,00fe,00fe,fe00,fefe,fefe,fe00,00fe,fefe,fefe,fefe,fefe,fefe,fefe,0000,fefe,fefe,fefe,fefe,fefe,fefe,fefe,fe00,0204,00fe,fefe,fefe,fefe,fefe,0000,fe00,02fa,0000,0000,fefe,fefe,fcfe,fc00,0000,0000,0202,fc02,0004,0204,fefe,fcfe,fcfa,fcf8,0004,02fc,fc02,00fe,fc00,fe00,f8fa,0000,fe00,fafc,fe02,f800,0202,0402,fe00,fcfe,00fc,00fe,fe00,fe00,0002,0202,0002,00fc,fcfa,04fe,02fe,fa02,fcfe,0000,0202,00fe,fefe,0400,02f8,fefe,fefa,fe00,0204,00fe,0004,fcfe,fe02,0402,0000,fcfe,02fe,0000,0202,0204,fcfc,fefc,02fe,fcfe,fe00,0002,0000,0200,fc02,0000,fe04,fc00,00fe,0002,0000,0200,0002,00fc,02fa,00fe,fcfe,0000,fefe,0000,0202,fe02,00fe,fefa,fefe,fefe,fe00,00fe,0200,0202,fefc,fc02,fc00,fefc,0000,0000,0000,0000,fefe,fafc,0200,fcfc,fefe,0200,fe00,00fe,0000,fcfa,fefc,00fe,fcfa,0000,0000,fefe,fefe,fe00,00fc,0002,fefe,fefe,0000,fefe,fefe,fefe,00fe,00fc,fcfe,fefe,fefe,fefe,fcfe,fefc,fefe,00fe,fefe,fcfe,fefe,fefe,fefe,fefc,fefe,fe00,fcfe,fe00,fefc,fefe,fefe,fefe,fcfe,0000,0200,0400,0000,fe00,fefc,fefe,fefe,00fc,0000,04fe,fefe,fefe,fefe,fefe,fefe,fefe,00fe,fe00,fe00,fe00,0000,fe00,0000,fe00,fe00,fefe,00fc,fcfc,fe00,fefe,fefe,fefe,fe00,fe00,fa00,0002,fe00,fefc,fefe,fefe,fefe,fefe,00fe,fcfc,fcfc,fefe,fefe,fefe,fefe,00fe,fefe,00fe,0200,0000,fefe,fcfe,fefe,fefe,fefc,fcfc,fafc,fefe,fefe,fefc,fefe,00fe,fefe,0000,fefe,0002,fe00,fefe,fefc,fefe,00fe,fe00,02fc,fe00,00fe,00fc,fefe,fefe,fefe,fefe,00fc,fc00,0202,02fc,fe00,00fe,fefe,00fe,0000,02fe,fe00,0202,0202,fefe,00fe,00fe,02fe,fefe,0200,0004,02fe,fefe,fefc,fefe,00fe,00fe,fe00,0200,0404,02fe,00fe,fefe,fefe,fefe,04fe,fc02,0006,fa02,fe00,fe00,fefe,fe02,fafe,00fe,0802,fc02,fc06,0000,0000,0400,fe02,00fe,00fc,0400,0000,0000,0000,0000,0000,0000,0000,0000,0000,0000,0000,0000,0000,0000,0000,0000,0000,0000,0000,0000,0000,0000,0000,0000,0000,0000,0000,0000,0000,0000,0000,0000,0000,0000,0000,0000,0000,0000,0000,0000,0000,0000,0000,0000,0000,0000,0000,0000,0000,0000,0000,0000,0000,0000,0000,0000,0000,0000,0000,0000,0000,0000,0000,0000,0000,0000,0000,0000,0000,0000,0000,0000,0000,0000,0000,0000,0000,0000,0000,0000,0000,0000,0000,0000,0000,0000,0000,0000,0000,0000,0000,0000,0000,0000,0000,0000,0000,0000,0000,0000,0000,0000,0000,0000,0000,0000,0000,0000,0000,0000,0000,0000,0000,0000,0000,0000,0000,0000,0000,0000,0000,0000,0000,0000,0000,0000,0000,0000,0000,0000,0000,0000,0000,0000,0000,0000,0000,0000,0000,0000,0000,0000,0000,0000,0000,0000,0000,0000,0000,0000,0000,0000,0000,0000,0000,0000,0000,0000,0000,0000,0000,0000,0000,0000,0000,0000,0000,0000,0000,0000,0000,0000,0000,0000,0000,0000,0000,0000,0000,0000,0000,0000,0000,0000,0000,0000,0000,0000,0000,0000,0000,0000,0000,0000,0000,0000,0000,0000,0000,0000,0000,0000,0000,0000,0000,0000,0000,0000,0000,0000,0000,0000,0000,0000,0000,0000,0000,0000,0000,0000,0000,0000,0000,0000,0000,0000,0000,0000,0000,0000,0000,0000,0000,0000,0000,0000,0000,0000,0000,0000,0000,0000,0000,0000,0000,0000,0000,0000,0000,0000,0000,0000,0000,0000,0000,0000,0000,0000,0000,0000,0000,0000,0000,0000,0000,0000,0000,0000,0000,0000,0000,0000,0000,0000,0000,0000,0000,0000,0000,0000,0000,0000,0000,0000,0000,0000,0000,0000,0000,0000,0000,0000,0000,0000,0000,0000,0000,0000,0000,0000,0000,0000,0000,0000,0000,0000,0000,0000,0000,0000,0000,0000,0000,0000,0000,0000,0000,0000,0000,0000,0000,0000,0000,0000,0000,0000,0000,0000,0000,0000,0000,0000,0000,0000,0000,0000,0000,0000,0000,0000,0000,0000,0000,0000,0000,0000,0000,0000,0000,0000,0000,0000,0000,0000,0000,0000,0000,0000,0000,0000,0000,0000,0000,0000,0000,0000,0000,0000,0000,0000,0000,0000,0000,0000,0000,0000,0000,0000,0000,0000,0000,0000,0000,0000,0000,0000,0000,0000,0000,0000,0000,0000,0000,0000,0000,0000,0000,0000,0000,0000,0000,0000,0000,0000,0000,0000,0000,0000,0000,0000,0000,0000,0000,0000,0000,0000,0000,0000,0000,0000,0000,0000,0000,0000,0000,0000,0000,0000,0000,0000,0000,0000,0000,0000,0000,0000,0000,0000,0000,0000,0000,0000,0000,0000,0000,0000,
