memory_initialization_radix = 16;
memory_initialization_vector =
00fe,0202,fefc,fc00,fefe,fcfe,00fe,fefa,fc06,fefa,fe02,fafc,fefe,02fe,0000,fefe,fefe,0204,fefe,fefe,00fe,0000,0000,fefe,fefe,00fe,fa00,fefe,0002,fe00,00fe,00fe,fefe,fefe,fc02,00fc,00fe,fefc,00fe,00fe,0000,fefe,fefe,fefe,fefc,fcfc,fefe,00fe,fe00,fefe,fefc,00fe,00fc,fefc,fefe,fefe,fefe,0000,fefe,fefe,00fe,fcfe,00fe,fefe,fefe,fefe,fefe,fcfe,fefe,fe00,fefc,fefe,00fe,fefe,fe00,fefe,fafc,0000,0000,fefe,fefe,fefe,00fe,fefe,fcfc,0202,fe00,0000,00fe,fefe,fefe,fefe,fefe,00fc,0000,0000,fe00,00fe,fefe,fefe,fefe,fefe,fe00,00fe,fe00,fefe,fefe,fefe,fefe,fefe,fefc,fefe,fe00,fefe,fefe,fefe,fe00,fefe,fefe,0000,fe00,fefe,fefe,fefe,fefe,fefe,fefe,0000,00fe,00fe,fefe,fefe,fe00,fe00,fefe,fe00,fefc,0000,fe00,fefe,fefe,0000,fefe,fe00,0000,fe02,fefe,fefe,fefe,0000,fefe,fefe,fefe,0000,fe00,fcfe,fefe,0000,fefe,fefe,fefe,fe00,fc00,fcfc,fcfc,fefe,fefe,fefe,fefe,0000,0000,fefc,fefc,fefc,00fe,fefe,fefe,00fe,fefe,fefe,fefe,fefe,fefe,fefe,fefe,fefe,fefe,0000,00fe,fefe,fefe,fe00,fefe,fefe,00fe,fe00,fefe,00fe,fefe,00fe,fefe,fefe,fefe,fefe,fcfe,00fe,0000,00fe,00fe,fefe,fefe,fefe,fefe,fcfe,00fe,fefe,0000,fefe,fefe,fefe,fefe,fe00,fefe,fefe,fefe,0000,fe00,fefe,fefe,00fe,fe00,fefe,fefe,00fe,0000,fefe,fefe,fefe,fe00,0000,0000,00fe,0000,fe00,00fe,fefe,fe00,00fe,fefe,fe00,fefe,fefe,fcfe,00fe,00fe,fe00,fe00,fefe,fefe,fefe,fefe,fefe,fe00,fe00,fefe,fe00,fefe,fefe,fefe,fcfc,0000,0000,0000,fefe,fefe,fefe,fefe,fc00,00fe,0000,0200,fefe,00fe,0000,00fe,02fe,fe00,fe00,02fe,02fc,0002,fcfe,fefe,fafe,00fc,0000,00fe,0002,0002,fafc,fcfc,fefe,fcfe,fefc,0200,0204,0202,00fc,00f8,fcfa,fcfa,fa00,fcfc,00fe,0200,fc00,fefc,fcfa,fefc,fcfa,00fe,fcfe,00fe,02fc,fefe,fefe,fefe,fcfc,fefe,0000,0002,fe02,0000,fcfe,00fe,fcfe,fefe,fe00,00fc,00fe,fefe,fcfe,fefe,0000,fefe,00fe,fefe,fcfc,00fe,fcfe,fcfe,fe00,fefc,0000,fefe,fcfe,fefe,0000,fefe,00fe,fefe,fefe,fe00,fcfe,fcfe,02fc,fc00,fefe,00fe,fefe,fe00,fefe,fcfe,fef8,fe02,fefe,fefe,fefe,fe00,fefe,fe00,0000,06fc,00fe,fefe,fefe,fefe,00fe,00fe,fcfc,fefc,fe00,fefc,fefc,fefe,00fe,fefe,fe00,fefe,fc00,fefe,fefe,fefe,fefe,fefe,00fe,fefc,00fe,fcfc,fefe,fefe,fefe,00fe,fe00,fefe,fcfe,fcfe,fe00,fefe,fefc,fefe,fefe,fe00,fcfe,02fa,0002,fefe,fcfc,fefc,0000,fefe,fefe,fefc,fe00,fe00,fcfe,fefe,fefe,fe00,00fe,fafc,0000,02fe,fefc,fcfe,fefe,fe00,fefe,fefe,fcfe,00fe,fefe,fefe,fefe,fefe,fefe,00fe,fefe,00fe,fe02,fefe,fefe,fefe,fe00,fefe,fefe,fcfe,00fc,00fe,00fe,00fe,00fe,00fe,fefe,fe00,00fe,02fe,fe00,fefe,fefe,0000,fefe,fefe,00fe,fe02,fe00,fefe,fefe,00fe,00fe,00fe,0000,04fe,fcfc,fefe,fefe,fefe,00fe,0000,fc00,00fe,00fc,fe00,fefe,fefe,00fe,fe00,fefe,02fe,0200,fefc,00fe,fefe,fe00,fe00,fefe,fefe,0200,04fe,00fc,fe00,fefe,fefe,fe00,0000,0000,0204,00fa,fefe,fefe,fefe,fefe,fc00,fefc,0400,0604,fefc,00fe,fefe,fefe,fefe,fc00,fefe,0200,fa00,fe00,fefe,fefe,fefe,02fe,0000,fe00,04fe,fef8,fefc,00fe,fefe,fefe,00fe,fe02,00fe,00fe,fcfe,fefe,fefe,0200,00fe,00fe,02fe,0002,fcfe,00fa,fefc,0000,0202,0200,fe04,0002,0000,0000,0000,0000,0000,0000,0000,0000,0000,0000,0000,0000,0000,0000,0000,0000,0000,0000,0000,0000,0000,0000,0000,0000,0000,0000,0000,0000,0000,0000,0000,0000,0000,0000,0000,0000,0000,0000,0000,0000,0000,0000,0000,0000,0000,0000,0000,0000,0000,0000,0000,0000,0000,0000,0000,0000,0000,0000,0000,0000,0000,0000,0000,0000,0000,0000,0000,0000,0000,0000,0000,0000,0000,0000,0000,0000,0000,0000,0000,0000,0000,0000,0000,0000,0000,0000,0000,0000,0000,0000,0000,0000,0000,0000,0000,0000,0000,0000,0000,0000,0000,0000,0000,0000,0000,0000,0000,0000,0000,0000,0000,0000,0000,0000,0000,0000,0000,0000,0000,0000,0000,0000,0000,0000,0000,0000,0000,0000,0000,0000,0000,0000,0000,0000,0000,0000,0000,0000,0000,0000,0000,0000,0000,0000,0000,0000,0000,0000,0000,0000,0000,0000,0000,0000,0000,0000,0000,0000,0000,0000,0000,0000,0000,0000,0000,0000,0000,0000,0000,0000,0000,0000,0000,0000,0000,0000,0000,0000,0000,0000,0000,0000,0000,0000,0000,0000,0000,0000,0000,0000,0000,0000,0000,0000,0000,0000,0000,0000,0000,0000,0000,0000,0000,0000,0000,0000,0000,0000,0000,0000,0000,0000,0000,0000,0000,0000,0000,0000,0000,0000,0000,0000,0000,0000,0000,0000,0000,0000,0000,0000,0000,0000,0000,0000,0000,0000,0000,0000,0000,0000,0000,0000,0000,0000,0000,0000,0000,0000,0000,0000,0000,0000,0000,0000,0000,0000,0000,0000,0000,0000,0000,0000,0000,0000,0000,0000,0000,0000,0000,0000,0000,0000,0000,0000,0000,0000,0000,0000,0000,0000,0000,0000,0000,0000,0000,0000,0000,0000,0000,0000,0000,0000,0000,0000,0000,0000,0000,0000,0000,0000,0000,0000,0000,0000,0000,0000,0000,0000,0000,0000,0000,0000,0000,0000,0000,0000,0000,0000,0000,0000,0000,0000,0000,0000,0000,0000,0000,0000,0000,0000,0000,0000,0000,0000,0000,0000,0000,0000,0000,0000,0000,0000,0000,0000,0000,0000,0000,0000,0000,0000,0000,0000,0000,0000,0000,0000,0000,0000,0000,0000,0000,0000,0000,0000,0000,0000,0000,0000,0000,0000,0000,0000,0000,0000,0000,0000,0000,0000,0000,0000,0000,0000,0000,0000,0000,0000,0000,0000,0000,0000,0000,0000,0000,0000,0000,0000,0000,0000,0000,0000,0000,0000,0000,0000,0000,0000,0000,0000,0000,0000,0000,0000,0000,0000,0000,0000,0000,0000,0000,0000,0000,0000,0000,0000,0000,0000,0000,0000,0000,0000,0000,0000,0000,0000,0000,0000,0000,0000,0000,0000,0000,0000,0000,0000,0000,0000,
0400,02fe,fefa,f8fa,fcfc,f8fe,00fe,fefe,fc02,fef8,fe00,f800,fcfe,00fe,00fe,fefc,02fe,fe00,fcf6,fc00,fafa,fcf8,fefc,fefc,fcfa,0000,f8fe,fefa,0004,fcfc,fcfe,fefe,fefc,00fe,fe02,00fa,fefa,fcfc,fcfc,fefe,fefc,fcfe,fefe,0002,f8fc,fe00,fcfc,fcfe,fe00,fefe,fefe,fefc,fcfc,fafa,fc00,0000,fefe,fefc,fcfe,fefe,fe00,fefe,0002,00fe,fcfe,fcfe,fefe,fcfc,0000,fefe,04fe,fefe,fcfe,fcfc,fefe,fefc,fcfc,fcfc,0200,0000,fcfe,fcfc,fefc,fe00,fcfc,00fc,fafe,fe00,00fe,fefc,fcfc,0000,fe00,fefc,fafc,00fe,fe00,fcfc,fcfc,fefe,0000,fefe,0200,fefe,0000,0000,fefe,fcfc,00fe,fcfc,fcfa,fcfe,0002,0200,fefe,fefe,fefe,fefe,fefe,00fe,fcfc,0200,fefe,fefe,fcfe,00fe,fefc,0000,fcfc,fe00,0402,0000,fefe,fe00,fefe,fefe,fefc,f8fa,00fc,0202,0002,fefe,0000,fefe,00fe,fafe,fcfa,0202,0202,fefe,fefe,fefe,fefe,0202,fc00,fafc,0202,0002,fefe,fefe,fefe,fefe,fc02,fcfc,00fe,0200,fefe,fcfe,fefc,fefe,0200,fafe,fcfc,00fe,fe00,fefe,fefe,fefe,fefe,0000,fefc,fcfa,0202,fefe,fefe,fefc,fefe,0000,0000,fefe,00fe,0000,fcfe,fefe,fefe,fefe,fefe,02fc,00fe,0200,fe00,fefc,fefe,fefe,fefe,fe00,fefe,fefe,0404,fafc,fefc,fefe,fefe,fe00,fefa,fcfc,00fe,0004,fcfc,fefe,fefe,0200,fcfe,fefc,fe00,0602,fcfc,fefe,fcfe,fefe,0000,fcfc,fefe,0202,0406,fefc,fefe,fefe,00fe,fefe,fefe,0002,0604,fe02,fcfc,fefe,f800,fefe,fcfc,fefc,0200,0404,fcfe,fefe,00fe,fefe,fefe,fcfc,fefe,0402,fe02,fefc,fefe,0400,fefe,fe00,fcfc,00fe,0400,fafc,fefe,0000,0000,fefe,fcfe,fcfe,00fe,fe02,fefc,00fe,0000,00fe,0000,fefe,fcfe,02fe,fefe,fefe,0200,08f8,fc00,fa04,fefa,fa00,fefa,fefe,00fc,0002,fe00,fafe,02fe,fafa,f6fc,f8fc,0200,0404,0008,fefc,00fc,fefe,fafc,fcfe,00f8,0400,06fe,fcfe,fefc,0206,fefc,00fc,fcfe,fcfe,fe04,0200,fefa,00fe,fefe,0402,0200,fefc,0406,fafe,fa00,0002,0402,0202,0202,fe02,fefe,0602,00fc,fefc,0006,0204,0202,fe00,fc02,fcfe,06fe,fe00,0402,0400,02fe,fcfe,0000,0404,fe00,00fc,00fe,fe00,0004,0204,fefe,fefc,fcfe,0202,fe00,fe00,0404,0000,fcfe,00fe,00fe,02fc,0000,fe00,02fc,00fe,fe00,fefc,0002,fefa,08fe,fcfc,fefc,fe02,fe00,0000,00fe,fe00,02fc,00fe,00fe,fefa,00fe,fefe,fefe,fe02,fefc,fc04,fe00,fafa,0000,fe00,0200,02fe,00fe,0002,fe02,fcfc,fefc,0202,0200,fefe,fc00,fe00,06fe,fcfe,fafc,00fe,0002,00fe,fc00,f8fe,00fc,00fe,fcfe,fcfa,0200,fe00,fcfe,fcfe,fe02,0806,0004,fcfc,fcfc,0002,fcfc,fefc,f8fa,02fe,fefc,fefe,fcfc,fefe,fcfe,fafc,fefc,fafe,0202,fefc,fefe,fefc,0000,fcfe,fefc,00fa,fefe,fa02,00fe,fefe,00fe,fefe,fefe,00fe,fafc,00f8,0400,fefc,fefe,fe00,fcfc,0000,0000,0000,fefc,fe02,fcfc,fefe,fefc,fcfe,fcfe,0202,fc06,0000,fcfe,fcfc,fcfe,fefe,00fc,0000,0400,00fc,fcfc,fcfc,fefe,fefc,fcfe,fa00,fefe,00f8,0000,fefe,fcfc,fefe,fefc,fcfc,00fe,00fc,fc06,00fe,fefe,fe00,fcfc,fefe,fcfc,02fe,0002,fefc,fefe,fcfe,fcfc,fafe,fe04,0002,04fe,fef6,fe02,fcfc,fefc,fefc,fc00,fefe,fafe,0808,0000,fcfe,fcfc,fefc,fe02,fefc,00fe,0202,f8fc,fc04,fcfe,fefe,fe00,0002,0200,0002,0002,fcf8,0200,02fe,0400,00fe,0000,fefe,0006,0200,fcfe,fe02,fe04,0000,00fe,06fc,0202,0202,0200,0000,0004,fe02,0200,00fe,fc00,0202,0000,0000,0000,0000,0000,0000,0000,0000,0000,0000,0000,0000,0000,0000,0000,0000,0000,0000,0000,0000,0000,0000,0000,0000,0000,0000,0000,0000,0000,0000,0000,0000,0000,0000,0000,0000,0000,0000,0000,0000,0000,0000,0000,0000,0000,0000,0000,0000,0000,0000,0000,0000,0000,0000,0000,0000,0000,0000,0000,0000,0000,0000,0000,0000,0000,0000,0000,0000,0000,0000,0000,0000,0000,0000,0000,0000,0000,0000,0000,0000,0000,0000,0000,0000,0000,0000,0000,0000,0000,0000,0000,0000,0000,0000,0000,0000,0000,0000,0000,0000,0000,0000,0000,0000,0000,0000,0000,0000,0000,0000,0000,0000,0000,0000,0000,0000,0000,0000,0000,0000,0000,0000,0000,0000,0000,0000,0000,0000,0000,0000,0000,0000,0000,0000,0000,0000,0000,0000,0000,0000,0000,0000,0000,0000,0000,0000,0000,0000,0000,0000,0000,0000,0000,0000,0000,0000,0000,0000,0000,0000,0000,0000,0000,0000,0000,0000,0000,0000,0000,0000,0000,0000,0000,0000,0000,0000,0000,0000,0000,0000,0000,0000,0000,0000,0000,0000,0000,0000,0000,0000,0000,0000,0000,0000,0000,0000,0000,0000,0000,0000,0000,0000,0000,0000,0000,0000,0000,0000,0000,0000,0000,0000,0000,0000,0000,0000,0000,0000,0000,0000,0000,0000,0000,0000,0000,0000,0000,0000,0000,0000,0000,0000,0000,0000,0000,0000,0000,0000,0000,0000,0000,0000,0000,0000,0000,0000,0000,0000,0000,0000,0000,0000,0000,0000,0000,0000,0000,0000,0000,0000,0000,0000,0000,0000,0000,0000,0000,0000,0000,0000,0000,0000,0000,0000,0000,0000,0000,0000,0000,0000,0000,0000,0000,0000,0000,0000,0000,0000,0000,0000,0000,0000,0000,0000,0000,0000,0000,0000,0000,0000,0000,0000,0000,0000,0000,0000,0000,0000,0000,0000,0000,0000,0000,0000,0000,0000,0000,0000,0000,0000,0000,0000,0000,0000,0000,0000,0000,0000,0000,0000,0000,0000,0000,0000,0000,0000,0000,0000,0000,0000,0000,0000,0000,0000,0000,0000,0000,0000,0000,0000,0000,0000,0000,0000,0000,0000,0000,0000,0000,0000,0000,0000,0000,0000,0000,0000,0000,0000,0000,0000,0000,0000,0000,0000,0000,0000,0000,0000,0000,0000,0000,0000,0000,0000,0000,0000,0000,0000,0000,0000,0000,0000,0000,0000,0000,0000,0000,0000,0000,0000,0000,0000,0000,0000,0000,0000,0000,0000,0000,0000,0000,0000,0000,0000,0000,0000,0000,0000,0000,0000,0000,0000,0000,0000,0000,0000,0000,0000,0000,0000,0000,0000,0000,0000,0000,0000,0000,0000,0000,0000,0000,0000,0000,0000,0000,0000,
02fc,0202,fcfc,fe02,fefe,fcfe,0000,00fe,fa04,00fa,00fe,fcfe,fe00,00fe,fefe,fefe,fefe,0000,fcfa,fefe,00fc,fefe,fefe,fefc,fefe,0000,fc00,fefc,0204,00fe,fefe,00fe,fcfe,fefc,fcfe,fefc,00fe,fefe,fefe,fefe,0000,fefe,fefe,fe02,fefc,00fe,00fe,fefe,0000,fefe,fefe,fefe,00fe,fefe,fefe,fe00,fefe,fefe,fcfe,fefe,0200,fe00,0002,0000,fefe,fefe,fefe,fcfe,fefe,0200,fefe,fe00,0000,fefe,fefe,fcfe,fafc,00fe,0200,fe00,0000,fefe,fefe,fefe,fcfc,00fc,0204,0000,0000,0000,fefe,fefe,fefe,fefe,fefc,0000,0000,00fe,fefe,fefe,fefe,fcfc,fefe,fefe,0000,0000,fefe,fefe,fefe,fefe,fefe,fefe,0000,fe00,00fe,fefe,fefe,fefe,fefe,fe00,fefe,00fe,00fe,fe00,fefe,fefe,fefe,00fe,fefe,fefe,fefe,fefe,fefe,fefe,fefe,fefe,fefc,0000,fefe,fefe,fefe,fefe,fefe,fefe,0000,fcfe,fefe,fefc,fefe,fefe,fefe,fefe,fefe,0000,fe00,fcfc,fefe,fefe,fefe,fefe,fefe,00fe,fe00,fefe,fefe,fefe,fefe,fefe,fe00,0000,0000,fcfc,fcfc,fefe,fefe,fefe,fefe,fefe,00fe,fefc,fefc,fefe,fefe,fefe,fefe,fe00,00fe,fe00,0000,fe00,fe00,fefe,fefe,fefe,0000,0000,fefe,0000,fe00,fefe,fefe,fefe,00fe,fefe,fefe,0200,0000,fefe,fefe,fefe,fefe,fefe,0000,fefe,0000,fefe,fefe,fefe,fefe,fefe,fefe,0200,fe00,0000,fefe,fefe,fefe,fefe,fefe,00fe,0202,fe00,fefe,fefe,fefe,fefe,fefe,fefe,fe00,0000,0000,fefe,fefe,fefe,fefe,fefe,0000,fefe,fe00,fefe,fefe,fefe,fefe,0000,00fe,fe00,0000,fefe,fefe,fefe,fcfe,fefe,fefe,0400,fefe,fe00,fe00,fefe,fefe,fefa,0000,0000,0000,0000,fefe,fefe,fefe,fe00,00fe,0000,0000,0000,fefe,00fe,0200,0200,00fe,0000,00fc,02f8,fe00,fa00,fefe,fafe,fefc,fe00,00fc,fcfe,0000,f8fa,fcfc,fafa,fcfc,fcfc,fefe,fe00,0004,fefc,fefa,fafc,fcfc,fafe,fafe,00fc,02fe,fe00,fefa,fcfc,fcfc,fcfa,fefc,fafc,fcfe,0000,fcfa,fefc,fcfc,fefc,fefe,fcfe,00fe,fc02,00fe,fefe,fe00,fefc,00fe,fe00,fcfc,fcfe,fefc,00fe,fe00,fefe,fefe,0000,fcfe,fefc,02fe,fefe,fefe,fe00,fefe,00fe,00fe,fefe,fcfa,fe00,fefe,0000,fe00,0000,fefe,fcfe,fefc,00fe,fe00,fefe,00fe,00fe,0000,fefe,fcfe,02fa,fefe,fefe,fefe,0000,0000,fe00,fc00,fcfe,04fc,fefe,fefe,fefe,00fe,fefe,fefe,fefe,fefc,fefe,fefc,fefe,fefe,00fe,fefe,fefe,fcfc,fefe,0000,fefe,fefe,fefe,fefe,fefe,fefc,00fc,fcfc,fefe,fcfe,fefe,fe00,fefe,fcfe,fefe,fefc,fefc,fefe,fcfe,fefe,fefe,fefe,fcfc,fefc,fe00,fefe,fefe,fefe,fefe,fefe,fefe,fcfc,0200,fefe,fcfe,fefe,fefe,fcfe,fefe,fcfc,fe02,0000,fefe,fefe,fefe,fefe,fefe,fefe,fefc,0000,fcfe,fefe,fefe,fefe,fefe,00fe,fefe,fcfe,fcfe,fefe,fe00,fefe,fefe,fefe,fefe,fcfe,00fc,00fc,fefe,fefe,fefe,00fe,fefe,fefe,fc00,00fc,fefe,fefe,fefe,fefe,fefe,fe00,00fe,fc04,fefe,fefe,fefe,fefe,fe00,00fe,00fe,02fe,fcfa,fefe,fefe,fefe,fefe,00fe,fe00,fefe,fefc,fefe,fefe,fefe,fefe,00fe,fe00,0000,00fc,fefe,00fe,fefe,fefe,fefe,fefe,fefe,fe00,0200,fefe,fefe,fefe,fefe,fefe,fe00,fe00,0206,fafa,00fe,fefe,fefe,fefe,fe00,fefc,0202,0204,00fc,fefe,fefe,fefe,00fe,fefe,fefe,00fc,fa00,fefe,fe00,fefe,fefe,0000,0000,00fe,04fe,fcfa,fefc,fefe,0000,00fe,fe00,fe02,fefe,04fe,fcfc,fefe,00fe,0000,00fe,02fe,04fe,fe02,fc02,fefc,fefe,0000,fe00,00fe,fe02,fe00,0000,0000,0000,0000,0000,0000,0000,0000,0000,0000,0000,0000,0000,0000,0000,0000,0000,0000,0000,0000,0000,0000,0000,0000,0000,0000,0000,0000,0000,0000,0000,0000,0000,0000,0000,0000,0000,0000,0000,0000,0000,0000,0000,0000,0000,0000,0000,0000,0000,0000,0000,0000,0000,0000,0000,0000,0000,0000,0000,0000,0000,0000,0000,0000,0000,0000,0000,0000,0000,0000,0000,0000,0000,0000,0000,0000,0000,0000,0000,0000,0000,0000,0000,0000,0000,0000,0000,0000,0000,0000,0000,0000,0000,0000,0000,0000,0000,0000,0000,0000,0000,0000,0000,0000,0000,0000,0000,0000,0000,0000,0000,0000,0000,0000,0000,0000,0000,0000,0000,0000,0000,0000,0000,0000,0000,0000,0000,0000,0000,0000,0000,0000,0000,0000,0000,0000,0000,0000,0000,0000,0000,0000,0000,0000,0000,0000,0000,0000,0000,0000,0000,0000,0000,0000,0000,0000,0000,0000,0000,0000,0000,0000,0000,0000,0000,0000,0000,0000,0000,0000,0000,0000,0000,0000,0000,0000,0000,0000,0000,0000,0000,0000,0000,0000,0000,0000,0000,0000,0000,0000,0000,0000,0000,0000,0000,0000,0000,0000,0000,0000,0000,0000,0000,0000,0000,0000,0000,0000,0000,0000,0000,0000,0000,0000,0000,0000,0000,0000,0000,0000,0000,0000,0000,0000,0000,0000,0000,0000,0000,0000,0000,0000,0000,0000,0000,0000,0000,0000,0000,0000,0000,0000,0000,0000,0000,0000,0000,0000,0000,0000,0000,0000,0000,0000,0000,0000,0000,0000,0000,0000,0000,0000,0000,0000,0000,0000,0000,0000,0000,0000,0000,0000,0000,0000,0000,0000,0000,0000,0000,0000,0000,0000,0000,0000,0000,0000,0000,0000,0000,0000,0000,0000,0000,0000,0000,0000,0000,0000,0000,0000,0000,0000,0000,0000,0000,0000,0000,0000,0000,0000,0000,0000,0000,0000,0000,0000,0000,0000,0000,0000,0000,0000,0000,0000,0000,0000,0000,0000,0000,0000,0000,0000,0000,0000,0000,0000,0000,0000,0000,0000,0000,0000,0000,0000,0000,0000,0000,0000,0000,0000,0000,0000,0000,0000,0000,0000,0000,0000,0000,0000,0000,0000,0000,0000,0000,0000,0000,0000,0000,0000,0000,0000,0000,0000,0000,0000,0000,0000,0000,0000,0000,0000,0000,0000,0000,0000,0000,0000,0000,0000,0000,0000,0000,0000,0000,0000,0000,0000,0000,0000,0000,0000,0000,0000,0000,0000,0000,0000,0000,0000,0000,0000,0000,0000,0000,0000,0000,0000,0000,0000,0000,0000,0000,0000,0000,0000,0000,0000,0000,0000,0000,0000,0000,0000,0000,0000,0000,0000,0000,0000,0000,0000,0000,0000,0000,0000,
00fe,0402,fefc,fc00,fefc,fcfe,0200,00fa,fa04,00f8,0000,fafc,fc00,00fe,00fe,fefe,00fe,00fe,00fa,fefe,00fc,fefe,fefe,fefe,fefc,0002,fc00,00fe,0202,fefe,fefe,fefe,fefe,fefc,fe00,00fc,00fc,00fe,fefe,fefe,fefe,fefe,fefe,fe02,fcfc,fefc,fefe,fefe,fefe,fefe,fefe,fe00,fefe,fe00,fefc,00fe,fefe,fefe,fefe,fefe,0402,0000,0002,0000,fefe,fefe,fefe,fcfc,0000,0200,fefe,0000,0000,fefe,fe00,fcfe,fafc,0000,0402,0000,0000,fefe,fefe,fefe,fefc,fefe,0406,0000,0000,00fe,fefe,fefe,fefe,fefe,00fc,0002,0002,0000,fefe,fefe,fefe,fefe,00fe,0000,0202,0000,00fe,fefe,fefe,fefe,fcfe,0002,0000,0000,fe00,0000,fefe,fefe,fefe,0000,fe00,0000,fefe,fefe,fefe,fefe,fefe,fe00,0200,0000,00fe,fe00,00fe,fefe,fefe,fefe,00fc,0000,fefe,00fe,00fe,fefe,fefe,fe00,fefe,fc00,fefe,fefe,fefe,fefe,fefe,fe00,fefe,00fe,0002,fcfe,fefe,fe00,fefe,fefe,fe00,fefe,fcfe,fefe,fefe,fefe,fefe,fefe,fefe,fefe,00fe,fcfc,fcfc,fefe,fefe,fefe,fefe,00fe,fefe,fcfc,fefe,fefe,0000,fefe,fefe,fefe,fefe,fe00,00fe,0000,fe00,fefe,fefe,fefe,fe00,fefe,fefe,02fe,0000,fefe,fefe,fefe,00fe,fefe,fefe,0000,0000,0000,fefe,fefe,fefe,fefe,fefe,fcfe,02fe,0000,fe00,fefe,fefe,00fe,fefe,0200,fefe,0200,0000,fe00,fefe,00fe,fefe,00fe,0202,0000,0000,00fe,fefe,00fe,fefe,fefe,fefe,0000,0200,0000,0000,fe00,fefe,fefe,fe00,fefe,0000,fe00,00fe,fefe,fefe,00fe,00fe,fefe,0000,fefe,fefe,fefe,fcfe,00fe,fefe,0000,00fe,0000,0000,fefe,fe00,fcfa,fe00,0000,0000,0000,fefe,00fe,fe00,fe00,0000,0000,0000,0000,0000,fefe,0200,0400,00fe,00fe,02fc,02f8,fc04,fcfe,fe00,fa00,fefc,0000,00fa,fcfe,0202,fafa,fcfe,fcfc,fcfc,fcfc,00fe,0002,0202,fefc,fefa,fcfa,fcfc,fafe,fafc,00fe,0200,fa00,00fc,fefc,fefe,fcfc,fefc,fcfe,fefe,02fc,fcfc,fefc,fefe,00fc,00fe,fefa,0000,fa02,0000,0000,0200,fefe,0000,fe00,fcfc,fe00,fefc,0200,fc00,0000,0000,0000,fefe,fefe,00fe,fefe,0000,0002,fefe,0000,00fe,fe00,00fc,fcfe,00fe,0202,0000,0000,0000,fcfe,fefe,02fe,fe00,fefe,0000,00fe,0000,fefe,fcfe,00fa,fefe,fefe,0000,0000,0000,0000,fe00,0000,04fc,fefe,00fe,fefe,0000,fefe,fefe,fefe,00fc,fefe,00fc,fefe,fefe,fe00,00fe,fe00,fefc,fafe,00fe,fefe,00fe,fefe,fe00,fe00,fefc,02fe,fefe,fefc,fcfc,fefe,fefe,fefe,fefe,fe00,00fe,fefe,fcfe,fcfc,fefe,fefe,fefe,fcfe,fefc,0202,fefe,fefc,fefc,fefe,fcfe,fefe,fcfe,0200,fe00,fcfc,fefe,fefe,fcfe,00fe,fafc,0200,0200,fefe,fefe,fefe,fefe,fefe,fefe,fefe,0002,fcfe,fefe,fefe,fefe,fefe,fefe,00fe,fefe,fc00,fefe,fe00,fefe,fefe,fefe,fefe,fcfe,fefa,00fe,00fe,fe00,fefe,fefe,fefe,fefe,fefc,02fc,fcfe,fefe,fefe,fefe,fe00,fefe,02fe,fa06,0000,fefe,fefe,fefe,00fe,0000,00fe,06fe,fcfe,fefe,fefe,fefe,fefe,fefe,fc00,00fc,00fa,0000,fefe,fcfe,fefe,fe00,fefe,00fe,00fe,fe00,fe00,fefe,fefe,fefe,fefe,fefe,0000,00fe,00fc,fe00,fefe,fefe,fefe,fe00,fe00,0402,fefa,0000,fefe,fcfc,fefc,fcfe,fefc,0000,0204,00fe,0000,fefe,fefc,fefe,fc00,fe00,0000,fa04,fe00,fefe,fefe,fefe,0000,fefe,fefe,0600,00fa,00fe,fefe,0000,0000,fefe,fe00,fefc,0000,fcfe,fefc,00fe,0200,fefe,04fe,02fe,fe02,0002,00fe,fefe,0002,fe02,0000,fe02,fe00,0000,0000,0000,0000,0000,0000,0000,0000,0000,0000,0000,0000,0000,0000,0000,0000,0000,0000,0000,0000,0000,0000,0000,0000,0000,0000,0000,0000,0000,0000,0000,0000,0000,0000,0000,0000,0000,0000,0000,0000,0000,0000,0000,0000,0000,0000,0000,0000,0000,0000,0000,0000,0000,0000,0000,0000,0000,0000,0000,0000,0000,0000,0000,0000,0000,0000,0000,0000,0000,0000,0000,0000,0000,0000,0000,0000,0000,0000,0000,0000,0000,0000,0000,0000,0000,0000,0000,0000,0000,0000,0000,0000,0000,0000,0000,0000,0000,0000,0000,0000,0000,0000,0000,0000,0000,0000,0000,0000,0000,0000,0000,0000,0000,0000,0000,0000,0000,0000,0000,0000,0000,0000,0000,0000,0000,0000,0000,0000,0000,0000,0000,0000,0000,0000,0000,0000,0000,0000,0000,0000,0000,0000,0000,0000,0000,0000,0000,0000,0000,0000,0000,0000,0000,0000,0000,0000,0000,0000,0000,0000,0000,0000,0000,0000,0000,0000,0000,0000,0000,0000,0000,0000,0000,0000,0000,0000,0000,0000,0000,0000,0000,0000,0000,0000,0000,0000,0000,0000,0000,0000,0000,0000,0000,0000,0000,0000,0000,0000,0000,0000,0000,0000,0000,0000,0000,0000,0000,0000,0000,0000,0000,0000,0000,0000,0000,0000,0000,0000,0000,0000,0000,0000,0000,0000,0000,0000,0000,0000,0000,0000,0000,0000,0000,0000,0000,0000,0000,0000,0000,0000,0000,0000,0000,0000,0000,0000,0000,0000,0000,0000,0000,0000,0000,0000,0000,0000,0000,0000,0000,0000,0000,0000,0000,0000,0000,0000,0000,0000,0000,0000,0000,0000,0000,0000,0000,0000,0000,0000,0000,0000,0000,0000,0000,0000,0000,0000,0000,0000,0000,0000,0000,0000,0000,0000,0000,0000,0000,0000,0000,0000,0000,0000,0000,0000,0000,0000,0000,0000,0000,0000,0000,0000,0000,0000,0000,0000,0000,0000,0000,0000,0000,0000,0000,0000,0000,0000,0000,0000,0000,0000,0000,0000,0000,0000,0000,0000,0000,0000,0000,0000,0000,0000,0000,0000,0000,0000,0000,0000,0000,0000,0000,0000,0000,0000,0000,0000,0000,0000,0000,0000,0000,0000,0000,0000,0000,0000,0000,0000,0000,0000,0000,0000,0000,0000,0000,0000,0000,0000,0000,0000,0000,0000,0000,0000,0000,0000,0000,0000,0000,0000,0000,0000,0000,0000,0000,0000,0000,0000,0000,0000,0000,0000,0000,0000,0000,0000,0000,0000,0000,0000,0000,0000,0000,0000,0000,0000,0000,0000,0000,0000,0000,0000,0000,0000,0000,0000,0000,0000,0000,0000,0000,0000,0000,0000,0000,0000,0000,0000,0000,0000,0000,0000,0000,0000,0000,0000,
fafc,0000,00f6,f6f4,f6fe,f2f0,f0f6,fefe,fafe,06fc,fafa,eaea,f0f4,eae8,ecec,f2ee,00f8,04fc,f8fa,eeea,f8f6,ecf2,f2ee,f4ee,f4f8,fe02,fe00,ece6,f2f0,fc04,eef2,f2f2,faf6,fcf6,06fe,f2f6,f4ea,0602,fc04,f2f6,faf4,fe00,fcfc,fa04,ecee,0200,0a0a,0206,fe00,0402,0606,0402,eef0,fef8,1412,0e0e,0204,0602,0e0a,fcfe,f0f8,f6f4,100c,1416,0e0e,0a0c,0a0c,0408,f6fa,f0ee,06fe,1616,1414,1010,0a08,0c08,f400,ecee,0000,1410,1010,0e10,0606,0608,0404,f4f4,fcfc,0c0c,0a0a,0606,0000,0602,0a08,fc00,f8f2,0a06,fe02,fcfe,f8f8,fcfa,0e0c,fe02,f8fe,0808,fc00,f8fc,fcfe,fefc,0406,080e,f4fc,06fa,0404,0002,fcfc,fefc,00fe,0c02,fcfc,fa00,0c0c,0804,fe02,fefe,fc00,0006,060e,f8f8,0804,0206,0606,0002,02fe,0404,06fe,f2fa,0004,060a,0202,0200,02fc,0000,fe00,0406,f8f6,0804,02fe,02fe,fefe,fe02,0002,0200,f6fc,0604,fa00,fcfc,fafc,0000,00fc,00fe,0206,faf8,0002,fafa,fcfc,fafa,fefc,fe00,00fe,fafc,0400,0002,f8fa,fafa,fafa,fefe,0000,fc00,fcf8,0204,fcfe,f8f6,f8fa,fafc,fefc,04fe,f6f8,00f8,fcfa,f8f8,f8f8,f8f8,fefc,0200,f8fa,fcfc,0000,fe00,f8fa,fcfa,fcfc,0002,fa02,fcfa,fafa,fa00,fafc,fefe,00fe,02fe,0002,f6f8,fcfa,fefe,fc00,02fe,0204,0202,0404,f8fa,faf6,f8fa,00fa,0400,0a08,0404,fe00,f8fc,f4f4,fefc,f4f6,fcf8,0a06,0206,fe02,faf8,faf8,fcfe,fafc,f6f6,fcf8,fe04,fcfa,fafa,f8f8,fefc,00fe,fefe,f8f6,fefc,fafa,fefe,02fa,fefe,00fe,fefc,0000,fcfe,fcfe,fcfa,0002,fefe,fefe,0200,00fc,0000,fefe,fafc,fefa,0002,00fe,0000,0000,fefe,0000,f4fa,fafa,faf8,fe00,00fe,0002,0000,0000,fe00,f6f6,f8fc,00fc,fefe,00fc,0806,fe00,f4f8,fe00,fefe,0806,fc00,0600,0404,0604,f800,04fe,0402,0806,0604,040c,00fa,f402,0204,0806,0002,0606,0406,0e08,fe04,fc02,0600,060c,060a,0406,0c0c,1212,100c,fcfc,0200,0e04,0c0c,0e0e,1212,1614,1a1c,0400,0600,fefa,1014,0e12,1814,1a1a,1e1e,1214,0002,fcfc,120a,1214,1414,1e1a,1a1e,1016,0204,00fa,0a06,1212,0e12,1616,1618,0e0c,0202,fcf0,04fc,1414,0a10,1010,0a0e,0206,00fe,faf6,0204,120e,0a0e,fefc,fefe,f8f6,fa00,00fe,fcf6,0afe,0a12,f6fc,f0f4,f8fa,0400,f6f6,f2f6,0004,0c0e,fafc,f2f6,f4f2,fcf6,f8fe,fcf6,f6fc,1000,fc02,f6f8,f2f4,f6f4,fefc,f4f6,f6f6,0800,040c,f8f6,f4f8,f2f4,f4f2,f6fc,f6fc,fef2,0406,f2f6,f8f6,f2f2,f0ee,f6f4,faf8,00fe,00fe,fc02,f6f8,f2f4,f2f2,f4f0,f8f6,f8fc,fef6,0000,fcfa,f6f6,f6f2,f6f4,faf6,02fa,f6f6,fcfe,fa00,f8fc,fafe,fafa,f8f4,fefa,f8f8,faf2,fcfa,fcfc,fcfc,fcfc,fafc,f8fc,fe00,f6f4,00f4,faf8,fe02,00fe,0000,fafa,00fa,faf4,f8fa,f8fa,fcfa,00fe,0002,fe00,fcf8,f6f8,faf6,fefe,f8f4,fefc,0602,0406,fe00,f6f8,f6fa,fc02,f8fe,f8f4,0000,0a0a,0408,fafe,f4f6,f6f8,00fc,f6f6,fafc,0600,0808,fe04,f6fa,f0f4,02fe,fcf4,f6f4,fefc,0606,0606,00fa,eeea,f6fa,04fa,f6f4,f6f6,fefe,fefc,fc02,f6f4,f4ee,fefe,f4fc,f8f0,fef8,f8fa,fef8,f8fa,f4f2,f8fa,0400,f8f8,f6fa,fafa,f8f8,faf8,f8fc,fcf8,04fe,f0f8,fef8,fef8,f8fe,f8fc,fcfa,f4fa,fcfe,00fe,f8fc,fafc,fefc,fafc,00fc,0000,f800,faf4,fafc,faf0,fafe,0204,fcfc,0202,fc00,0000,fafe,f8fc,00fe,fafe,fc02,00fa,0004,fcfc,fe06,fa06,fcf2,f8fa,fcfe,f8f6,08fa,fc02,0202,0200,f8f2,f2f8,fafa,f8fa,fcfa,fefc,fefa,fcfc,0000,0000,0000,0000,0000,0000,0000,0000,0000,0000,0000,0000,0000,0000,0000,0000,0000,0000,0000,0000,0000,0000,0000,0000,0000,0000,0000,0000,0000,0000,0000,0000,0000,0000,0000,0000,0000,0000,0000,0000,0000,0000,0000,0000,0000,0000,0000,0000,0000,0000,0000,0000,0000,0000,0000,0000,0000,0000,0000,0000,0000,0000,0000,0000,0000,0000,0000,0000,0000,0000,0000,0000,0000,0000,0000,0000,0000,0000,0000,0000,0000,0000,0000,0000,0000,0000,0000,0000,0000,0000,0000,0000,0000,0000,0000,0000,0000,0000,0000,0000,0000,0000,0000,0000,0000,0000,0000,0000,0000,0000,0000,0000,0000,0000,0000,0000,0000,0000,0000,0000,0000,0000,0000,0000,0000,0000,0000,0000,0000,0000,0000,0000,0000,0000,0000,0000,0000,0000,0000,0000,0000,0000,0000,0000,0000,0000,0000,0000,0000,0000,0000,0000,0000,0000,0000,0000,0000,0000,0000,0000,0000,0000,0000,0000,0000,0000,0000,0000,0000,0000,0000,0000,0000,0000,0000,0000,0000,0000,0000,0000,0000,0000,0000,0000,0000,0000,0000,0000,0000,0000,0000,0000,0000,0000,0000,0000,0000,0000,0000,0000,0000,0000,0000,0000,0000,0000,0000,0000,0000,0000,0000,0000,0000,0000,0000,0000,0000,0000,0000,0000,0000,0000,0000,0000,0000,0000,0000,0000,0000,0000,0000,0000,0000,0000,0000,0000,0000,0000,0000,0000,0000,0000,0000,0000,0000,0000,0000,0000,0000,0000,0000,0000,0000,0000,0000,0000,0000,0000,0000,0000,0000,0000,0000,0000,0000,0000,0000,0000,0000,0000,0000,0000,0000,0000,0000,0000,0000,0000,0000,0000,0000,0000,0000,0000,0000,0000,0000,0000,0000,0000,0000,0000,0000,0000,0000,0000,0000,0000,0000,0000,0000,0000,0000,0000,0000,0000,0000,0000,0000,0000,0000,0000,0000,0000,0000,0000,0000,0000,0000,0000,0000,0000,0000,0000,0000,0000,0000,0000,0000,0000,0000,0000,0000,0000,0000,0000,0000,0000,0000,0000,0000,0000,0000,0000,0000,0000,0000,0000,0000,0000,0000,0000,0000,0000,0000,0000,0000,0000,0000,0000,0000,0000,0000,0000,0000,0000,0000,0000,0000,0000,0000,0000,0000,0000,0000,0000,0000,0000,0000,0000,0000,0000,0000,0000,0000,0000,0000,0000,0000,0000,0000,0000,0000,0000,0000,0000,0000,0000,0000,0000,0000,0000,0000,0000,0000,0000,0000,0000,0000,0000,0000,0000,0000,0000,0000,0000,0000,0000,0000,0000,0000,0000,0000,0000,0000,0000,0000,0000,0000,0000,0000,0000,0000,0000,0000,0000,0000,0000,0000,0000,0000,0000,0000,0000,0000,0000,
0000,0200,fefe,fafe,fcfe,fafe,02fe,00fa,fa02,fcfa,fc00,fafc,fe00,00fe,fefe,fefe,00fe,00fe,00fa,fefe,00fe,fefe,fefe,fefc,fefc,00fe,fe00,0000,0002,fe00,fefe,00fe,fcfe,fefe,fe02,02fc,fefe,fefc,fefc,fefe,fefe,fefc,fefe,0002,fcfe,fefe,0000,fefe,0000,fefe,fefc,0000,00fe,00fe,fefe,fefe,fefe,fefe,fcfe,fefe,0200,fe00,0000,0000,fefe,fefe,fefe,fcfc,0000,0200,fefc,fefe,fefe,fefe,fefe,fcfe,fafc,00fe,0000,00fe,0000,fefe,fefc,fefe,fcfc,00fe,0004,00fe,0200,00fe,fefe,fefe,fefe,fefe,fefe,0000,0002,0000,fefe,fefe,fefe,fcfe,00fe,00fe,0000,0000,0000,fefe,fefe,fefc,fcfc,00fe,fefe,fefe,fe00,fefe,fefe,fefe,fefe,fe00,fe00,fefe,00fe,fefe,00fe,fefe,fefe,0000,00fc,0002,fe00,fe00,fefe,fefe,fefe,0000,00fa,0202,fe00,00fe,fefe,fe00,fe00,fefe,fefe,fe00,0000,fe00,fefe,fefe,fefe,fe00,fefe,02fe,0406,fc00,fefe,fefe,fefe,fefe,fefe,fe00,fe00,fefe,fefe,fefe,fefe,00fe,00fe,fe00,0000,fefe,fcfe,fefe,fefe,fefe,fefe,00fe,00fe,0000,00fe,fefe,00fe,fefe,fefe,fefe,fefe,0000,0202,0002,fefe,fe00,fefe,fefe,fefe,fefe,0200,0200,0000,fefe,fefe,fefe,fefe,fefe,00fe,0002,0202,0000,00fe,fefe,fefe,fefe,fefe,fefe,00fe,0000,fefe,fefe,fefe,00fe,fefe,0200,0000,00fe,fefe,00fe,0000,fefe,fefe,00fe,0202,fe00,fefe,00fe,fe00,fefe,fefe,00fe,fe00,0000,0200,00fe,fe00,fe00,fefe,fefe,fa00,00fe,fe00,00fe,fefe,fe00,fefe,fefe,00fe,fefe,fe00,fefe,fefe,fefe,fefe,fefe,fefe,fe00,fefe,fe00,fefe,fefc,fefc,fcfc,0000,0000,0000,fefe,fefe,00fe,fefe,fe00,00fe,00fe,0002,fefe,fefe,00fe,fe00,02fe,fe00,00fe,02fa,00fa,fe00,fcfe,fefc,fafe,fefc,0002,00fe,fefe,0002,f8fc,fefa,fcfc,fcfc,fefc,00fe,0002,0002,fefc,fefc,fafc,fcfc,fc00,fcfe,0000,0200,fafe,00fc,fcfc,fefe,fcfc,00fe,f8fe,fe00,02fc,fcfc,00fe,00fe,fefc,00fe,fcfc,02fe,fe00,0000,fefe,0000,fefe,fefe,fe00,fcfc,fefe,00fc,00fe,fe00,0000,0000,0000,fcfe,fcfa,0200,fcfe,00fe,0000,fefe,0000,0000,fe00,fcfa,fe00,fefe,0000,0000,0000,0000,fcfe,fafe,02fe,fe00,fefe,0000,fefe,0000,0000,fcfe,02f8,fefe,fcfe,fefe,fefe,0000,0000,fe00,02fe,06fc,fefe,fcfc,fefe,fefe,fefe,00fe,fefe,fcfc,fcfe,00fc,fefc,fefe,fefe,fefe,fe00,00fc,fcfe,00fe,fefe,fefe,fefe,fefe,fefe,fefc,02fe,fcfc,fefe,fcfe,fefe,fefe,fefe,fefe,fc00,fefe,fefe,fefe,fefc,fefe,fefc,fefe,fefe,fefa,00fe,fefe,fcfe,fefc,fefe,fefe,fcfe,fcfe,0202,0000,fefe,fcfe,fefe,fefe,00fe,fcfc,0200,0200,fefe,fcfe,fefe,fefe,fefe,fefe,fcfe,fefe,fefe,fefe,fcfe,fefe,fefe,00fe,00fe,fefe,fc02,fefe,fefe,fefe,fefe,fefe,fefe,fefc,00fc,fe00,0000,fefe,00fe,fefe,fefe,fefe,fcfe,02fc,fcfe,fefe,fefe,fefe,fefe,00fe,00fc,fc02,fe00,fefe,fefe,fefe,00fe,00fe,00fe,06fe,fcfc,fefe,fcfe,fefe,fefe,00fe,fcfe,00fc,00fc,0000,fefe,fcfe,fefe,fefe,fefe,00fe,00fe,fefe,fefe,fefe,fefe,fefe,fefe,fcfe,0200,02fc,00fe,fe00,fefe,fefe,fefe,fe00,fefe,0204,fef6,0000,fefe,fefc,fefc,fc00,fefc,fe02,0606,00fe,fefe,fefe,fefe,00fe,fe00,0000,0202,fa00,fe00,fe00,fefe,fefe,0000,0000,00fc,0200,fefa,00fc,fefc,fefe,fe00,fefe,0000,fefe,00fe,fafa,fcfe,00fe,0200,fefe,02fe,0200,0002,fa02,00fe,fefc,00fe,0000,02fe,0002,0000,0000,0000,0000,0000,0000,0000,0000,0000,0000,0000,0000,0000,0000,0000,0000,0000,0000,0000,0000,0000,0000,0000,0000,0000,0000,0000,0000,0000,0000,0000,0000,0000,0000,0000,0000,0000,0000,0000,0000,0000,0000,0000,0000,0000,0000,0000,0000,0000,0000,0000,0000,0000,0000,0000,0000,0000,0000,0000,0000,0000,0000,0000,0000,0000,0000,0000,0000,0000,0000,0000,0000,0000,0000,0000,0000,0000,0000,0000,0000,0000,0000,0000,0000,0000,0000,0000,0000,0000,0000,0000,0000,0000,0000,0000,0000,0000,0000,0000,0000,0000,0000,0000,0000,0000,0000,0000,0000,0000,0000,0000,0000,0000,0000,0000,0000,0000,0000,0000,0000,0000,0000,0000,0000,0000,0000,0000,0000,0000,0000,0000,0000,0000,0000,0000,0000,0000,0000,0000,0000,0000,0000,0000,0000,0000,0000,0000,0000,0000,0000,0000,0000,0000,0000,0000,0000,0000,0000,0000,0000,0000,0000,0000,0000,0000,0000,0000,0000,0000,0000,0000,0000,0000,0000,0000,0000,0000,0000,0000,0000,0000,0000,0000,0000,0000,0000,0000,0000,0000,0000,0000,0000,0000,0000,0000,0000,0000,0000,0000,0000,0000,0000,0000,0000,0000,0000,0000,0000,0000,0000,0000,0000,0000,0000,0000,0000,0000,0000,0000,0000,0000,0000,0000,0000,0000,0000,0000,0000,0000,0000,0000,0000,0000,0000,0000,0000,0000,0000,0000,0000,0000,0000,0000,0000,0000,0000,0000,0000,0000,0000,0000,0000,0000,0000,0000,0000,0000,0000,0000,0000,0000,0000,0000,0000,0000,0000,0000,0000,0000,0000,0000,0000,0000,0000,0000,0000,0000,0000,0000,0000,0000,0000,0000,0000,0000,0000,0000,0000,0000,0000,0000,0000,0000,0000,0000,0000,0000,0000,0000,0000,0000,0000,0000,0000,0000,0000,0000,0000,0000,0000,0000,0000,0000,0000,0000,0000,0000,0000,0000,0000,0000,0000,0000,0000,0000,0000,0000,0000,0000,0000,0000,0000,0000,0000,0000,0000,0000,0000,0000,0000,0000,0000,0000,0000,0000,0000,0000,0000,0000,0000,0000,0000,0000,0000,0000,0000,0000,0000,0000,0000,0000,0000,0000,0000,0000,0000,0000,0000,0000,0000,0000,0000,0000,0000,0000,0000,0000,0000,0000,0000,0000,0000,0000,0000,0000,0000,0000,0000,0000,0000,0000,0000,0000,0000,0000,0000,0000,0000,0000,0000,0000,0000,0000,0000,0000,0000,0000,0000,0000,0000,0000,0000,0000,0000,0000,0000,0000,0000,0000,0000,0000,0000,0000,0000,0000,0000,0000,0000,0000,0000,0000,0000,0000,0000,0000,0000,0000,0000,0000,0000,0000,0000,0000,0000,0000,0000,0000,
00fe,0404,00fc,fa02,0202,fcfc,0402,00fc,fc04,fef6,02fc,0000,fe00,0000,00fe,fcfe,fcfc,0000,fef6,fc00,0206,fe00,0200,00fe,fcfe,0000,fcfe,fe00,0a04,0200,00fc,fefe,fe02,00fc,f8fe,00fc,fefc,fcfe,fefc,00fc,00fe,fefe,fefc,fefe,0000,00fe,00fe,fefc,0000,fefe,fefc,fefa,fefc,f8fe,fefe,fcfc,fefe,00fe,fefe,00fe,00fe,fafc,0000,00fe,fefe,fefc,0200,fcfc,00fe,fcfa,fcfc,fe00,fe00,fefe,00fc,0000,fafc,fc00,02fe,0200,0000,fefe,fcfe,00fe,0002,fcfe,0404,0202,0000,fe00,fe00,fcfe,02fe,fefa,fef8,fe02,0202,0000,fefe,fe00,fcfe,0000,00fe,00fe,0202,0000,fefe,fe00,0200,0000,fcf8,fe00,0002,0000,fefe,00fe,fefe,0000,fe02,0000,fefc,0200,fefe,fefe,00fe,0204,fe02,fc00,02fe,00fe,0002,fefe,fe02,0200,0202,00fe,fefa,fefc,0200,0202,0202,fefe,0200,fcfc,fefe,fe00,fafa,0204,0202,0200,fe00,fc00,fefe,0002,fa02,fefc,0404,0402,fe00,02fe,fcfc,fefc,fe02,fcfe,00fe,0404,0000,fefe,fcfe,fefe,0000,fefc,fefe,0200,0000,fefe,fe00,fcfa,fefe,fcfe,fcfa,fefe,0000,0000,fefe,fafa,fcfe,fe00,fcfc,fe00,00fe,0200,00fe,fe00,fefc,fefe,fcfe,00fe,0000,fcfe,fefe,fefe,fefe,fcfe,fcfe,02fe,fefe,fe00,fefc,0000,fefe,fcfe,fcfc,fcfe,00fc,00fe,fcfe,00fe,fefe,fe00,fefe,fcfe,fefc,02fe,fcfc,fefe,00fe,fefe,fe00,fefc,00fe,fcfe,fefe,fefe,fefe,0202,fcfc,fefe,fe00,0000,0200,00fe,fe00,0002,fc00,fefc,f800,fefa,fe00,fefe,0000,0202,fe02,fcfc,0000,fcfe,fefe,fcfe,fefe,0002,fefe,fcfc,00fe,fefe,00fe,0000,fefe,00fc,fefc,fcfa,02fe,0002,fefe,fe00,fefe,fcfa,fa00,fcfa,fefa,0002,0000,fe00,00fe,fafc,fafe,fcfa,fafe,0202,0002,00fa,fefe,fa02,fe02,f8fa,0000,00fe,00fc,fe02,fe00,f6fa,02fc,00fe,fefc,f8f8,fefe,fe04,02fe,02fc,fcfa,fc00,f6fc,fcfe,fafa,fc00,0606,faf8,00fc,00fe,fefa,fcfa,fcfc,fe02,0202,02fa,fefe,fefc,02fe,fafa,fefe,00fe,0402,0008,fe02,fafc,02fc,fcfe,0000,0002,0202,0006,fefc,fefe,0000,fe00,0202,0002,00fe,00fa,0a02,fc00,fefe,0000,00fe,0202,fefe,fe00,04fa,04fe,fefc,0406,0000,0000,00fe,fc00,f8fc,04fe,0000,0000,0204,0000,fe00,02fe,fafc,00fc,fcfe,fc00,0200,0000,00fe,fcfc,fe02,00fa,08f8,02fe,00fe,fe00,fefc,0000,0202,fc00,fcfc,fe02,fefc,0002,fcfe,0000,02fe,0408,fefe,fe04,fe04,fefe,fe00,fefe,0000,0404,fe00,fc02,fe02,fefc,fefe,fefe,0202,0202,0000,fe00,0200,fefc,fcfc,fe00,0202,0202,0202,fcfa,fafe,fe00,fcfc,fefc,0202,0002,0002,fcfe,fc00,0604,0204,fefc,fe00,0202,0002,fefe,f8fe,02fc,0200,00fe,fe00,00fe,0000,fefe,fcfe,fcfc,0000,0000,fefc,fcfc,00fe,fe00,fefe,fefc,fc00,0004,fefc,fefe,fcfc,0000,00fe,fcfc,00fc,04fc,fc02,0000,fefe,fefc,fefe,fcfe,0000,00fc,02fe,fe00,fe00,fefe,fefe,fefe,fefe,0004,fc06,fe00,fe00,fefe,fefe,00fe,fefe,04fe,0802,fcfe,00fc,fe00,fcfc,00fe,00fe,fcfc,02fe,fefa,0000,0000,fcfe,fefe,00fe,fefe,00fe,fc00,fafc,fefe,fefe,fefc,fcfe,0202,fe00,0200,fc00,fcfc,0000,fefe,fcfe,fefe,fe00,fe00,0602,06fa,fe00,fefe,fefe,fefe,fe00,fefe,0002,0602,0200,00fe,fe00,fefe,fefc,0000,fc00,0204,f800,fe02,fe00,fefe,fe00,0000,fafe,00fe,08fc,0002,00fe,00fe,0200,00fe,fcfe,0200,0202,fefc,00fe,0200,00fe,0002,fc02,06fe,00fc,0404,0404,0602,fefc,0200,0202,fe00,fe06,0002,0000,0000,0000,0000,0000,0000,0000,0000,0000,0000,0000,0000,0000,0000,0000,0000,0000,0000,0000,0000,0000,0000,0000,0000,0000,0000,0000,0000,0000,0000,0000,0000,0000,0000,0000,0000,0000,0000,0000,0000,0000,0000,0000,0000,0000,0000,0000,0000,0000,0000,0000,0000,0000,0000,0000,0000,0000,0000,0000,0000,0000,0000,0000,0000,0000,0000,0000,0000,0000,0000,0000,0000,0000,0000,0000,0000,0000,0000,0000,0000,0000,0000,0000,0000,0000,0000,0000,0000,0000,0000,0000,0000,0000,0000,0000,0000,0000,0000,0000,0000,0000,0000,0000,0000,0000,0000,0000,0000,0000,0000,0000,0000,0000,0000,0000,0000,0000,0000,0000,0000,0000,0000,0000,0000,0000,0000,0000,0000,0000,0000,0000,0000,0000,0000,0000,0000,0000,0000,0000,0000,0000,0000,0000,0000,0000,0000,0000,0000,0000,0000,0000,0000,0000,0000,0000,0000,0000,0000,0000,0000,0000,0000,0000,0000,0000,0000,0000,0000,0000,0000,0000,0000,0000,0000,0000,0000,0000,0000,0000,0000,0000,0000,0000,0000,0000,0000,0000,0000,0000,0000,0000,0000,0000,0000,0000,0000,0000,0000,0000,0000,0000,0000,0000,0000,0000,0000,0000,0000,0000,0000,0000,0000,0000,0000,0000,0000,0000,0000,0000,0000,0000,0000,0000,0000,0000,0000,0000,0000,0000,0000,0000,0000,0000,0000,0000,0000,0000,0000,0000,0000,0000,0000,0000,0000,0000,0000,0000,0000,0000,0000,0000,0000,0000,0000,0000,0000,0000,0000,0000,0000,0000,0000,0000,0000,0000,0000,0000,0000,0000,0000,0000,0000,0000,0000,0000,0000,0000,0000,0000,0000,0000,0000,0000,0000,0000,0000,0000,0000,0000,0000,0000,0000,0000,0000,0000,0000,0000,0000,0000,0000,0000,0000,0000,0000,0000,0000,0000,0000,0000,0000,0000,0000,0000,0000,0000,0000,0000,0000,0000,0000,0000,0000,0000,0000,0000,0000,0000,0000,0000,0000,0000,0000,0000,0000,0000,0000,0000,0000,0000,0000,0000,0000,0000,0000,0000,0000,0000,0000,0000,0000,0000,0000,0000,0000,0000,0000,0000,0000,0000,0000,0000,0000,0000,0000,0000,0000,0000,0000,0000,0000,0000,0000,0000,0000,0000,0000,0000,0000,0000,0000,0000,0000,0000,0000,0000,0000,0000,0000,0000,0000,0000,0000,0000,0000,0000,0000,0000,0000,0000,0000,0000,0000,0000,0000,0000,0000,0000,0000,0000,0000,0000,0000,0000,0000,0000,0000,0000,0000,0000,0000,0000,0000,0000,0000,0000,0000,0000,0000,0000,0000,0000,0000,0000,0000,0000,0000,0000,0000,0000,0000,0000,0000,0000,0000,0000,0000,
02fc,0002,0400,f8fc,fafe,0600,0a04,fefc,fa00,02fe,fc06,fcfe,f0f4,f6f4,120c,fcfa,fcfc,fa04,00fe,f4f4,f2fa,eeec,fefa,fc08,fcf0,fa08,fe02,fcfa,0000,e8e6,f4ec,0408,fcfa,faf8,fc04,f8fc,fefe,ecf2,e4e0,0802,0004,0004,f800,f6fa,fef6,f6fc,e0de,faee,0402,00fe,f4fa,faf8,f2f4,fe02,e6ea,eee6,0606,0000,fcf8,faf8,f4f6,fefa,f0f8,e4e0,fefc,0204,fefe,f6fa,f6fc,f8f4,fe04,e4e8,fcee,0204,0000,fc00,f6ec,f6f8,0400,e8f2,e8e4,0200,fafe,0000,f8fc,fcfa,faf4,fc00,e2e2,02fe,0004,0002,fe00,f8f4,f0fa,0002,e4f4,faee,0404,00fc,fe00,f4fa,f804,fefa,fc02,eae6,0604,fafc,fe00,fafe,00fa,f2ee,0202,e8f0,06fc,fc04,fcfc,fcfe,f6f6,f600,fe00,fc04,f6f4,060c,fcf8,fafa,f8fc,02fe,faf6,0802,f8fa,0c04,fafa,fcf8,fafa,fcfa,f6fa,04fe,0006,0200,fc04,fe00,fcfa,fcf8,f6fa,fafe,0204,00fe,0602,fefe,fafa,fafa,fcfe,fcfe,0202,0004,0202,fe02,fefe,fc00,fefe,f8fa,00fc,0204,fc00,0404,02fe,0202,fc00,fe02,fe00,0000,0002,fefe,fcfe,0000,0204,0406,f8fc,fcfa,0202,fefc,0202,0202,0202,0606,0000,f8fa,fafa,0000,00fc,0000,0202,0000,0206,f8f8,f8f8,fefa,fefc,0202,0204,0000,0200,fafe,f8f8,fefc,fcfc,00fe,0204,0000,fcfc,fe00,fefa,00fc,fcfa,00fc,0202,0002,fefe,fcfc,f2fa,fefc,fc00,00fe,00fe,fe00,0200,fafe,f8fa,fef8,00fe,fcfe,0002,fe00,fefc,fefe,f8f8,f8f4,f8f6,fcfe,00fc,fefe,fafc,fefe,f8fa,f8f8,02fc,fafa,fcfc,fefe,fafc,fcfc,f4fa,f8f4,fefc,f8f4,fefa,fefe,00fe,fcf8,fafa,f6f6,fcfa,0800,fcfc,fcfc,fcfc,fcfe,fcfc,f6f6,f4f2,0202,fcfa,fefe,fcf8,fcfe,f8fa,f6fc,f6f6,04fc,0200,fefc,fa00,f8f6,f2fa,f4f4,f6f2,f6f4,02fc,0c08,1212,1814,0004,00fe,0608,0808,0a0a,0e06,1612,0c14,060c,fe00,0400,0202,fefe,0810,0a0a,0410,0a0e,fa06,fcfe,0606,fcfc,0c10,0610,160a,0c08,fe02,faf6,0604,fe02,0404,0808,0802,0208,040c,f2f6,0000,0204,fafe,0a0c,1206,0412,0a06,f8fe,faf4,0606,fc02,06fe,0604,0c0a,fe00,0408,f2f4,0806,fe02,02fc,080c,0a0a,0808,060a,f6fa,0600,060a,fcfe,0406,0a04,0604,0404,fe02,faf0,1010,f8fe,0000,0408,0802,0606,0408,f0f8,100e,fc04,fefa,0602,020c,0804,0806,f6fa,06f8,060c,faf4,00fe,0402,fe12,0408,0208,f4f2,1012,f4f2,0000,0000,0604,0406,0208,f4f6,0c00,eefe,0200,0006,0208,0404,0202,f8fc,00fc,0410,00f8,0604,0204,080a,0a02,fcfe,00fa,0e08,f4ec,0604,0606,0602,0606,fc04,fefe,0402,f200,0400,0406,060a,0002,0008,fefe,0402,0406,fcf4,0606,0202,0802,0804,fefe,0000,fefe,f4f8,0202,fe02,fe02,fe04,fe04,0000,0004,fcfc,fcfa,fe02,fcfe,00fe,020c,fcfe,0406,f4f8,fafa,0200,fafe,fcfe,08fe,0004,0606,fefe,02fc,00fe,0000,fefe,fefc,0604,fc00,0006,fafa,fefe,0002,0004,fefc,06fc,0206,0606,fafc,02fe,0000,0200,00fe,fa02,0a00,0004,0004,fefc,fe02,fefc,fefe,00fe,0002,0404,0404,fc00,0200,fcfe,0002,fe00,faf8,0406,0208,0004,00fe,fe00,fcfe,0002,fafe,fc02,0202,0006,0202,0404,0002,0200,0006,02fa,0404,0402,0200,0602,0606,0206,0204,fcfe,0400,0608,0204,0004,0404,080a,0404,0604,0802,040a,0202,0404,02fe,0806,0808,0206,0402,0406,0408,0600,0404,0400,0c0a,0408,fe08,0e04,1200,060e,fefe,0002,0a06,0806,0604,08fa,0c0a,0a0e,020a,0202,0008,0204,fe04,0000,fc06,0804,0804,0802,0604,fe06,0404,0006,0a06,0204,0000,0000,0000,0000,0000,0000,0000,0000,0000,0000,0000,0000,0000,0000,0000,0000,0000,0000,0000,0000,0000,0000,0000,0000,0000,0000,0000,0000,0000,0000,0000,0000,0000,0000,0000,0000,0000,0000,0000,0000,0000,0000,0000,0000,0000,0000,0000,0000,0000,0000,0000,0000,0000,0000,0000,0000,0000,0000,0000,0000,0000,0000,0000,0000,0000,0000,0000,0000,0000,0000,0000,0000,0000,0000,0000,0000,0000,0000,0000,0000,0000,0000,0000,0000,0000,0000,0000,0000,0000,0000,0000,0000,0000,0000,0000,0000,0000,0000,0000,0000,0000,0000,0000,0000,0000,0000,0000,0000,0000,0000,0000,0000,0000,0000,0000,0000,0000,0000,0000,0000,0000,0000,0000,0000,0000,0000,0000,0000,0000,0000,0000,0000,0000,0000,0000,0000,0000,0000,0000,0000,0000,0000,0000,0000,0000,0000,0000,0000,0000,0000,0000,0000,0000,0000,0000,0000,0000,0000,0000,0000,0000,0000,0000,0000,0000,0000,0000,0000,0000,0000,0000,0000,0000,0000,0000,0000,0000,0000,0000,0000,0000,0000,0000,0000,0000,0000,0000,0000,0000,0000,0000,0000,0000,0000,0000,0000,0000,0000,0000,0000,0000,0000,0000,0000,0000,0000,0000,0000,0000,0000,0000,0000,0000,0000,0000,0000,0000,0000,0000,0000,0000,0000,0000,0000,0000,0000,0000,0000,0000,0000,0000,0000,0000,0000,0000,0000,0000,0000,0000,0000,0000,0000,0000,0000,0000,0000,0000,0000,0000,0000,0000,0000,0000,0000,0000,0000,0000,0000,0000,0000,0000,0000,0000,0000,0000,0000,0000,0000,0000,0000,0000,0000,0000,0000,0000,0000,0000,0000,0000,0000,0000,0000,0000,0000,0000,0000,0000,0000,0000,0000,0000,0000,0000,0000,0000,0000,0000,0000,0000,0000,0000,0000,0000,0000,0000,0000,0000,0000,0000,0000,0000,0000,0000,0000,0000,0000,0000,0000,0000,0000,0000,0000,0000,0000,0000,0000,0000,0000,0000,0000,0000,0000,0000,0000,0000,0000,0000,0000,0000,0000,0000,0000,0000,0000,0000,0000,0000,0000,0000,0000,0000,0000,0000,0000,0000,0000,0000,0000,0000,0000,0000,0000,0000,0000,0000,0000,0000,0000,0000,0000,0000,0000,0000,0000,0000,0000,0000,0000,0000,0000,0000,0000,0000,0000,0000,0000,0000,0000,0000,0000,0000,0000,0000,0000,0000,0000,0000,0000,0000,0000,0000,0000,0000,0000,0000,0000,0000,0000,0000,0000,0000,0000,0000,0000,0000,0000,0000,0000,0000,0000,0000,0000,0000,0000,0000,0000,0000,0000,0000,0000,0000,0000,0000,0000,0000,0000,0000,0000,0000,0000,0000,0000,0000,0000,0000,0000,
00fe,0402,fefc,fe02,fefc,fcfe,02fe,00fc,fc04,fef8,fe02,fafc,fefe,02fe,00fe,fefe,fefe,0406,00fc,fefe,00fe,fefe,fe00,fefe,fefc,0000,fc04,fe00,0002,fe00,fefe,00fe,fefe,fefe,fc00,00fc,0000,fefe,fefe,fefe,00fe,fefe,fefe,00fe,00fe,fcfe,fefe,fefe,fe00,fefe,fefe,fe00,00fe,00fe,fefe,fefe,fefe,0000,fefe,fefe,0200,fe00,fefe,fefe,fefe,fefe,fe00,fefc,0000,0000,fefe,fefe,00fe,fefe,0000,fefe,fcfe,0200,0200,fefe,fefe,fefe,fefe,fefe,fefc,0000,0004,00fe,0000,fe00,fefe,fefe,fefe,fefe,00fe,fe00,fe00,fefe,fefe,fefe,fefe,fefe,fefe,fe00,fe00,00fe,fefe,fefe,fefe,fefe,fefe,fefe,fefe,fefe,fefe,fefe,fe00,fefe,fefe,fefe,fcfe,fefe,00fe,fefe,fefe,fefe,fefe,fe00,00fe,fefe,0000,fe00,fefe,00fe,0000,00fe,fefc,0000,fefe,fefe,fefe,fe00,0000,fe00,fefe,fe00,fe00,fefe,fefe,fefe,0000,00fe,fefe,02fe,0002,fcfe,fefc,fefe,fefe,fefe,fefe,fefe,fc00,fcfe,fcfc,fefe,fefe,fefe,fefe,0000,0000,fcfc,fcfc,fefc,fefe,fefe,fefe,fefe,00fe,fe00,fefe,fefc,fefe,fefe,fefe,fefe,fefe,fe00,00fe,fefe,fefe,0000,fefe,fefe,fe00,fefe,fefe,00fe,fe00,fe00,fefe,fefe,fefe,fefe,fcfe,00fe,0000,0000,00fe,fefe,00fe,fefe,fefe,fefe,0000,0000,fefe,fe00,fefe,fefe,fefe,fefe,fe00,00fe,fe00,fefe,fe00,fefe,fefe,fefe,fe00,fefe,0000,fefe,fefe,fefe,fefe,00fe,fefe,00fe,0000,00fe,fefe,fefe,fefe,fefe,fc00,fefe,fe00,00fe,fefe,00fe,fefe,00fe,0000,fe00,fe00,0000,fefe,fefe,fefe,fefe,fefe,fe00,00fe,0000,00fe,fefe,fefe,fefa,00fe,0000,fefe,fe00,00fe,fefe,fe00,fcfe,fefe,fe00,0002,00fe,0000,00fe,0200,04fc,00fe,0000,00fc,00f8,fe04,fcfe,fcfe,fafe,00fc,0002,00fc,fefe,0200,f8fc,fefa,fcfa,fcfc,fefc,00fe,0204,0204,00fa,fefa,fcf8,fafa,fafe,fcfc,fefe,04fe,fcfe,fefa,fcfa,fefe,fcfc,fefc,fcfe,fe00,fefe,fcfa,fcfc,fefe,fcfc,00fe,fefe,0202,fc02,00fe,fcfe,fefe,fcfc,fefe,0000,fefc,fc00,fefe,0000,fefe,fefe,fefe,0000,fefe,fefc,0400,fcfe,fefe,fe00,fefe,0000,00fe,fe00,fefc,fefe,00fc,00fe,0000,fe00,fe00,fcfe,fcfe,02fe,fe00,fefe,00fe,fefe,0000,00fe,fefe,00f8,fc00,fefe,fefe,fe00,fefe,fe00,fe00,0002,04fe,fefe,fcfe,fefe,fefe,fe00,fefe,fefe,00fc,fe00,fefc,fefe,fefe,fefe,fefe,fefe,fefc,fe00,0000,fefe,fefe,fefe,fe00,fefe,fcfa,00fe,fcfc,fefe,fefe,fefe,fe00,fefe,fefe,fcfe,fefe,0000,fefe,fefe,00fe,00fe,fe00,fcfc,02fa,fe00,fefe,fcfc,fefe,fefe,fefe,fe00,fcfc,0204,fe00,fefe,fcfe,fefe,fefe,fefe,fafa,0002,02fe,fefc,fefe,fefe,fefe,fefe,fefe,fefc,0200,fcfe,fefe,fefe,fefe,fefe,fe00,fefe,fcfc,0000,fefe,fefe,fefc,fefe,fefe,fefe,fa00,00fe,00fe,fefe,fefe,fefe,fefe,fefe,fefe,fe00,02fc,0000,fe00,fefe,fefe,fefe,fefe,fefc,fe04,fe02,fe00,fefe,fefe,00fe,00fe,0000,02fe,fefc,fefe,fefe,fefe,00fe,00fe,fcfe,00fe,fcfe,fe02,fefe,fefe,00fe,fe00,fefe,00fe,00fe,fefa,fefe,fefe,0000,fe00,0000,fe00,0000,00fe,fefe,fe00,fefe,fefe,fe00,0000,fe00,0402,fefe,02fe,fefe,fefc,fefe,fe00,fefc,0400,0606,00fc,fefe,fefe,fefe,fefe,fc00,fefe,04fe,fa02,fefc,fefe,fefe,fefe,0200,fe00,02fe,04fe,fcfa,00fe,fefe,fefe,0000,fefe,fe00,fafc,0402,fcfe,fefc,fefe,0200,0000,02fe,02fe,0002,fe00,00fc,fefc,0002,0002,00fe,fe04,0000,0000,0000,0000,0000,0000,0000,0000,0000,0000,0000,0000,0000,0000,0000,0000,0000,0000,0000,0000,0000,0000,0000,0000,0000,0000,0000,0000,0000,0000,0000,0000,0000,0000,0000,0000,0000,0000,0000,0000,0000,0000,0000,0000,0000,0000,0000,0000,0000,0000,0000,0000,0000,0000,0000,0000,0000,0000,0000,0000,0000,0000,0000,0000,0000,0000,0000,0000,0000,0000,0000,0000,0000,0000,0000,0000,0000,0000,0000,0000,0000,0000,0000,0000,0000,0000,0000,0000,0000,0000,0000,0000,0000,0000,0000,0000,0000,0000,0000,0000,0000,0000,0000,0000,0000,0000,0000,0000,0000,0000,0000,0000,0000,0000,0000,0000,0000,0000,0000,0000,0000,0000,0000,0000,0000,0000,0000,0000,0000,0000,0000,0000,0000,0000,0000,0000,0000,0000,0000,0000,0000,0000,0000,0000,0000,0000,0000,0000,0000,0000,0000,0000,0000,0000,0000,0000,0000,0000,0000,0000,0000,0000,0000,0000,0000,0000,0000,0000,0000,0000,0000,0000,0000,0000,0000,0000,0000,0000,0000,0000,0000,0000,0000,0000,0000,0000,0000,0000,0000,0000,0000,0000,0000,0000,0000,0000,0000,0000,0000,0000,0000,0000,0000,0000,0000,0000,0000,0000,0000,0000,0000,0000,0000,0000,0000,0000,0000,0000,0000,0000,0000,0000,0000,0000,0000,0000,0000,0000,0000,0000,0000,0000,0000,0000,0000,0000,0000,0000,0000,0000,0000,0000,0000,0000,0000,0000,0000,0000,0000,0000,0000,0000,0000,0000,0000,0000,0000,0000,0000,0000,0000,0000,0000,0000,0000,0000,0000,0000,0000,0000,0000,0000,0000,0000,0000,0000,0000,0000,0000,0000,0000,0000,0000,0000,0000,0000,0000,0000,0000,0000,0000,0000,0000,0000,0000,0000,0000,0000,0000,0000,0000,0000,0000,0000,0000,0000,0000,0000,0000,0000,0000,0000,0000,0000,0000,0000,0000,0000,0000,0000,0000,0000,0000,0000,0000,0000,0000,0000,0000,0000,0000,0000,0000,0000,0000,0000,0000,0000,0000,0000,0000,0000,0000,0000,0000,0000,0000,0000,0000,0000,0000,0000,0000,0000,0000,0000,0000,0000,0000,0000,0000,0000,0000,0000,0000,0000,0000,0000,0000,0000,0000,0000,0000,0000,0000,0000,0000,0000,0000,0000,0000,0000,0000,0000,0000,0000,0000,0000,0000,0000,0000,0000,0000,0000,0000,0000,0000,0000,0000,0000,0000,0000,0000,0000,0000,0000,0000,0000,0000,0000,0000,0000,0000,0000,0000,0000,0000,0000,0000,0000,0000,0000,0000,0000,0000,0000,0000,0000,0000,0000,0000,0000,0000,0000,0000,0000,0000,0000,0000,0000,0000,0000,0000,0000,0000,0000,0000,
0208,0402,fcfa,fc06,0200,00fa,fafc,fef6,04f6,fefa,fe06,f4f0,f8f8,faf8,0000,faf4,fcfa,fc06,fafe,eaf6,eeee,fefa,fefe,0200,f8fc,02fc,faf2,eaf6,e8e6,f4ee,fefc,fe04,fe00,fef4,fa04,f2f8,e4e4,ece4,fefc,0200,fefe,fa00,02fc,f6fe,dae4,dee0,fcf4,0002,0606,0202,0000,00fc,e8f0,dae0,eee4,0402,0808,0204,0800,0402,f2f4,dad6,e0da,0400,0604,0808,080c,0202,fafa,dce4,dedc,fef2,0606,0808,0c0c,0004,0400,e802,e0da,f2e6,0a08,0606,0408,fa02,f8f4,fa02,dadc,e4ea,0a02,0608,fe02,f6f6,e4e8,f6ee,e4f6,eae4,fef2,080e,0002,f0f4,e4e4,eaea,eef8,e4e4,f2ee,1212,fe02,f2f6,e8ec,e6e8,f4ec,e4e6,f0ec,0e06,0208,f6fa,f2f0,f2f0,f0ec,eafe,eee8,02fa,0e18,fafa,f6f6,fcfa,f600,f8f8,f0ee,faf8,160c,fc00,fafa,00fc,0402,fc02,ecf4,f6f4,0802,000c,fcf8,fafc,0804,0606,fafc,f2f0,0400,1010,f6fa,fafa,fcfc,0a06,f802,e8f2,faf8,0a06,fe04,f8f8,fafa,0000,0408,f8f8,f2ea,02fe,0a0c,f6fa,fefc,fefc,0004,fa00,ecf2,fcf8,0402,fc00,fcfa,fcfe,fe00,0408,f8f8,f8f0,00fe,0604,fefe,0000,00fe,0202,fafe,f4f2,faf6,0400,0204,fe02,fe00,0000,0004,fcfa,faf6,00fc,0402,0202,0002,0402,0400,fcfa,fafc,fafa,fefe,fe02,0200,0202,0004,0002,fef8,fafa,fcfc,0000,0000,0000,0604,0202,f8fe,fafa,fcfa,fefe,0202,0000,0202,0002,fe00,fcf8,fafc,fcfc,00fe,fe02,fe00,fcfe,f8fa,faf8,faf8,fcfc,fcfc,0202,00fe,fefc,fcfc,f8fa,fefe,fefe,fefc,0000,fe00,00fe,f6f8,f4f2,fefc,fef8,00fe,fe00,0000,fefe,f8fa,f6fa,fcfa,0602,fefe,fefe,0200,fcfc,02fe,f8f8,faf8,0002,00fc,0200,0404,fe00,0000,fcfc,fef4,02fa,0002,0000,02fc,fefe,fefc,0202,f600,fcf8,fe06,100c,0814,1008,fe04,0200,0004,120a,080c,0202,080e,040a,0208,00fc,0200,0002,020a,0202,0404,fe12,0400,00fe,0000,00fe,0c02,040c,040e,0604,0208,0000,0204,fefe,0402,0e10,0808,10fc,02fe,fe04,0602,fe00,00fc,0a08,0808,06fc,0206,0608,0200,fe02,fcfe,0406,120c,060c,0e0c,0200,0200,080a,fe00,0806,0a0c,0c08,fc08,fa02,0a0e,0e0a,0004,0402,060a,0002,0600,fe08,140e,0a08,060c,0000,0404,f8fe,0e08,0400,0604,0814,1010,fcfc,0202,fc00,1004,0a0c,0204,1812,0e0c,fa04,02fe,fe02,0806,0c12,0208,0c0a,080a,040c,fcf6,0402,0604,1012,0402,0600,0e10,0c0c,f2f2,0202,0204,040a,0006,fafc,1006,0808,f400,00fe,0606,0404,0000,0000,040c,0c0e,0406,f8ee,0204,0404,fcfc,f8ee,02fe,100c,0406,eef2,0200,0204,0200,fcfa,fafa,0a0a,0810,fc00,faf8,0206,0204,fcfe,fafa,fafc,0c12,fe04,f4f0,0402,0200,02fe,fa02,fc00,0806,040a,f6fc,fcf6,fe00,00fe,0400,f8fe,00fa,0a08,fcfa,f4f2,fc00,fefe,fcfc,0002,fcfa,0606,fe06,fafc,fcf8,fe02,fefc,04fe,f8fc,00fa,0206,fafa,f8fa,00fe,fe00,0200,0002,04f8,0404,fe02,fcfa,faf6,0000,0002,0202,fefa,fafe,0202,fcfc,fcfc,0200,0202,0000,f6fc,00fc,0806,fe02,fefe,fcfc,0202,fe00,fcfe,fafa,0206,0202,0004,fe00,fefc,fcfc,fa00,00fe,0202,0606,0202,0200,fefe,fe00,0000,fefe,fe04,0004,0002,0202,0000,fe00,0202,0206,0204,0204,0206,0404,0002,0200,00fe,0602,0808,0602,0000,0206,0204,0200,fc02,0604,0604,0202,fa02,0204,00fe,0200,0402,02fe,fe04,fe08,0202,fefe,040a,fefc,0200,00fe,0400,0200,04f8,faf8,020a,fe00,0206,fefc,0402,02fe,0406,fe04,fcf6,00fc,0400,fcfc,0206,f806,0208,0606,f8fe,0000,0000,0000,0000,0000,0000,0000,0000,0000,0000,0000,0000,0000,0000,0000,0000,0000,0000,0000,0000,0000,0000,0000,0000,0000,0000,0000,0000,0000,0000,0000,0000,0000,0000,0000,0000,0000,0000,0000,0000,0000,0000,0000,0000,0000,0000,0000,0000,0000,0000,0000,0000,0000,0000,0000,0000,0000,0000,0000,0000,0000,0000,0000,0000,0000,0000,0000,0000,0000,0000,0000,0000,0000,0000,0000,0000,0000,0000,0000,0000,0000,0000,0000,0000,0000,0000,0000,0000,0000,0000,0000,0000,0000,0000,0000,0000,0000,0000,0000,0000,0000,0000,0000,0000,0000,0000,0000,0000,0000,0000,0000,0000,0000,0000,0000,0000,0000,0000,0000,0000,0000,0000,0000,0000,0000,0000,0000,0000,0000,0000,0000,0000,0000,0000,0000,0000,0000,0000,0000,0000,0000,0000,0000,0000,0000,0000,0000,0000,0000,0000,0000,0000,0000,0000,0000,0000,0000,0000,0000,0000,0000,0000,0000,0000,0000,0000,0000,0000,0000,0000,0000,0000,0000,0000,0000,0000,0000,0000,0000,0000,0000,0000,0000,0000,0000,0000,0000,0000,0000,0000,0000,0000,0000,0000,0000,0000,0000,0000,0000,0000,0000,0000,0000,0000,0000,0000,0000,0000,0000,0000,0000,0000,0000,0000,0000,0000,0000,0000,0000,0000,0000,0000,0000,0000,0000,0000,0000,0000,0000,0000,0000,0000,0000,0000,0000,0000,0000,0000,0000,0000,0000,0000,0000,0000,0000,0000,0000,0000,0000,0000,0000,0000,0000,0000,0000,0000,0000,0000,0000,0000,0000,0000,0000,0000,0000,0000,0000,0000,0000,0000,0000,0000,0000,0000,0000,0000,0000,0000,0000,0000,0000,0000,0000,0000,0000,0000,0000,0000,0000,0000,0000,0000,0000,0000,0000,0000,0000,0000,0000,0000,0000,0000,0000,0000,0000,0000,0000,0000,0000,0000,0000,0000,0000,0000,0000,0000,0000,0000,0000,0000,0000,0000,0000,0000,0000,0000,0000,0000,0000,0000,0000,0000,0000,0000,0000,0000,0000,0000,0000,0000,0000,0000,0000,0000,0000,0000,0000,0000,0000,0000,0000,0000,0000,0000,0000,0000,0000,0000,0000,0000,0000,0000,0000,0000,0000,0000,0000,0000,0000,0000,0000,0000,0000,0000,0000,0000,0000,0000,0000,0000,0000,0000,0000,0000,0000,0000,0000,0000,0000,0000,0000,0000,0000,0000,0000,0000,0000,0000,0000,0000,0000,0000,0000,0000,0000,0000,0000,0000,0000,0000,0000,0000,0000,0000,0000,0000,0000,0000,0000,0000,0000,0000,0000,0000,0000,0000,0000,0000,0000,0000,0000,0000,0000,0000,0000,0000,0000,0000,0000,0000,0000,0000,0000,0000,0000,0000,
0000,0006,0002,fcf2,00fa,fafe,fc04,f6ee,fcfa,02fa,0606,f8f2,f4f2,fc04,fcfa,f6fc,f8f0,0604,fef8,faf8,f4fa,fef2,fc00,fefa,f6f6,fc00,fc00,fe00,fcf8,f6f8,fc00,fcfa,fc02,fef4,0406,0804,f4f2,f8f6,fafc,fefc,00fe,fc02,f800,0006,fcfc,f2f2,f6f6,fafa,fcfc,0002,fefe,0606,fe04,fafc,faf8,fcfc,fafe,0000,02fe,0806,0202,0202,fcfc,fcfe,00fe,0202,fe00,fe02,04fe,0204,0006,fe00,0200,0402,0204,0604,0004,0806,00fe,0602,00fe,0202,0404,0608,0206,f602,fcfc,fcf8,0202,0202,0404,0404,0404,fcfc,faf6,f4fa,fcfe,0000,0002,04fe,0200,0002,fcfc,f8fc,fefc,0202,fefe,fafc,fcfc,fcfe,f0f4,0402,0804,0806,0404,fe00,00fc,faf4,f4f8,0804,0a06,0e10,080a,0206,fafc,f6fe,f4f4,f8f8,0606,1612,1214,080a,0204,0202,fcfc,fcfa,fc00,00f6,120c,0a0c,0806,fe00,fcfe,fefe,fc00,eef2,e8e8,0002,0002,0002,0406,0002,0006,fafe,dee6,dcd8,eeec,fafa,fefe,0400,0806,f8fe,f2fa,e2ea,e0da,f6f2,fafa,fefc,0402,00fe,0008,f8fa,f4f8,f6f2,fcfc,fcfa,0200,fc02,faf8,fcfc,00fc,faf8,fcfc,fefa,00fe,0400,fcfa,fc02,fe00,fe00,fefa,fefe,0002,0200,fafe,f8fc,fafa,fefe,fcfc,fcfe,fefe,00fe,0000,fafc,faf8,fafa,fefe,00fe,fcfa,fefa,00fe,fafa,fafa,f4f0,faf6,02fe,fefe,fafc,fcfe,fafa,fefc,e6f0,ecea,f8f6,0000,fefe,fafa,00fe,fcfa,f8f6,ece8,f4f0,00fc,00fe,fefc,0000,fc00,fafa,f8f8,f8fa,fafa,fc00,fcfc,00fc,0000,fafc,f2fa,f8fc,fcfe,fcfc,fefc,fcfe,fefe,fefe,fafa,fefc,0400,fc00,fcfa,fcfc,0000,fe00,fafc,04fc,0202,0a0a,0002,fefc,fefc,f8fc,fefa,fefa,fafa,0202,0606,0002,0200,00fe,f6fa,0202,0000,fefe,0606,0606,0000,0000,fafa,fcfa,02fe,0206,0400,fcfa,fa04,fefc,fafe,0008,0604,0208,fc0e,04fc,0604,fe00,0202,fe00,0604,0400,0604,0804,0404,02fe,fc02,fefe,0800,02fc,1208,0202,00fc,0200,0000,fefe,fe00,0804,1008,0c04,fefe,fefe,0202,0204,0204,0204,0404,0e0a,fe02,fefc,0404,0404,0406,0402,fe06,fc02,0008,f8fc,02fc,0404,0604,0402,fc04,02fc,0604,fefa,f8fa,0202,0200,0200,fafe,fcfc,fa06,fc02,fafc,faf6,fafc,fafc,00fe,fcfc,fefe,fafc,fcfa,faf8,fcf8,faf8,fe00,fcfe,fef4,0804,0202,00fc,fcfe,fefc,00fe,0202,f6fa,0afe,00fe,0000,080a,0404,0404,0204,0000,06fc,fe06,fa02,0200,0606,080a,0608,0608,fe02,0608,08fc,f8f8,fef8,0a08,080a,0606,0204,02fc,fafc,fc02,ecf0,fef8,0806,0206,0202,fc00,fefc,0402,ecf4,e0de,f4ee,f8f8,fefa,fa00,f8fc,f8fe,fa06,eef4,e2e0,eae6,f0f0,fcfc,f8fe,04f6,fefc,0e08,fe04,ecf0,f2f2,fcfa,fafc,f8fc,fc00,0e0c,1618,0c10,fe00,02fe,0202,00fc,06fa,fe02,1c16,161a,0e10,060a,0808,0204,0200,fefc,120c,1c1a,1618,1212,0a0c,0a0a,0406,0202,fe02,140c,1616,1212,0c0e,080a,0606,0202,fe08,fa00,0804,0c0c,080a,0806,0604,0000,0004,0204,f6fa,02fe,0202,0002,0200,fe04,0404,020a,fafe,f2ea,f6f6,fefc,fefa,0204,fcfe,1008,060c,f2f8,eeee,f0ec,f8f4,0204,0000,02fe,100c,fe02,f8fa,f2f0,f6f0,0000,fcfa,02fe,000a,0406,020a,00fc,fcfa,02fe,fefc,00fc,0206,040c,02fe,0602,0202,0200,0000,fcfa,0202,080a,080a,0804,0604,060a,0608,0000,02fe,0204,0210,00fe,0204,0a0a,0606,0404,00fc,0002,0a08,0604,fefe,fc00,0402,0406,0000,0204,fcfe,0a04,0200,fc00,fcf8,00fe,0206,0204,0002,0802,0806,0400,fafc,fcfc,fcfe,0600,0604,04fc,0600,0000,0000,0000,0000,0000,0000,0000,0000,0000,0000,0000,0000,0000,0000,0000,0000,0000,0000,0000,0000,0000,0000,0000,0000,0000,0000,0000,0000,0000,0000,0000,0000,0000,0000,0000,0000,0000,0000,0000,0000,0000,0000,0000,0000,0000,0000,0000,0000,0000,0000,0000,0000,0000,0000,0000,0000,0000,0000,0000,0000,0000,0000,0000,0000,0000,0000,0000,0000,0000,0000,0000,0000,0000,0000,0000,0000,0000,0000,0000,0000,0000,0000,0000,0000,0000,0000,0000,0000,0000,0000,0000,0000,0000,0000,0000,0000,0000,0000,0000,0000,0000,0000,0000,0000,0000,0000,0000,0000,0000,0000,0000,0000,0000,0000,0000,0000,0000,0000,0000,0000,0000,0000,0000,0000,0000,0000,0000,0000,0000,0000,0000,0000,0000,0000,0000,0000,0000,0000,0000,0000,0000,0000,0000,0000,0000,0000,0000,0000,0000,0000,0000,0000,0000,0000,0000,0000,0000,0000,0000,0000,0000,0000,0000,0000,0000,0000,0000,0000,0000,0000,0000,0000,0000,0000,0000,0000,0000,0000,0000,0000,0000,0000,0000,0000,0000,0000,0000,0000,0000,0000,0000,0000,0000,0000,0000,0000,0000,0000,0000,0000,0000,0000,0000,0000,0000,0000,0000,0000,0000,0000,0000,0000,0000,0000,0000,0000,0000,0000,0000,0000,0000,0000,0000,0000,0000,0000,0000,0000,0000,0000,0000,0000,0000,0000,0000,0000,0000,0000,0000,0000,0000,0000,0000,0000,0000,0000,0000,0000,0000,0000,0000,0000,0000,0000,0000,0000,0000,0000,0000,0000,0000,0000,0000,0000,0000,0000,0000,0000,0000,0000,0000,0000,0000,0000,0000,0000,0000,0000,0000,0000,0000,0000,0000,0000,0000,0000,0000,0000,0000,0000,0000,0000,0000,0000,0000,0000,0000,0000,0000,0000,0000,0000,0000,0000,0000,0000,0000,0000,0000,0000,0000,0000,0000,0000,0000,0000,0000,0000,0000,0000,0000,0000,0000,0000,0000,0000,0000,0000,0000,0000,0000,0000,0000,0000,0000,0000,0000,0000,0000,0000,0000,0000,0000,0000,0000,0000,0000,0000,0000,0000,0000,0000,0000,0000,0000,0000,0000,0000,0000,0000,0000,0000,0000,0000,0000,0000,0000,0000,0000,0000,0000,0000,0000,0000,0000,0000,0000,0000,0000,0000,0000,0000,0000,0000,0000,0000,0000,0000,0000,0000,0000,0000,0000,0000,0000,0000,0000,0000,0000,0000,0000,0000,0000,0000,0000,0000,0000,0000,0000,0000,0000,0000,0000,0000,0000,0000,0000,0000,0000,0000,0000,0000,0000,0000,0000,0000,0000,0000,0000,0000,0000,0000,0000,0000,0000,0000,0000,0000,0000,0000,0000,0000,0000,0000,0000,0000,
fefa,0202,0200,02fe,0400,0a08,0a0c,f602,0410,04fc,080c,0208,0600,080e,080a,00fe,0200,0602,060a,0c0a,040a,0804,0808,0608,00fe,0004,0408,1216,0a0a,0604,0400,0604,fe06,00fe,fe04,080a,0e10,00fe,0404,0402,080c,fcfe,fe00,0202,100e,0208,0402,0202,0606,0206,fcfc,fe00,0e0c,0a0c,0604,0204,0402,080a,fa00,faf8,0e04,0c10,0606,0002,0202,0604,0000,fafa,0804,1010,0608,0404,0200,0402,fcfe,0000,02f8,1004,0c0e,0608,0204,0202,fe02,fefa,fafe,0008,0c08,0a04,0608,0404,fe00,faf8,fe00,02fa,0a06,0406,0a0a,0202,0000,fcfc,fefc,fafc,0408,0404,04fe,0204,0000,fefe,fafa,0402,fefa,020e,fcfa,0804,0202,fe00,fcfe,00fc,0202,080a,fe00,0400,0602,fe00,fefc,00fc,fe00,f8fa,0810,0404,0406,fefe,fcfc,fefe,0200,fcfc,0c0a,0608,0606,fe02,fafc,0002,0004,f8fc,faf6,080a,0408,fe04,fafc,0200,0604,fc00,f2f2,0406,0a02,0000,f6f6,04fe,0606,0202,f0f4,fcf6,f8f6,fcfe,f6f4,f8f6,0a0a,0406,fa00,eef0,f2f8,f6f2,faf8,f0f4,0802,0806,0204,f2f4,04fc,ece8,f6f4,f2f6,f4ee,0a0a,0608,f8fc,f2ee,e8ee,f4f0,f6f6,eef0,0600,0608,fe02,fafa,00fe,f0ec,faf6,f4f8,f8f4,0600,0204,00fe,fcf6,f2f6,fcfc,fcfc,f4f4,faf8,0404,0202,f8fe,fafc,fefa,fe00,f6f8,f6f2,00fc,0400,fefe,fefa,fa00,fe00,fafe,f6f6,faf8,0202,fe00,f8fa,f800,fefc,fafa,f6f8,faf8,fe00,0402,fe02,faf8,0804,fc00,fcfa,fafa,fcfc,0000,fe00,fcfa,00f8,080a,0002,fafc,faf8,fe00,0602,0000,fcfa,0200,0c0c,fefe,fefc,00fe,0402,0202,fa00,0000,0402,0608,0202,00fe,0200,0202,0204,fefa,fefa,0402,0406,0404,0200,0604,0000,fafe,0200,fefe,0c08,0408,0606,06fe,0202,0006,0200,0200,040c,fefc,0204,0604,fef8,fafc,0000,0a12,0804,0a08,f6fa,f800,f6f6,f4f2,04f6,06fc,0afe,0a06,f8f6,f8f8,f4f4,f6f6,f8f6,0206,1206,0602,f4fc,f6ee,faf8,faf8,f0f4,fef4,0002,0208,f8fe,f2f0,fcfc,fafa,f6f8,eeee,0606,0204,fe02,f4f6,fcfa,fafa,faf8,f4f4,f4f2,fefe,00fc,f802,f8f8,fcfa,fcfc,fafa,f2f6,0004,0802,fcfa,f6f6,fafa,02fe,0000,fcfc,faf6,0206,fc02,f8fa,faf6,fcfc,0202,fe00,fa02,02fc,0204,fafe,f8f4,f8f6,0400,0000,0000,fe00,060a,0006,fcf8,fafc,fefa,0204,0000,0606,0806,06fe,0202,fc00,fafa,0608,0002,0406,0004,0a02,fe02,0002,fcfc,0602,0202,0804,0a08,0802,0604,0002,0000,fefc,0204,0602,0c0c,0004,0e02,0404,fefe,0002,0202,0604,0a0a,080c,0808,0c00,fcfa,0200,00fe,0402,080c,080a,0406,060c,f2fe,f8f2,fcfe,0200,0e0a,0604,040a,0e0a,0a08,f0ea,f6f6,0200,0808,080c,0204,0806,060e,eef8,f2f2,fef6,0604,0c0e,0202,0604,100c,0e06,eeea,f2f2,0602,0e0c,0002,00fe,0406,0808,f2f8,f4f2,00fa,0a04,0408,00fe,fe02,0808,0604,f6f0,fcfc,0602,0c0e,fe02,fcfe,0400,0e08,fc04,0402,0402,0a0a,0406,fafe,fefe,0602,0c12,0200,0a06,080a,0808,0202,fc00,00fc,000a,040a,0608,0c08,0c0a,0204,fe00,fafa,0806,fa06,0604,0000,0808,0606,0200,fc00,0402,0404,080a,0000,0000,0606,0202,fefc,0400,0404,0602,0202,0000,0404,0202,fefe,0402,0404,1002,060c,00fe,0400,0404,fe00,0202,0002,0206,020c,fa00,fefc,0204,0000,0002,0202,02fe,0a04,0006,fcfa,00fc,fe00,0000,0000,0600,040c,0a04,f602,fefc,00fe,fefe,0000,0202,080a,0608,080e,fefc,fefc,fcfc,fefc,0402,0c06,0afe,02fe,0e0e,0802,fc00,0600,08fe,0c0c,080a,0c0a,0000,0000,0000,0000,0000,0000,0000,0000,0000,0000,0000,0000,0000,0000,0000,0000,0000,0000,0000,0000,0000,0000,0000,0000,0000,0000,0000,0000,0000,0000,0000,0000,0000,0000,0000,0000,0000,0000,0000,0000,0000,0000,0000,0000,0000,0000,0000,0000,0000,0000,0000,0000,0000,0000,0000,0000,0000,0000,0000,0000,0000,0000,0000,0000,0000,0000,0000,0000,0000,0000,0000,0000,0000,0000,0000,0000,0000,0000,0000,0000,0000,0000,0000,0000,0000,0000,0000,0000,0000,0000,0000,0000,0000,0000,0000,0000,0000,0000,0000,0000,0000,0000,0000,0000,0000,0000,0000,0000,0000,0000,0000,0000,0000,0000,0000,0000,0000,0000,0000,0000,0000,0000,0000,0000,0000,0000,0000,0000,0000,0000,0000,0000,0000,0000,0000,0000,0000,0000,0000,0000,0000,0000,0000,0000,0000,0000,0000,0000,0000,0000,0000,0000,0000,0000,0000,0000,0000,0000,0000,0000,0000,0000,0000,0000,0000,0000,0000,0000,0000,0000,0000,0000,0000,0000,0000,0000,0000,0000,0000,0000,0000,0000,0000,0000,0000,0000,0000,0000,0000,0000,0000,0000,0000,0000,0000,0000,0000,0000,0000,0000,0000,0000,0000,0000,0000,0000,0000,0000,0000,0000,0000,0000,0000,0000,0000,0000,0000,0000,0000,0000,0000,0000,0000,0000,0000,0000,0000,0000,0000,0000,0000,0000,0000,0000,0000,0000,0000,0000,0000,0000,0000,0000,0000,0000,0000,0000,0000,0000,0000,0000,0000,0000,0000,0000,0000,0000,0000,0000,0000,0000,0000,0000,0000,0000,0000,0000,0000,0000,0000,0000,0000,0000,0000,0000,0000,0000,0000,0000,0000,0000,0000,0000,0000,0000,0000,0000,0000,0000,0000,0000,0000,0000,0000,0000,0000,0000,0000,0000,0000,0000,0000,0000,0000,0000,0000,0000,0000,0000,0000,0000,0000,0000,0000,0000,0000,0000,0000,0000,0000,0000,0000,0000,0000,0000,0000,0000,0000,0000,0000,0000,0000,0000,0000,0000,0000,0000,0000,0000,0000,0000,0000,0000,0000,0000,0000,0000,0000,0000,0000,0000,0000,0000,0000,0000,0000,0000,0000,0000,0000,0000,0000,0000,0000,0000,0000,0000,0000,0000,0000,0000,0000,0000,0000,0000,0000,0000,0000,0000,0000,0000,0000,0000,0000,0000,0000,0000,0000,0000,0000,0000,0000,0000,0000,0000,0000,0000,0000,0000,0000,0000,0000,0000,0000,0000,0000,0000,0000,0000,0000,0000,0000,0000,0000,0000,0000,0000,0000,0000,0000,0000,0000,0000,0000,0000,0000,0000,0000,0000,0000,0000,0000,0000,0000,0000,0000,0000,0000,0000,0000,0000,0000,0000,0000,0000,0000,0000,
02fa,0402,00fc,fc00,fefc,fefe,0200,0000,fe00,fefa,0000,f8fc,fc00,0200,00fe,fefe,fefc,0202,fef8,0002,00fc,fefe,fe00,fefc,fefc,0004,fc02,0402,0200,fc00,fefe,fefa,fefe,00fc,fefe,04fe,0000,fcfa,fafc,fcfe,fefe,fefe,fefc,0006,0006,fefa,fefc,fefe,00fe,fefe,fefe,0402,0206,0000,fefe,fcfc,fefe,fefe,fefe,fefe,0a0c,0802,0608,0000,fcfe,fcfe,fefe,fcfc,0402,0402,0608,0000,fefe,fefe,fefe,fcfe,fcfc,00fc,0808,0000,fefe,fcfe,fefc,fefe,fcfc,fefc,0004,fe00,0200,fefe,fcfa,fcfe,fcfe,0000,00fc,fefe,fcfe,fe00,fefe,fcfe,fefc,fefe,fefc,0000,fefe,fefe,fefe,fefe,fefc,fefe,fc00,00fe,fefe,fefe,fefe,fefe,fcfe,fefe,fefe,fe00,fcfe,fefc,0000,fefe,fefe,fefe,fefe,0000,fefc,0000,fefe,fcfe,fe00,fefe,fe00,0000,fcfa,02fe,fefe,fefe,fefe,fe00,fe00,fefe,fefe,f6fa,fcfe,fefe,00fe,fefe,fefe,fefe,fefe,fcfa,0000,fcfc,fcfc,fefe,fefe,fefe,fefe,fefe,f6fa,fcfe,fefe,fefe,fefe,fefe,0000,fefe,fcfe,faf8,fefc,fefe,fefe,fefc,00fe,fe00,00fe,fafa,fefa,fefc,00fe,fefe,fefe,fefe,fefe,fefe,fcfc,fe00,00fe,fe00,fcfc,fefe,0000,fefe,00fe,02fe,0002,0000,fcfc,fefc,00fe,0000,fcfc,0404,02fe,0000,fefe,fefe,fefe,fe00,fefe,00fe,00fe,0000,fefe,fefe,fcfe,fefe,fefe,0200,fe00,02fc,00fe,fefe,fefe,00fe,fefe,00fe,0002,fefe,00fe,fe00,fcfe,fe00,fefe,fefe,fe00,00fe,0200,fefe,fe02,fefe,fefe,fefe,fe00,fcfc,fe00,fe00,fefe,fefe,fefe,00fe,0000,fe00,fefe,fefe,fe00,fe00,fcfc,fefe,fefe,fe00,00fe,0000,fefe,00fe,fe00,fcf8,0000,0000,0000,fe00,fefe,00fe,fe00,0000,fefe,0000,0002,0000,00fe,fefe,0202,04fe,00fe,fe00,02fe,02f6,fc04,fcfe,fc02,fc02,00fc,fe02,00fa,fcfe,0400,fcf4,fafa,faf6,fcfa,fcfc,00fe,fc06,0004,00fe,faf8,f8f8,fafa,fa00,fafc,02fc,02fe,0002,0200,fcf8,fefc,fcfa,00fc,fafe,fe00,02fc,fcfe,0000,02fc,00fe,0200,fefe,0000,fc04,0200,0604,0206,00fe,fe00,fc00,fcfe,fc00,00fe,0402,fe02,fcfe,fcfc,fe00,fefe,fefe,0400,fcfe,0402,0002,fefe,00fe,00fc,0002,fefc,fafe,0000,0000,0000,0000,0000,fa00,fa00,00fa,fe00,fe00,00fe,00fe,0000,00fe,fcfe,02fa,fc00,fc00,fcfc,fefe,fe00,0000,fc00,fe02,04fc,fefe,fefc,fefe,fefe,fefe,fefe,fcfe,00fc,fefe,fefa,fefe,fe00,0000,fefe,fe00,fefe,fefe,0200,fefe,fefe,fefe,fefe,fefe,fefa,0200,fcfc,00fe,fcfc,fcfc,00fe,fe00,fefe,fcfe,0000,fafe,fefe,fcfc,fefc,fefc,fefe,fcfc,fafc,0202,fefa,fefe,fcfa,fcfe,fcfe,fcfe,fcfc,0604,fe00,fefe,fcfc,fefe,fefe,fefe,f8fc,fe04,0404,02fe,fcfe,fcfe,fcfe,fefe,fefe,fef8,0202,fcfe,fefc,fefe,fefe,fe00,00fe,00fe,fa00,00fe,fefe,fcfe,fefc,fefe,fe00,fcfc,fafc,02fa,0400,fefe,fefc,fefe,fefe,fc00,00fc,fe00,04fc,fe00,fcfc,fefe,fefe,fefe,fefe,0000,fc08,00fe,fcfe,fefc,fefe,00fe,fe00,02fe,02fe,fefc,fefe,fcfc,fefc,fefc,00fe,fa00,fcfc,00fa,fefc,fefe,fefe,fefe,fefe,fefc,00fe,0200,fc02,fcfe,fefc,fefe,fefe,00fe,fefe,fe00,00fe,fefe,fc02,fefe,fefe,fefe,fefe,fc04,0804,02f8,00fe,fefe,fcfc,fcfe,fe00,fefa,0200,0602,00fe,fe00,fefe,fefc,fefe,fa00,fe02,0202,fc04,fe02,0000,fcfe,fcfe,00fe,fe00,02fe,06fe,fefa,0200,00fe,0000,00fe,fcfe,0002,fefc,02fe,fcfe,00fc,fefe,0202,0000,02fc,0000,fefe,0202,00fa,fefc,0400,fe00,00fc,fc04,fe00,0000,0000,0000,0000,0000,0000,0000,0000,0000,0000,0000,0000,0000,0000,0000,0000,0000,0000,0000,0000,0000,0000,0000,0000,0000,0000,0000,0000,0000,0000,0000,0000,0000,0000,0000,0000,0000,0000,0000,0000,0000,0000,0000,0000,0000,0000,0000,0000,0000,0000,0000,0000,0000,0000,0000,0000,0000,0000,0000,0000,0000,0000,0000,0000,0000,0000,0000,0000,0000,0000,0000,0000,0000,0000,0000,0000,0000,0000,0000,0000,0000,0000,0000,0000,0000,0000,0000,0000,0000,0000,0000,0000,0000,0000,0000,0000,0000,0000,0000,0000,0000,0000,0000,0000,0000,0000,0000,0000,0000,0000,0000,0000,0000,0000,0000,0000,0000,0000,0000,0000,0000,0000,0000,0000,0000,0000,0000,0000,0000,0000,0000,0000,0000,0000,0000,0000,0000,0000,0000,0000,0000,0000,0000,0000,0000,0000,0000,0000,0000,0000,0000,0000,0000,0000,0000,0000,0000,0000,0000,0000,0000,0000,0000,0000,0000,0000,0000,0000,0000,0000,0000,0000,0000,0000,0000,0000,0000,0000,0000,0000,0000,0000,0000,0000,0000,0000,0000,0000,0000,0000,0000,0000,0000,0000,0000,0000,0000,0000,0000,0000,0000,0000,0000,0000,0000,0000,0000,0000,0000,0000,0000,0000,0000,0000,0000,0000,0000,0000,0000,0000,0000,0000,0000,0000,0000,0000,0000,0000,0000,0000,0000,0000,0000,0000,0000,0000,0000,0000,0000,0000,0000,0000,0000,0000,0000,0000,0000,0000,0000,0000,0000,0000,0000,0000,0000,0000,0000,0000,0000,0000,0000,0000,0000,0000,0000,0000,0000,0000,0000,0000,0000,0000,0000,0000,0000,0000,0000,0000,0000,0000,0000,0000,0000,0000,0000,0000,0000,0000,0000,0000,0000,0000,0000,0000,0000,0000,0000,0000,0000,0000,0000,0000,0000,0000,0000,0000,0000,0000,0000,0000,0000,0000,0000,0000,0000,0000,0000,0000,0000,0000,0000,0000,0000,0000,0000,0000,0000,0000,0000,0000,0000,0000,0000,0000,0000,0000,0000,0000,0000,0000,0000,0000,0000,0000,0000,0000,0000,0000,0000,0000,0000,0000,0000,0000,0000,0000,0000,0000,0000,0000,0000,0000,0000,0000,0000,0000,0000,0000,0000,0000,0000,0000,0000,0000,0000,0000,0000,0000,0000,0000,0000,0000,0000,0000,0000,0000,0000,0000,0000,0000,0000,0000,0000,0000,0000,0000,0000,0000,0000,0000,0000,0000,0000,0000,0000,0000,0000,0000,0000,0000,0000,0000,0000,0000,0000,0000,0000,0000,0000,0000,0000,0000,0000,0000,0000,0000,0000,0000,0000,0000,0000,0000,0000,0000,0000,0000,0000,0000,0000,0000,0000,0000,0000,0000,0000,0000,
0206,0804,04fc,1010,0a12,0804,1008,0404,0404,fefe,0408,0002,0a08,0608,0a0a,0208,00fe,fe02,0400,f4f6,02fc,0c08,0806,0c0e,0404,0604,fafc,f6fc,fefc,0802,0c0c,0a0e,0004,02f8,fafa,f2f8,f6f4,04fe,100e,0a0c,0204,fcfc,02fe,f8f8,eef0,0606,0e0c,0c0e,0000,fefe,fe00,faf4,f0ee,04fe,0606,100e,0208,fafc,00f8,0202,f4f8,faf4,080c,100e,080e,faf6,f4f6,fefe,f6f4,faf0,0804,0a08,0006,eaec,f4f2,f8f2,fefa,f4f4,fefa,0604,fc02,ecf0,f4f2,f0f0,f6f6,fc00,fafc,0404,0204,f8f8,f8f2,f2f4,eef0,faf4,0200,0400,00fe,0002,f8f8,fafe,f6f8,f2f0,0002,0606,fe00,fcfe,fcfc,00fe,00fe,f8f6,fefe,0604,0202,fafe,fcfe,00fe,0402,0406,0200,f806,0404,fe02,fe00,00fe,0602,0e0a,0408,040a,00fc,00fc,fa00,fcfc,0000,0604,0e0a,0c0e,fc00,fc02,fcfe,0000,fefc,0200,0804,0808,0408,fc00,fefe,fcfe,fefe,0200,0200,0a08,0204,f8fc,fcfe,0204,0000,0000,0000,00fe,0204,0402,fcf8,00fc,0202,0002,fefe,fafc,0002,fe04,00f8,fefc,0402,0000,0202,00fe,fefc,0000,0602,0404,02fe,0404,0404,0000,fefc,00fc,fcfa,fefa,02fe,0202,0604,0002,fcfe,fcfa,fcfa,0202,0000,00fe,0202,0002,fefe,02fe,fcfa,00fc,00fc,fefc,0202,0000,fefc,fefe,fcfa,faf8,0404,fcfe,fafe,fe02,fefe,f8fe,f8f8,f6fa,02fe,fc00,fafa,fefe,fcfe,f6fa,eef2,f0ee,f8f4,fe00,f4f8,f0f2,f6f6,f0f2,eeea,eaea,f0ee,00fa,f6fa,f2f2,eaec,ecf0,eaf0,e8ec,eeee,f6f0,0200,f4f4,ecee,e6e6,e8ea,eae8,ece8,eeee,fefa,f6f8,f4f0,e8f0,ece8,eae8,eae6,f0f4,f8f2,0200,f4f4,f2f2,ecee,f6f2,f0ee,ece8,f4ee,0200,f8fa,f4f6,f4f8,f6f8,f2f2,eaec,f6f6,faf8,0202,fcf8,f4f2,f4f6,fafc,f4f2,f2f2,faf8,0200,0a02,0e12,1210,0202,0204,fcfa,0cf8,0806,0a00,1014,080c,fe02,fcfc,fcfc,f4fc,06fe,0002,0806,080e,0204,f6f6,fcf6,f6fa,fcf2,0afc,fe02,0e0a,0606,f8fc,f8fa,f8fa,eef2,fefa,02fc,0600,0606,0000,fcf8,fafa,e6ec,f2ea,0008,fcfa,000a,0608,f6fa,fcfa,eef4,e4ea,02f6,fe00,0600,0402,0004,fefe,f2fa,e6e6,f0f2,0806,fc04,0404,0402,0000,f6fc,f0f2,f8f8,fefc,00f8,0208,0000,00fe,fc02,fcfa,0200,0408,040a,f2f6,0806,fe02,02fe,0002,0604,0a08,0a0a,0404,0204,0808,0200,0202,0c06,080a,080c,020e,eef8,0404,fe00,0202,0200,0a0a,0002,0208,fcfc,0602,0000,0406,0204,0806,0208,faf8,00fe,f6f4,0204,0002,0400,0404,0206,f4f4,fafa,fe02,fe0e,0404,fe00,0406,0402,fefc,f2f2,f8f4,f2f4,0402,0202,0202,0204,0004,00fc,00f8,f804,00fe,fe02,00fe,0000,0202,0400,0606,0000,fcf8,fa00,fcfe,00fe,fefc,00fe,0204,fefe,0604,fefe,fcfa,fcfe,fefe,0002,02fe,fe00,0200,fcfc,0002,fefc,fefa,0200,0202,fe02,fcfc,0204,0402,fcfe,fefe,0200,0202,0402,fcfe,fe04,fefc,0004,02fe,00fe,0202,0606,0400,fcf8,fefc,040a,0400,fefe,0000,0604,0606,0002,fcfc,fafa,0400,0200,0402,0604,0606,0404,0000,0202,0608,02fe,0400,0404,0404,0202,0408,0204,fa02,0004,0004,0406,0404,0202,0608,0204,0204,0206,0000,0404,0404,0202,0808,0606,0600,fe00,00fe,0402,0608,0402,0804,0200,0604,fc04,060c,fe00,0408,0406,0206,0202,fe04,0afc,0600,0606,0404,0002,fe00,fafe,f8f6,0202,fefe,060a,0202,f8fe,02fc,f8f8,fcfa,fefe,fa06,04f8,fe04,fcfa,f6f8,f8f8,f8f4,f8f8,00fe,fcfc,060a,f800,f6f4,f0ee,f4ee,f8f2,fe00,f8f8,f6f0,fcfa,f4f6,eaf2,ece6,ecee,fef8,0004,f4fc,0000,0000,0000,0000,0000,0000,0000,0000,0000,0000,0000,0000,0000,0000,0000,0000,0000,0000,0000,0000,0000,0000,0000,0000,0000,0000,0000,0000,0000,0000,0000,0000,0000,0000,0000,0000,0000,0000,0000,0000,0000,0000,0000,0000,0000,0000,0000,0000,0000,0000,0000,0000,0000,0000,0000,0000,0000,0000,0000,0000,0000,0000,0000,0000,0000,0000,0000,0000,0000,0000,0000,0000,0000,0000,0000,0000,0000,0000,0000,0000,0000,0000,0000,0000,0000,0000,0000,0000,0000,0000,0000,0000,0000,0000,0000,0000,0000,0000,0000,0000,0000,0000,0000,0000,0000,0000,0000,0000,0000,0000,0000,0000,0000,0000,0000,0000,0000,0000,0000,0000,0000,0000,0000,0000,0000,0000,0000,0000,0000,0000,0000,0000,0000,0000,0000,0000,0000,0000,0000,0000,0000,0000,0000,0000,0000,0000,0000,0000,0000,0000,0000,0000,0000,0000,0000,0000,0000,0000,0000,0000,0000,0000,0000,0000,0000,0000,0000,0000,0000,0000,0000,0000,0000,0000,0000,0000,0000,0000,0000,0000,0000,0000,0000,0000,0000,0000,0000,0000,0000,0000,0000,0000,0000,0000,0000,0000,0000,0000,0000,0000,0000,0000,0000,0000,0000,0000,0000,0000,0000,0000,0000,0000,0000,0000,0000,0000,0000,0000,0000,0000,0000,0000,0000,0000,0000,0000,0000,0000,0000,0000,0000,0000,0000,0000,0000,0000,0000,0000,0000,0000,0000,0000,0000,0000,0000,0000,0000,0000,0000,0000,0000,0000,0000,0000,0000,0000,0000,0000,0000,0000,0000,0000,0000,0000,0000,0000,0000,0000,0000,0000,0000,0000,0000,0000,0000,0000,0000,0000,0000,0000,0000,0000,0000,0000,0000,0000,0000,0000,0000,0000,0000,0000,0000,0000,0000,0000,0000,0000,0000,0000,0000,0000,0000,0000,0000,0000,0000,0000,0000,0000,0000,0000,0000,0000,0000,0000,0000,0000,0000,0000,0000,0000,0000,0000,0000,0000,0000,0000,0000,0000,0000,0000,0000,0000,0000,0000,0000,0000,0000,0000,0000,0000,0000,0000,0000,0000,0000,0000,0000,0000,0000,0000,0000,0000,0000,0000,0000,0000,0000,0000,0000,0000,0000,0000,0000,0000,0000,0000,0000,0000,0000,0000,0000,0000,0000,0000,0000,0000,0000,0000,0000,0000,0000,0000,0000,0000,0000,0000,0000,0000,0000,0000,0000,0000,0000,0000,0000,0000,0000,0000,0000,0000,0000,0000,0000,0000,0000,0000,0000,0000,0000,0000,0000,0000,0000,0000,0000,0000,0000,0000,0000,0000,0000,0000,0000,0000,0000,0000,0000,0000,0000,0000,0000,0000,0000,0000,0000,0000,0000,0000,0000,0000,0000,0000,0000,0000,
00fe,0402,fefc,fcfe,fcfe,fcfe,0000,fefa,fc04,fefa,fc02,fafc,0000,00fe,00fe,fefe,00fe,0404,fefc,fcfc,fefe,fcfc,fe00,fefe,fefe,00fe,fc04,00fe,fe00,fe00,00fe,00fe,fefe,fefe,fe00,00fc,fefe,fefc,00fe,00fe,0000,fefe,fefe,0000,fefc,fefc,fefe,fe00,0000,fefe,fefe,fefe,fefe,00fe,fefe,fe00,fefe,fe00,fefe,fefe,0000,fefe,fefe,0000,fefe,fefe,fefe,fcfc,fefe,00fe,fefe,fefe,00fe,fefe,0000,fefe,fcfe,00fe,0000,fefe,fe00,fefe,00fe,fe00,fcfc,02fe,0002,0000,00fe,fe00,fefe,fefe,fefe,fefe,00fe,0002,fe00,00fe,fefe,fefe,fefe,fefe,0000,fe00,fe02,fe00,fe00,fefe,fefe,fefe,fcfc,0200,fe00,fefe,fe00,fefe,fefe,fe00,fe00,0000,fe00,00fe,00fe,fefe,fefe,fefe,fefe,0000,00fe,0000,0000,fe00,fe00,fefe,fefe,fefe,00fa,0000,0000,0000,fefe,fefe,fefe,fe00,fefe,fa00,0000,00fe,fefe,00fe,fe00,fefe,fefe,00fe,0002,fe00,fefe,fefe,fefe,fefe,fefe,fefe,fc00,fefe,fefe,00fe,fefe,fefe,00fe,fefe,0000,fcfc,fefc,fefe,fefe,fefe,fefe,00fe,00fe,fe00,fefe,fefe,00fe,fefe,fefe,fefe,fefe,0000,00fe,fe00,fefe,fefe,fefe,fefe,00fe,fefe,00fe,0200,fe00,fefe,fefe,fefe,00fe,fefe,fe00,0200,0000,fefe,fefe,fefe,0000,fefe,fe00,fefe,0000,fefe,fefc,fefe,fefe,00fe,fefe,0000,fefe,00fe,fefe,fefe,fefe,0000,fefe,00fe,0000,fcfe,fefe,fefe,fefe,fe00,fefe,fefe,fefe,fefe,00fe,00fe,fefe,fefe,fefe,fefe,fe00,fefc,fefe,fefe,fefe,fefe,fefe,00fe,00fe,fe00,fefe,fefe,fefe,fefe,fefe,fefe,fefe,fe00,fefe,0000,fefe,fefc,fefe,fcfa,0000,0000,fe00,fe00,fefe,fefe,fefe,fe00,fefe,0000,0000,00fe,00fe,0000,02fe,0200,0000,0000,02fe,00fa,fe02,fa00,fefe,fafe,fefe,fe00,fefc,fcfe,0200,f6fa,fefa,fcfa,fefc,fcfe,00fc,0200,0202,fefa,fefc,fcfa,fafa,fc00,fcfe,fefc,0200,fafe,fefa,fafa,fefe,fefc,00fc,fafc,fc00,00fc,fcfa,fefc,fcfe,fcfc,0000,fcfc,02fe,fa00,fefe,fefe,00fc,fcfe,fe00,fc00,fcfc,fcfe,fcfc,fefe,fcfe,00fe,fefe,0000,fcfc,fcf8,02fe,fcfe,fcfc,fefe,fcfc,fefe,00fe,fe00,fefc,fefe,fefe,fefe,fefe,fefe,0000,fcfc,fcfc,02fe,fe00,fefe,00fe,fefe,fefe,fefe,fcfc,fef6,fcfe,fcfe,fefe,fefe,fefe,fefe,fc00,00fe,04fc,00fe,fcfc,fefe,fefe,fefe,00fe,fefe,fefa,fefe,fefc,fefe,fefe,00fe,00fe,fe00,fefa,fafc,00fe,fefe,fefe,fefe,fe00,00fe,fefc,00fc,fcfc,fcfe,fefe,fefe,fefe,fe00,fe00,fc00,fefe,fefe,fefe,fefc,fefe,fefe,fe00,fcfe,fef8,fefc,fefe,fcfc,fefe,fefe,fefe,fefe,fcfc,0200,fe00,fcfe,fcfc,fefe,fefe,fefe,fafc,0000,02fe,fefe,fcfe,fefe,fefe,fefe,fefe,fcfc,0002,fefe,fefe,fcfe,fefe,fefe,00fe,fefe,fcfc,fe00,fefe,fcfe,fefe,fefe,fefe,fe00,fc00,fefc,00fe,fefe,fefe,fefe,fefe,fefe,fefe,fcfe,00fa,fefe,fefe,fefe,fefe,fe00,fefe,00fc,fe02,fcfe,fefe,fefc,fefe,fefe,00fe,00fe,04fe,fafa,fefe,fefe,fefe,fefe,00fe,fcfe,00fe,fefa,fe00,fefe,fefe,fefe,fefe,fefe,02fe,00fe,fefa,fefe,fefe,fefe,fefe,fefe,fcfe,0002,0000,fefc,fe00,fcfe,fefe,fe00,0000,fefe,0202,fefc,00fc,fefe,fefe,fcfe,fcfe,fefc,0200,0806,fefe,fefe,fefe,fefe,fefe,fc00,fefc,02fe,f802,fcfe,fcfe,fefe,fefe,0200,fe00,00fe,02fe,fcf8,fefc,fefe,fefe,fefe,fefe,fe00,fcfa,02fe,f8fa,fcfc,fefe,0000,fefe,02fe,02fe,0002,fc02,00fc,fefc,0000,0202,00fe,fe02,fe00,0000,0000,0000,0000,0000,0000,0000,0000,0000,0000,0000,0000,0000,0000,0000,0000,0000,0000,0000,0000,0000,0000,0000,0000,0000,0000,0000,0000,0000,0000,0000,0000,0000,0000,0000,0000,0000,0000,0000,0000,0000,0000,0000,0000,0000,0000,0000,0000,0000,0000,0000,0000,0000,0000,0000,0000,0000,0000,0000,0000,0000,0000,0000,0000,0000,0000,0000,0000,0000,0000,0000,0000,0000,0000,0000,0000,0000,0000,0000,0000,0000,0000,0000,0000,0000,0000,0000,0000,0000,0000,0000,0000,0000,0000,0000,0000,0000,0000,0000,0000,0000,0000,0000,0000,0000,0000,0000,0000,0000,0000,0000,0000,0000,0000,0000,0000,0000,0000,0000,0000,0000,0000,0000,0000,0000,0000,0000,0000,0000,0000,0000,0000,0000,0000,0000,0000,0000,0000,0000,0000,0000,0000,0000,0000,0000,0000,0000,0000,0000,0000,0000,0000,0000,0000,0000,0000,0000,0000,0000,0000,0000,0000,0000,0000,0000,0000,0000,0000,0000,0000,0000,0000,0000,0000,0000,0000,0000,0000,0000,0000,0000,0000,0000,0000,0000,0000,0000,0000,0000,0000,0000,0000,0000,0000,0000,0000,0000,0000,0000,0000,0000,0000,0000,0000,0000,0000,0000,0000,0000,0000,0000,0000,0000,0000,0000,0000,0000,0000,0000,0000,0000,0000,0000,0000,0000,0000,0000,0000,0000,0000,0000,0000,0000,0000,0000,0000,0000,0000,0000,0000,0000,0000,0000,0000,0000,0000,0000,0000,0000,0000,0000,0000,0000,0000,0000,0000,0000,0000,0000,0000,0000,0000,0000,0000,0000,0000,0000,0000,0000,0000,0000,0000,0000,0000,0000,0000,0000,0000,0000,0000,0000,0000,0000,0000,0000,0000,0000,0000,0000,0000,0000,0000,0000,0000,0000,0000,0000,0000,0000,0000,0000,0000,0000,0000,0000,0000,0000,0000,0000,0000,0000,0000,0000,0000,0000,0000,0000,0000,0000,0000,0000,0000,0000,0000,0000,0000,0000,0000,0000,0000,0000,0000,0000,0000,0000,0000,0000,0000,0000,0000,0000,0000,0000,0000,0000,0000,0000,0000,0000,0000,0000,0000,0000,0000,0000,0000,0000,0000,0000,0000,0000,0000,0000,0000,0000,0000,0000,0000,0000,0000,0000,0000,0000,0000,0000,0000,0000,0000,0000,0000,0000,0000,0000,0000,0000,0000,0000,0000,0000,0000,0000,0000,0000,0000,0000,0000,0000,0000,0000,0000,0000,0000,0000,0000,0000,0000,0000,0000,0000,0000,0000,0000,0000,0000,0000,0000,0000,0000,0000,0000,0000,0000,0000,0000,0000,0000,0000,0000,0000,0000,0000,0000,0000,0000,0000,0000,0000,0000,0000,0000,0000,0000,0000,0000,0000,0000,
00fe,0204,fcfc,fe04,fe00,fafe,04fe,0400,fe06,fefa,fe00,fcfe,0200,0402,0200,fc00,0200,0202,fefc,f8fc,fefe,0004,fefe,00fe,fc00,00fc,fe04,fcfe,0204,00fe,00fe,00fe,fcfe,fefe,0002,fefa,00fe,00fc,00fe,fefa,00fe,fcfe,fefc,fe02,f8fc,00fc,00fe,fcfc,fefe,00fc,fcfc,fe00,fefe,fc00,02fe,fafc,fefc,00fe,fcfe,fefe,0002,0002,0200,0202,fefc,0000,fefe,fcfc,fe00,0002,fe02,0404,0000,fefe,fe00,fefe,fafc,fefc,0202,0200,0204,0000,0000,fefc,fefe,fcfc,fe06,0204,0204,0200,fe00,fe00,fefc,fe00,f8fa,fefa,0000,00fe,fefe,fefe,fcfc,0000,fe00,00fc,fefc,fefe,fcfc,fcfe,fcfe,fefc,0004,fe02,0000,fafe,fcfc,fefc,fefc,00fc,0200,fe00,0000,00fe,fefe,fefe,fefe,fefe,0000,0202,0200,0206,0400,fe00,0000,00fe,0000,0000,fafa,fc00,0204,fefe,0000,0000,fefe,0000,fe00,fcfe,fefc,0000,fe00,fefe,fcfe,0000,fe00,fe00,fcfc,0000,fefe,fe00,fefc,00fe,fefe,0000,fefe,02fe,fc00,fe00,fcfe,fefe,fcfe,fefe,0402,fe00,0402,0202,fcfe,fefc,fcfe,00fe,fefe,fcfe,0602,0404,0000,fefc,fe00,00fe,fefe,fe00,00fc,0200,0002,fcfe,fefe,fcfe,fe00,fefe,fc00,fefe,00fe,fefe,fcfc,00fe,00fe,fefc,f8f6,0200,fefe,fcfc,fcfe,fefe,0200,fcfe,0000,00fe,0202,fefc,fefc,fcfe,0000,0000,fe00,00fa,0202,0004,fcfc,fcfc,fefe,0200,fe00,00fe,0202,0200,fefe,fcfe,fcfc,00fe,0402,00fe,fafa,0200,00fe,fcfe,fefe,fefc,0200,0000,fc02,fefe,fefe,fefc,fefc,fefe,fe00,0200,00fc,fcfe,fefe,00fe,00fe,fefc,00fe,0002,fcfe,fefe,fcfc,fe00,0002,fefe,fefe,fefc,0000,00fe,fcfc,fcfe,00fe,fe00,0000,fcfc,0000,02fe,0000,fefe,00fe,0200,0600,02fe,04fe,fe02,02fc,04fc,0004,fe04,fe00,fc04,fafe,04fa,04f8,0004,0608,fe06,f600,0002,fcfc,fafa,04fa,0002,fa0e,fcfa,fafc,faf4,f8fa,fcfc,fefc,fef6,0402,fe04,fefa,f8fa,fafc,fafa,fc00,fcfc,fefe,0200,fafa,faf8,fcfc,faf8,fefe,fe00,0600,fefe,fefc,fe04,fefc,fcfa,fefa,fe02,fef8,0402,02fe,00fe,fcfc,0000,fefc,00fc,fc02,02fc,0002,fcfe,04fe,0202,fe00,00fc,00fe,fcfa,0002,f8fe,02fc,0000,0204,0000,fe02,fcfe,fefa,06fe,00fc,fe00,0200,fe02,fe00,fefe,fcfe,04fc,fafc,00fa,0202,0000,0000,0000,fe00,fafe,fe00,fcfc,fc00,0000,0000,fefe,fefe,fc00,080a,fe04,00fc,0002,0200,fe00,fe00,fe00,00f8,fe04,fe00,02fc,0200,0202,0202,0402,0200,02fe,fc02,fefa,0204,0202,0404,0002,fefe,fefc,fcfe,0002,fefe,fe00,0000,0002,fc00,00fe,0406,fefa,fcfe,0000,fefe,fe02,fefe,fefe,0000,08fe,fe04,fcfc,fefe,fefe,fcfe,00fc,f8fc,0200,fc02,00fe,0000,0000,fefe,fcfe,fefe,00fe,0402,fafa,0200,0002,0000,fefe,fc00,fe02,fe00,fefe,0002,0000,fefe,fefe,fe00,00fe,fefe,04fe,00fe,02fe,fefe,fefe,fefe,0202,0002,fe00,00fa,fe00,fefe,fcfe,fefe,00fe,0002,00fe,fa06,0000,02fe,fefe,fefc,fe00,0200,0602,fe04,02fc,fcfc,fe00,fefc,fefe,0002,fe02,0200,fefe,0002,00fe,fcfc,fefe,fefe,0402,02fe,06f8,00fe,0004,fe00,fefe,00fe,00fc,04fe,fe00,0004,fc00,fefe,fefe,fe00,fcfe,0004,fe00,0204,fafe,00fe,fe00,fefe,fefe,fe00,0000,0600,0202,fefe,fe00,fefe,00fe,0000,fc00,0002,00fa,0206,00fe,0000,0200,fe00,0000,0402,0004,0202,0202,0600,0000,fefe,0200,0002,fa00,fe04,0804,fc00,fc00,fefc,0002,02fe,0404,06fc,0002,0204,fa02,0204,0004,0202,0602,fe08,fe02,0000,0000,0000,0000,0000,0000,0000,0000,0000,0000,0000,0000,0000,0000,0000,0000,0000,0000,0000,0000,0000,0000,0000,0000,0000,0000,0000,0000,0000,0000,0000,0000,0000,0000,0000,0000,0000,0000,0000,0000,0000,0000,0000,0000,0000,0000,0000,0000,0000,0000,0000,0000,0000,0000,0000,0000,0000,0000,0000,0000,0000,0000,0000,0000,0000,0000,0000,0000,0000,0000,0000,0000,0000,0000,0000,0000,0000,0000,0000,0000,0000,0000,0000,0000,0000,0000,0000,0000,0000,0000,0000,0000,0000,0000,0000,0000,0000,0000,0000,0000,0000,0000,0000,0000,0000,0000,0000,0000,0000,0000,0000,0000,0000,0000,0000,0000,0000,0000,0000,0000,0000,0000,0000,0000,0000,0000,0000,0000,0000,0000,0000,0000,0000,0000,0000,0000,0000,0000,0000,0000,0000,0000,0000,0000,0000,0000,0000,0000,0000,0000,0000,0000,0000,0000,0000,0000,0000,0000,0000,0000,0000,0000,0000,0000,0000,0000,0000,0000,0000,0000,0000,0000,0000,0000,0000,0000,0000,0000,0000,0000,0000,0000,0000,0000,0000,0000,0000,0000,0000,0000,0000,0000,0000,0000,0000,0000,0000,0000,0000,0000,0000,0000,0000,0000,0000,0000,0000,0000,0000,0000,0000,0000,0000,0000,0000,0000,0000,0000,0000,0000,0000,0000,0000,0000,0000,0000,0000,0000,0000,0000,0000,0000,0000,0000,0000,0000,0000,0000,0000,0000,0000,0000,0000,0000,0000,0000,0000,0000,0000,0000,0000,0000,0000,0000,0000,0000,0000,0000,0000,0000,0000,0000,0000,0000,0000,0000,0000,0000,0000,0000,0000,0000,0000,0000,0000,0000,0000,0000,0000,0000,0000,0000,0000,0000,0000,0000,0000,0000,0000,0000,0000,0000,0000,0000,0000,0000,0000,0000,0000,0000,0000,0000,0000,0000,0000,0000,0000,0000,0000,0000,0000,0000,0000,0000,0000,0000,0000,0000,0000,0000,0000,0000,0000,0000,0000,0000,0000,0000,0000,0000,0000,0000,0000,0000,0000,0000,0000,0000,0000,0000,0000,0000,0000,0000,0000,0000,0000,0000,0000,0000,0000,0000,0000,0000,0000,0000,0000,0000,0000,0000,0000,0000,0000,0000,0000,0000,0000,0000,0000,0000,0000,0000,0000,0000,0000,0000,0000,0000,0000,0000,0000,0000,0000,0000,0000,0000,0000,0000,0000,0000,0000,0000,0000,0000,0000,0000,0000,0000,0000,0000,0000,0000,0000,0000,0000,0000,0000,0000,0000,0000,0000,0000,0000,0000,0000,0000,0000,0000,0000,0000,0000,0000,0000,0000,0000,0000,0000,0000,0000,0000,0000,0000,0000,0000,0000,0000,0000,0000,0000,0000,0000,0000,0000,0000,0000,0000,
00fc,0008,fc04,0600,0200,fe06,0608,04fa,f008,fcf8,0006,0602,0406,fe02,fefe,00fc,fafe,f8fe,fcf4,0608,fc00,f6fa,f4f6,f8f0,0200,fe00,f4f8,04fc,fcfe,f8fe,faf6,f4f6,f6ee,fc04,fafc,fefa,02fe,f8fa,f4f6,f2f0,f0ec,fefc,f802,f8f4,00fc,fefa,fcfc,f4f4,eeee,f0ee,f6f8,f4fa,fafc,fcfe,00fe,f4f8,eef0,ecea,faf4,fefa,f8fa,f8fa,fe00,fc02,f0f0,eef2,ecee,f8fa,fa00,f8fa,fefe,0604,f2f2,f6f2,f2ee,f0f2,f6f8,f6f6,0204,0202,f2f8,f2f4,f2f4,f4f2,f6f4,fafa,00fc,0202,fc02,f8f8,f8f8,f4f4,eef2,f6f4,faf6,fe00,0200,f8f6,f6fa,fafa,f6f8,f4f0,fcfc,faf8,fefc,fafc,0000,fcfa,0204,eef8,f4ea,f6fa,fafc,00fe,fefa,f8fc,0202,0806,ecee,fafa,fcf8,fefe,fafe,0204,04fe,0204,f4fe,fcf2,f4f4,fcfe,0202,00fe,fcfc,0808,0a0a,eae8,fcfc,fcfc,0604,fefe,0000,0a02,0808,f804,fafa,fafc,0200,0206,0200,00fe,0808,0a08,fcfa,fe00,0202,0608,fe00,0206,0804,080a,0208,fe00,0402,0204,0004,0804,0000,0a08,0a0a,fe02,0002,0002,0808,0604,0208,0a0a,0c0a,0608,fafc,0002,0606,0406,0a08,0202,0806,0c0c,0c0e,0204,0200,0a0a,0a08,0406,0608,0c0e,0808,fe00,0002,0804,0808,0808,0402,0804,0406,0004,0004,0002,0202,0808,0202,0000,0406,0000,fafc,fefe,0200,02fe,0004,00fe,fefe,fafa,f4f2,0004,fefc,fafc,fefe,fafc,f8fc,fafc,f0f4,fefe,fafc,fafc,fcfa,fafa,fafa,fcfc,f8f8,f6f2,fa00,f8f8,fafa,fafc,faf8,fcfe,fefe,f8f8,fafc,f4f8,f8f6,fefc,f8f8,fcfc,fefa,02fe,0202,f8f6,fefa,fcfc,fcfc,fcf8,fafc,02fc,0206,0404,fafa,fe00,fafa,fcfc,fcfa,00fc,0a08,fcf8,f8f8,fcfe,fcfa,f8f8,fafa,f8fc,0000,080a,0200,fe00,fcfe,f4f8,fafc,faf8,fcfc,0806,0000,f802,04fe,060c,04fe,0600,060a,fc00,0406,0810,fe02,fc08,f8fe,0202,0606,0a06,0206,0400,fe04,fafc,f6fa,00fc,0608,0c0c,0006,0404,1008,fe0c,f2f8,f8f6,0604,0e0c,0a0c,00fc,0800,0200,f4fa,f0ec,02fe,0806,0e0c,0410,04fc,0c12,f8f6,ecec,faf6,0804,0c0a,0808,0400,0206,0004,f0f6,f6f2,0200,0402,0606,0c06,0804,1600,f4f8,f4f8,0200,0600,0402,00fc,0606,0608,f8fa,faf4,fefa,00fe,0206,fe00,04fa,0406,1210,f6fa,fc00,0002,0402,fefe,fefe,0002,080c,00f4,fefe,0000,00fe,fc04,00fc,00fa,0202,0a06,0400,0200,0404,0806,fcfc,fcfa,fe02,0806,0202,0406,0606,0604,fc00,fcfc,fafa,02fe,0c06,0a06,0606,0406,0206,fcfa,f4fa,00fa,0400,0600,080a,0608,0400,fefe,0000,fefe,0208,0a10,0a0a,0406,fefe,0204,0002,fefe,f8f6,04fe,0a08,060a,fefe,02fe,0000,fc02,f8fe,fefe,0c0a,0808,fcfe,fefc,0406,00fe,02fe,fcfc,0000,0208,fe00,fafa,0400,fe00,fe00,fc04,fefe,0408,0006,f8f8,fcf8,fe02,0000,0400,fef8,0a00,fe08,f8fe,fafc,0002,fcfc,0000,fefe,0600,040a,fefe,fcfa,fe00,0000,0000,0202,0802,02fc,f6fe,fefa,00fe,0202,0202,0002,fefc,0a0c,0406,faf8,0000,0402,0202,0002,f8fe,0406,0a06,f606,fefc,0404,0206,0402,fcfc,fef6,0000,0e00,faf6,04fc,0604,0202,0000,f6f4,fc02,0806,fc00,fcf8,0202,fe02,fefe,fcfc,f8f8,00fc,0806,f6fc,fcf8,fafe,fcfc,fcfe,f6f8,f8fe,00fe,fa00,f8f8,f8fa,f6f4,fefc,fafa,faf4,0008,1202,f8fc,f8fa,f4f4,fcfa,fcfe,fafc,fef8,1006,fe06,fa00,fafc,fcf8,fefc,fafa,faf2,06f8,0a04,fe0a,fe00,faf8,0002,00fe,0c04,00f8,0c0a,080a,0a04,fefc,0606,02fc,0606,0400,fe06,140e,0810,040c,0808,0a04,060a,0a10,0a04,0a06,0000,0000,0000,0000,0000,0000,0000,0000,0000,0000,0000,0000,0000,0000,0000,0000,0000,0000,0000,0000,0000,0000,0000,0000,0000,0000,0000,0000,0000,0000,0000,0000,0000,0000,0000,0000,0000,0000,0000,0000,0000,0000,0000,0000,0000,0000,0000,0000,0000,0000,0000,0000,0000,0000,0000,0000,0000,0000,0000,0000,0000,0000,0000,0000,0000,0000,0000,0000,0000,0000,0000,0000,0000,0000,0000,0000,0000,0000,0000,0000,0000,0000,0000,0000,0000,0000,0000,0000,0000,0000,0000,0000,0000,0000,0000,0000,0000,0000,0000,0000,0000,0000,0000,0000,0000,0000,0000,0000,0000,0000,0000,0000,0000,0000,0000,0000,0000,0000,0000,0000,0000,0000,0000,0000,0000,0000,0000,0000,0000,0000,0000,0000,0000,0000,0000,0000,0000,0000,0000,0000,0000,0000,0000,0000,0000,0000,0000,0000,0000,0000,0000,0000,0000,0000,0000,0000,0000,0000,0000,0000,0000,0000,0000,0000,0000,0000,0000,0000,0000,0000,0000,0000,0000,0000,0000,0000,0000,0000,0000,0000,0000,0000,0000,0000,0000,0000,0000,0000,0000,0000,0000,0000,0000,0000,0000,0000,0000,0000,0000,0000,0000,0000,0000,0000,0000,0000,0000,0000,0000,0000,0000,0000,0000,0000,0000,0000,0000,0000,0000,0000,0000,0000,0000,0000,0000,0000,0000,0000,0000,0000,0000,0000,0000,0000,0000,0000,0000,0000,0000,0000,0000,0000,0000,0000,0000,0000,0000,0000,0000,0000,0000,0000,0000,0000,0000,0000,0000,0000,0000,0000,0000,0000,0000,0000,0000,0000,0000,0000,0000,0000,0000,0000,0000,0000,0000,0000,0000,0000,0000,0000,0000,0000,0000,0000,0000,0000,0000,0000,0000,0000,0000,0000,0000,0000,0000,0000,0000,0000,0000,0000,0000,0000,0000,0000,0000,0000,0000,0000,0000,0000,0000,0000,0000,0000,0000,0000,0000,0000,0000,0000,0000,0000,0000,0000,0000,0000,0000,0000,0000,0000,0000,0000,0000,0000,0000,0000,0000,0000,0000,0000,0000,0000,0000,0000,0000,0000,0000,0000,0000,0000,0000,0000,0000,0000,0000,0000,0000,0000,0000,0000,0000,0000,0000,0000,0000,0000,0000,0000,0000,0000,0000,0000,0000,0000,0000,0000,0000,0000,0000,0000,0000,0000,0000,0000,0000,0000,0000,0000,0000,0000,0000,0000,0000,0000,0000,0000,0000,0000,0000,0000,0000,0000,0000,0000,0000,0000,0000,0000,0000,0000,0000,0000,0000,0000,0000,0000,0000,0000,0000,0000,0000,0000,0000,0000,0000,0000,0000,0000,0000,0000,0000,0000,0000,0000,0000,0000,0000,0000,0000,0000,0000,0000,0000,0000,0000,0000,
02fc,0406,fefa,f8fe,fefe,fcfe,0400,00fa,fc00,fef8,fefc,fafa,fafe,00fc,0000,fefc,0200,0200,fefc,fafe,00fc,fcfe,fefe,fcfe,fefc,0000,fa00,fcfc,0000,fefc,fcfc,00fe,fefe,fefc,fc04,fefa,fcf8,fefa,fefc,fefc,00fe,fefe,fefe,fa00,fafc,fcfc,fe00,fefe,0000,fefe,fefe,fefc,fcf8,fcfc,fefe,00fe,fefe,0000,fcfe,fefe,fe00,fafa,0202,0200,0000,00fe,0000,fcfc,fefe,fcfa,fefa,0000,0000,fefe,0000,fcfe,fcfc,fcfe,fefe,00fe,fefe,fcfe,fefc,fe00,fcfc,0200,0002,fefc,0000,fefe,fefc,fefe,fefc,fefc,00fe,fe00,fe00,fe00,fefe,fe00,fefe,fefc,fefc,00fe,0202,0202,00fe,fe00,fefe,fcfe,fefa,fefe,0204,0402,0002,00fe,fefe,fefe,fefe,fe00,fefe,0404,00fe,00fe,00fe,00fe,fefe,fefe,0400,0600,0000,fefe,fe00,fefe,fefe,00fe,fcfa,00fe,fe00,0000,fefe,00fe,fe00,fe00,0000,fcfe,fc00,fe00,fe00,00fe,fe00,fe00,fefe,fe02,fcfe,fa00,fefc,fe00,fefe,fefe,fefe,fefe,f6fa,fcfa,fefe,00fe,fefe,fefe,fefe,00fe,00fe,f8f8,fcfc,fefe,fefe,fefe,fefe,fefe,00fe,fefc,fcfa,fefe,0000,fe00,0000,fefe,fefe,fefe,00fe,0002,0200,0002,fefe,fefe,fefe,fefe,fefe,0202,0000,0000,fefe,0000,00fe,fefe,fcfe,0402,0000,0000,0000,0000,fefe,fefe,fefe,fefc,0200,fe00,fe00,0002,0000,fefe,fefe,0400,0200,0200,fefe,0200,00fe,fefe,fefe,fefe,0202,0000,fefc,fefe,0002,0002,fefe,fefe,fe00,0200,0000,fefe,0202,fe00,fefe,fefe,f800,00fe,0002,fefe,0000,0000,fc00,fefe,00fe,fefc,fe00,fcfe,fe00,0000,fefe,fefe,fefe,0000,00fe,fefe,fefe,02fe,0200,fafa,00fe,0000,00fe,fe00,fefe,00fe,0002,fcfe,fefe,00fe,0000,0000,0000,fefe,fc00,0202,fe00,00fe,02fc,04fc,fe02,fefc,0000,f800,fefc,00fc,fcfc,0000,0400,fcfc,00fe,0000,fefe,fefe,0200,0004,0200,00fe,04fc,fefe,fefc,fe02,fcfa,0202,0404,fa02,0002,0202,00fe,fefa,0000,fa04,fe00,fefa,fefc,02fe,0002,fcfc,0200,0200,0602,0206,fe04,fe00,0200,0000,fefe,0002,0002,0004,04fe,fefe,fafe,fefe,fe00,0002,0202,04fe,02fe,fefe,fefe,00fe,fcfe,00fe,02fe,fc02,02fc,fc04,fcfc,00fe,0000,0000,0000,fc00,fcfe,08fe,fcfc,fcfe,0002,fe00,0000,0000,fefe,0200,fe00,fafe,0002,0000,0200,fe00,0000,0000,0802,fe00,fefe,0204,fe00,0002,fe00,fe00,fcfe,0000,fefc,0200,0002,0200,00fe,fe00,0202,fe02,0002,fefe,0002,00fe,fefe,fe00,00fe,0602,fefe,fefc,fefc,fefe,fefe,fefe,fefc,fe00,0400,fefe,fefe,fefe,00fe,fefe,0000,00fe,fcf8,0406,fefe,fefc,fefc,fefe,fe00,fe00,0202,0602,fe00,fcfc,fefc,fefe,fe00,00fe,fafe,0200,0000,fefe,fc00,fefc,fefe,fe00,02fe,0000,0400,fcfe,fefe,fefc,0000,0000,0000,0002,fe02,fa00,0000,fe00,0000,0000,0000,fcfe,00fe,fcfc,0000,0000,fe00,00fe,00fe,fe00,00fe,00fc,02fc,fe00,0000,fe00,0000,0000,fe00,00fe,fc04,fefe,fe00,fefe,fefe,0200,fe00,0200,0afe,f8fc,fefe,fefe,fefe,fefe,0000,fe00,0000,fef6,fefe,fefe,fefe,fefe,fefe,fe00,0402,00fe,fc02,00fe,fcfe,fefe,fefe,fefe,fc00,0400,0404,00fc,fe00,fcfe,fefe,fcfe,fe02,fe00,0204,04fa,fe02,fefe,fefc,fefc,fefe,fcfc,fefe,0402,00fc,0000,fcfe,00fe,fefc,fa00,0000,0204,fa00,0204,0000,fefe,fefe,fe00,fcfe,fc02,0800,02f8,02fc,fe00,0000,00fe,fcfe,fe00,fe00,fe06,fe02,00fe,0000,0002,fcfe,02fe,02fe,0002,fe00,02fe,02fe,00fe,fc04,0402,fa02,00fe,0000,0000,0000,0000,0000,0000,0000,0000,0000,0000,0000,0000,0000,0000,0000,0000,0000,0000,0000,0000,0000,0000,0000,0000,0000,0000,0000,0000,0000,0000,0000,0000,0000,0000,0000,0000,0000,0000,0000,0000,0000,0000,0000,0000,0000,0000,0000,0000,0000,0000,0000,0000,0000,0000,0000,0000,0000,0000,0000,0000,0000,0000,0000,0000,0000,0000,0000,0000,0000,0000,0000,0000,0000,0000,0000,0000,0000,0000,0000,0000,0000,0000,0000,0000,0000,0000,0000,0000,0000,0000,0000,0000,0000,0000,0000,0000,0000,0000,0000,0000,0000,0000,0000,0000,0000,0000,0000,0000,0000,0000,0000,0000,0000,0000,0000,0000,0000,0000,0000,0000,0000,0000,0000,0000,0000,0000,0000,0000,0000,0000,0000,0000,0000,0000,0000,0000,0000,0000,0000,0000,0000,0000,0000,0000,0000,0000,0000,0000,0000,0000,0000,0000,0000,0000,0000,0000,0000,0000,0000,0000,0000,0000,0000,0000,0000,0000,0000,0000,0000,0000,0000,0000,0000,0000,0000,0000,0000,0000,0000,0000,0000,0000,0000,0000,0000,0000,0000,0000,0000,0000,0000,0000,0000,0000,0000,0000,0000,0000,0000,0000,0000,0000,0000,0000,0000,0000,0000,0000,0000,0000,0000,0000,0000,0000,0000,0000,0000,0000,0000,0000,0000,0000,0000,0000,0000,0000,0000,0000,0000,0000,0000,0000,0000,0000,0000,0000,0000,0000,0000,0000,0000,0000,0000,0000,0000,0000,0000,0000,0000,0000,0000,0000,0000,0000,0000,0000,0000,0000,0000,0000,0000,0000,0000,0000,0000,0000,0000,0000,0000,0000,0000,0000,0000,0000,0000,0000,0000,0000,0000,0000,0000,0000,0000,0000,0000,0000,0000,0000,0000,0000,0000,0000,0000,0000,0000,0000,0000,0000,0000,0000,0000,0000,0000,0000,0000,0000,0000,0000,0000,0000,0000,0000,0000,0000,0000,0000,0000,0000,0000,0000,0000,0000,0000,0000,0000,0000,0000,0000,0000,0000,0000,0000,0000,0000,0000,0000,0000,0000,0000,0000,0000,0000,0000,0000,0000,0000,0000,0000,0000,0000,0000,0000,0000,0000,0000,0000,0000,0000,0000,0000,0000,0000,0000,0000,0000,0000,0000,0000,0000,0000,0000,0000,0000,0000,0000,0000,0000,0000,0000,0000,0000,0000,0000,0000,0000,0000,0000,0000,0000,0000,0000,0000,0000,0000,0000,0000,0000,0000,0000,0000,0000,0000,0000,0000,0000,0000,0000,0000,0000,0000,0000,0000,0000,0000,0000,0000,0000,0000,0000,0000,0000,0000,0000,0000,0000,0000,0000,0000,0000,0000,0000,0000,0000,0000,0000,0000,0000,0000,0000,0000,0000,0000,0000,0000,0000,0000,
02fe,0004,00fc,fc00,fe00,fe00,0202,00fe,fcfe,fcf8,0002,f8fa,fefe,0000,0200,fefe,fefe,02fe,fcfc,fe00,fcf8,fc00,fe00,fefe,fefe,0002,f8fc,fafc,fcfe,fefc,0000,00fe,fefe,fefe,fefe,fefc,00fa,0200,0202,fe00,00fe,fefe,fefc,fe02,f8fc,0402,0204,fc00,00fe,fefe,fefe,fefc,fcfa,fcfc,0402,0002,fefe,fefe,fefe,fefe,fefe,fafa,0200,0404,0000,fefe,fefe,fcfc,fe00,fcfa,fcfa,0402,0200,fefe,fe00,fefe,fcfc,fafe,fefc,00fe,fe00,00fe,0000,fefe,fcfe,fefa,fe02,fe00,0000,fe00,0000,fefe,fcfe,fcfe,fcfc,00fe,fe00,fe00,00fe,fefe,fefe,fefe,00fe,fefe,0000,fefe,fe00,fefe,fefe,fefc,fefe,0202,0000,0202,0000,0000,fe00,fe00,fefe,fe02,fefe,0202,00fe,fefe,fefe,fefe,fefe,0000,fcfe,0000,0202,0000,fefe,fefe,fefe,00fe,fefa,fefa,00fe,0000,fefe,fefe,fefe,fe00,fefe,fafc,fefc,fefe,fefe,fefe,fefe,0000,00fe,fefe,00fe,fafe,00fe,fefe,fefe,fefe,fefe,00fe,fafe,fcfe,fefc,fefe,00fe,fefe,fefe,fefe,02fe,fcfc,fcfc,fefe,fefe,fefe,fefe,fefe,00fe,fefe,00fe,fefe,0000,00fe,fefe,fefe,fefe,fe00,0000,0000,fe00,0000,fefe,fefe,fe00,fefe,0200,0000,0000,00fe,fefe,fefe,0000,fefe,fefe,fe00,0000,0000,fcfe,fe00,fefe,fe00,fefe,fe00,00fe,fe00,0000,fefe,fefe,fefe,fefe,0400,0000,0000,fefe,fe00,fefe,fefe,fefe,fefe,0204,0000,fefe,fefe,fe00,fefe,fefe,fefe,fefe,0000,0000,fefe,0000,0000,fefe,fefe,fc00,00fe,fe00,fe00,0000,fe00,fefe,fefe,00fe,fefe,0000,00fe,0000,fefe,fcfe,fefe,fefe,0400,fefe,fe00,fefe,fefe,fefe,fefc,fe00,0000,0000,00fe,fefe,fefe,fefe,fefe,00fe,0000,0000,fe00,fefe,fefe,fe00,fefe,0000,0000,0200,06fe,fefc,0000,04fe,fc00,fc02,0000,fefc,00fe,0202,fc00,0204,00fe,fefc,fcfa,0206,0200,0008,fcfc,00fe,0202,0002,fcfe,fcfe,02fe,0200,fe04,fefa,0004,0000,fefe,fcfc,fcf8,fe00,02fe,fefa,00fc,0200,00fe,0000,fafc,04fe,fc00,fefe,fefe,0002,0002,0400,fe02,fafe,0006,00fe,fefe,fc00,0204,00fe,0402,fc02,0000,0802,fefe,00fc,0202,fefe,0200,0202,fa00,02f6,fc00,fcfc,0002,0000,0202,0202,fefc,fefe,0000,fefe,fefe,0000,00fe,0200,0200,fefe,04fe,fe00,fcfe,0000,00fe,0000,0000,fe00,fefc,0604,fefe,fefc,0000,fefe,0000,fe00,fe00,0000,fcfe,fefe,fefe,0002,fe00,fe00,fe00,02f8,0204,00fe,fefe,0200,0000,fefe,0000,00fe,02fe,fa02,fefc,00fe,0000,fefe,fefe,fefe,fcfe,02fe,fcfe,fefe,fefe,fefe,fefe,fefc,fefe,fcfc,0002,00fe,fefe,fefc,fcfc,fefe,fefe,0000,04fe,00fe,fefc,fcfe,fcfe,fefe,00fc,fcfe,0202,fe02,fefe,fefe,fefe,fefe,fcfe,00fc,fefe,02fc,fefc,fefe,fe00,00fe,00fe,fefe,00fe,fcfe,fcfe,fe00,fe00,fefe,fefe,00fe,fefe,fefe,fefc,fefe,fefe,fefe,fefe,fefe,0000,0000,fcfe,fefa,fcfe,fe00,fefe,fefe,fe00,0000,0000,fe04,00fe,fcfe,fefe,fefe,fefe,00fe,02fe,0600,fefe,00fe,fefe,fefe,fefe,fefe,fe00,fefe,fcfa,fefc,fefe,fefe,fefe,00fe,0000,0000,fc00,fe00,fefe,fefe,fefe,00fe,00fe,0000,fcfe,00fe,fefc,fe00,fe00,fefe,0000,fc02,fe02,0202,fcfa,0200,fefe,fefe,fefe,fe00,fefe,fe00,02fe,fefe,fefe,fe00,fefe,fefe,0000,00fe,fe02,fe04,fe00,00fe,0000,fcfe,fe00,0000,00fe,04fe,02fa,00fe,00fe,0000,fefe,fe00,fe00,00fe,0204,fcfc,fefe,fe00,fefe,00fe,0200,00fe,fe02,00fe,0000,00fe,fefe,fcfe,0000,fefe,fcfc,0000,0000,0000,0000,0000,0000,0000,0000,0000,0000,0000,0000,0000,0000,0000,0000,0000,0000,0000,0000,0000,0000,0000,0000,0000,0000,0000,0000,0000,0000,0000,0000,0000,0000,0000,0000,0000,0000,0000,0000,0000,0000,0000,0000,0000,0000,0000,0000,0000,0000,0000,0000,0000,0000,0000,0000,0000,0000,0000,0000,0000,0000,0000,0000,0000,0000,0000,0000,0000,0000,0000,0000,0000,0000,0000,0000,0000,0000,0000,0000,0000,0000,0000,0000,0000,0000,0000,0000,0000,0000,0000,0000,0000,0000,0000,0000,0000,0000,0000,0000,0000,0000,0000,0000,0000,0000,0000,0000,0000,0000,0000,0000,0000,0000,0000,0000,0000,0000,0000,0000,0000,0000,0000,0000,0000,0000,0000,0000,0000,0000,0000,0000,0000,0000,0000,0000,0000,0000,0000,0000,0000,0000,0000,0000,0000,0000,0000,0000,0000,0000,0000,0000,0000,0000,0000,0000,0000,0000,0000,0000,0000,0000,0000,0000,0000,0000,0000,0000,0000,0000,0000,0000,0000,0000,0000,0000,0000,0000,0000,0000,0000,0000,0000,0000,0000,0000,0000,0000,0000,0000,0000,0000,0000,0000,0000,0000,0000,0000,0000,0000,0000,0000,0000,0000,0000,0000,0000,0000,0000,0000,0000,0000,0000,0000,0000,0000,0000,0000,0000,0000,0000,0000,0000,0000,0000,0000,0000,0000,0000,0000,0000,0000,0000,0000,0000,0000,0000,0000,0000,0000,0000,0000,0000,0000,0000,0000,0000,0000,0000,0000,0000,0000,0000,0000,0000,0000,0000,0000,0000,0000,0000,0000,0000,0000,0000,0000,0000,0000,0000,0000,0000,0000,0000,0000,0000,0000,0000,0000,0000,0000,0000,0000,0000,0000,0000,0000,0000,0000,0000,0000,0000,0000,0000,0000,0000,0000,0000,0000,0000,0000,0000,0000,0000,0000,0000,0000,0000,0000,0000,0000,0000,0000,0000,0000,0000,0000,0000,0000,0000,0000,0000,0000,0000,0000,0000,0000,0000,0000,0000,0000,0000,0000,0000,0000,0000,0000,0000,0000,0000,0000,0000,0000,0000,0000,0000,0000,0000,0000,0000,0000,0000,0000,0000,0000,0000,0000,0000,0000,0000,0000,0000,0000,0000,0000,0000,0000,0000,0000,0000,0000,0000,0000,0000,0000,0000,0000,0000,0000,0000,0000,0000,0000,0000,0000,0000,0000,0000,0000,0000,0000,0000,0000,0000,0000,0000,0000,0000,0000,0000,0000,0000,0000,0000,0000,0000,0000,0000,0000,0000,0000,0000,0000,0000,0000,0000,0000,0000,0000,0000,0000,0000,0000,0000,0000,0000,0000,0000,0000,0000,0000,0000,0000,0000,0000,0000,0000,0000,0000,0000,0000,0000,0000,0000,0000,0000,0000,
