memory_initialization_radix=16;
memory_initialization_vector=
fe00,0202,fcfe,00fc,fefe,fefc,fe00,fafe,06fc,fafe,02fe,fcfa,fefe,fe02,0000,fefe,fefe,0402,fefe,fefe,fe00,0000,0000,fefe,fefe,fe00,00fa,fefe,0200,00fe,fe00,fe00,fefe,fefe,02fc,fc00,fe00,fcfe,fe00,fe00,0000,fefe,fefe,fefe,fcfe,fcfc,fefe,fe00,00fe,fefe,fcfe,fe00,fc00,fcfe,fefe,fefe,fefe,0000,fefe,fefe,fe00,fefc,fe00,fefe,fefe,fefe,fefe,fefc,fefe,00fe,fcfe,fefe,fe00,fefe,00fe,fefe,fcfa,0000,0000,fefe,fefe,fefe,fe00,fefe,fcfc,0202,00fe,0000,fe00,fefe,fefe,fefe,fefe,fc00,0000,0000,00fe,fe00,fefe,fefe,fefe,fefe,00fe,fe00,00fe,fefe,fefe,fefe,fefe,fefe,fcfe,fefe,00fe,fefe,fefe,fefe,00fe,fefe,fefe,0000,00fe,fefe,fefe,fefe,fefe,fefe,fefe,0000,fe00,fe00,fefe,fefe,00fe,00fe,fefe,00fe,fcfe,0000,00fe,fefe,fefe,0000,fefe,00fe,0000,02fe,fefe,fefe,fefe,0000,fefe,fefe,fefe,0000,00fe,fefc,fefe,0000,fefe,fefe,fefe,00fe,00fc,fcfc,fcfc,fefe,fefe,fefe,fefe,0000,0000,fcfe,fcfe,fcfe,fe00,fefe,fefe,fe00,fefe,fefe,fefe,fefe,fefe,fefe,fefe,fefe,fefe,0000,fe00,fefe,fefe,00fe,fefe,fefe,fe00,00fe,fefe,fe00,fefe,fe00,fefe,fefe,fefe,fefe,fefc,fe00,0000,fe00,fe00,fefe,fefe,fefe,fefe,fefc,fe00,fefe,0000,fefe,fefe,fefe,fefe,00fe,fefe,fefe,fefe,0000,00fe,fefe,fefe,fe00,00fe,fefe,fefe,fe00,0000,fefe,fefe,fefe,00fe,0000,0000,fe00,0000,00fe,fe00,fefe,00fe,fe00,fefe,00fe,fefe,fefe,fefc,fe00,fe00,00fe,00fe,fefe,fefe,fefe,fefe,fefe,00fe,00fe,fefe,00fe,fefe,fefe,fefe,fcfc,0000,0000,0000,fefe,fefe,fefe,fefe,00fc,fe00,0000,0002,fefe,fe00,0000,fe00,fe02,00fe,00fe,fe02,fc02,0200,fefc,fefe,fefa,fc00,0000,fe00,0200,0200,fcfa,fcfc,fefe,fefc,fcfe,0002,0402,0202,fc00,f800,fafc,fafc,00fa,fcfc,fe00,0002,00fc,fcfe,fafc,fcfe,fafc,fe00,fefc,fe00,fc02,fefe,fefe,fefe,fcfc,fefe,0000,0200,02fe,0000,fefc,fe00,fefc,fefe,00fe,fc00,fe00,fefe,fefc,fefe,0000,fefe,fe00,fefe,fcfc,fe00,fefc,fefc,00fe,fcfe,0000,fefe,fefc,fefe,0000,fefe,fe00,fefe,fefe,00fe,fefc,fefc,fc02,00fc,fefe,fe00,fefe,00fe,fefe,fefc,f8fe,02fe,fefe,fefe,fefe,00fe,fefe,00fe,0000,fc06,fe00,fefe,fefe,fefe,fe00,fe00,fcfc,fcfe,00fe,fcfe,fcfe,fefe,fe00,fefe,00fe,fefe,00fc,fefe,fefe,fefe,fefe,fefe,fe00,fcfe,fe00,fcfc,fefe,fefe,fefe,fe00,00fe,fefe,fefc,fefc,00fe,fefe,fcfe,fefe,fefe,00fe,fefc,fa02,0200,fefe,fcfc,fcfe,0000,fefe,fefe,fcfe,00fe,00fe,fefc,fefe,fefe,00fe,fe00,fcfa,0000,fe02,fcfe,fefc,fefe,00fe,fefe,fefe,fefc,fe00,fefe,fefe,fefe,fefe,fefe,fe00,fefe,fe00,02fe,fefe,fefe,fefe,00fe,fefe,fefe,fefc,fc00,fe00,fe00,fe00,fe00,fe00,fefe,00fe,fe00,fe02,00fe,fefe,fefe,0000,fefe,fefe,fe00,02fe,00fe,fefe,fefe,fe00,fe00,fe00,0000,fe04,fcfc,fefe,fefe,fefe,fe00,0000,00fc,fe00,fc00,00fe,fefe,fefe,fe00,00fe,fefe,fe02,0002,fcfe,fe00,fefe,00fe,00fe,fefe,fefe,0002,fe04,fc00,00fe,fefe,fefe,00fe,0000,0000,0402,fa00,fefe,fefe,fefe,fefe,00fc,fcfe,0004,0406,fcfe,fe00,fefe,fefe,fefe,00fc,fefe,0002,00fa,00fe,fefe,fefe,fefe,fe02,0000,00fe,fe04,f8fe,fcfe,fe00,fefe,fefe,fe00,02fe,fe00,fe00,fefc,fefe,fefe,0002,fe00,fe00,fe02,0200,fefc,fa00,fcfe,0000,0202,0002,04fe,0200,0000,0000,0000,0000,0000,0000,0000,0000,0000,0000,0000,0000,0000,0000,0000,0000,0000,0000,0000,0000,0000,0000,0000,0000,0000,0000,0000,0000,0000,0000,0000,0000,0000,0000,0000,0000,0000,0000,0000,0000,0000,0000,0000,0000,0000,0000,0000,0000,0000,0000,0000,0000,0000,0000,0000,0000,0000,0000,0000,0000,0000,0000,0000,0000,0000,0000,0000,0000,0000,0000,0000,0000,0000,0000,0000,0000,0000,0000,0000,0000,0000,0000,0000,0000,0000,0000,0000,0000,0000,0000,0000,0000,0000,0000,0000,0000,0000,0000,0000,0000,0000,0000,0000,0000,0000,0000,0000,0000,0000,0000,0000,0000,0000,0000,0000,0000,0000,0000,0000,0000,0000,0000,0000,0000,0000,0000,0000,0000,0000,0000,0000,0000,0000,0000,0000,0000,0000,0000,0000,0000,0000,0000,0000,0000,0000,0000,0000,0000,0000,0000,0000,0000,0000,0000,0000,0000,0000,0000,0000,0000,0000,0000,0000,0000,0000,0000,0000,0000,0000,0000,0000,0000,0000,0000,0000,0000,0000,0000,0000,0000,0000,0000,0000,0000,0000,0000,0000,0000,0000,0000,0000,0000,0000,0000,0000,0000,0000,0000,0000,0000,0000,0000,0000,0000,0000,0000,0000,0000,0000,0000,0000,0000,0000,0000,0000,0000,0000,0000,0000,0000,0000,0000,0000,0000,0000,0000,0000,0000,0000,0000,0000,0000,0000,0000,0000,0000,0000,0000,0000,0000,0000,0000,0000,0000,0000,0000,0000,0000,0000,0000,0000,0000,0000,0000,0000,0000,0000,0000,0000,0000,0000,0000,0000,0000,0000,0000,0000,0000,0000,0000,0000,0000,0000,0000,0000,0000,0000,0000,0000,0000,0000,0000,0000,0000,0000,0000,0000,0000,0000,0000,0000,0000,0000,0000,0000,0000,0000,0000,0000,0000,0000,0000,0000,0000,0000,0000,0000,0000,0000,0000,0000,0000,0000,0000,0000,0000,0000,0000,0000,0000,0000,0000,0000,0000,0000,0000,0000,0000,0000,0000,0000,0000,0000,0000,0000,0000,0000,0000,0000,0000,0000,0000,0000,0000,0000,0000,0000,0000,0000,0000,0000,0000,0000,0000,0000,0000,0000,0000,0000,0000,0000,0000,0000,0000,0000,0000,0000,0000,0000,0000,0000,0000,0000,0000,0000,0000,0000,0000,0000,0000,0000,0000,0000,0000,0000,0000,0000,0000,0000,0000,0000,0000,0000,0000,0000,0000,0000,0000,0000,0000,0000,0000,0000,0000,0000,0000,0000,0000,0000,0000,0000,0000,0000,0000,0000,0000,0000,0000,0000,0000,0000,0000,0000,0000,0000,0000,0000,0000,0000,0000,0000,0000,0000,0000,0000,0000,0000,0000,0000,0000,0000,0000,0000,0000,0000,0000,0004,fe02,fafe,faf8,fcfc,fef8,fe00,fefe,02fc,f8fe,00fe,00f8,fefc,fe00,fe00,fcfe,fe02,00fe,f6fc,00fc,fafa,f8fc,fcfe,fcfe,fafc,0000,fef8,fafe,0400,fcfc,fefc,fefe,fcfe,fe00,02fe,fa00,fafe,fcfc,fcfc,fefe,fcfe,fefc,fefe,0200,fcf8,00fe,fcfc,fefc,00fe,fefe,fefe,fcfe,fcfc,fafa,00fc,0000,fefe,fcfe,fefc,fefe,00fe,fefe,0200,fe00,fefc,fefc,fefe,fcfc,0000,fefe,fe04,fefe,fefc,fcfc,fefe,fcfe,fcfc,fcfc,0002,0000,fefc,fcfc,fcfe,00fe,fcfc,fc00,fefa,00fe,fe00,fcfe,fcfc,0000,00fe,fcfe,fcfa,fe00,00fe,fcfc,fcfc,fefe,0000,fefe,0002,fefe,0000,0000,fefe,fcfc,fe00,fcfc,fafc,fefc,0200,0002,fefe,fefe,fefe,fefe,fefe,fe00,fcfc,0002,fefe,fefe,fefc,fe00,fcfe,0000,fcfc,00fe,0204,0000,fefe,00fe,fefe,fefe,fcfe,faf8,fc00,0202,0200,fefe,0000,fefe,fe00,fefa,fafc,0202,0202,fefe,fefe,fefe,fefe,0202,00fc,fcfa,0202,0200,fefe,fefe,fefe,fefe,02fc,fcfc,fe00,0002,fefe,fefc,fcfe,fefe,0002,fefa,fcfc,fe00,00fe,fefe,fefe,fefe,fefe,0000,fcfe,fafc,0202,fefe,fefe,fcfe,fefe,0000,0000,fefe,fe00,0000,fefc,fefe,fefe,fefe,fefe,fc02,fe00,0002,00fe,fcfe,fefe,fefe,fefe,00fe,fefe,fefe,0404,fcfa,fcfe,fefe,fefe,00fe,fafe,fcfc,fe00,0400,fcfc,fefe,fefe,0002,fefc,fcfe,00fe,0206,fcfc,fefe,fefc,fefe,0000,fcfc,fefe,0202,0604,fcfe,fefe,fefe,fe00,fefe,fefe,0200,0406,02fe,fcfc,fefe,00f8,fefe,fcfc,fcfe,0002,0404,fefc,fefe,fe00,fefe,fefe,fcfc,fefe,0204,02fe,fcfe,fefe,0004,fefe,00fe,fcfc,fe00,0004,fcfa,fefe,0000,0000,fefe,fefc,fefc,fe00,02fe,fcfe,fe00,0000,fe00,0000,fefe,fefc,fe02,fefe,fefe,0002,f808,00fc,04fa,fafe,00fa,fafe,fefe,fc00,0200,00fe,fefa,fe02,fafa,fcf6,fcf8,0002,0404,0800,fcfe,fc00,fefe,fcfa,fefc,f800,0004,fe06,fefc,fcfe,0602,fcfe,fc00,fefc,fefc,04fe,0002,fafe,fe00,fefe,0204,0002,fcfe,0604,fefa,00fa,0200,0204,0202,0202,02fe,fefe,0206,fc00,fcfe,0600,0402,0202,00fe,02fc,fefc,fe06,00fe,0204,0004,fe02,fefc,0000,0404,00fe,fc00,fe00,00fe,0400,0402,fefe,fcfe,fefc,0202,00fe,00fe,0404,0000,fefc,fe00,fe00,fc02,0000,00fe,fc02,fe00,00fe,fcfe,0200,fafe,fe08,fcfc,fcfe,02fe,00fe,0000,fe00,00fe,fc02,fe00,fe00,fafe,fe00,fefe,fefe,02fe,fcfe,04fc,00fe,fafa,0000,00fe,0002,fe02,fe00,0200,02fe,fcfc,fcfe,0202,0002,fefe,00fc,00fe,fe06,fefc,fcfa,fe00,0200,fe00,00fc,fef8,fc00,fe00,fefc,fafc,0002,00fe,fefc,fefc,02fe,0608,0400,fcfc,fcfc,0200,fcfc,fcfe,faf8,fe02,fcfe,fefe,fcfc,fefe,fefc,fcfa,fcfe,fefa,0202,fcfe,fefe,fcfe,0000,fefc,fcfe,fa00,fefe,02fa,fe00,fefe,fe00,fefe,fefe,fe00,fcfa,f800,0004,fcfe,fefe,00fe,fcfc,0000,0000,0000,fcfe,02fe,fcfc,fefe,fcfe,fefc,fefc,0202,06fc,0000,fefc,fcfc,fefc,fefe,fc00,0000,0004,fc00,fcfc,fcfc,fefe,fcfe,fefc,00fa,fefe,f800,0000,fefe,fcfc,fefe,fcfe,fcfc,fe00,fc00,06fc,fe00,fefe,00fe,fcfc,fefe,fcfc,fe02,0200,fcfe,fefe,fefc,fcfc,fefa,04fe,0200,fe04,f6fe,02fe,fcfc,fcfe,fcfe,00fc,fefe,fefa,0808,0000,fefc,fcfc,fcfe,02fe,fcfe,fe00,0202,fcf8,04fc,fefc,fefe,00fe,0200,0002,0200,0200,f8fc,0002,fe02,0004,fe00,0000,fefe,0600,0002,fefc,02fe,04fe,0000,fe00,fc06,0202,0202,0002,0000,0400,02fe,0002,fe00,00fc,0202,0000,0000,0000,0000,0000,0000,0000,0000,0000,0000,0000,0000,0000,0000,0000,0000,0000,0000,0000,0000,0000,0000,0000,0000,0000,0000,0000,0000,0000,0000,0000,0000,0000,0000,0000,0000,0000,0000,0000,0000,0000,0000,0000,0000,0000,0000,0000,0000,0000,0000,0000,0000,0000,0000,0000,0000,0000,0000,0000,0000,0000,0000,0000,0000,0000,0000,0000,0000,0000,0000,0000,0000,0000,0000,0000,0000,0000,0000,0000,0000,0000,0000,0000,0000,0000,0000,0000,0000,0000,0000,0000,0000,0000,0000,0000,0000,0000,0000,0000,0000,0000,0000,0000,0000,0000,0000,0000,0000,0000,0000,0000,0000,0000,0000,0000,0000,0000,0000,0000,0000,0000,0000,0000,0000,0000,0000,0000,0000,0000,0000,0000,0000,0000,0000,0000,0000,0000,0000,0000,0000,0000,0000,0000,0000,0000,0000,0000,0000,0000,0000,0000,0000,0000,0000,0000,0000,0000,0000,0000,0000,0000,0000,0000,0000,0000,0000,0000,0000,0000,0000,0000,0000,0000,0000,0000,0000,0000,0000,0000,0000,0000,0000,0000,0000,0000,0000,0000,0000,0000,0000,0000,0000,0000,0000,0000,0000,0000,0000,0000,0000,0000,0000,0000,0000,0000,0000,0000,0000,0000,0000,0000,0000,0000,0000,0000,0000,0000,0000,0000,0000,0000,0000,0000,0000,0000,0000,0000,0000,0000,0000,0000,0000,0000,0000,0000,0000,0000,0000,0000,0000,0000,0000,0000,0000,0000,0000,0000,0000,0000,0000,0000,0000,0000,0000,0000,0000,0000,0000,0000,0000,0000,0000,0000,0000,0000,0000,0000,0000,0000,0000,0000,0000,0000,0000,0000,0000,0000,0000,0000,0000,0000,0000,0000,0000,0000,0000,0000,0000,0000,0000,0000,0000,0000,0000,0000,0000,0000,0000,0000,0000,0000,0000,0000,0000,0000,0000,0000,0000,0000,0000,0000,0000,0000,0000,0000,0000,0000,0000,0000,0000,0000,0000,0000,0000,0000,0000,0000,0000,0000,0000,0000,0000,0000,0000,0000,0000,0000,0000,0000,0000,0000,0000,0000,0000,0000,0000,0000,0000,0000,0000,0000,0000,0000,0000,0000,0000,0000,0000,0000,0000,0000,0000,0000,0000,0000,0000,0000,0000,0000,0000,0000,0000,0000,0000,0000,0000,0000,0000,0000,0000,0000,0000,0000,0000,0000,0000,0000,0000,0000,0000,0000,0000,0000,0000,0000,0000,0000,0000,0000,0000,0000,0000,0000,0000,0000,0000,0000,0000,0000,0000,0000,0000,0000,0000,0000,0000,0000,0000,0000,0000,0000,0000,0000,0000,0000,0000,0000,0000,0000,0000,0000,0000,0000,0000,0000,0000,0000,0000,0000,0000,0000,0000,0000,0000,0000,0000,fc02,0202,fcfc,02fe,fefe,fefc,0000,fe00,04fa,fa00,fe00,fefc,00fe,fe00,fefe,fefe,fefe,0000,fafc,fefe,fc00,fefe,fefe,fcfe,fefe,0000,00fc,fcfe,0402,fe00,fefe,fe00,fefc,fcfe,fefc,fcfe,fe00,fefe,fefe,fefe,0000,fefe,fefe,02fe,fcfe,fe00,fe00,fefe,0000,fefe,fefe,fefe,fe00,fefe,fefe,00fe,fefe,fefe,fefc,fefe,0002,00fe,0200,0000,fefe,fefe,fefe,fefc,fefe,0002,fefe,00fe,0000,fefe,fefe,fefc,fcfa,fe00,0002,00fe,0000,fefe,fefe,fefe,fcfc,fc00,0402,0000,0000,0000,fefe,fefe,fefe,fefe,fcfe,0000,0000,fe00,fefe,fefe,fefe,fcfc,fefe,fefe,0000,0000,fefe,fefe,fefe,fefe,fefe,fefe,0000,00fe,fe00,fefe,fefe,fefe,fefe,00fe,fefe,fe00,fe00,00fe,fefe,fefe,fefe,fe00,fefe,fefe,fefe,fefe,fefe,fefe,fefe,fefe,fcfe,0000,fefe,fefe,fefe,fefe,fefe,fefe,0000,fefc,fefe,fcfe,fefe,fefe,fefe,fefe,fefe,0000,00fe,fcfc,fefe,fefe,fefe,fefe,fefe,fe00,00fe,fefe,fefe,fefe,fefe,fefe,00fe,0000,0000,fcfc,fcfc,fefe,fefe,fefe,fefe,fefe,fe00,fcfe,fcfe,fefe,fefe,fefe,fefe,00fe,fe00,00fe,0000,00fe,00fe,fefe,fefe,fefe,0000,0000,fefe,0000,00fe,fefe,fefe,fefe,fe00,fefe,fefe,0002,0000,fefe,fefe,fefe,fefe,fefe,0000,fefe,0000,fefe,fefe,fefe,fefe,fefe,fefe,0002,00fe,0000,fefe,fefe,fefe,fefe,fefe,fe00,0202,00fe,fefe,fefe,fefe,fefe,fefe,fefe,00fe,0000,0000,fefe,fefe,fefe,fefe,fefe,0000,fefe,00fe,fefe,fefe,fefe,fefe,0000,fe00,00fe,0000,fefe,fefe,fefe,fefc,fefe,fefe,0004,fefe,00fe,00fe,fefe,fefe,fafe,0000,0000,0000,0000,fefe,fefe,fefe,00fe,fe00,0000,0000,0000,fefe,fe00,0002,0002,fe00,0000,fc00,f802,00fe,00fa,fefe,fefa,fcfe,00fe,fc00,fefc,0000,faf8,fcfc,fafa,fcfc,fcfc,fefe,00fe,0400,fcfe,fafe,fcfa,fcfc,fefa,fefa,fc00,fe02,00fe,fafe,fcfc,fcfc,fafc,fcfe,fcfa,fefc,0000,fafc,fcfe,fcfc,fcfe,fefe,fefc,fe00,02fc,fe00,fefe,00fe,fcfe,fe00,00fe,fcfc,fefc,fcfe,fe00,00fe,fefe,fefe,0000,fefc,fcfe,fe02,fefe,fefe,00fe,fefe,fe00,fe00,fefe,fafc,00fe,fefe,0000,00fe,0000,fefe,fefc,fcfe,fe00,00fe,fefe,fe00,fe00,0000,fefe,fefc,fa02,fefe,fefe,fefe,0000,0000,00fe,00fc,fefc,fc04,fefe,fefe,fefe,fe00,fefe,fefe,fefe,fcfe,fefe,fcfe,fefe,fefe,fe00,fefe,fefe,fcfc,fefe,0000,fefe,fefe,fefe,fefe,fefe,fcfe,fc00,fcfc,fefe,fefc,fefe,00fe,fefe,fefc,fefe,fcfe,fcfe,fefe,fefc,fefe,fefe,fefe,fcfc,fcfe,00fe,fefe,fefe,fefe,fefe,fefe,fefe,fcfc,0002,fefe,fefc,fefe,fefe,fefc,fefe,fcfc,02fe,0000,fefe,fefe,fefe,fefe,fefe,fefe,fcfe,0000,fefc,fefe,fefe,fefe,fefe,fe00,fefe,fefc,fefc,fefe,00fe,fefe,fefe,fefe,fefe,fefc,fc00,fc00,fefe,fefe,fefe,fe00,fefe,fefe,00fc,fc00,fefe,fefe,fefe,fefe,fefe,00fe,fe00,04fc,fefe,fefe,fefe,fefe,00fe,fe00,fe00,fe02,fafc,fefe,fefe,fefe,fefe,fe00,00fe,fefe,fcfe,fefe,fefe,fefe,fefe,fe00,00fe,0000,fc00,fefe,fe00,fefe,fefe,fefe,fefe,fefe,00fe,0002,fefe,fefe,fefe,fefe,fefe,00fe,00fe,0602,fafa,fe00,fefe,fefe,fefe,00fe,fcfe,0202,0402,fc00,fefe,fefe,fefe,fe00,fefe,fefe,fc00,00fa,fefe,00fe,fefe,fefe,0000,0000,fe00,fe04,fafc,fcfe,fefe,0000,fe00,00fe,02fe,fefe,fe04,fcfc,fefe,fe00,0000,fe00,fe02,fe04,02fe,02fc,fcfe,fefe,0000,00fe,fe00,02fe,00fe,0000,0000,0000,0000,0000,0000,0000,0000,0000,0000,0000,0000,0000,0000,0000,0000,0000,0000,0000,0000,0000,0000,0000,0000,0000,0000,0000,0000,0000,0000,0000,0000,0000,0000,0000,0000,0000,0000,0000,0000,0000,0000,0000,0000,0000,0000,0000,0000,0000,0000,0000,0000,0000,0000,0000,0000,0000,0000,0000,0000,0000,0000,0000,0000,0000,0000,0000,0000,0000,0000,0000,0000,0000,0000,0000,0000,0000,0000,0000,0000,0000,0000,0000,0000,0000,0000,0000,0000,0000,0000,0000,0000,0000,0000,0000,0000,0000,0000,0000,0000,0000,0000,0000,0000,0000,0000,0000,0000,0000,0000,0000,0000,0000,0000,0000,0000,0000,0000,0000,0000,0000,0000,0000,0000,0000,0000,0000,0000,0000,0000,0000,0000,0000,0000,0000,0000,0000,0000,0000,0000,0000,0000,0000,0000,0000,0000,0000,0000,0000,0000,0000,0000,0000,0000,0000,0000,0000,0000,0000,0000,0000,0000,0000,0000,0000,0000,0000,0000,0000,0000,0000,0000,0000,0000,0000,0000,0000,0000,0000,0000,0000,0000,0000,0000,0000,0000,0000,0000,0000,0000,0000,0000,0000,0000,0000,0000,0000,0000,0000,0000,0000,0000,0000,0000,0000,0000,0000,0000,0000,0000,0000,0000,0000,0000,0000,0000,0000,0000,0000,0000,0000,0000,0000,0000,0000,0000,0000,0000,0000,0000,0000,0000,0000,0000,0000,0000,0000,0000,0000,0000,0000,0000,0000,0000,0000,0000,0000,0000,0000,0000,0000,0000,0000,0000,0000,0000,0000,0000,0000,0000,0000,0000,0000,0000,0000,0000,0000,0000,0000,0000,0000,0000,0000,0000,0000,0000,0000,0000,0000,0000,0000,0000,0000,0000,0000,0000,0000,0000,0000,0000,0000,0000,0000,0000,0000,0000,0000,0000,0000,0000,0000,0000,0000,0000,0000,0000,0000,0000,0000,0000,0000,0000,0000,0000,0000,0000,0000,0000,0000,0000,0000,0000,0000,0000,0000,0000,0000,0000,0000,0000,0000,0000,0000,0000,0000,0000,0000,0000,0000,0000,0000,0000,0000,0000,0000,0000,0000,0000,0000,0000,0000,0000,0000,0000,0000,0000,0000,0000,0000,0000,0000,0000,0000,0000,0000,0000,0000,0000,0000,0000,0000,0000,0000,0000,0000,0000,0000,0000,0000,0000,0000,0000,0000,0000,0000,0000,0000,0000,0000,0000,0000,0000,0000,0000,0000,0000,0000,0000,0000,0000,0000,0000,0000,0000,0000,0000,0000,0000,0000,0000,0000,0000,0000,0000,0000,0000,0000,0000,0000,0000,0000,0000,0000,0000,0000,0000,0000,0000,0000,0000,0000,0000,0000,0000,0000,0000,0000,0000,0000,0000,0000,0000,0000,0000,0000,0000,fe00,0204,fcfe,00fc,fcfe,fefc,0002,fa00,04fa,f800,0000,fcfa,00fc,fe00,fe00,fefe,fe00,fe00,fa00,fefe,fc00,fefe,fefe,fefe,fcfe,0200,00fc,fe00,0202,fefe,fefe,fefe,fefe,fcfe,00fe,fc00,fc00,fe00,fefe,fefe,fefe,fefe,fefe,02fe,fcfc,fcfe,fefe,fefe,fefe,fefe,fefe,00fe,fefe,00fe,fcfe,fe00,fefe,fefe,fefe,fefe,0204,0000,0200,0000,fefe,fefe,fefe,fcfc,0000,0002,fefe,0000,0000,fefe,00fe,fefc,fcfa,0000,0204,0000,0000,fefe,fefe,fefe,fcfe,fefe,0604,0000,0000,fe00,fefe,fefe,fefe,fefe,fc00,0200,0200,0000,fefe,fefe,fefe,fefe,fe00,0000,0202,0000,fe00,fefe,fefe,fefe,fefc,0200,0000,0000,00fe,0000,fefe,fefe,fefe,0000,00fe,0000,fefe,fefe,fefe,fefe,fefe,00fe,0002,0000,fe00,00fe,fe00,fefe,fefe,fefe,fc00,0000,fefe,fe00,fe00,fefe,fefe,00fe,fefe,00fc,fefe,fefe,fefe,fefe,fefe,00fe,fefe,fe00,0200,fefc,fefe,00fe,fefe,fefe,00fe,fefe,fefc,fefe,fefe,fefe,fefe,fefe,fefe,fefe,fe00,fcfc,fcfc,fefe,fefe,fefe,fefe,fe00,fefe,fcfc,fefe,fefe,0000,fefe,fefe,fefe,fefe,00fe,fe00,0000,00fe,fefe,fefe,fefe,00fe,fefe,fefe,fe02,0000,fefe,fefe,fefe,fe00,fefe,fefe,0000,0000,0000,fefe,fefe,fefe,fefe,fefe,fefc,fe02,0000,00fe,fefe,fefe,fe00,fefe,0002,fefe,0002,0000,00fe,fefe,fe00,fefe,fe00,0202,0000,0000,fe00,fefe,fe00,fefe,fefe,fefe,0000,0002,0000,0000,00fe,fefe,fefe,00fe,fefe,0000,00fe,fe00,fefe,fefe,fe00,fe00,fefe,0000,fefe,fefe,fefe,fefc,fe00,fefe,0000,fe00,0000,0000,fefe,00fe,fafc,00fe,0000,0000,0000,fefe,fe00,00fe,00fe,0000,0000,0000,0000,0000,fefe,0002,0004,fe00,fe00,fc02,f802,04fc,fefc,00fe,00fa,fcfe,0000,fa00,fefc,0202,fafa,fefc,fcfc,fcfc,fcfc,fe00,0200,0202,fcfe,fafe,fafc,fcfc,fefa,fcfa,fe00,0002,00fa,fc00,fcfe,fefe,fcfc,fcfe,fefc,fefe,fc02,fcfc,fcfe,fefe,fc00,fe00,fafe,0000,02fa,0000,0000,0002,fefe,0000,00fe,fcfc,00fe,fcfe,0002,00fc,0000,0000,0000,fefe,fefe,fe00,fefe,0000,0200,fefe,0000,fe00,00fe,fc00,fefc,fe00,0202,0000,0000,0000,fefc,fefe,fe02,00fe,fefe,0000,fe00,0000,fefe,fefc,fa00,fefe,fefe,0000,0000,0000,0000,00fe,0000,fc04,fefe,fe00,fefe,0000,fefe,fefe,fefe,fc00,fefe,fc00,fefe,fefe,00fe,fe00,00fe,fcfe,fefa,fe00,fefe,fe00,fefe,00fe,00fe,fcfe,fe02,fefe,fcfe,fcfc,fefe,fefe,fefe,fefe,00fe,fe00,fefe,fefc,fcfc,fefe,fefe,fefe,fefc,fcfe,0202,fefe,fcfe,fcfe,fefe,fefc,fefe,fefc,0002,00fe,fcfc,fefe,fefe,fefc,fe00,fcfa,0002,0002,fefe,fefe,fefe,fefe,fefe,fefe,fefe,0200,fefc,fefe,fefe,fefe,fefe,fefe,fe00,fefe,00fc,fefe,00fe,fefe,fefe,fefe,fefe,fefc,fafe,fe00,fe00,00fe,fefe,fefe,fefe,fefe,fcfe,fc02,fefc,fefe,fefe,fefe,00fe,fefe,fe02,06fa,0000,fefe,fefe,fefe,fe00,0000,fe00,fe06,fefc,fefe,fefe,fefe,fefe,fefe,00fc,fc00,fa00,0000,fefe,fefc,fefe,00fe,fefe,fe00,fe00,00fe,00fe,fefe,fefe,fefe,fefe,fefe,0000,fe00,fc00,00fe,fefe,fefe,fefe,00fe,00fe,0204,fafe,0000,fefe,fcfc,fcfe,fefc,fcfe,0000,0402,fe00,0000,fefe,fcfe,fefe,00fc,00fe,0000,04fa,00fe,fefe,fefe,fefe,0000,fefe,fefe,0006,fa00,fe00,fefe,0000,0000,fefe,00fe,fcfe,0000,fefc,fcfe,fe00,0002,fefe,fe04,fe02,02fe,0200,fe00,fefe,0200,02fe,0000,02fe,00fe,0000,0000,0000,0000,0000,0000,0000,0000,0000,0000,0000,0000,0000,0000,0000,0000,0000,0000,0000,0000,0000,0000,0000,0000,0000,0000,0000,0000,0000,0000,0000,0000,0000,0000,0000,0000,0000,0000,0000,0000,0000,0000,0000,0000,0000,0000,0000,0000,0000,0000,0000,0000,0000,0000,0000,0000,0000,0000,0000,0000,0000,0000,0000,0000,0000,0000,0000,0000,0000,0000,0000,0000,0000,0000,0000,0000,0000,0000,0000,0000,0000,0000,0000,0000,0000,0000,0000,0000,0000,0000,0000,0000,0000,0000,0000,0000,0000,0000,0000,0000,0000,0000,0000,0000,0000,0000,0000,0000,0000,0000,0000,0000,0000,0000,0000,0000,0000,0000,0000,0000,0000,0000,0000,0000,0000,0000,0000,0000,0000,0000,0000,0000,0000,0000,0000,0000,0000,0000,0000,0000,0000,0000,0000,0000,0000,0000,0000,0000,0000,0000,0000,0000,0000,0000,0000,0000,0000,0000,0000,0000,0000,0000,0000,0000,0000,0000,0000,0000,0000,0000,0000,0000,0000,0000,0000,0000,0000,0000,0000,0000,0000,0000,0000,0000,0000,0000,0000,0000,0000,0000,0000,0000,0000,0000,0000,0000,0000,0000,0000,0000,0000,0000,0000,0000,0000,0000,0000,0000,0000,0000,0000,0000,0000,0000,0000,0000,0000,0000,0000,0000,0000,0000,0000,0000,0000,0000,0000,0000,0000,0000,0000,0000,0000,0000,0000,0000,0000,0000,0000,0000,0000,0000,0000,0000,0000,0000,0000,0000,0000,0000,0000,0000,0000,0000,0000,0000,0000,0000,0000,0000,0000,0000,0000,0000,0000,0000,0000,0000,0000,0000,0000,0000,0000,0000,0000,0000,0000,0000,0000,0000,0000,0000,0000,0000,0000,0000,0000,0000,0000,0000,0000,0000,0000,0000,0000,0000,0000,0000,0000,0000,0000,0000,0000,0000,0000,0000,0000,0000,0000,0000,0000,0000,0000,0000,0000,0000,0000,0000,0000,0000,0000,0000,0000,0000,0000,0000,0000,0000,0000,0000,0000,0000,0000,0000,0000,0000,0000,0000,0000,0000,0000,0000,0000,0000,0000,0000,0000,0000,0000,0000,0000,0000,0000,0000,0000,0000,0000,0000,0000,0000,0000,0000,0000,0000,0000,0000,0000,0000,0000,0000,0000,0000,0000,0000,0000,0000,0000,0000,0000,0000,0000,0000,0000,0000,0000,0000,0000,0000,0000,0000,0000,0000,0000,0000,0000,0000,0000,0000,0000,0000,0000,0000,0000,0000,0000,0000,0000,0000,0000,0000,0000,0000,0000,0000,0000,0000,0000,0000,0000,0000,0000,0000,0000,0000,0000,0000,0000,0000,0000,0000,0000,0000,0000,0000,0000,0000,0000,0000,0000,0000,0000,0000,0000,0000,0000,0000,fcfa,0000,f600,f4f6,fef6,f0f2,f6f0,fefe,fefa,fc06,fafa,eaea,f4f0,e8ea,ecec,eef2,f800,fc04,faf8,eaee,f6f8,f2ec,eef2,eef4,f8f4,02fe,00fe,e6ec,f0f2,04fc,f2ee,f2f2,f6fa,f6fc,fe06,f6f2,eaf4,0206,04fc,f6f2,f4fa,00fe,fcfc,04fa,eeec,0002,0a0a,0602,00fe,0204,0606,0204,f0ee,f8fe,1214,0e0e,0402,0206,0a0e,fefc,f8f0,f4f6,0c10,1614,0e0e,0c0a,0c0a,0804,faf6,eef0,fe06,1616,1414,1010,080a,080c,00f4,eeec,0000,1014,1010,100e,0606,0806,0404,f4f4,fcfc,0c0c,0a0a,0606,0000,0206,080a,00fc,f2f8,060a,02fe,fefc,f8f8,fafc,0c0e,02fe,fef8,0808,00fc,fcf8,fefc,fcfe,0604,0e08,fcf4,fa06,0404,0200,fcfc,fcfe,fe00,020c,fcfc,00fa,0c0c,0408,02fe,fefe,00fc,0600,0e06,f8f8,0408,0602,0606,0200,fe02,0404,fe06,faf2,0400,0a06,0202,0002,fc02,0000,00fe,0604,f6f8,0408,fe02,fe02,fefe,02fe,0200,0002,fcf6,0406,00fa,fcfc,fcfa,0000,fc00,fe00,0602,f8fa,0200,fafa,fcfc,fafa,fcfe,00fe,fe00,fcfa,0004,0200,faf8,fafa,fafa,fefe,0000,00fc,f8fc,0402,fefc,f6f8,faf8,fcfa,fcfe,fe04,f8f6,f800,fafc,f8f8,f8f8,f8f8,fcfe,0002,faf8,fcfc,0000,00fe,faf8,fafc,fcfc,0200,02fa,fafc,fafa,00fa,fcfa,fefe,fe00,fe02,0200,f8f6,fafc,fefe,00fc,fe02,0402,0202,0404,faf8,f6fa,faf8,fa00,0004,080a,0404,00fe,fcf8,f4f4,fcfe,f6f4,f8fc,060a,0602,02fe,f8fa,f8fa,fefc,fcfa,f6f6,f8fc,04fe,fafc,fafa,f8f8,fcfe,fe00,fefe,f6f8,fcfe,fafa,fefe,fa02,fefe,fe00,fcfe,0000,fefc,fefc,fafc,0200,fefe,fefe,0002,fc00,0000,fefe,fcfa,fafe,0200,fe00,0000,0000,fefe,0000,faf4,fafa,f8fa,00fe,fe00,0200,0000,0000,00fe,f6f6,fcf8,fc00,fefe,fc00,0608,00fe,f8f4,00fe,fefe,0608,00fc,0006,0404,0406,00f8,fe04,0204,0608,0406,0c04,fa00,02f4,0402,0608,0200,0606,0604,080e,04fe,02fc,0006,0c06,0a06,0604,0c0c,1212,0c10,fcfc,0002,040e,0c0c,0e0e,1212,1416,1c1a,0004,0006,fafe,1410,120e,1418,1a1a,1e1e,1412,0200,fcfc,0a12,1412,1414,1a1e,1e1a,1610,0402,fa00,060a,1212,120e,1616,1816,0c0e,0202,f0fc,fc04,1414,100a,1010,0e0a,0602,fe00,f6fa,0402,0e12,0e0a,fcfe,fefe,f6f8,00fa,fe00,f6fc,fe0a,120a,fcf6,f4f0,faf8,0004,f6f6,f6f2,0400,0e0c,fcfa,f6f2,f2f4,f6fc,fef8,f6fc,fcf6,0010,02fc,f8f6,f4f2,f4f6,fcfe,f6f4,f6f6,0008,0c04,f6f8,f8f4,f4f2,f2f4,fcf6,fcf6,f2fe,0604,f6f2,f6f8,f2f2,eef0,f4f6,f8fa,fe00,fe00,02fc,f8f6,f4f2,f2f2,f0f4,f6f8,fcf8,f6fe,0000,fafc,f6f6,f2f6,f4f6,f6fa,fa02,f6f6,fefc,00fa,fcf8,fefa,fafa,f4f8,fafe,f8f8,f2fa,fafc,fcfc,fcfc,fcfc,fcfa,fcf8,00fe,f4f6,f400,f8fa,02fe,fe00,0000,fafa,fa00,f4fa,faf8,faf8,fafc,fe00,0200,00fe,f8fc,f8f6,f6fa,fefe,f4f8,fcfe,0206,0604,00fe,f8f6,faf6,02fc,fef8,f4f8,0000,0a0a,0804,fefa,f6f4,f8f6,fc00,f6f6,fcfa,0006,0808,04fe,faf6,f4f0,fe02,f4fc,f4f6,fcfe,0606,0606,fa00,eaee,faf6,fa04,f4f6,f6f6,fefe,fcfe,02fc,f4f6,eef4,fefe,fcf4,f0f8,f8fe,faf8,f8fe,faf8,f2f4,faf8,0004,f8f8,faf6,fafa,f8f8,f8fa,fcf8,f8fc,fe04,f8f0,f8fe,f8fe,fef8,fcf8,fafc,faf4,fefc,fe00,fcf8,fcfa,fcfe,fcfa,fc00,0000,00f8,f4fa,fcfa,f0fa,fefa,0402,fcfc,0202,00fc,0000,fefa,fcf8,fe00,fefa,02fc,fa00,0400,fcfc,06fe,06fa,f2fc,faf8,fefc,f6f8,fa08,02fc,0202,0002,f2f8,f8f2,fafa,faf8,fafc,fcfe,fafe,fcfc,0000,0000,0000,0000,0000,0000,0000,0000,0000,0000,0000,0000,0000,0000,0000,0000,0000,0000,0000,0000,0000,0000,0000,0000,0000,0000,0000,0000,0000,0000,0000,0000,0000,0000,0000,0000,0000,0000,0000,0000,0000,0000,0000,0000,0000,0000,0000,0000,0000,0000,0000,0000,0000,0000,0000,0000,0000,0000,0000,0000,0000,0000,0000,0000,0000,0000,0000,0000,0000,0000,0000,0000,0000,0000,0000,0000,0000,0000,0000,0000,0000,0000,0000,0000,0000,0000,0000,0000,0000,0000,0000,0000,0000,0000,0000,0000,0000,0000,0000,0000,0000,0000,0000,0000,0000,0000,0000,0000,0000,0000,0000,0000,0000,0000,0000,0000,0000,0000,0000,0000,0000,0000,0000,0000,0000,0000,0000,0000,0000,0000,0000,0000,0000,0000,0000,0000,0000,0000,0000,0000,0000,0000,0000,0000,0000,0000,0000,0000,0000,0000,0000,0000,0000,0000,0000,0000,0000,0000,0000,0000,0000,0000,0000,0000,0000,0000,0000,0000,0000,0000,0000,0000,0000,0000,0000,0000,0000,0000,0000,0000,0000,0000,0000,0000,0000,0000,0000,0000,0000,0000,0000,0000,0000,0000,0000,0000,0000,0000,0000,0000,0000,0000,0000,0000,0000,0000,0000,0000,0000,0000,0000,0000,0000,0000,0000,0000,0000,0000,0000,0000,0000,0000,0000,0000,0000,0000,0000,0000,0000,0000,0000,0000,0000,0000,0000,0000,0000,0000,0000,0000,0000,0000,0000,0000,0000,0000,0000,0000,0000,0000,0000,0000,0000,0000,0000,0000,0000,0000,0000,0000,0000,0000,0000,0000,0000,0000,0000,0000,0000,0000,0000,0000,0000,0000,0000,0000,0000,0000,0000,0000,0000,0000,0000,0000,0000,0000,0000,0000,0000,0000,0000,0000,0000,0000,0000,0000,0000,0000,0000,0000,0000,0000,0000,0000,0000,0000,0000,0000,0000,0000,0000,0000,0000,0000,0000,0000,0000,0000,0000,0000,0000,0000,0000,0000,0000,0000,0000,0000,0000,0000,0000,0000,0000,0000,0000,0000,0000,0000,0000,0000,0000,0000,0000,0000,0000,0000,0000,0000,0000,0000,0000,0000,0000,0000,0000,0000,0000,0000,0000,0000,0000,0000,0000,0000,0000,0000,0000,0000,0000,0000,0000,0000,0000,0000,0000,0000,0000,0000,0000,0000,0000,0000,0000,0000,0000,0000,0000,0000,0000,0000,0000,0000,0000,0000,0000,0000,0000,0000,0000,0000,0000,0000,0000,0000,0000,0000,0000,0000,0000,0000,0000,0000,0000,0000,0000,0000,0000,0000,0000,0000,0000,0000,0000,0000,0000,0000,0000,0000,0000,0000,0000,0000,0000,0000,0000,0000,0000,0000,0000,0000,0000,0000,0000,0000,0000,0000,0000,0002,fefe,fefa,fefc,fefa,fe02,fa00,02fa,fafc,00fc,fcfa,00fe,fe00,fefe,fefe,fe00,fe00,fa00,fefe,fe00,fefe,fefe,fcfe,fcfe,fe00,00fe,0000,0200,00fe,fefe,fe00,fefc,fefe,02fe,fc02,fefe,fcfe,fcfe,fefe,fefe,fcfe,fefe,0200,fefc,fefe,0000,fefe,0000,fefe,fcfe,0000,fe00,fe00,fefe,fefe,fefe,fefe,fefc,fefe,0002,00fe,0000,0000,fefe,fefe,fefe,fcfc,0000,0002,fcfe,fefe,fefe,fefe,fefe,fefc,fcfa,fe00,0000,fe00,0000,fefe,fcfe,fefe,fcfc,fe00,0400,fe00,0002,fe00,fefe,fefe,fefe,fefe,fefe,0000,0200,0000,fefe,fefe,fefe,fefc,fe00,fe00,0000,0000,0000,fefe,fefe,fcfe,fcfc,fe00,fefe,fefe,00fe,fefe,fefe,fefe,fefe,00fe,00fe,fefe,fe00,fefe,fe00,fefe,fefe,0000,fc00,0200,00fe,00fe,fefe,fefe,fefe,0000,fa00,0202,00fe,fe00,fefe,00fe,00fe,fefe,fefe,00fe,0000,00fe,fefe,fefe,fefe,00fe,fefe,fe02,0604,00fc,fefe,fefe,fefe,fefe,fefe,00fe,00fe,fefe,fefe,fefe,fefe,fe00,fe00,00fe,0000,fefe,fefc,fefe,fefe,fefe,fefe,fe00,fe00,0000,fe00,fefe,fe00,fefe,fefe,fefe,fefe,0000,0202,0200,fefe,00fe,fefe,fefe,fefe,fefe,0002,0002,0000,fefe,fefe,fefe,fefe,fefe,fe00,0200,0202,0000,fe00,fefe,fefe,fefe,fefe,fefe,fe00,0000,fefe,fefe,fefe,fe00,fefe,0002,0000,fe00,fefe,fe00,0000,fefe,fefe,fe00,0202,00fe,fefe,fe00,00fe,fefe,fefe,fe00,00fe,0000,0002,fe00,00fe,00fe,fefe,fefe,00fa,fe00,00fe,fe00,fefe,00fe,fefe,fefe,fe00,fefe,00fe,fefe,fefe,fefe,fefe,fefe,fefe,00fe,fefe,00fe,fefe,fcfe,fcfe,fcfc,0000,0000,0000,fefe,fefe,fe00,fefe,00fe,fe00,fe00,0200,fefe,fefe,fe00,00fe,fe02,00fe,fe00,fa02,fa00,00fe,fefc,fcfe,fefa,fcfe,0200,fe00,fefe,0200,fcf8,fafe,fcfc,fcfc,fcfe,fe00,0200,0200,fcfe,fcfe,fcfa,fcfc,00fc,fefc,0000,0002,fefa,fc00,fcfc,fefe,fcfc,fe00,fef8,00fe,fc02,fcfc,fe00,fe00,fcfe,fe00,fcfc,fe02,00fe,0000,fefe,0000,fefe,fefe,00fe,fcfc,fefe,fc00,fe00,00fe,0000,0000,0000,fefc,fafc,0002,fefc,fe00,0000,fefe,0000,0000,00fe,fafc,00fe,fefe,0000,0000,0000,0000,fefc,fefa,fe02,00fe,fefe,0000,fefe,0000,0000,fefc,f802,fefe,fefc,fefe,fefe,0000,0000,00fe,fe02,fc06,fefe,fcfc,fefe,fefe,fefe,fe00,fefe,fcfc,fefc,fc00,fcfe,fefe,fefe,fefe,00fe,fc00,fefc,fe00,fefe,fefe,fefe,fefe,fefe,fcfe,fe02,fcfc,fefe,fefc,fefe,fefe,fefe,fefe,00fc,fefe,fefe,fefe,fcfe,fefe,fcfe,fefe,fefe,fafe,fe00,fefe,fefc,fcfe,fefe,fefe,fefc,fefc,0202,0000,fefe,fefc,fefe,fefe,fe00,fcfc,0002,0002,fefe,fefc,fefe,fefe,fefe,fefe,fefc,fefe,fefe,fefe,fefc,fefe,fefe,fe00,fe00,fefe,02fc,fefe,fefe,fefe,fefe,fefe,fefe,fcfe,fc00,00fe,0000,fefe,fe00,fefe,fefe,fefe,fefc,fc02,fefc,fefe,fefe,fefe,fefe,fe00,fc00,02fc,00fe,fefe,fefe,fefe,fe00,fe00,fe00,fe06,fcfc,fefe,fefc,fefe,fefe,fe00,fefc,fc00,fc00,0000,fefe,fefc,fefe,fefe,fefe,fe00,fe00,fefe,fefe,fefe,fefe,fefe,fefe,fefc,0002,fc02,fe00,00fe,fefe,fefe,fefe,00fe,fefe,0402,f6fe,0000,fefe,fcfe,fcfe,00fc,fcfe,02fe,0606,fe00,fefe,fefe,fefe,fe00,00fe,0000,0202,00fa,00fe,00fe,fefe,fefe,0000,0000,fc00,0002,fafe,fc00,fcfe,fefe,00fe,fefe,0000,fefe,fe00,fafa,fefc,fe00,0002,fefe,fe02,0002,0200,02fa,fe00,fcfe,fe00,0000,fe02,0200,0000,0000,0000,0000,0000,0000,0000,0000,0000,0000,0000,0000,0000,0000,0000,0000,0000,0000,0000,0000,0000,0000,0000,0000,0000,0000,0000,0000,0000,0000,0000,0000,0000,0000,0000,0000,0000,0000,0000,0000,0000,0000,0000,0000,0000,0000,0000,0000,0000,0000,0000,0000,0000,0000,0000,0000,0000,0000,0000,0000,0000,0000,0000,0000,0000,0000,0000,0000,0000,0000,0000,0000,0000,0000,0000,0000,0000,0000,0000,0000,0000,0000,0000,0000,0000,0000,0000,0000,0000,0000,0000,0000,0000,0000,0000,0000,0000,0000,0000,0000,0000,0000,0000,0000,0000,0000,0000,0000,0000,0000,0000,0000,0000,0000,0000,0000,0000,0000,0000,0000,0000,0000,0000,0000,0000,0000,0000,0000,0000,0000,0000,0000,0000,0000,0000,0000,0000,0000,0000,0000,0000,0000,0000,0000,0000,0000,0000,0000,0000,0000,0000,0000,0000,0000,0000,0000,0000,0000,0000,0000,0000,0000,0000,0000,0000,0000,0000,0000,0000,0000,0000,0000,0000,0000,0000,0000,0000,0000,0000,0000,0000,0000,0000,0000,0000,0000,0000,0000,0000,0000,0000,0000,0000,0000,0000,0000,0000,0000,0000,0000,0000,0000,0000,0000,0000,0000,0000,0000,0000,0000,0000,0000,0000,0000,0000,0000,0000,0000,0000,0000,0000,0000,0000,0000,0000,0000,0000,0000,0000,0000,0000,0000,0000,0000,0000,0000,0000,0000,0000,0000,0000,0000,0000,0000,0000,0000,0000,0000,0000,0000,0000,0000,0000,0000,0000,0000,0000,0000,0000,0000,0000,0000,0000,0000,0000,0000,0000,0000,0000,0000,0000,0000,0000,0000,0000,0000,0000,0000,0000,0000,0000,0000,0000,0000,0000,0000,0000,0000,0000,0000,0000,0000,0000,0000,0000,0000,0000,0000,0000,0000,0000,0000,0000,0000,0000,0000,0000,0000,0000,0000,0000,0000,0000,0000,0000,0000,0000,0000,0000,0000,0000,0000,0000,0000,0000,0000,0000,0000,0000,0000,0000,0000,0000,0000,0000,0000,0000,0000,0000,0000,0000,0000,0000,0000,0000,0000,0000,0000,0000,0000,0000,0000,0000,0000,0000,0000,0000,0000,0000,0000,0000,0000,0000,0000,0000,0000,0000,0000,0000,0000,0000,0000,0000,0000,0000,0000,0000,0000,0000,0000,0000,0000,0000,0000,0000,0000,0000,0000,0000,0000,0000,0000,0000,0000,0000,0000,0000,0000,0000,0000,0000,0000,0000,0000,0000,0000,0000,0000,0000,0000,0000,0000,0000,0000,0000,0000,0000,0000,0000,0000,0000,0000,0000,0000,0000,0000,0000,0000,0000,0000,0000,0000,0000,0000,0000,0000,0000,0000,0000,0000,0000,0000,0000,0000,0000,0000,0000,fe00,0404,fc00,02fa,0202,fcfc,0204,fc00,04fc,f6fe,fc02,0000,00fe,0000,fe00,fefc,fcfc,0000,f6fe,00fc,0602,00fe,0002,fe00,fefc,0000,fefc,00fe,040a,0002,fc00,fefe,02fe,fc00,fef8,fc00,fcfe,fefc,fcfe,fc00,fe00,fefe,fcfe,fefe,0000,fe00,fe00,fcfe,0000,fefe,fcfe,fafe,fcfe,fef8,fefe,fcfc,fefe,fe00,fefe,fe00,fe00,fcfa,0000,fe00,fefe,fcfe,0002,fcfc,fe00,fafc,fcfc,00fe,00fe,fefe,fc00,0000,fcfa,00fc,fe02,0002,0000,fefe,fefc,fe00,0200,fefc,0404,0202,0000,00fe,00fe,fefc,fe02,fafe,f8fe,02fe,0202,0000,fefe,00fe,fefc,0000,fe00,fe00,0202,0000,fefe,00fe,0002,0000,f8fc,00fe,0200,0000,fefe,fe00,fefe,0000,02fe,0000,fcfe,0002,fefe,fefe,fe00,0402,02fe,00fc,fe02,fe00,0200,fefe,02fe,0002,0202,fe00,fafe,fcfe,0002,0202,0202,fefe,0002,fcfc,fefe,00fe,fafa,0402,0202,0002,00fe,00fc,fefe,0200,02fa,fcfe,0404,0204,00fe,fe02,fcfc,fcfe,02fe,fefc,fe00,0404,0000,fefe,fefc,fefe,0000,fcfe,fefe,0002,0000,fefe,00fe,fafc,fefe,fefc,fafc,fefe,0000,0000,fefe,fafa,fefc,00fe,fcfc,00fe,fe00,0002,fe00,00fe,fcfe,fefe,fefc,fe00,0000,fefc,fefe,fefe,fefe,fefc,fefc,fe02,fefe,00fe,fcfe,0000,fefe,fefc,fcfc,fefc,fc00,fe00,fefc,fe00,fefe,00fe,fefe,fefc,fcfe,fe02,fcfc,fefe,fe00,fefe,00fe,fcfe,fe00,fefc,fefe,fefe,fefe,0202,fcfc,fefe,00fe,0000,0002,fe00,00fe,0200,00fc,fcfe,00f8,fafe,00fe,fefe,0000,0202,02fe,fcfc,0000,fefc,fefe,fefc,fefe,0200,fefe,fcfc,fe00,fefe,fe00,0000,fefe,fc00,fcfe,fafc,fe02,0200,fefe,00fe,fefe,fafc,00fa,fafc,fafe,0200,0000,00fe,fe00,fcfa,fefa,fafc,fefa,0202,0200,fa00,fefe,02fa,02fe,faf8,0000,fe00,fc00,02fe,00fe,faf6,fc02,fe00,fcfe,f8f8,fefe,04fe,fe02,fc02,fafc,00fc,fcf6,fefc,fafa,00fc,0606,f8fa,fc00,fe00,fafe,fafc,fcfc,02fe,0202,fa02,fefe,fcfe,fe02,fafa,fefe,fe00,0204,0800,02fe,fcfa,fc02,fefc,0000,0200,0202,0600,fcfe,fefe,0000,00fe,0202,0200,fe00,fa00,020a,00fc,fefe,0000,fe00,0202,fefe,00fe,fa04,fe04,fcfe,0604,0000,0000,fe00,00fc,fcf8,fe04,0000,0000,0402,0000,00fe,fe02,fcfa,fc00,fefc,00fc,0002,0000,fe00,fcfc,02fe,fa00,f808,fe02,fe00,00fe,fcfe,0000,0202,00fc,fcfc,02fe,fcfe,0200,fefc,0000,fe02,0804,fefe,04fe,04fe,fefe,00fe,fefe,0000,0404,00fe,02fc,02fe,fcfe,fefe,fefe,0202,0202,0000,00fe,0002,fcfe,fcfc,00fe,0202,0202,0202,fafc,fefa,00fe,fcfc,fcfe,0202,0200,0200,fefc,00fc,0406,0402,fcfe,00fe,0202,0200,fefe,fef8,fc02,0002,fe00,00fe,fe00,0000,fefe,fefc,fcfc,0000,0000,fcfe,fcfc,fe00,00fe,fefe,fcfe,00fc,0400,fcfe,fefe,fcfc,0000,fe00,fcfc,fc00,fc04,02fc,0000,fefe,fcfe,fefe,fefc,0000,fc00,fe02,00fe,00fe,fefe,fefe,fefe,fefe,0400,06fc,00fe,00fe,fefe,fefe,fe00,fefe,fe04,0208,fefc,fc00,00fe,fcfc,fe00,fe00,fcfc,fe02,fafe,0000,0000,fefc,fefe,fe00,fefe,fe00,00fc,fcfa,fefe,fefe,fcfe,fefc,0202,00fe,0002,00fc,fcfc,0000,fefe,fefc,fefe,00fe,00fe,0206,fa06,00fe,fefe,fefe,fefe,00fe,fefe,0200,0206,0002,fe00,00fe,fefe,fcfe,0000,00fc,0402,00f8,02fe,00fe,fefe,00fe,0000,fefa,fe00,fc08,0200,fe00,fe00,0002,fe00,fefc,0002,0202,fcfe,fe00,0002,fe00,0200,02fc,fe06,fc00,0404,0404,0206,fcfe,0002,0202,00fe,06fe,0200,0000,0000,0000,0000,0000,0000,0000,0000,0000,0000,0000,0000,0000,0000,0000,0000,0000,0000,0000,0000,0000,0000,0000,0000,0000,0000,0000,0000,0000,0000,0000,0000,0000,0000,0000,0000,0000,0000,0000,0000,0000,0000,0000,0000,0000,0000,0000,0000,0000,0000,0000,0000,0000,0000,0000,0000,0000,0000,0000,0000,0000,0000,0000,0000,0000,0000,0000,0000,0000,0000,0000,0000,0000,0000,0000,0000,0000,0000,0000,0000,0000,0000,0000,0000,0000,0000,0000,0000,0000,0000,0000,0000,0000,0000,0000,0000,0000,0000,0000,0000,0000,0000,0000,0000,0000,0000,0000,0000,0000,0000,0000,0000,0000,0000,0000,0000,0000,0000,0000,0000,0000,0000,0000,0000,0000,0000,0000,0000,0000,0000,0000,0000,0000,0000,0000,0000,0000,0000,0000,0000,0000,0000,0000,0000,0000,0000,0000,0000,0000,0000,0000,0000,0000,0000,0000,0000,0000,0000,0000,0000,0000,0000,0000,0000,0000,0000,0000,0000,0000,0000,0000,0000,0000,0000,0000,0000,0000,0000,0000,0000,0000,0000,0000,0000,0000,0000,0000,0000,0000,0000,0000,0000,0000,0000,0000,0000,0000,0000,0000,0000,0000,0000,0000,0000,0000,0000,0000,0000,0000,0000,0000,0000,0000,0000,0000,0000,0000,0000,0000,0000,0000,0000,0000,0000,0000,0000,0000,0000,0000,0000,0000,0000,0000,0000,0000,0000,0000,0000,0000,0000,0000,0000,0000,0000,0000,0000,0000,0000,0000,0000,0000,0000,0000,0000,0000,0000,0000,0000,0000,0000,0000,0000,0000,0000,0000,0000,0000,0000,0000,0000,0000,0000,0000,0000,0000,0000,0000,0000,0000,0000,0000,0000,0000,0000,0000,0000,0000,0000,0000,0000,0000,0000,0000,0000,0000,0000,0000,0000,0000,0000,0000,0000,0000,0000,0000,0000,0000,0000,0000,0000,0000,0000,0000,0000,0000,0000,0000,0000,0000,0000,0000,0000,0000,0000,0000,0000,0000,0000,0000,0000,0000,0000,0000,0000,0000,0000,0000,0000,0000,0000,0000,0000,0000,0000,0000,0000,0000,0000,0000,0000,0000,0000,0000,0000,0000,0000,0000,0000,0000,0000,0000,0000,0000,0000,0000,0000,0000,0000,0000,0000,0000,0000,0000,0000,0000,0000,0000,0000,0000,0000,0000,0000,0000,0000,0000,0000,0000,0000,0000,0000,0000,0000,0000,0000,0000,0000,0000,0000,0000,0000,0000,0000,0000,0000,0000,0000,0000,0000,0000,0000,0000,0000,0000,0000,0000,0000,0000,0000,0000,0000,0000,0000,0000,0000,0000,0000,0000,0000,0000,0000,0000,0000,0000,0000,0000,0000,0000,0000,0000,0000,0000,0000,0000,0000,0000,0000,fc02,0200,0004,fcf8,fefa,0006,040a,fcfe,00fa,fe02,06fc,fefc,f4f0,f4f6,0c12,fafc,fcfc,04fa,fe00,f4f4,faf2,ecee,fafe,08fc,f0fc,08fa,02fe,fafc,0000,e6e8,ecf4,0804,fafc,f8fa,04fc,fcf8,fefe,f2ec,e0e4,0208,0400,0400,00f8,faf6,f6fe,fcf6,dee0,eefa,0204,fe00,faf4,f8fa,f4f2,02fe,eae6,e6ee,0606,0000,f8fc,f8fa,f6f4,fafe,f8f0,e0e4,fcfe,0402,fefe,faf6,fcf6,f4f8,04fe,e8e4,eefc,0402,0000,00fc,ecf6,f8f6,0004,f2e8,e4e8,0002,fefa,0000,fcf8,fafc,f4fa,00fc,e2e2,fe02,0400,0200,00fe,f4f8,faf0,0200,f4e4,eefa,0404,fc00,00fe,faf4,04f8,fafe,02fc,e6ea,0406,fcfa,00fe,fefa,fa00,eef2,0202,f0e8,fc06,04fc,fcfc,fefc,f6f6,00f6,00fe,04fc,f4f6,0c06,f8fc,fafa,fcf8,fe02,f6fa,0208,faf8,040c,fafa,f8fc,fafa,fafc,faf6,fe04,0600,0002,04fc,00fe,fafc,f8fc,faf6,fefa,0402,fe00,0206,fefe,fafa,fafa,fefc,fefc,0202,0400,0202,02fe,fefe,00fc,fefe,faf8,fc00,0402,00fc,0404,fe02,0202,00fc,02fe,00fe,0000,0200,fefe,fefc,0000,0402,0604,fcf8,fafc,0202,fcfe,0202,0202,0202,0606,0000,faf8,fafa,0000,fc00,0000,0202,0000,0602,f8f8,f8f8,fafe,fcfe,0202,0402,0000,0002,fefa,f8f8,fcfe,fcfc,fe00,0402,0000,fcfc,00fe,fafe,fc00,fafc,fc00,0202,0200,fefe,fcfc,faf2,fcfe,00fc,fe00,fe00,00fe,0002,fefa,faf8,f8fe,fe00,fefc,0200,00fe,fcfe,fefe,f8f8,f4f8,f6f8,fefc,fc00,fefe,fcfa,fefe,faf8,f8f8,fc02,fafa,fcfc,fefe,fcfa,fcfc,faf4,f4f8,fcfe,f4f8,fafe,fefe,fe00,f8fc,fafa,f6f6,fafc,0008,fcfc,fcfc,fcfc,fefc,fcfc,f6f6,f2f4,0202,fafc,fefe,f8fc,fefc,faf8,fcf6,f6f6,fc04,0002,fcfe,00fa,f6f8,faf2,f4f4,f2f6,f4f6,fc02,080c,1212,1418,0400,fe00,0806,0808,0a0a,060e,1216,140c,0c06,00fe,0004,0202,fefe,1008,0a0a,1004,0e0a,06fa,fefc,0606,fcfc,100c,1006,0a16,080c,02fe,f6fa,0406,02fe,0404,0808,0208,0802,0c04,f6f2,0000,0402,fefa,0c0a,0612,1204,060a,fef8,f4fa,0606,02fc,fe06,0406,0a0c,00fe,0804,f4f2,0608,02fe,fc02,0c08,0a0a,0808,0a06,faf6,0006,0a06,fefc,0604,040a,0406,0404,02fe,f0fa,1010,fef8,0000,0804,0208,0606,0804,f8f0,0e10,04fc,fafe,0206,0c02,0408,0608,faf6,f806,0c06,f4fa,fe00,0204,12fe,0804,0802,f2f4,1210,f2f4,0000,0000,0406,0604,0802,f6f4,000c,feee,0002,0600,0802,0404,0202,fcf8,fc00,1004,f800,0406,0402,0a08,020a,fefc,fa00,080e,ecf4,0406,0606,0206,0606,04fc,fefe,0204,00f2,0004,0604,0a06,0200,0800,fefe,0204,0604,f4fc,0606,0202,0208,0408,fefe,0000,fefe,f8f4,0202,02fe,02fe,04fe,04fe,0000,0400,fcfc,fafc,02fe,fefc,fe00,0c02,fefc,0604,f8f4,fafa,0002,fefa,fefc,fe08,0400,0606,fefe,fc02,fe00,0000,fefe,fcfe,0406,00fc,0600,fafa,fefe,0200,0400,fcfe,fc06,0602,0606,fcfa,fe02,0000,0002,fe00,02fa,000a,0400,0400,fcfe,02fe,fcfe,fefe,fe00,0200,0404,0404,00fc,0002,fefc,0200,00fe,f8fa,0604,0802,0400,fe00,00fe,fefc,0200,fefa,02fc,0202,0600,0202,0404,0200,0002,0600,fa02,0404,0204,0002,0206,0606,0602,0402,fefc,0004,0806,0402,0400,0404,0a08,0404,0406,0208,0a04,0202,0404,fe02,0608,0808,0602,0204,0604,0804,0006,0404,0004,0a0c,0804,08fe,040e,0012,0e06,fefe,0200,060a,0608,0406,fa08,0a0c,0e0a,0a02,0202,0800,0402,04fe,0000,06fc,0408,0408,0208,0406,06fe,0404,0600,060a,0402,0000,0000,0000,0000,0000,0000,0000,0000,0000,0000,0000,0000,0000,0000,0000,0000,0000,0000,0000,0000,0000,0000,0000,0000,0000,0000,0000,0000,0000,0000,0000,0000,0000,0000,0000,0000,0000,0000,0000,0000,0000,0000,0000,0000,0000,0000,0000,0000,0000,0000,0000,0000,0000,0000,0000,0000,0000,0000,0000,0000,0000,0000,0000,0000,0000,0000,0000,0000,0000,0000,0000,0000,0000,0000,0000,0000,0000,0000,0000,0000,0000,0000,0000,0000,0000,0000,0000,0000,0000,0000,0000,0000,0000,0000,0000,0000,0000,0000,0000,0000,0000,0000,0000,0000,0000,0000,0000,0000,0000,0000,0000,0000,0000,0000,0000,0000,0000,0000,0000,0000,0000,0000,0000,0000,0000,0000,0000,0000,0000,0000,0000,0000,0000,0000,0000,0000,0000,0000,0000,0000,0000,0000,0000,0000,0000,0000,0000,0000,0000,0000,0000,0000,0000,0000,0000,0000,0000,0000,0000,0000,0000,0000,0000,0000,0000,0000,0000,0000,0000,0000,0000,0000,0000,0000,0000,0000,0000,0000,0000,0000,0000,0000,0000,0000,0000,0000,0000,0000,0000,0000,0000,0000,0000,0000,0000,0000,0000,0000,0000,0000,0000,0000,0000,0000,0000,0000,0000,0000,0000,0000,0000,0000,0000,0000,0000,0000,0000,0000,0000,0000,0000,0000,0000,0000,0000,0000,0000,0000,0000,0000,0000,0000,0000,0000,0000,0000,0000,0000,0000,0000,0000,0000,0000,0000,0000,0000,0000,0000,0000,0000,0000,0000,0000,0000,0000,0000,0000,0000,0000,0000,0000,0000,0000,0000,0000,0000,0000,0000,0000,0000,0000,0000,0000,0000,0000,0000,0000,0000,0000,0000,0000,0000,0000,0000,0000,0000,0000,0000,0000,0000,0000,0000,0000,0000,0000,0000,0000,0000,0000,0000,0000,0000,0000,0000,0000,0000,0000,0000,0000,0000,0000,0000,0000,0000,0000,0000,0000,0000,0000,0000,0000,0000,0000,0000,0000,0000,0000,0000,0000,0000,0000,0000,0000,0000,0000,0000,0000,0000,0000,0000,0000,0000,0000,0000,0000,0000,0000,0000,0000,0000,0000,0000,0000,0000,0000,0000,0000,0000,0000,0000,0000,0000,0000,0000,0000,0000,0000,0000,0000,0000,0000,0000,0000,0000,0000,0000,0000,0000,0000,0000,0000,0000,0000,0000,0000,0000,0000,0000,0000,0000,0000,0000,0000,0000,0000,0000,0000,0000,0000,0000,0000,0000,0000,0000,0000,0000,0000,0000,0000,0000,0000,0000,0000,0000,0000,0000,0000,0000,0000,0000,0000,0000,0000,0000,0000,0000,0000,0000,0000,0000,0000,0000,0000,0000,0000,0000,0000,0000,0000,0000,0000,0000,0000,0000,0000,0000,fe00,0204,fcfe,02fe,fcfe,fefc,fe02,fc00,04fc,f8fe,02fe,fcfa,fefe,fe02,fe00,fefe,fefe,0604,fc00,fefe,fe00,fefe,00fe,fefe,fcfe,0000,04fc,00fe,0200,00fe,fefe,fe00,fefe,fefe,00fc,fc00,0000,fefe,fefe,fefe,fe00,fefe,fefe,fe00,fe00,fefc,fefe,fefe,00fe,fefe,fefe,00fe,fe00,fe00,fefe,fefe,fefe,0000,fefe,fefe,0002,00fe,fefe,fefe,fefe,fefe,00fe,fcfe,0000,0000,fefe,fefe,fe00,fefe,0000,fefe,fefc,0002,0002,fefe,fefe,fefe,fefe,fefe,fcfe,0000,0400,fe00,0000,00fe,fefe,fefe,fefe,fefe,fe00,00fe,00fe,fefe,fefe,fefe,fefe,fefe,fefe,00fe,00fe,fe00,fefe,fefe,fefe,fefe,fefe,fefe,fefe,fefe,fefe,fefe,00fe,fefe,fefe,fefe,fefc,fefe,fe00,fefe,fefe,fefe,fefe,00fe,fe00,fefe,0000,00fe,fefe,fe00,0000,fe00,fcfe,0000,fefe,fefe,fefe,00fe,0000,00fe,fefe,00fe,00fe,fefe,fefe,fefe,0000,fe00,fefe,fe02,0200,fefc,fcfe,fefe,fefe,fefe,fefe,fefe,00fc,fefc,fcfc,fefe,fefe,fefe,fefe,0000,0000,fcfc,fcfc,fcfe,fefe,fefe,fefe,fefe,fe00,00fe,fefe,fcfe,fefe,fefe,fefe,fefe,fefe,00fe,fe00,fefe,fefe,0000,fefe,fefe,00fe,fefe,fefe,fe00,00fe,00fe,fefe,fefe,fefe,fefe,fefc,fe00,0000,0000,fe00,fefe,fe00,fefe,fefe,fefe,0000,0000,fefe,00fe,fefe,fefe,fefe,fefe,00fe,fe00,00fe,fefe,00fe,fefe,fefe,fefe,00fe,fefe,0000,fefe,fefe,fefe,fefe,fe00,fefe,fe00,0000,fe00,fefe,fefe,fefe,fefe,00fc,fefe,00fe,fe00,fefe,fe00,fefe,fe00,0000,00fe,00fe,0000,fefe,fefe,fefe,fefe,fefe,00fe,fe00,0000,fe00,fefe,fefe,fafe,fe00,0000,fefe,00fe,fe00,fefe,00fe,fefc,fefe,00fe,0200,fe00,0000,fe00,0002,fc04,fe00,0000,fc00,f800,04fe,fefc,fefc,fefa,fc00,0200,fc00,fefe,0002,fcf8,fafe,fafc,fcfc,fcfe,fe00,0402,0402,fa00,fafe,f8fc,fafa,fefa,fcfc,fefe,fe04,fefc,fafe,fafc,fefe,fcfc,fcfe,fefc,00fe,fefe,fafc,fcfc,fefe,fcfc,fe00,fefe,0202,02fc,fe00,fefc,fefe,fcfc,fefe,0000,fcfe,00fc,fefe,0000,fefe,fefe,fefe,0000,fefe,fcfe,0004,fefc,fefe,00fe,fefe,0000,fe00,00fe,fcfe,fefe,fc00,fe00,0000,00fe,00fe,fefc,fefc,fe02,00fe,fefe,fe00,fefe,0000,fe00,fefe,f800,00fc,fefe,fefe,00fe,fefe,00fe,00fe,0200,fe04,fefe,fefc,fefe,fefe,00fe,fefe,fefe,fc00,00fe,fcfe,fefe,fefe,fefe,fefe,fefe,fcfe,00fe,0000,fefe,fefe,fefe,00fe,fefe,fafc,fe00,fcfc,fefe,fefe,fefe,00fe,fefe,fefe,fefc,fefe,0000,fefe,fefe,fe00,fe00,00fe,fcfc,fa02,00fe,fefe,fcfc,fefe,fefe,fefe,00fe,fcfc,0402,00fe,fefe,fefc,fefe,fefe,fefe,fafa,0200,fe02,fcfe,fefe,fefe,fefe,fefe,fefe,fcfe,0002,fefc,fefe,fefe,fefe,fefe,00fe,fefe,fcfc,0000,fefe,fefe,fcfe,fefe,fefe,fefe,00fa,fe00,fe00,fefe,fefe,fefe,fefe,fefe,fefe,00fe,fc02,0000,00fe,fefe,fefe,fefe,fefe,fcfe,04fe,02fe,00fe,fefe,fefe,fe00,fe00,0000,fe02,fcfe,fefe,fefe,fefe,fe00,fe00,fefc,fe00,fefc,02fe,fefe,fefe,fe00,00fe,fefe,fe00,fe00,fafe,fefe,fefe,0000,00fe,0000,00fe,0000,fe00,fefe,00fe,fefe,fefe,00fe,0000,00fe,0204,fefe,fe02,fefe,fcfe,fefe,00fe,fcfe,0004,0606,fc00,fefe,fefe,fefe,fefe,00fc,fefe,fe04,02fa,fcfe,fefe,fefe,fefe,0002,00fe,fe02,fe04,fafc,fe00,fefe,fefe,0000,fefe,00fe,fcfa,0204,fefc,fcfe,fefe,0002,0000,fe02,fe02,0200,00fe,fc00,fcfe,0200,0200,fe00,04fe,0000,0000,0000,0000,0000,0000,0000,0000,0000,0000,0000,0000,0000,0000,0000,0000,0000,0000,0000,0000,0000,0000,0000,0000,0000,0000,0000,0000,0000,0000,0000,0000,0000,0000,0000,0000,0000,0000,0000,0000,0000,0000,0000,0000,0000,0000,0000,0000,0000,0000,0000,0000,0000,0000,0000,0000,0000,0000,0000,0000,0000,0000,0000,0000,0000,0000,0000,0000,0000,0000,0000,0000,0000,0000,0000,0000,0000,0000,0000,0000,0000,0000,0000,0000,0000,0000,0000,0000,0000,0000,0000,0000,0000,0000,0000,0000,0000,0000,0000,0000,0000,0000,0000,0000,0000,0000,0000,0000,0000,0000,0000,0000,0000,0000,0000,0000,0000,0000,0000,0000,0000,0000,0000,0000,0000,0000,0000,0000,0000,0000,0000,0000,0000,0000,0000,0000,0000,0000,0000,0000,0000,0000,0000,0000,0000,0000,0000,0000,0000,0000,0000,0000,0000,0000,0000,0000,0000,0000,0000,0000,0000,0000,0000,0000,0000,0000,0000,0000,0000,0000,0000,0000,0000,0000,0000,0000,0000,0000,0000,0000,0000,0000,0000,0000,0000,0000,0000,0000,0000,0000,0000,0000,0000,0000,0000,0000,0000,0000,0000,0000,0000,0000,0000,0000,0000,0000,0000,0000,0000,0000,0000,0000,0000,0000,0000,0000,0000,0000,0000,0000,0000,0000,0000,0000,0000,0000,0000,0000,0000,0000,0000,0000,0000,0000,0000,0000,0000,0000,0000,0000,0000,0000,0000,0000,0000,0000,0000,0000,0000,0000,0000,0000,0000,0000,0000,0000,0000,0000,0000,0000,0000,0000,0000,0000,0000,0000,0000,0000,0000,0000,0000,0000,0000,0000,0000,0000,0000,0000,0000,0000,0000,0000,0000,0000,0000,0000,0000,0000,0000,0000,0000,0000,0000,0000,0000,0000,0000,0000,0000,0000,0000,0000,0000,0000,0000,0000,0000,0000,0000,0000,0000,0000,0000,0000,0000,0000,0000,0000,0000,0000,0000,0000,0000,0000,0000,0000,0000,0000,0000,0000,0000,0000,0000,0000,0000,0000,0000,0000,0000,0000,0000,0000,0000,0000,0000,0000,0000,0000,0000,0000,0000,0000,0000,0000,0000,0000,0000,0000,0000,0000,0000,0000,0000,0000,0000,0000,0000,0000,0000,0000,0000,0000,0000,0000,0000,0000,0000,0000,0000,0000,0000,0000,0000,0000,0000,0000,0000,0000,0000,0000,0000,0000,0000,0000,0000,0000,0000,0000,0000,0000,0000,0000,0000,0000,0000,0000,0000,0000,0000,0000,0000,0000,0000,0000,0000,0000,0000,0000,0000,0000,0000,0000,0000,0000,0000,0000,0000,0000,0000,0000,0000,0000,0000,0000,0000,0000,0000,0000,0000,0000,0000,0000,0000,0000,0000,0000,0000,0802,0204,fafc,06fc,0002,fa00,fcfa,f6fe,f604,fafe,06fe,f0f4,f8f8,f8fa,0000,f4fa,fafc,06fc,fefa,f6ea,eeee,fafe,fefe,0002,fcf8,fc02,f2fa,f6ea,e6e8,eef4,fcfe,04fe,00fe,f4fe,04fa,f8f2,e4e4,e4ec,fcfe,0002,fefe,00fa,fc02,fef6,e4da,e0de,f4fc,0200,0606,0202,0000,fc00,f0e8,e0da,e4ee,0204,0808,0402,0008,0204,f4f2,d6da,dae0,0004,0406,0808,0c08,0202,fafa,e4dc,dcde,f2fe,0606,0808,0c0c,0400,0004,02e8,dae0,e6f2,080a,0606,0804,02fa,f4f8,02fa,dcda,eae4,020a,0806,02fe,f6f6,e8e4,eef6,f6e4,e4ea,f2fe,0e08,0200,f4f0,e4e4,eaea,f8ee,e4e4,eef2,1212,02fe,f6f2,ece8,e8e6,ecf4,e6e4,ecf0,060e,0802,faf6,f0f2,f0f2,ecf0,feea,e8ee,fa02,180e,fafa,f6f6,fafc,00f6,f8f8,eef0,f8fa,0c16,00fc,fafa,fc00,0204,02fc,f4ec,f4f6,0208,0c00,f8fc,fcfa,0408,0606,fcfa,f0f2,0004,1010,faf6,fafa,fcfc,060a,02f8,f2e8,f8fa,060a,04fe,f8f8,fafa,0000,0804,f8f8,eaf2,fe02,0c0a,faf6,fcfe,fcfe,0400,00fa,f2ec,f8fc,0204,00fc,fafc,fefc,00fe,0804,f8f8,f0f8,fe00,0406,fefe,0000,fe00,0202,fefa,f2f4,f6fa,0004,0402,02fe,00fe,0000,0400,fafc,f6fa,fc00,0204,0202,0200,0204,0004,fafc,fcfa,fafa,fefe,02fe,0002,0202,0400,0200,f8fe,fafa,fcfc,0000,0000,0000,0406,0202,fef8,fafa,fafc,fefe,0202,0000,0202,0200,00fe,f8fc,fcfa,fcfc,fe00,02fe,00fe,fefc,faf8,f8fa,f8fa,fcfc,fcfc,0202,fe00,fcfe,fcfc,faf8,fefe,fefe,fcfe,0000,00fe,fe00,f8f6,f2f4,fcfe,f8fe,fe00,00fe,0000,fefe,faf8,faf6,fafc,0206,fefe,fefe,0002,fcfc,fe02,f8f8,f8fa,0200,fc00,0002,0404,00fe,0000,fcfc,f4fe,fa02,0200,0000,fc02,fefe,fcfe,0202,00f6,f8fc,06fe,0c10,1408,0810,04fe,0002,0400,0a12,0c08,0202,0e08,0a04,0802,fc00,0002,0200,0a02,0202,0404,12fe,0004,fe00,0000,fe00,020c,0c04,0e04,0406,0802,0000,0402,fefe,0204,100e,0808,fc10,fe02,04fe,0206,00fe,fc00,080a,0808,fc06,0602,0806,0002,02fe,fefc,0604,0c12,0c06,0c0e,0002,0002,0a08,00fe,0608,0c0a,080c,08fc,02fa,0e0a,0a0e,0400,0204,0a06,0200,0006,08fe,0e14,080a,0c06,0000,0404,fef8,080e,0004,0406,1408,1010,fcfc,0202,00fc,0410,0c0a,0402,1218,0c0e,04fa,fe02,02fe,0608,120c,0802,0a0c,0a08,0c04,f6fc,0204,0406,1210,0204,0006,100e,0c0c,f2f2,0202,0402,0a04,0600,fcfa,0610,0808,00f4,fe00,0606,0404,0000,0000,0c04,0e0c,0604,eef8,0402,0404,fcfc,eef8,fe02,0c10,0604,f2ee,0002,0402,0002,fafc,fafa,0a0a,1008,00fc,f8fa,0602,0402,fefc,fafa,fcfa,120c,04fe,f0f4,0204,0002,fe02,02fa,00fc,0608,0a04,fcf6,f6fc,00fe,fe00,0004,fef8,fa00,080a,fafc,f2f4,00fc,fefe,fcfc,0200,fafc,0606,06fe,fcfa,f8fc,02fe,fcfe,fe04,fcf8,fa00,0602,fafa,faf8,fe00,00fe,0002,0200,f804,0404,02fe,fafc,f6fa,0000,0200,0202,fafe,fefa,0202,fcfc,fcfc,0002,0202,0000,fcf6,fc00,0608,02fe,fefe,fcfc,0202,00fe,fefc,fafa,0602,0202,0400,00fe,fcfe,fcfc,00fa,fe00,0202,0606,0202,0002,fefe,00fe,0000,fefe,04fe,0400,0200,0202,0000,00fe,0202,0602,0402,0402,0602,0404,0200,0002,fe00,0206,0808,0206,0000,0602,0402,0002,02fc,0406,0406,0202,02fa,0402,fe00,0002,0204,fe02,04fe,08fe,0202,fefe,0a04,fcfe,0002,fe00,0004,0002,f804,f8fa,0a02,00fe,0602,fcfe,0204,fe02,0604,04fe,f6fc,fc00,0004,fcfc,0602,06f8,0802,0606,fef8,0000,0000,0000,0000,0000,0000,0000,0000,0000,0000,0000,0000,0000,0000,0000,0000,0000,0000,0000,0000,0000,0000,0000,0000,0000,0000,0000,0000,0000,0000,0000,0000,0000,0000,0000,0000,0000,0000,0000,0000,0000,0000,0000,0000,0000,0000,0000,0000,0000,0000,0000,0000,0000,0000,0000,0000,0000,0000,0000,0000,0000,0000,0000,0000,0000,0000,0000,0000,0000,0000,0000,0000,0000,0000,0000,0000,0000,0000,0000,0000,0000,0000,0000,0000,0000,0000,0000,0000,0000,0000,0000,0000,0000,0000,0000,0000,0000,0000,0000,0000,0000,0000,0000,0000,0000,0000,0000,0000,0000,0000,0000,0000,0000,0000,0000,0000,0000,0000,0000,0000,0000,0000,0000,0000,0000,0000,0000,0000,0000,0000,0000,0000,0000,0000,0000,0000,0000,0000,0000,0000,0000,0000,0000,0000,0000,0000,0000,0000,0000,0000,0000,0000,0000,0000,0000,0000,0000,0000,0000,0000,0000,0000,0000,0000,0000,0000,0000,0000,0000,0000,0000,0000,0000,0000,0000,0000,0000,0000,0000,0000,0000,0000,0000,0000,0000,0000,0000,0000,0000,0000,0000,0000,0000,0000,0000,0000,0000,0000,0000,0000,0000,0000,0000,0000,0000,0000,0000,0000,0000,0000,0000,0000,0000,0000,0000,0000,0000,0000,0000,0000,0000,0000,0000,0000,0000,0000,0000,0000,0000,0000,0000,0000,0000,0000,0000,0000,0000,0000,0000,0000,0000,0000,0000,0000,0000,0000,0000,0000,0000,0000,0000,0000,0000,0000,0000,0000,0000,0000,0000,0000,0000,0000,0000,0000,0000,0000,0000,0000,0000,0000,0000,0000,0000,0000,0000,0000,0000,0000,0000,0000,0000,0000,0000,0000,0000,0000,0000,0000,0000,0000,0000,0000,0000,0000,0000,0000,0000,0000,0000,0000,0000,0000,0000,0000,0000,0000,0000,0000,0000,0000,0000,0000,0000,0000,0000,0000,0000,0000,0000,0000,0000,0000,0000,0000,0000,0000,0000,0000,0000,0000,0000,0000,0000,0000,0000,0000,0000,0000,0000,0000,0000,0000,0000,0000,0000,0000,0000,0000,0000,0000,0000,0000,0000,0000,0000,0000,0000,0000,0000,0000,0000,0000,0000,0000,0000,0000,0000,0000,0000,0000,0000,0000,0000,0000,0000,0000,0000,0000,0000,0000,0000,0000,0000,0000,0000,0000,0000,0000,0000,0000,0000,0000,0000,0000,0000,0000,0000,0000,0000,0000,0000,0000,0000,0000,0000,0000,0000,0000,0000,0000,0000,0000,0000,0000,0000,0000,0000,0000,0000,0000,0000,0000,0000,0000,0000,0000,0000,0000,0000,0000,0000,0000,0000,0000,0000,0000,0000,0000,0000,0000,0000,0000,0000,0000,0000,0000,0000,0600,0200,f2fc,fa00,fefa,04fc,eef6,fafc,fa02,0606,f2f8,f2f4,04fc,fafc,fcf6,f0f8,0406,f8fe,f8fa,faf4,f2fe,00fc,fafe,f6f6,00fc,00fc,00fe,f8fc,f8f6,00fc,fafc,02fc,f4fe,0604,0408,f2f4,f6f8,fcfa,fcfe,fe00,02fc,00f8,0600,fcfc,f2f2,f6f6,fafa,fcfc,0200,fefe,0606,04fe,fcfa,f8fa,fcfc,fefa,0000,fe02,0608,0202,0202,fcfc,fefc,fe00,0202,00fe,02fe,fe04,0402,0600,00fe,0002,0204,0402,0406,0400,0608,fe00,0206,fe00,0202,0404,0806,0602,02f6,fcfc,f8fc,0202,0202,0404,0404,0404,fcfc,f6fa,faf4,fefc,0000,0200,fe04,0002,0200,fcfc,fcf8,fcfe,0202,fefe,fcfa,fcfc,fefc,f4f0,0204,0408,0608,0404,00fe,fc00,f4fa,f8f4,0408,060a,100e,0a08,0602,fcfa,fef6,f4f4,f8f8,0606,1216,1412,0a08,0402,0202,fcfc,fafc,00fc,f600,0c12,0c0a,0608,00fe,fefc,fefe,00fc,f2ee,e8e8,0200,0200,0200,0604,0200,0600,fefa,e6de,d8dc,ecee,fafa,fefe,0004,0608,fef8,faf2,eae2,dae0,f2f6,fafa,fcfe,0204,fe00,0800,faf8,f8f4,f2f6,fcfc,fafc,0002,02fc,f8fa,fcfc,fc00,f8fa,fcfc,fafe,fe00,0004,fafc,02fc,00fe,00fe,fafe,fefe,0200,0002,fefa,fcf8,fafa,fefe,fcfc,fefc,fefe,fe00,0000,fcfa,f8fa,fafa,fefe,fe00,fafc,fafe,fe00,fafa,fafa,f0f4,f6fa,fe02,fefe,fcfa,fefc,fafa,fcfe,f0e6,eaec,f6f8,0000,fefe,fafa,fe00,fafc,f6f8,e8ec,f0f4,fc00,fe00,fcfe,0000,00fc,fafa,f8f8,faf8,fafa,00fc,fcfc,fc00,0000,fcfa,faf2,fcf8,fefc,fcfc,fcfe,fefc,fefe,fefe,fafa,fcfe,0004,00fc,fafc,fcfc,0000,00fe,fcfa,fc04,0202,0a0a,0200,fcfe,fcfe,fcf8,fafe,fafe,fafa,0202,0606,0200,0002,fe00,faf6,0202,0000,fefe,0606,0606,0000,0000,fafa,fafc,fe02,0602,0004,fafc,04fa,fcfe,fefa,0800,0406,0802,0efc,fc04,0406,00fe,0202,00fe,0406,0004,0406,0408,0404,fe02,02fc,fefe,0008,fc02,0812,0202,fc00,0002,0000,fefe,00fe,0408,0810,040c,fefe,fefe,0202,0402,0402,0402,0404,0a0e,02fe,fcfe,0404,0404,0604,0204,06fe,02fc,0800,fcf8,fc02,0404,0406,0204,04fc,fc02,0406,fafe,faf8,0202,0002,0002,fefa,fcfc,06fa,02fc,fcfa,f6fa,fcfa,fcfa,fe00,fcfc,fefe,fcfa,fafc,f8fa,f8fc,f8fa,00fe,fefc,f4fe,0408,0202,fc00,fefc,fcfe,fe00,0202,faf6,fe0a,fe00,0000,0a08,0404,0404,0402,0000,fc06,06fe,02fa,0002,0606,0a08,0806,0806,02fe,0806,fc08,f8f8,f8fe,080a,0a08,0606,0402,fc02,fcfa,02fc,f0ec,f8fe,0608,0602,0202,00fc,fcfe,0204,f4ec,dee0,eef4,f8f8,fafe,00fa,fcf8,fef8,06fa,f4ee,e0e2,e6ea,f0f0,fcfc,fef8,f604,fcfe,080e,04fe,f0ec,f2f2,fafc,fcfa,fcf8,00fc,0c0e,1816,100c,00fe,fe02,0202,fc00,fa06,02fe,161c,1a16,100e,0a06,0808,0402,0002,fcfe,0c12,1a1c,1816,1212,0c0a,0a0a,0604,0202,02fe,0c14,1616,1212,0e0c,0a08,0606,0202,08fe,00fa,0408,0c0c,0a08,0608,0406,0000,0400,0402,faf6,fe02,0202,0200,0002,04fe,0404,0a02,fefa,eaf2,f6f6,fcfe,fafe,0402,fefc,0810,0c06,f8f2,eeee,ecf0,f4f8,0402,0000,fe02,0c10,02fe,faf8,f0f2,f0f6,0000,fafc,fe02,0a00,0604,0a02,fc00,fafc,fe02,fcfe,fc00,0602,0c04,fe02,0206,0202,0002,0000,fafc,0202,0a08,0a08,0408,0406,0a06,0806,0000,fe02,0402,1002,fe00,0402,0a0a,0606,0404,fc00,0200,080a,0406,fefe,00fc,0204,0604,0000,0402,fefc,040a,0002,00fc,f8fc,fe00,0602,0402,0200,0208,0608,0004,fcfa,fcfc,fefc,0006,0406,fc04,0006,0000,0000,0000,0000,0000,0000,0000,0000,0000,0000,0000,0000,0000,0000,0000,0000,0000,0000,0000,0000,0000,0000,0000,0000,0000,0000,0000,0000,0000,0000,0000,0000,0000,0000,0000,0000,0000,0000,0000,0000,0000,0000,0000,0000,0000,0000,0000,0000,0000,0000,0000,0000,0000,0000,0000,0000,0000,0000,0000,0000,0000,0000,0000,0000,0000,0000,0000,0000,0000,0000,0000,0000,0000,0000,0000,0000,0000,0000,0000,0000,0000,0000,0000,0000,0000,0000,0000,0000,0000,0000,0000,0000,0000,0000,0000,0000,0000,0000,0000,0000,0000,0000,0000,0000,0000,0000,0000,0000,0000,0000,0000,0000,0000,0000,0000,0000,0000,0000,0000,0000,0000,0000,0000,0000,0000,0000,0000,0000,0000,0000,0000,0000,0000,0000,0000,0000,0000,0000,0000,0000,0000,0000,0000,0000,0000,0000,0000,0000,0000,0000,0000,0000,0000,0000,0000,0000,0000,0000,0000,0000,0000,0000,0000,0000,0000,0000,0000,0000,0000,0000,0000,0000,0000,0000,0000,0000,0000,0000,0000,0000,0000,0000,0000,0000,0000,0000,0000,0000,0000,0000,0000,0000,0000,0000,0000,0000,0000,0000,0000,0000,0000,0000,0000,0000,0000,0000,0000,0000,0000,0000,0000,0000,0000,0000,0000,0000,0000,0000,0000,0000,0000,0000,0000,0000,0000,0000,0000,0000,0000,0000,0000,0000,0000,0000,0000,0000,0000,0000,0000,0000,0000,0000,0000,0000,0000,0000,0000,0000,0000,0000,0000,0000,0000,0000,0000,0000,0000,0000,0000,0000,0000,0000,0000,0000,0000,0000,0000,0000,0000,0000,0000,0000,0000,0000,0000,0000,0000,0000,0000,0000,0000,0000,0000,0000,0000,0000,0000,0000,0000,0000,0000,0000,0000,0000,0000,0000,0000,0000,0000,0000,0000,0000,0000,0000,0000,0000,0000,0000,0000,0000,0000,0000,0000,0000,0000,0000,0000,0000,0000,0000,0000,0000,0000,0000,0000,0000,0000,0000,0000,0000,0000,0000,0000,0000,0000,0000,0000,0000,0000,0000,0000,0000,0000,0000,0000,0000,0000,0000,0000,0000,0000,0000,0000,0000,0000,0000,0000,0000,0000,0000,0000,0000,0000,0000,0000,0000,0000,0000,0000,0000,0000,0000,0000,0000,0000,0000,0000,0000,0000,0000,0000,0000,0000,0000,0000,0000,0000,0000,0000,0000,0000,0000,0000,0000,0000,0000,0000,0000,0000,0000,0000,0000,0000,0000,0000,0000,0000,0000,0000,0000,0000,0000,0000,0000,0000,0000,0000,0000,0000,0000,0000,0000,0000,0000,0000,0000,0000,0000,0000,0000,0000,0000,0000,0000,0000,0000,0000,0000,0000,0000,0000,0000,0000,0000,0000,0000,fafe,0202,0002,fe02,0004,080a,0c0a,02f6,1004,fc04,0c08,0802,0006,0e08,0a08,fe00,0002,0206,0a06,0a0c,0a04,0408,0808,0806,fe00,0400,0804,1612,0a0a,0406,0004,0406,06fe,fe00,04fe,0a08,100e,fe00,0404,0204,0c08,fefc,00fe,0202,0e10,0802,0204,0202,0606,0602,fcfc,00fe,0c0e,0c0a,0406,0402,0204,0a08,00fa,f8fa,040e,100c,0606,0200,0202,0406,0000,fafa,0408,1010,0806,0404,0002,0204,fefc,0000,f802,0410,0e0c,0806,0402,0202,02fe,fafe,fefa,0800,080c,040a,0806,0404,00fe,f8fa,00fe,fa02,060a,0604,0a0a,0202,0000,fcfc,fcfe,fcfa,0804,0404,fe04,0402,0000,fefe,fafa,0204,fafe,0e02,fafc,0408,0202,00fe,fefc,fc00,0202,0a08,00fe,0004,0206,00fe,fcfe,fc00,00fe,faf8,1008,0404,0604,fefe,fcfc,fefe,0002,fcfc,0a0c,0806,0606,02fe,fcfa,0200,0400,fcf8,f6fa,0a08,0804,04fe,fcfa,0002,0406,00fc,f2f2,0604,020a,0000,f6f6,fe04,0606,0202,f4f0,f6fc,f6f8,fefc,f4f6,f6f8,0a0a,0604,00fa,f0ee,f8f2,f2f6,f8fa,f4f0,0208,0608,0402,f4f2,fc04,e8ec,f4f6,f6f2,eef4,0a0a,0806,fcf8,eef2,eee8,f0f4,f6f6,f0ee,0006,0806,02fe,fafa,fe00,ecf0,f6fa,f8f4,f4f8,0006,0402,fe00,f6fc,f6f2,fcfc,fcfc,f4f4,f8fa,0404,0202,fef8,fcfa,fafe,00fe,f8f6,f2f6,fc00,0004,fefe,fafe,00fa,00fe,fefa,f6f6,f8fa,0202,00fe,faf8,00f8,fcfe,fafa,f8f6,f8fa,00fe,0204,02fe,f8fa,0408,00fc,fafc,fafa,fcfc,0000,00fe,fafc,f800,0a08,0200,fcfa,f8fa,00fe,0206,0000,fafc,0002,0c0c,fefe,fcfe,fe00,0204,0202,00fa,0000,0204,0806,0202,fe00,0002,0202,0402,fafe,fafe,0204,0604,0404,0002,0406,0000,fefa,0002,fefe,080c,0804,0606,fe06,0202,0600,0002,0002,0c04,fcfe,0402,0406,f8fe,fcfa,0000,120a,0408,080a,faf6,00f8,f6f6,f2f4,f604,fc06,fe0a,060a,f6f8,f8f8,f4f4,f6f6,f6f8,0602,0612,0206,fcf4,eef6,f8fa,f8fa,f4f0,f4fe,0200,0802,fef8,f0f2,fcfc,fafa,f8f6,eeee,0606,0402,02fe,f6f4,fafc,fafa,f8fa,f4f4,f2f4,fefe,fc00,02f8,f8f8,fafc,fcfc,fafa,f6f2,0400,0208,fafc,f6f6,fafa,fe02,0000,fcfc,f6fa,0602,02fc,faf8,f6fa,fcfc,0202,00fe,02fa,fc02,0402,fefa,f4f8,f6f8,0004,0000,0000,00fe,0a06,0600,f8fc,fcfa,fafe,0402,0000,0606,0608,fe06,0202,00fc,fafa,0806,0200,0604,0400,020a,02fe,0200,fcfc,0206,0202,0408,080a,0208,0406,0200,0000,fcfe,0402,0206,0c0c,0400,020e,0404,fefe,0200,0202,0406,0a0a,0c08,0808,000c,fafc,0002,fe00,0204,0c08,0a08,0604,0c06,fef2,f2f8,fefc,0002,0a0e,0406,0a04,0a0e,080a,eaf0,f6f6,0002,0808,0c08,0402,0608,0e06,f8ee,f2f2,f6fe,0406,0e0c,0202,0406,0c10,060e,eaee,f2f2,0206,0c0e,0200,fe00,0604,0808,f8f2,f2f4,fa00,040a,0804,fe00,02fe,0808,0406,f0f6,fcfc,0206,0e0c,02fe,fefc,0004,080e,04fc,0204,0204,0a0a,0604,fefa,fefe,0206,120c,0002,060a,0a08,0808,0202,00fc,fc00,0a00,0a04,0806,080c,0a0c,0402,00fe,fafa,0608,06fa,0406,0000,0808,0606,0002,00fc,0204,0404,0a08,0000,0000,0606,0202,fcfe,0004,0404,0206,0202,0000,0404,0202,fefe,0204,0404,0210,0c06,fe00,0004,0404,00fe,0202,0200,0602,0c02,00fa,fcfe,0402,0000,0200,0202,fe02,040a,0600,fafc,fc00,00fe,0000,0000,0006,0c04,040a,02f6,fcfe,fe00,fefe,0000,0202,0a08,0806,0e08,fcfe,fcfe,fcfc,fcfe,0204,060c,fe0a,fe02,0e0e,0208,00fc,0006,fe08,0c0c,0a08,0a0c,0000,0000,0000,0000,0000,0000,0000,0000,0000,0000,0000,0000,0000,0000,0000,0000,0000,0000,0000,0000,0000,0000,0000,0000,0000,0000,0000,0000,0000,0000,0000,0000,0000,0000,0000,0000,0000,0000,0000,0000,0000,0000,0000,0000,0000,0000,0000,0000,0000,0000,0000,0000,0000,0000,0000,0000,0000,0000,0000,0000,0000,0000,0000,0000,0000,0000,0000,0000,0000,0000,0000,0000,0000,0000,0000,0000,0000,0000,0000,0000,0000,0000,0000,0000,0000,0000,0000,0000,0000,0000,0000,0000,0000,0000,0000,0000,0000,0000,0000,0000,0000,0000,0000,0000,0000,0000,0000,0000,0000,0000,0000,0000,0000,0000,0000,0000,0000,0000,0000,0000,0000,0000,0000,0000,0000,0000,0000,0000,0000,0000,0000,0000,0000,0000,0000,0000,0000,0000,0000,0000,0000,0000,0000,0000,0000,0000,0000,0000,0000,0000,0000,0000,0000,0000,0000,0000,0000,0000,0000,0000,0000,0000,0000,0000,0000,0000,0000,0000,0000,0000,0000,0000,0000,0000,0000,0000,0000,0000,0000,0000,0000,0000,0000,0000,0000,0000,0000,0000,0000,0000,0000,0000,0000,0000,0000,0000,0000,0000,0000,0000,0000,0000,0000,0000,0000,0000,0000,0000,0000,0000,0000,0000,0000,0000,0000,0000,0000,0000,0000,0000,0000,0000,0000,0000,0000,0000,0000,0000,0000,0000,0000,0000,0000,0000,0000,0000,0000,0000,0000,0000,0000,0000,0000,0000,0000,0000,0000,0000,0000,0000,0000,0000,0000,0000,0000,0000,0000,0000,0000,0000,0000,0000,0000,0000,0000,0000,0000,0000,0000,0000,0000,0000,0000,0000,0000,0000,0000,0000,0000,0000,0000,0000,0000,0000,0000,0000,0000,0000,0000,0000,0000,0000,0000,0000,0000,0000,0000,0000,0000,0000,0000,0000,0000,0000,0000,0000,0000,0000,0000,0000,0000,0000,0000,0000,0000,0000,0000,0000,0000,0000,0000,0000,0000,0000,0000,0000,0000,0000,0000,0000,0000,0000,0000,0000,0000,0000,0000,0000,0000,0000,0000,0000,0000,0000,0000,0000,0000,0000,0000,0000,0000,0000,0000,0000,0000,0000,0000,0000,0000,0000,0000,0000,0000,0000,0000,0000,0000,0000,0000,0000,0000,0000,0000,0000,0000,0000,0000,0000,0000,0000,0000,0000,0000,0000,0000,0000,0000,0000,0000,0000,0000,0000,0000,0000,0000,0000,0000,0000,0000,0000,0000,0000,0000,0000,0000,0000,0000,0000,0000,0000,0000,0000,0000,0000,0000,0000,0000,0000,0000,0000,0000,0000,0000,0000,0000,0000,0000,0000,0000,0000,0000,0000,0000,0000,0000,0000,0000,0000,0000,0000,0000,0000,0000,0000,0000,0000,fa02,0204,fc00,00fc,fcfe,fefe,0002,0000,00fe,fafe,0000,fcf8,00fc,0002,fe00,fefe,fcfe,0202,f8fe,0200,fc00,fefe,00fe,fcfe,fcfe,0400,02fc,0204,0002,00fc,fefe,fafe,fefe,fc00,fefe,fe04,0000,fafc,fcfa,fefc,fefe,fefe,fcfe,0600,0600,fafe,fcfe,fefe,fe00,fefe,fefe,0204,0602,0000,fefe,fcfc,fefe,fefe,fefe,fefe,0c0a,0208,0806,0000,fefc,fefc,fefe,fcfc,0204,0204,0806,0000,fefe,fefe,fefe,fefc,fcfc,fc00,0808,0000,fefe,fefc,fcfe,fefe,fcfc,fcfe,0400,00fe,0002,fefe,fafc,fefc,fefc,0000,fc00,fefe,fefc,00fe,fefe,fefc,fcfe,fefe,fcfe,0000,fefe,fefe,fefe,fefe,fcfe,fefe,00fc,fe00,fefe,fefe,fefe,fefe,fefc,fefe,fefe,00fe,fefc,fcfe,0000,fefe,fefe,fefe,fefe,0000,fcfe,0000,fefe,fefc,00fe,fefe,00fe,0000,fafc,fe02,fefe,fefe,fefe,00fe,00fe,fefe,fefe,faf6,fefc,fefe,fe00,fefe,fefe,fefe,fefe,fafc,0000,fcfc,fcfc,fefe,fefe,fefe,fefe,fefe,faf6,fefc,fefe,fefe,fefe,fefe,0000,fefe,fefc,f8fa,fcfe,fefe,fefe,fcfe,fe00,00fe,fe00,fafa,fafe,fcfe,fe00,fefe,fefe,fefe,fefe,fefe,fcfc,00fe,fe00,00fe,fcfc,fefe,0000,fefe,fe00,fe02,0200,0000,fcfc,fcfe,fe00,0000,fcfc,0404,fe02,0000,fefe,fefe,fefe,00fe,fefe,fe00,fe00,0000,fefe,fefe,fefc,fefe,fefe,0002,00fe,fc02,fe00,fefe,fefe,fe00,fefe,fe00,0200,fefe,fe00,00fe,fefc,00fe,fefe,fefe,00fe,fe00,0002,fefe,02fe,fefe,fefe,fefe,00fe,fcfc,00fe,00fe,fefe,fefe,fefe,fe00,0000,00fe,fefe,fefe,00fe,00fe,fcfc,fefe,fefe,00fe,fe00,0000,fefe,fe00,00fe,f8fc,0000,0000,0000,00fe,fefe,fe00,00fe,0000,fefe,0000,0200,0000,fe00,fefe,0202,fe04,fe00,00fe,fe02,f602,04fc,fefc,02fc,02fc,fc00,02fe,fa00,fefc,0004,f4fc,fafa,f6fa,fafc,fcfc,fe00,06fc,0400,fe00,f8fa,f8f8,fafa,00fa,fcfa,fc02,fe02,0200,0002,f8fc,fcfe,fafc,fc00,fefa,00fe,fc02,fefc,0000,fc02,fe00,0002,fefe,0000,04fc,0002,0406,0602,fe00,00fe,00fc,fefc,00fc,fe00,0204,02fe,fefc,fcfc,00fe,fefe,fefe,0004,fefc,0204,0200,fefe,fe00,fc00,0200,fcfe,fefa,0000,0000,0000,0000,0000,00fa,00fa,fa00,00fe,00fe,fe00,fe00,0000,fe00,fefc,fa02,00fc,00fc,fcfc,fefe,00fe,0000,00fc,02fe,fc04,fefe,fcfe,fefe,fefe,fefe,fefe,fefc,fc00,fefe,fafe,fefe,00fe,0000,fefe,00fe,fefe,fefe,0002,fefe,fefe,fefe,fefe,fefe,fafe,0002,fcfc,fe00,fcfc,fcfc,fe00,00fe,fefe,fefc,0000,fefa,fefe,fcfc,fcfe,fcfe,fefe,fcfc,fcfa,0202,fafe,fefe,fafc,fefc,fefc,fefc,fcfc,0406,00fe,fefe,fcfc,fefe,fefe,fefe,fcf8,04fe,0404,fe02,fefc,fefc,fefc,fefe,fefe,f8fe,0202,fefc,fcfe,fefe,fefe,00fe,fe00,fe00,00fa,fe00,fefe,fefc,fcfe,fefe,00fe,fcfc,fcfa,fa02,0004,fefe,fcfe,fefe,fefe,00fc,fc00,00fe,fc04,00fe,fcfc,fefe,fefe,fefe,fefe,0000,08fc,fe00,fefc,fcfe,fefe,fe00,00fe,fe02,fe02,fcfe,fefe,fcfc,fcfe,fcfe,fe00,00fa,fcfc,fa00,fcfe,fefe,fefe,fefe,fefe,fcfe,fe00,0002,02fc,fefc,fcfe,fefe,fefe,fe00,fefe,00fe,fe00,fefe,02fc,fefe,fefe,fefe,fefe,04fc,0408,f802,fe00,fefe,fcfc,fefc,00fe,fafe,0002,0206,fe00,00fe,fefe,fcfe,fefe,00fa,02fe,0202,04fc,02fe,0000,fefc,fefc,fe00,00fe,fe02,fe06,fafe,0002,fe00,0000,fe00,fefc,0200,fcfe,fe02,fefc,fc00,fefe,0202,0000,fc02,0000,fefe,0202,fa00,fcfe,0004,00fe,fc00,04fc,00fe,0000,0000,0000,0000,0000,0000,0000,0000,0000,0000,0000,0000,0000,0000,0000,0000,0000,0000,0000,0000,0000,0000,0000,0000,0000,0000,0000,0000,0000,0000,0000,0000,0000,0000,0000,0000,0000,0000,0000,0000,0000,0000,0000,0000,0000,0000,0000,0000,0000,0000,0000,0000,0000,0000,0000,0000,0000,0000,0000,0000,0000,0000,0000,0000,0000,0000,0000,0000,0000,0000,0000,0000,0000,0000,0000,0000,0000,0000,0000,0000,0000,0000,0000,0000,0000,0000,0000,0000,0000,0000,0000,0000,0000,0000,0000,0000,0000,0000,0000,0000,0000,0000,0000,0000,0000,0000,0000,0000,0000,0000,0000,0000,0000,0000,0000,0000,0000,0000,0000,0000,0000,0000,0000,0000,0000,0000,0000,0000,0000,0000,0000,0000,0000,0000,0000,0000,0000,0000,0000,0000,0000,0000,0000,0000,0000,0000,0000,0000,0000,0000,0000,0000,0000,0000,0000,0000,0000,0000,0000,0000,0000,0000,0000,0000,0000,0000,0000,0000,0000,0000,0000,0000,0000,0000,0000,0000,0000,0000,0000,0000,0000,0000,0000,0000,0000,0000,0000,0000,0000,0000,0000,0000,0000,0000,0000,0000,0000,0000,0000,0000,0000,0000,0000,0000,0000,0000,0000,0000,0000,0000,0000,0000,0000,0000,0000,0000,0000,0000,0000,0000,0000,0000,0000,0000,0000,0000,0000,0000,0000,0000,0000,0000,0000,0000,0000,0000,0000,0000,0000,0000,0000,0000,0000,0000,0000,0000,0000,0000,0000,0000,0000,0000,0000,0000,0000,0000,0000,0000,0000,0000,0000,0000,0000,0000,0000,0000,0000,0000,0000,0000,0000,0000,0000,0000,0000,0000,0000,0000,0000,0000,0000,0000,0000,0000,0000,0000,0000,0000,0000,0000,0000,0000,0000,0000,0000,0000,0000,0000,0000,0000,0000,0000,0000,0000,0000,0000,0000,0000,0000,0000,0000,0000,0000,0000,0000,0000,0000,0000,0000,0000,0000,0000,0000,0000,0000,0000,0000,0000,0000,0000,0000,0000,0000,0000,0000,0000,0000,0000,0000,0000,0000,0000,0000,0000,0000,0000,0000,0000,0000,0000,0000,0000,0000,0000,0000,0000,0000,0000,0000,0000,0000,0000,0000,0000,0000,0000,0000,0000,0000,0000,0000,0000,0000,0000,0000,0000,0000,0000,0000,0000,0000,0000,0000,0000,0000,0000,0000,0000,0000,0000,0000,0000,0000,0000,0000,0000,0000,0000,0000,0000,0000,0000,0000,0000,0000,0000,0000,0000,0000,0000,0000,0000,0000,0000,0000,0000,0000,0000,0000,0000,0000,0000,0000,0000,0000,0000,0000,0000,0000,0000,0000,0000,0000,0000,0000,0000,0000,0000,0000,0000,0000,0000,0000,0000,0000,0000,0602,0408,fc04,1010,120a,0408,0810,0404,0404,fefe,0804,0200,080a,0806,0a0a,0802,fe00,02fe,0004,f6f4,fc02,080c,0608,0e0c,0404,0406,fcfa,fcf6,fcfe,0208,0c0c,0e0a,0400,f802,fafa,f8f2,f4f6,fe04,0e10,0c0a,0402,fcfc,fe02,f8f8,f0ee,0606,0c0e,0e0c,0000,fefe,00fe,f4fa,eef0,fe04,0606,0e10,0802,fcfa,f800,0202,f8f4,f4fa,0c08,0e10,0e08,f6fa,f6f4,fefe,f4f6,f0fa,0408,080a,0600,ecea,f2f4,f2f8,fafe,f4f4,fafe,0406,02fc,f0ec,f2f4,f0f0,f6f6,00fc,fcfa,0404,0402,f8f8,f2f8,f4f2,f0ee,f4fa,0002,0004,fe00,0200,f8f8,fefa,f8f6,f0f2,0200,0606,00fe,fefc,fcfc,fe00,fe00,f6f8,fefe,0406,0202,fefa,fefc,fe00,0204,0604,0002,06f8,0404,02fe,00fe,fe00,0206,0a0e,0804,0a04,fc00,fc00,00fa,fcfc,0000,0406,0a0e,0e0c,00fc,02fc,fefc,0000,fcfe,0002,0408,0808,0804,00fc,fefe,fefc,fefe,0002,0002,080a,0402,fcf8,fefc,0402,0000,0000,0000,fe00,0402,0204,f8fc,fc00,0202,0200,fefe,fcfa,0200,04fe,f800,fcfe,0204,0000,0202,fe00,fcfe,0000,0206,0404,fe02,0404,0404,0000,fcfe,fc00,fafc,fafe,fe02,0202,0406,0200,fefc,fafc,fafc,0202,0000,fe00,0202,0200,fefe,fe02,fafc,fc00,fc00,fcfe,0202,0000,fcfe,fefe,fafc,f8fa,0404,fefc,fefa,02fe,fefe,fef8,f8f8,faf6,fe02,00fc,fafa,fefe,fefc,faf6,f2ee,eef0,f4f8,00fe,f8f4,f2f0,f6f6,f2f0,eaee,eaea,eef0,fa00,faf6,f2f2,ecea,f0ec,f0ea,ece8,eeee,f0f6,0002,f4f4,eeec,e6e6,eae8,e8ea,e8ec,eeee,fafe,f8f6,f0f4,f0e8,e8ec,e8ea,e6ea,f4f0,f2f8,0002,f4f4,f2f2,eeec,f2f6,eef0,e8ec,eef4,0002,faf8,f6f4,f8f4,f8f6,f2f2,ecea,f6f6,f8fa,0202,f8fc,f2f4,f6f4,fcfa,f2f4,f2f2,f8fa,0002,020a,120e,1012,0202,0402,fafc,f80c,0608,000a,1410,0c08,02fe,fcfc,fcfc,fcf4,fe06,0200,0608,0e08,0402,f6f6,f6fc,faf6,f2fc,fc0a,02fe,0a0e,0606,fcf8,faf8,faf8,f2ee,fafe,fc02,0006,0606,0000,f8fc,fafa,ece6,eaf2,0800,fafc,0a00,0806,faf6,fafc,f4ee,eae4,f602,00fe,0006,0204,0400,fefe,faf2,e6e6,f2f0,0608,04fc,0404,0204,0000,fcf6,f2f0,f8f8,fcfe,f800,0802,0000,fe00,02fc,fafc,0002,0804,0a04,f6f2,0608,02fe,fe02,0200,0406,080a,0a0a,0404,0402,0808,0002,0202,060c,0a08,0c08,0e02,f8ee,0404,00fe,0202,0002,0a0a,0200,0802,fcfc,0206,0000,0604,0402,0608,0802,f8fa,fe00,f4f6,0402,0200,0004,0404,0602,f4f4,fafa,02fe,0efe,0404,00fe,0604,0204,fcfe,f2f2,f4f8,f4f2,0204,0202,0202,0402,0400,fc00,f800,04f8,fe00,02fe,fe00,0000,0202,0004,0606,0000,f8fc,00fa,fefc,fe00,fcfe,fe00,0402,fefe,0406,fefe,fafc,fefc,fefe,0200,fe02,00fe,0002,fcfc,0200,fcfe,fafe,0002,0202,02fe,fcfc,0402,0204,fefc,fefe,0002,0202,0204,fefc,04fe,fcfe,0400,fe02,fe00,0202,0606,0004,f8fc,fcfe,0a04,0004,fefe,0000,0406,0606,0200,fcfc,fafa,0004,0002,0204,0406,0606,0404,0000,0202,0806,fe02,0004,0404,0404,0202,0804,0402,02fa,0400,0400,0604,0404,0202,0806,0402,0402,0602,0000,0404,0404,0202,0808,0606,0006,00fe,fe00,0204,0806,0204,0408,0002,0406,04fc,0c06,00fe,0804,0604,0602,0202,04fe,fc0a,0006,0606,0404,0200,00fe,fefa,f6f8,0202,fefe,0a06,0202,fef8,fc02,f8f8,fafc,fefe,06fa,f804,04fe,fafc,f8f6,f8f8,f4f8,f8f8,fe00,fcfc,0a06,00f8,f4f6,eef0,eef4,f2f8,00fe,f8f8,f0f6,fafc,f6f4,f2ea,e6ec,eeec,f8fe,0400,fcf4,0000,0000,0000,0000,0000,0000,0000,0000,0000,0000,0000,0000,0000,0000,0000,0000,0000,0000,0000,0000,0000,0000,0000,0000,0000,0000,0000,0000,0000,0000,0000,0000,0000,0000,0000,0000,0000,0000,0000,0000,0000,0000,0000,0000,0000,0000,0000,0000,0000,0000,0000,0000,0000,0000,0000,0000,0000,0000,0000,0000,0000,0000,0000,0000,0000,0000,0000,0000,0000,0000,0000,0000,0000,0000,0000,0000,0000,0000,0000,0000,0000,0000,0000,0000,0000,0000,0000,0000,0000,0000,0000,0000,0000,0000,0000,0000,0000,0000,0000,0000,0000,0000,0000,0000,0000,0000,0000,0000,0000,0000,0000,0000,0000,0000,0000,0000,0000,0000,0000,0000,0000,0000,0000,0000,0000,0000,0000,0000,0000,0000,0000,0000,0000,0000,0000,0000,0000,0000,0000,0000,0000,0000,0000,0000,0000,0000,0000,0000,0000,0000,0000,0000,0000,0000,0000,0000,0000,0000,0000,0000,0000,0000,0000,0000,0000,0000,0000,0000,0000,0000,0000,0000,0000,0000,0000,0000,0000,0000,0000,0000,0000,0000,0000,0000,0000,0000,0000,0000,0000,0000,0000,0000,0000,0000,0000,0000,0000,0000,0000,0000,0000,0000,0000,0000,0000,0000,0000,0000,0000,0000,0000,0000,0000,0000,0000,0000,0000,0000,0000,0000,0000,0000,0000,0000,0000,0000,0000,0000,0000,0000,0000,0000,0000,0000,0000,0000,0000,0000,0000,0000,0000,0000,0000,0000,0000,0000,0000,0000,0000,0000,0000,0000,0000,0000,0000,0000,0000,0000,0000,0000,0000,0000,0000,0000,0000,0000,0000,0000,0000,0000,0000,0000,0000,0000,0000,0000,0000,0000,0000,0000,0000,0000,0000,0000,0000,0000,0000,0000,0000,0000,0000,0000,0000,0000,0000,0000,0000,0000,0000,0000,0000,0000,0000,0000,0000,0000,0000,0000,0000,0000,0000,0000,0000,0000,0000,0000,0000,0000,0000,0000,0000,0000,0000,0000,0000,0000,0000,0000,0000,0000,0000,0000,0000,0000,0000,0000,0000,0000,0000,0000,0000,0000,0000,0000,0000,0000,0000,0000,0000,0000,0000,0000,0000,0000,0000,0000,0000,0000,0000,0000,0000,0000,0000,0000,0000,0000,0000,0000,0000,0000,0000,0000,0000,0000,0000,0000,0000,0000,0000,0000,0000,0000,0000,0000,0000,0000,0000,0000,0000,0000,0000,0000,0000,0000,0000,0000,0000,0000,0000,0000,0000,0000,0000,0000,0000,0000,0000,0000,0000,0000,0000,0000,0000,0000,0000,0000,0000,0000,0000,0000,0000,0000,0000,0000,0000,0000,0000,0000,0000,0000,0000,0000,0000,0000,0000,0000,0000,0000,0000,0000,0000,0000,0000,0000,0000,0000,fe00,0204,fcfe,fefc,fefc,fefc,0000,fafe,04fc,fafe,02fc,fcfa,0000,fe00,fe00,fefe,fe00,0404,fcfe,fcfc,fefe,fcfc,00fe,fefe,fefe,fe00,04fc,fe00,00fe,00fe,fe00,fe00,fefe,fefe,00fe,fc00,fefe,fcfe,fe00,fe00,0000,fefe,fefe,0000,fcfe,fcfe,fefe,00fe,0000,fefe,fefe,fefe,fefe,fe00,fefe,00fe,fefe,00fe,fefe,fefe,0000,fefe,fefe,0000,fefe,fefe,fefe,fcfc,fefe,fe00,fefe,fefe,fe00,fefe,0000,fefe,fefc,fe00,0000,fefe,00fe,fefe,fe00,00fe,fcfc,fe02,0200,0000,fe00,00fe,fefe,fefe,fefe,fefe,fe00,0200,00fe,fe00,fefe,fefe,fefe,fefe,0000,00fe,02fe,00fe,00fe,fefe,fefe,fefe,fcfc,0002,00fe,fefe,00fe,fefe,fefe,00fe,00fe,0000,00fe,fe00,fe00,fefe,fefe,fefe,fefe,0000,fe00,0000,0000,00fe,00fe,fefe,fefe,fefe,fa00,0000,0000,0000,fefe,fefe,fefe,00fe,fefe,00fa,0000,fe00,fefe,fe00,00fe,fefe,fefe,fe00,0200,00fe,fefe,fefe,fefe,fefe,fefe,fefe,00fc,fefe,fefe,fe00,fefe,fefe,fe00,fefe,0000,fcfc,fcfe,fefe,fefe,fefe,fefe,fe00,fe00,00fe,fefe,fefe,fe00,fefe,fefe,fefe,fefe,0000,fe00,00fe,fefe,fefe,fefe,fefe,fe00,fefe,fe00,0002,00fe,fefe,fefe,fefe,fe00,fefe,00fe,0002,0000,fefe,fefe,fefe,0000,fefe,00fe,fefe,0000,fefe,fcfe,fefe,fefe,fe00,fefe,0000,fefe,fe00,fefe,fefe,fefe,0000,fefe,fe00,0000,fefc,fefe,fefe,fefe,00fe,fefe,fefe,fefe,fefe,fe00,fe00,fefe,fefe,fefe,fefe,00fe,fcfe,fefe,fefe,fefe,fefe,fefe,fe00,fe00,00fe,fefe,fefe,fefe,fefe,fefe,fefe,fefe,00fe,fefe,0000,fefe,fcfe,fefe,fafc,0000,0000,00fe,00fe,fefe,fefe,fefe,00fe,fefe,0000,0000,fe00,fe00,0000,fe02,0002,0000,0000,fe02,fa00,02fe,00fa,fefe,fefa,fefe,00fe,fcfe,fefc,0002,faf6,fafe,fafc,fcfe,fefc,fc00,0002,0202,fafe,fcfe,fafc,fafa,00fc,fefc,fcfe,0002,fefa,fafe,fafa,fefe,fcfe,fc00,fcfa,00fc,fc00,fafc,fcfe,fefc,fcfc,0000,fcfc,fe02,00fa,fefe,fefe,fc00,fefc,00fe,00fc,fcfc,fefc,fcfc,fefe,fefc,fe00,fefe,0000,fcfc,f8fc,fe02,fefc,fcfc,fefe,fcfc,fefe,fe00,00fe,fcfe,fefe,fefe,fefe,fefe,fefe,0000,fcfc,fcfc,fe02,00fe,fefe,fe00,fefe,fefe,fefe,fcfc,f6fe,fefc,fefc,fefe,fefe,fefe,fefe,00fc,fe00,fc04,fe00,fcfc,fefe,fefe,fefe,fe00,fefe,fafe,fefe,fcfe,fefe,fefe,fe00,fe00,00fe,fafe,fcfa,fe00,fefe,fefe,fefe,00fe,fe00,fcfe,fc00,fcfc,fefc,fefe,fefe,fefe,00fe,00fe,00fc,fefe,fefe,fefe,fcfe,fefe,fefe,00fe,fefc,f8fe,fcfe,fefe,fcfc,fefe,fefe,fefe,fefe,fcfc,0002,00fe,fefc,fcfc,fefe,fefe,fefe,fcfa,0000,fe02,fefe,fefc,fefe,fefe,fefe,fefe,fcfc,0200,fefe,fefe,fefc,fefe,fefe,fe00,fefe,fcfc,00fe,fefe,fefc,fefe,fefe,fefe,00fe,00fc,fcfe,fe00,fefe,fefe,fefe,fefe,fefe,fefe,fefc,fa00,fefe,fefe,fefe,fefe,00fe,fefe,fc00,02fe,fefc,fefe,fcfe,fefe,fefe,fe00,fe00,fe04,fafa,fefe,fefe,fefe,fefe,fe00,fefc,fe00,fafe,00fe,fefe,fefe,fefe,fefe,fefe,fe02,fe00,fafe,fefe,fefe,fefe,fefe,fefe,fefc,0200,0000,fcfe,00fe,fefc,fefe,00fe,0000,fefe,0202,fcfe,fc00,fefe,fefe,fefc,fefc,fcfe,0002,0608,fefe,fefe,fefe,fefe,fefe,00fc,fcfe,fe02,02f8,fefc,fefc,fefe,fefe,0002,00fe,fe00,fe02,f8fc,fcfe,fefe,fefe,fefe,fefe,00fe,fafc,fe02,faf8,fcfc,fefe,0000,fefe,fe02,fe02,0200,02fc,fc00,fcfe,0000,0202,fe00,02fe,00fe,0000,0000,0000,0000,0000,0000,0000,0000,0000,0000,0000,0000,0000,0000,0000,0000,0000,0000,0000,0000,0000,0000,0000,0000,0000,0000,0000,0000,0000,0000,0000,0000,0000,0000,0000,0000,0000,0000,0000,0000,0000,0000,0000,0000,0000,0000,0000,0000,0000,0000,0000,0000,0000,0000,0000,0000,0000,0000,0000,0000,0000,0000,0000,0000,0000,0000,0000,0000,0000,0000,0000,0000,0000,0000,0000,0000,0000,0000,0000,0000,0000,0000,0000,0000,0000,0000,0000,0000,0000,0000,0000,0000,0000,0000,0000,0000,0000,0000,0000,0000,0000,0000,0000,0000,0000,0000,0000,0000,0000,0000,0000,0000,0000,0000,0000,0000,0000,0000,0000,0000,0000,0000,0000,0000,0000,0000,0000,0000,0000,0000,0000,0000,0000,0000,0000,0000,0000,0000,0000,0000,0000,0000,0000,0000,0000,0000,0000,0000,0000,0000,0000,0000,0000,0000,0000,0000,0000,0000,0000,0000,0000,0000,0000,0000,0000,0000,0000,0000,0000,0000,0000,0000,0000,0000,0000,0000,0000,0000,0000,0000,0000,0000,0000,0000,0000,0000,0000,0000,0000,0000,0000,0000,0000,0000,0000,0000,0000,0000,0000,0000,0000,0000,0000,0000,0000,0000,0000,0000,0000,0000,0000,0000,0000,0000,0000,0000,0000,0000,0000,0000,0000,0000,0000,0000,0000,0000,0000,0000,0000,0000,0000,0000,0000,0000,0000,0000,0000,0000,0000,0000,0000,0000,0000,0000,0000,0000,0000,0000,0000,0000,0000,0000,0000,0000,0000,0000,0000,0000,0000,0000,0000,0000,0000,0000,0000,0000,0000,0000,0000,0000,0000,0000,0000,0000,0000,0000,0000,0000,0000,0000,0000,0000,0000,0000,0000,0000,0000,0000,0000,0000,0000,0000,0000,0000,0000,0000,0000,0000,0000,0000,0000,0000,0000,0000,0000,0000,0000,0000,0000,0000,0000,0000,0000,0000,0000,0000,0000,0000,0000,0000,0000,0000,0000,0000,0000,0000,0000,0000,0000,0000,0000,0000,0000,0000,0000,0000,0000,0000,0000,0000,0000,0000,0000,0000,0000,0000,0000,0000,0000,0000,0000,0000,0000,0000,0000,0000,0000,0000,0000,0000,0000,0000,0000,0000,0000,0000,0000,0000,0000,0000,0000,0000,0000,0000,0000,0000,0000,0000,0000,0000,0000,0000,0000,0000,0000,0000,0000,0000,0000,0000,0000,0000,0000,0000,0000,0000,0000,0000,0000,0000,0000,0000,0000,0000,0000,0000,0000,0000,0000,0000,0000,0000,0000,0000,0000,0000,0000,0000,0000,0000,0000,0000,0000,0000,0000,0000,0000,0000,0000,0000,0000,0000,0000,0000,0000,0000,0000,0000,0000,0000,0000,0000,0000,0000,0000,0000,fe00,0402,fcfc,04fe,00fe,fefa,fe04,0004,06fe,fafe,00fe,fefc,0002,0204,0002,00fc,0002,0202,fcfe,fcf8,fefe,0400,fefe,fe00,00fc,fc00,04fe,fefc,0402,fe00,fe00,fe00,fefc,fefe,0200,fafe,fe00,fc00,fe00,fafe,fe00,fefc,fcfe,02fe,fcf8,fc00,fe00,fcfc,fefe,fc00,fcfc,00fe,fefe,00fc,fe02,fcfa,fcfe,fe00,fefc,fefe,0200,0200,0002,0202,fcfe,0000,fefe,fcfc,00fe,0200,02fe,0404,0000,fefe,00fe,fefe,fcfa,fcfe,0202,0002,0402,0000,0000,fcfe,fefe,fcfc,06fe,0402,0402,0002,00fe,00fe,fcfe,00fe,faf8,fafe,0000,fe00,fefe,fefe,fcfc,0000,00fe,fc00,fcfe,fefe,fcfc,fefc,fefc,fcfe,0400,02fe,0000,fefa,fcfc,fcfe,fcfe,fc00,0002,00fe,0000,fe00,fefe,fefe,fefe,fefe,0000,0202,0002,0602,0004,00fe,0000,fe00,0000,0000,fafa,00fc,0402,fefe,0000,0000,fefe,0000,00fe,fefc,fcfe,0000,00fe,fefe,fefc,0000,00fe,00fe,fcfc,0000,fefe,00fe,fcfe,fe00,fefe,0000,fefe,fe02,00fc,00fe,fefc,fefe,fefc,fefe,0204,00fe,0204,0202,fefc,fcfe,fefc,fe00,fefe,fefc,0206,0404,0000,fcfe,00fe,fe00,fefe,00fe,fc00,0002,0200,fefc,fefe,fefc,00fe,fefe,00fc,fefe,fe00,fefe,fcfc,fe00,fe00,fcfe,f6f8,0002,fefe,fcfc,fefc,fefe,0002,fefc,0000,fe00,0202,fcfe,fcfe,fefc,0000,0000,00fe,fa00,0202,0400,fcfc,fcfc,fefe,0002,00fe,fe00,0202,0002,fefe,fefc,fcfc,fe00,0204,fe00,fafa,0002,fe00,fefc,fefe,fcfe,0002,0000,02fc,fefe,fefe,fcfe,fcfe,fefe,00fe,0002,fc00,fefc,fefe,fe00,fe00,fcfe,fe00,0200,fefc,fefe,fcfc,00fe,0200,fefe,fefe,fcfe,0000,fe00,fcfc,fefc,fe00,00fe,0000,fcfc,0000,fe02,0000,fefe,fe00,0002,0006,fe02,fe04,02fe,fc02,fc04,0400,04fe,00fe,04fc,fefa,fa04,f804,0400,0806,06fe,00f6,0200,fcfc,fafa,fa04,0200,0efa,fafc,fcfa,f4fa,faf8,fcfc,fcfe,f6fe,0204,04fe,fafe,faf8,fcfa,fafa,00fc,fcfc,fefe,0002,fafa,f8fa,fcfc,f8fa,fefe,00fe,0006,fefe,fcfe,04fe,fcfe,fafc,fafe,02fe,f8fe,0204,fe02,fe00,fcfc,0000,fcfe,fc00,02fc,fc02,0200,fefc,fe04,0202,00fe,fc00,fe00,fafc,0200,fef8,fc02,0000,0402,0000,02fe,fefc,fafe,fe06,fc00,00fe,0002,02fe,00fe,fefe,fefc,fc04,fcfa,fa00,0202,0000,0000,0000,00fe,fefa,00fe,fcfc,00fc,0000,0000,fefe,fefe,00fc,0a08,04fe,fc00,0200,0002,00fe,00fe,00fe,f800,04fe,00fe,fc02,0002,0202,0202,0204,0002,fe02,02fc,fafe,0402,0202,0404,0200,fefe,fcfe,fefc,0200,fefe,00fe,0000,0200,00fc,fe00,0604,fafe,fefc,0000,fefe,02fe,fefe,fefe,0000,fe08,04fe,fcfc,fefe,fefe,fefc,fc00,fcf8,0002,02fc,fe00,0000,0000,fefe,fefc,fefe,fe00,0204,fafa,0002,0200,0000,fefe,00fc,02fe,00fe,fefe,0200,0000,fefe,fefe,00fe,fe00,fefe,fe04,fe00,fe02,fefe,fefe,fefe,0202,0200,00fe,fa00,00fe,fefe,fefc,fefe,fe00,0200,fe00,06fa,0000,fe02,fefe,fcfe,00fe,0002,0206,04fe,fc02,fcfc,00fe,fcfe,fefe,0200,02fe,0002,fefe,0200,fe00,fcfc,fefe,fefe,0204,fe02,f806,fe00,0400,00fe,fefe,fe00,fc00,fe04,00fe,0400,00fc,fefe,fefe,00fe,fefc,0400,00fe,0402,fefa,fe00,00fe,fefe,fefe,00fe,0000,0006,0202,fefe,00fe,fefe,fe00,0000,00fc,0200,fa00,0602,fe00,0000,0002,00fe,0000,0204,0400,0202,0202,0006,0000,fefe,0002,0200,00fa,04fe,0408,00fc,00fc,fcfe,0200,fe02,0404,fc06,0200,0402,02fa,0402,0400,0202,0206,08fe,02fe,0000,0000,0000,0000,0000,0000,0000,0000,0000,0000,0000,0000,0000,0000,0000,0000,0000,0000,0000,0000,0000,0000,0000,0000,0000,0000,0000,0000,0000,0000,0000,0000,0000,0000,0000,0000,0000,0000,0000,0000,0000,0000,0000,0000,0000,0000,0000,0000,0000,0000,0000,0000,0000,0000,0000,0000,0000,0000,0000,0000,0000,0000,0000,0000,0000,0000,0000,0000,0000,0000,0000,0000,0000,0000,0000,0000,0000,0000,0000,0000,0000,0000,0000,0000,0000,0000,0000,0000,0000,0000,0000,0000,0000,0000,0000,0000,0000,0000,0000,0000,0000,0000,0000,0000,0000,0000,0000,0000,0000,0000,0000,0000,0000,0000,0000,0000,0000,0000,0000,0000,0000,0000,0000,0000,0000,0000,0000,0000,0000,0000,0000,0000,0000,0000,0000,0000,0000,0000,0000,0000,0000,0000,0000,0000,0000,0000,0000,0000,0000,0000,0000,0000,0000,0000,0000,0000,0000,0000,0000,0000,0000,0000,0000,0000,0000,0000,0000,0000,0000,0000,0000,0000,0000,0000,0000,0000,0000,0000,0000,0000,0000,0000,0000,0000,0000,0000,0000,0000,0000,0000,0000,0000,0000,0000,0000,0000,0000,0000,0000,0000,0000,0000,0000,0000,0000,0000,0000,0000,0000,0000,0000,0000,0000,0000,0000,0000,0000,0000,0000,0000,0000,0000,0000,0000,0000,0000,0000,0000,0000,0000,0000,0000,0000,0000,0000,0000,0000,0000,0000,0000,0000,0000,0000,0000,0000,0000,0000,0000,0000,0000,0000,0000,0000,0000,0000,0000,0000,0000,0000,0000,0000,0000,0000,0000,0000,0000,0000,0000,0000,0000,0000,0000,0000,0000,0000,0000,0000,0000,0000,0000,0000,0000,0000,0000,0000,0000,0000,0000,0000,0000,0000,0000,0000,0000,0000,0000,0000,0000,0000,0000,0000,0000,0000,0000,0000,0000,0000,0000,0000,0000,0000,0000,0000,0000,0000,0000,0000,0000,0000,0000,0000,0000,0000,0000,0000,0000,0000,0000,0000,0000,0000,0000,0000,0000,0000,0000,0000,0000,0000,0000,0000,0000,0000,0000,0000,0000,0000,0000,0000,0000,0000,0000,0000,0000,0000,0000,0000,0000,0000,0000,0000,0000,0000,0000,0000,0000,0000,0000,0000,0000,0000,0000,0000,0000,0000,0000,0000,0000,0000,0000,0000,0000,0000,0000,0000,0000,0000,0000,0000,0000,0000,0000,0000,0000,0000,0000,0000,0000,0000,0000,0000,0000,0000,0000,0000,0000,0000,0000,0000,0000,0000,0000,0000,0000,0000,0000,0000,0000,0000,0000,0000,0000,0000,0000,0000,0000,0000,0000,0000,0000,0000,0000,0000,0000,0000,0000,0000,0000,0000,0000,0000,0000,0000,0000,0000,0000,fc00,0800,04fc,0006,0002,06fe,0806,fa04,08f0,f8fc,0600,0206,0604,02fe,fefe,fc00,fefa,fef8,f4fc,0806,00fc,faf6,f6f4,f0f8,0002,00fe,f8f4,fc04,fefc,fef8,f6fa,f6f4,eef6,04fc,fcfa,fafe,fe02,faf8,f6f4,f0f2,ecf0,fcfe,02f8,f4f8,fc00,fafe,fcfc,f4f4,eeee,eef0,f8f6,faf4,fcfa,fefc,fe00,f8f4,f0ee,eaec,f4fa,fafe,faf8,faf8,00fe,02fc,f0f0,f2ee,eeec,faf8,00fa,faf8,fefe,0406,f2f2,f2f6,eef2,f2f0,f8f6,f6f6,0402,0202,f8f2,f4f2,f4f2,f2f4,f4f6,fafa,fc00,0202,02fc,f8f8,f8f8,f4f4,f2ee,f4f6,f6fa,00fe,0002,f6f8,faf6,fafa,f8f6,f0f4,fcfc,f8fa,fcfe,fcfa,0000,fafc,0402,f8ee,eaf4,faf6,fcfa,fe00,fafe,fcf8,0202,0608,eeec,fafa,f8fc,fefe,fefa,0402,fe04,0402,fef4,f2fc,f4f4,fefc,0202,fe00,fcfc,0808,0a0a,e8ea,fcfc,fcfc,0406,fefe,0000,020a,0808,04f8,fafa,fcfa,0002,0602,0002,fe00,0808,080a,fafc,00fe,0202,0806,00fe,0602,0408,0a08,0802,00fe,0204,0402,0400,0408,0000,080a,0a0a,02fe,0200,0200,0808,0406,0802,0a0a,0a0c,0806,fcfa,0200,0606,0604,080a,0202,0608,0c0c,0e0c,0402,0002,0a0a,080a,0604,0806,0e0c,0808,00fe,0200,0408,0808,0808,0204,0408,0604,0400,0400,0200,0202,0808,0202,0000,0604,0000,fcfa,fefe,0002,fe02,0400,fe00,fefe,fafa,f2f4,0400,fcfe,fcfa,fefe,fcfa,fcf8,fcfa,f4f0,fefe,fcfa,fcfa,fafc,fafa,fafa,fcfc,f8f8,f2f6,00fa,f8f8,fafa,fcfa,f8fa,fefc,fefe,f8f8,fcfa,f8f4,f6f8,fcfe,f8f8,fcfc,fafe,fe02,0202,f6f8,fafe,fcfc,fcfc,f8fc,fcfa,fc02,0602,0404,fafa,00fe,fafa,fcfc,fafc,fc00,080a,f8fc,f8f8,fefc,fafc,f8f8,fafa,fcf8,0000,0a08,0002,00fe,fefc,f8f4,fcfa,f8fa,fcfc,0608,0000,02f8,fe04,0c06,fe04,0006,0a06,00fc,0604,1008,02fe,08fc,fef8,0202,0606,060a,0602,0004,04fe,fcfa,faf6,fc00,0806,0c0c,0600,0404,0810,0cfe,f8f2,f6f8,0406,0c0e,0c0a,fc00,0008,0002,faf4,ecf0,fe02,0608,0c0e,1004,fc04,120c,f6f8,ecec,f6fa,0408,0a0c,0808,0004,0602,0400,f6f0,f2f6,0002,0204,0606,060c,0408,0016,f8f4,f8f4,0002,0006,0204,fc00,0606,0806,faf8,f4fa,fafe,fe00,0602,00fe,fa04,0604,1012,faf6,00fc,0200,0204,fefe,fefe,0200,0c08,f400,fefe,0000,fe00,04fc,fc00,fa00,0202,060a,0004,0002,0404,0608,fcfc,fafc,02fe,0608,0202,0604,0606,0406,00fc,fcfc,fafa,fe02,060c,060a,0606,0604,0602,fafc,faf4,fa00,0004,0006,0a08,0806,0004,fefe,0000,fefe,0802,100a,0a0a,0604,fefe,0402,0200,fefe,f6f8,fe04,080a,0a06,fefe,fe02,0000,02fc,fef8,fefe,0a0c,0808,fefc,fcfe,0604,fe00,fe02,fcfc,0000,0802,00fe,fafa,0004,00fe,00fe,04fc,fefe,0804,0600,f8f8,f8fc,02fe,0000,0004,f8fe,000a,08fe,fef8,fcfa,0200,fcfc,0000,fefe,0006,0a04,fefe,fafc,00fe,0000,0000,0202,0208,fc02,fef6,fafe,fe00,0202,0202,0200,fcfe,0c0a,0604,f8fa,0000,0204,0202,0200,fef8,0604,060a,06f6,fcfe,0404,0602,0204,fcfc,f6fe,0000,000e,f6fa,fc04,0406,0202,0000,f4f6,02fc,0608,00fc,f8fc,0202,02fe,fefe,fcfc,f8f8,fc00,0608,fcf6,f8fc,fefa,fcfc,fefc,f8f6,fef8,fe00,00fa,f8f8,faf8,f4f6,fcfe,fafa,f4fa,0800,0212,fcf8,faf8,f4f4,fafc,fefc,fcfa,f8fe,0610,06fe,00fa,fcfa,f8fc,fcfe,fafa,f2fa,f806,040a,0afe,00fe,f8fa,0200,fe00,040c,f800,0a0c,0a08,040a,fcfe,0606,fc02,0606,0004,06fe,0e14,1008,0c04,0808,040a,0a06,100a,040a,060a,0000,0000,0000,0000,0000,0000,0000,0000,0000,0000,0000,0000,0000,0000,0000,0000,0000,0000,0000,0000,0000,0000,0000,0000,0000,0000,0000,0000,0000,0000,0000,0000,0000,0000,0000,0000,0000,0000,0000,0000,0000,0000,0000,0000,0000,0000,0000,0000,0000,0000,0000,0000,0000,0000,0000,0000,0000,0000,0000,0000,0000,0000,0000,0000,0000,0000,0000,0000,0000,0000,0000,0000,0000,0000,0000,0000,0000,0000,0000,0000,0000,0000,0000,0000,0000,0000,0000,0000,0000,0000,0000,0000,0000,0000,0000,0000,0000,0000,0000,0000,0000,0000,0000,0000,0000,0000,0000,0000,0000,0000,0000,0000,0000,0000,0000,0000,0000,0000,0000,0000,0000,0000,0000,0000,0000,0000,0000,0000,0000,0000,0000,0000,0000,0000,0000,0000,0000,0000,0000,0000,0000,0000,0000,0000,0000,0000,0000,0000,0000,0000,0000,0000,0000,0000,0000,0000,0000,0000,0000,0000,0000,0000,0000,0000,0000,0000,0000,0000,0000,0000,0000,0000,0000,0000,0000,0000,0000,0000,0000,0000,0000,0000,0000,0000,0000,0000,0000,0000,0000,0000,0000,0000,0000,0000,0000,0000,0000,0000,0000,0000,0000,0000,0000,0000,0000,0000,0000,0000,0000,0000,0000,0000,0000,0000,0000,0000,0000,0000,0000,0000,0000,0000,0000,0000,0000,0000,0000,0000,0000,0000,0000,0000,0000,0000,0000,0000,0000,0000,0000,0000,0000,0000,0000,0000,0000,0000,0000,0000,0000,0000,0000,0000,0000,0000,0000,0000,0000,0000,0000,0000,0000,0000,0000,0000,0000,0000,0000,0000,0000,0000,0000,0000,0000,0000,0000,0000,0000,0000,0000,0000,0000,0000,0000,0000,0000,0000,0000,0000,0000,0000,0000,0000,0000,0000,0000,0000,0000,0000,0000,0000,0000,0000,0000,0000,0000,0000,0000,0000,0000,0000,0000,0000,0000,0000,0000,0000,0000,0000,0000,0000,0000,0000,0000,0000,0000,0000,0000,0000,0000,0000,0000,0000,0000,0000,0000,0000,0000,0000,0000,0000,0000,0000,0000,0000,0000,0000,0000,0000,0000,0000,0000,0000,0000,0000,0000,0000,0000,0000,0000,0000,0000,0000,0000,0000,0000,0000,0000,0000,0000,0000,0000,0000,0000,0000,0000,0000,0000,0000,0000,0000,0000,0000,0000,0000,0000,0000,0000,0000,0000,0000,0000,0000,0000,0000,0000,0000,0000,0000,0000,0000,0000,0000,0000,0000,0000,0000,0000,0000,0000,0000,0000,0000,0000,0000,0000,0000,0000,0000,0000,0000,0000,0000,0000,0000,0000,0000,0000,0000,0000,0000,0000,0000,0000,0000,0000,0000,0000,0000,0000,0000,0000,0000,0000,0000,0000,0000,fc02,0604,fafe,fef8,fefe,fefc,0004,fa00,00fc,f8fe,fcfe,fafa,fefa,fc00,0000,fcfe,0002,0002,fcfe,fefa,fc00,fefc,fefe,fefc,fcfe,0000,00fa,fcfc,0000,fcfe,fcfc,fe00,fefe,fcfe,04fc,fafe,f8fc,fafe,fcfe,fcfe,fe00,fefe,fefe,00fa,fcfa,fcfc,00fe,fefe,0000,fefe,fefe,fcfe,f8fc,fcfc,fefe,fe00,fefe,0000,fefc,fefe,00fe,fafa,0202,0002,0000,fe00,0000,fcfc,fefe,fafc,fafe,0000,0000,fefe,0000,fefc,fcfc,fefc,fefe,fe00,fefe,fefc,fcfe,00fe,fcfc,0002,0200,fcfe,0000,fefe,fcfe,fefe,fcfe,fcfe,fe00,00fe,00fe,00fe,fefe,00fe,fefe,fcfe,fcfe,fe00,0202,0202,fe00,00fe,fefe,fefc,fafe,fefe,0402,0204,0200,fe00,fefe,fefe,fefe,00fe,fefe,0404,fe00,fe00,fe00,fe00,fefe,fefe,0004,0006,0000,fefe,00fe,fefe,fefe,fe00,fafc,fe00,00fe,0000,fefe,fe00,00fe,00fe,0000,fefc,00fc,00fe,00fe,fe00,00fe,00fe,fefe,02fe,fefc,00fa,fcfe,00fe,fefe,fefe,fefe,fefe,faf6,fafc,fefe,fe00,fefe,fefe,fefe,fe00,fe00,f8f8,fcfc,fefe,fefe,fefe,fefe,fefe,fe00,fcfe,fafc,fefe,0000,00fe,0000,fefe,fefe,fefe,fe00,0200,0002,0200,fefe,fefe,fefe,fefe,fefe,0202,0000,0000,fefe,0000,fe00,fefe,fefc,0204,0000,0000,0000,0000,fefe,fefe,fefe,fcfe,0002,00fe,00fe,0200,0000,fefe,fefe,0004,0002,0002,fefe,0002,fe00,fefe,fefe,fefe,0202,0000,fcfe,fefe,0200,0200,fefe,fefe,00fe,0002,0000,fefe,0202,00fe,fefe,fefe,00f8,fe00,0200,fefe,0000,0000,00fc,fefe,fe00,fcfe,00fe,fefc,00fe,0000,fefe,fefe,fefe,0000,fe00,fefe,fefe,fe02,0002,fafa,fe00,0000,fe00,00fe,fefe,fe00,0200,fefc,fefe,fe00,0000,0000,0000,fefe,00fc,0202,00fe,fe00,fc02,fc04,02fe,fcfe,0000,00f8,fcfe,fc00,fcfc,0000,0004,fcfc,fe00,0000,fefe,fefe,0002,0400,0002,fe00,fc04,fefe,fcfe,02fe,fafc,0202,0404,02fa,0200,0202,fe00,fafe,0000,04fa,00fe,fafe,fcfe,fe02,0200,fcfc,0002,0002,0206,0602,04fe,00fe,0002,0000,fefe,0200,0200,0400,fe04,fefe,fefa,fefe,00fe,0200,0202,fe04,fe02,fefe,fefe,fe00,fefc,fe00,fe02,02fc,fc02,04fc,fcfc,fe00,0000,0000,0000,00fc,fefc,fe08,fcfc,fefc,0200,00fe,0000,0000,fefe,0002,00fe,fefa,0200,0000,0002,00fe,0000,0000,0208,00fe,fefe,0402,00fe,0200,00fe,00fe,fefc,0000,fcfe,0002,0200,0002,fe00,00fe,0202,02fe,0200,fefe,0200,fe00,fefe,00fe,fe00,0206,fefe,fcfe,fcfe,fefe,fefe,fefe,fcfe,00fe,0004,fefe,fefe,fefe,fe00,fefe,0000,fe00,f8fc,0604,fefe,fcfe,fcfe,fefe,00fe,00fe,0202,0206,00fe,fcfc,fcfe,fefe,00fe,fe00,fefa,0002,0000,fefe,00fc,fcfe,fefe,00fe,fe02,0000,0004,fefc,fefe,fcfe,0000,0000,0000,0200,02fe,00fa,0000,00fe,0000,0000,0000,fefc,fe00,fcfc,0000,0000,00fe,fe00,fe00,00fe,fe00,fc00,fc02,00fe,0000,00fe,0000,0000,00fe,fe00,04fc,fefe,00fe,fefe,fefe,0002,00fe,0002,fe0a,fcf8,fefe,fefe,fefe,fefe,0000,00fe,0000,f6fe,fefe,fefe,fefe,fefe,fefe,00fe,0204,fe00,02fc,fe00,fefc,fefe,fefe,fefe,00fc,0004,0404,fc00,00fe,fefc,fefe,fefc,02fe,00fe,0402,fa04,02fe,fefe,fcfe,fcfe,fefe,fcfc,fefe,0204,fc00,0000,fefc,fe00,fcfe,00fa,0000,0402,00fa,0402,0000,fefe,fefe,00fe,fefc,02fc,0008,f802,fc02,00fe,0000,fe00,fefc,00fe,00fe,06fe,02fe,fe00,0000,0200,fefc,fe02,fe02,0200,00fe,fe02,fe02,fe00,04fc,0204,02fa,fe00,0000,0000,0000,0000,0000,0000,0000,0000,0000,0000,0000,0000,0000,0000,0000,0000,0000,0000,0000,0000,0000,0000,0000,0000,0000,0000,0000,0000,0000,0000,0000,0000,0000,0000,0000,0000,0000,0000,0000,0000,0000,0000,0000,0000,0000,0000,0000,0000,0000,0000,0000,0000,0000,0000,0000,0000,0000,0000,0000,0000,0000,0000,0000,0000,0000,0000,0000,0000,0000,0000,0000,0000,0000,0000,0000,0000,0000,0000,0000,0000,0000,0000,0000,0000,0000,0000,0000,0000,0000,0000,0000,0000,0000,0000,0000,0000,0000,0000,0000,0000,0000,0000,0000,0000,0000,0000,0000,0000,0000,0000,0000,0000,0000,0000,0000,0000,0000,0000,0000,0000,0000,0000,0000,0000,0000,0000,0000,0000,0000,0000,0000,0000,0000,0000,0000,0000,0000,0000,0000,0000,0000,0000,0000,0000,0000,0000,0000,0000,0000,0000,0000,0000,0000,0000,0000,0000,0000,0000,0000,0000,0000,0000,0000,0000,0000,0000,0000,0000,0000,0000,0000,0000,0000,0000,0000,0000,0000,0000,0000,0000,0000,0000,0000,0000,0000,0000,0000,0000,0000,0000,0000,0000,0000,0000,0000,0000,0000,0000,0000,0000,0000,0000,0000,0000,0000,0000,0000,0000,0000,0000,0000,0000,0000,0000,0000,0000,0000,0000,0000,0000,0000,0000,0000,0000,0000,0000,0000,0000,0000,0000,0000,0000,0000,0000,0000,0000,0000,0000,0000,0000,0000,0000,0000,0000,0000,0000,0000,0000,0000,0000,0000,0000,0000,0000,0000,0000,0000,0000,0000,0000,0000,0000,0000,0000,0000,0000,0000,0000,0000,0000,0000,0000,0000,0000,0000,0000,0000,0000,0000,0000,0000,0000,0000,0000,0000,0000,0000,0000,0000,0000,0000,0000,0000,0000,0000,0000,0000,0000,0000,0000,0000,0000,0000,0000,0000,0000,0000,0000,0000,0000,0000,0000,0000,0000,0000,0000,0000,0000,0000,0000,0000,0000,0000,0000,0000,0000,0000,0000,0000,0000,0000,0000,0000,0000,0000,0000,0000,0000,0000,0000,0000,0000,0000,0000,0000,0000,0000,0000,0000,0000,0000,0000,0000,0000,0000,0000,0000,0000,0000,0000,0000,0000,0000,0000,0000,0000,0000,0000,0000,0000,0000,0000,0000,0000,0000,0000,0000,0000,0000,0000,0000,0000,0000,0000,0000,0000,0000,0000,0000,0000,0000,0000,0000,0000,0000,0000,0000,0000,0000,0000,0000,0000,0000,0000,0000,0000,0000,0000,0000,0000,0000,0000,0000,0000,0000,0000,0000,0000,0000,0000,0000,0000,0000,0000,0000,0000,0000,0000,0000,0000,0000,0000,0000,0000,0000,0000,0000,0000,0000,0000,0000,0000,0000,0000,0000,0000,fe02,0400,fc00,00fc,00fe,00fe,0202,fe00,fefc,f8fc,0200,faf8,fefe,0000,0002,fefe,fefe,fe02,fcfc,00fe,f8fc,00fc,00fe,fefe,fefe,0200,fcf8,fcfa,fefc,fcfe,0000,fe00,fefe,fefe,fefe,fcfe,fa00,0002,0202,00fe,fe00,fefe,fcfe,02fe,fcf8,0204,0402,00fc,fe00,fefe,fefe,fcfe,fafc,fcfc,0204,0200,fefe,fefe,fefe,fefe,fefe,fafa,0002,0404,0000,fefe,fefe,fcfc,00fe,fafc,fafc,0204,0002,fefe,00fe,fefe,fcfc,fefa,fcfe,fe00,00fe,fe00,0000,fefe,fefc,fafe,02fe,00fe,0000,00fe,0000,fefe,fefc,fefc,fcfc,fe00,00fe,00fe,fe00,fefe,fefe,fefe,fe00,fefe,0000,fefe,00fe,fefe,fefe,fcfe,fefe,0202,0000,0202,0000,0000,00fe,00fe,fefe,02fe,fefe,0202,fe00,fefe,fefe,fefe,fefe,0000,fefc,0000,0202,0000,fefe,fefe,fefe,fe00,fafe,fafe,fe00,0000,fefe,fefe,fefe,00fe,fefe,fcfa,fcfe,fefe,fefe,fefe,fefe,0000,fe00,fefe,fe00,fefa,fe00,fefe,fefe,fefe,fefe,fe00,fefa,fefc,fcfe,fefe,fe00,fefe,fefe,fefe,fe02,fcfc,fcfc,fefe,fefe,fefe,fefe,fefe,fe00,fefe,fe00,fefe,0000,fe00,fefe,fefe,fefe,00fe,0000,0000,00fe,0000,fefe,fefe,00fe,fefe,0002,0000,0000,fe00,fefe,fefe,0000,fefe,fefe,00fe,0000,0000,fefc,00fe,fefe,00fe,fefe,00fe,fe00,00fe,0000,fefe,fefe,fefe,fefe,0004,0000,0000,fefe,00fe,fefe,fefe,fefe,fefe,0402,0000,fefe,fefe,00fe,fefe,fefe,fefe,fefe,0000,0000,fefe,0000,0000,fefe,fefe,00fc,fe00,00fe,00fe,0000,00fe,fefe,fefe,fe00,fefe,0000,fe00,0000,fefe,fefc,fefe,fefe,0004,fefe,00fe,fefe,fefe,fefe,fcfe,00fe,0000,0000,fe00,fefe,fefe,fefe,fefe,fe00,0000,0000,00fe,fefe,fefe,00fe,fefe,0000,0000,0002,fe06,fcfe,0000,fe04,00fc,02fc,0000,fcfe,fe00,0202,00fc,0402,fe00,fcfe,fafc,0602,0002,0800,fcfc,fe00,0202,0200,fefc,fefc,fe02,0002,04fe,fafe,0400,0000,fefe,fcfc,f8fc,00fe,fe02,fafe,fc00,0002,fe00,0000,fcfa,fe04,00fc,fefe,fefe,0200,0200,0004,02fe,fefa,0600,fe00,fefe,00fc,0402,fe00,0204,02fc,0000,0208,fefe,fc00,0202,fefe,0002,0202,00fa,f602,00fc,fcfc,0200,0000,0202,0202,fcfe,fefe,0000,fefe,fefe,0000,fe00,0002,0002,fefe,fe04,00fe,fefc,0000,fe00,0000,0000,00fe,fcfe,0406,fefe,fcfe,0000,fefe,0000,00fe,00fe,0000,fefc,fefe,fefe,0200,00fe,00fe,00fe,f802,0402,fe00,fefe,0002,0000,fefe,0000,fe00,fe02,02fa,fcfe,fe00,0000,fefe,fefe,fefe,fefc,fe02,fefc,fefe,fefe,fefe,fefe,fcfe,fefe,fcfc,0200,fe00,fefe,fcfe,fcfc,fefe,fefe,0000,fe04,fe00,fcfe,fefc,fefc,fefe,fc00,fefc,0202,02fe,fefe,fefe,fefe,fefe,fefc,fc00,fefe,fc02,fcfe,fefe,00fe,fe00,fe00,fefe,fe00,fefc,fefc,00fe,00fe,fefe,fefe,fe00,fefe,fefe,fcfe,fefe,fefe,fefe,fefe,fefe,0000,0000,fefc,fafe,fefc,00fe,fefe,fefe,00fe,0000,0000,04fe,fe00,fefc,fefe,fefe,fefe,fe00,fe02,0006,fefe,fe00,fefe,fefe,fefe,fefe,00fe,fefe,fafc,fcfe,fefe,fefe,fefe,fe00,0000,0000,00fc,00fe,fefe,fefe,fefe,fe00,fe00,0000,fefc,fe00,fcfe,00fe,00fe,fefe,0000,02fc,02fe,0202,fafc,0002,fefe,fefe,fefe,00fe,fefe,00fe,fe02,fefe,fefe,00fe,fefe,fefe,0000,fe00,02fe,04fe,00fe,fe00,0000,fefc,00fe,0000,fe00,fe04,fa02,fe00,fe00,0000,fefe,00fe,00fe,fe00,0402,fcfc,fefe,00fe,fefe,fe00,0002,fe00,02fe,fe00,0000,fe00,fefe,fefc,0000,fefe,fcfc,0000,0000,0000,0000,0000,0000,0000,0000,0000,0000,0000,0000,0000,0000,0000,0000,0000,0000,0000,0000,0000,0000,0000,0000,0000,0000,0000,0000,0000,0000,0000,0000,0000,0000,0000,0000,0000,0000,0000,0000,0000,0000,0000,0000,0000,0000,0000,0000,0000,0000,0000,0000,0000,0000,0000,0000,0000,0000,0000,0000,0000,0000,0000,0000,0000,0000,0000,0000,0000,0000,0000,0000,0000,0000,0000,0000,0000,0000,0000,0000,0000,0000,0000,0000,0000,0000,0000,0000,0000,0000,0000,0000,0000,0000,0000,0000,0000,0000,0000,0000,0000,0000,0000,0000,0000,0000,0000,0000,0000,0000,0000,0000,0000,0000,0000,0000,0000,0000,0000,0000,0000,0000,0000,0000,0000,0000,0000,0000,0000,0000,0000,0000,0000,0000,0000,0000,0000,0000,0000,0000,0000,0000,0000,0000,0000,0000,0000,0000,0000,0000,0000,0000,0000,0000,0000,0000,0000,0000,0000,0000,0000,0000,0000,0000,0000,0000,0000,0000,0000,0000,0000,0000,0000,0000,0000,0000,0000,0000,0000,0000,0000,0000,0000,0000,0000,0000,0000,0000,0000,0000,0000,0000,0000,0000,0000,0000,0000,0000,0000,0000,0000,0000,0000,0000,0000,0000,0000,0000,0000,0000,0000,0000,0000,0000,0000,0000,0000,0000,0000,0000,0000,0000,0000,0000,0000,0000,0000,0000,0000,0000,0000,0000,0000,0000,0000,0000,0000,0000,0000,0000,0000,0000,0000,0000,0000,0000,0000,0000,0000,0000,0000,0000,0000,0000,0000,0000,0000,0000,0000,0000,0000,0000,0000,0000,0000,0000,0000,0000,0000,0000,0000,0000,0000,0000,0000,0000,0000,0000,0000,0000,0000,0000,0000,0000,0000,0000,0000,0000,0000,0000,0000,0000,0000,0000,0000,0000,0000,0000,0000,0000,0000,0000,0000,0000,0000,0000,0000,0000,0000,0000,0000,0000,0000,0000,0000,0000,0000,0000,0000,0000,0000,0000,0000,0000,0000,0000,0000,0000,0000,0000,0000,0000,0000,0000,0000,0000,0000,0000,0000,0000,0000,0000,0000,0000,0000,0000,0000,0000,0000,0000,0000,0000,0000,0000,0000,0000,0000,0000,0000,0000,0000,0000,0000,0000,0000,0000,0000,0000,0000,0000,0000,0000,0000,0000,0000,0000,0000,0000,0000,0000,0000,0000,0000,0000,0000,0000,0000,0000,0000,0000,0000,0000,0000,0000,0000,0000,0000,0000,0000,0000,0000,0000,0000,0000,0000,0000,0000,0000,0000,0000,0000,0000,0000,0000,0000,0000,0000,0000,0000,0000,0000,0000,0000,0000,0000,0000,0000,0000,0000,0000,0000,0000,0000,0000,0000,0000,0000,0000,0000,0000,0000,0000,0000,0000,0000,0000,f602,02fc,0c00,f600,0002,0404,0606,fa00,08ec,f6fc,04f8,fcf6,fafc,02fc,0608,fefc,fafc,00fa,fe00,fe02,fcf8,faf6,fe00,fcf8,f6f6,00f6,fefc,fcfa,fcfa,f6f4,f8f8,00fe,f8fa,f2f2,04fc,fc04,02fe,fefa,f4f6,fc00,fafa,f2f4,f8f6,f8f6,0000,0002,fafa,f4fa,00fe,f4f4,eef2,0200,fafc,fcfe,fefc,f6f8,fcfe,faf6,f0ee,f6f4,00fe,fafc,0000,faf8,fafa,fef8,f2f4,ecf0,fefc,00fa,00fe,fefa,fafc,0000,f6f6,f4e8,f2f8,0004,0200,00fc,f6fa,fefe,fcf6,f8f6,f0f0,0606,02fe,00fe,fafc,fefc,0000,fafa,eee6,f4f2,0606,0400,f8f6,fcfe,f8fa,fcfe,fef6,eaec,0000,0000,00fa,0002,faf6,fefe,0604,e0de,e8ee,0200,fefe,f8fe,04fe,f2f8,0406,00e8,deea,fefe,00fe,faf6,0608,ecec,0004,0806,d6d8,f0f8,f8fa,f8fa,000a,fcee,f4fc,0a0c,f8e6,e4f0,00f2,f8f8,fefe,0a04,eaec,040a,0802,e6e4,f6fa,f8fa,fcfe,0408,f2f0,fe04,0a0a,f8ee,ecf4,00fc,fefe,0402,02fa,fafe,0406,00fa,f2ec,f8f8,fafa,0202,0406,f800,0400,0402,faf8,f4f6,00fc,fe02,0406,02fe,0200,fe02,0000,f8f8,f2f4,fcfc,0204,0404,0000,00fc,0204,00fe,f8f6,0000,0402,0204,0202,fe00,0000,0202,fef8,f6f0,0004,0202,0404,fefe,fefc,0202,02fe,f0f2,0000,0400,0204,0402,fefc,fe00,0204,fcf6,f4fc,0604,0002,0404,0200,fefe,0202,02fe,f4f4,0002,fefc,0006,0400,fefe,fcfe,0002,fcfc,f8fa,00fe,0000,0204,fe00,fefe,0002,fefe,f6f8,fcfe,fafc,0002,0200,0202,fefe,fe00,fefc,faf8,faf6,fc00,0002,0402,02fe,00fe,fcfc,fafc,f6f6,f8fe,00fe,0404,0002,0000,faf8,faf8,fcfe,f6f8,0204,fe02,00fe,0200,fcfe,f8f6,fcfe,f8f6,fcfc,0200,0602,0002,fe00,f8fa,fcfc,0002,f6fa,0000,0204,02fa,fc00,f4f6,f6f8,fc00,0a0a,060a,0c12,1010,0a0a,0a08,0604,0e0c,0e0e,0c0c,120c,0c0a,0a0a,0604,00fc,0c0a,100e,0e0a,0a06,0206,0c08,0a0a,0406,00fe,1a10,0c14,0c08,fefc,0604,0406,0a06,0206,0810,0e08,0804,00fc,0404,0404,0604,0204,0806,0c0c,100e,0200,fe00,0606,0606,0604,0606,1006,1404,0604,fe00,0608,0604,0206,0406,060a,080e,0412,0604,0608,0604,0404,0404,0208,0c10,0e0c,040a,0604,0c06,0202,0402,0002,040c,0c0a,140c,0a0a,0808,0602,0604,00fe,0208,0406,1208,080a,0e06,0608,0204,fefc,0002,0602,0c0c,0e10,0e0e,0606,0806,fcfa,fefe,0006,fc04,180e,0e06,0806,0606,fef4,f6fc,0604,fcf8,0a14,1212,0a0a,0204,0804,eaf0,0406,06fe,f006,1204,0a0c,0202,0608,f0e6,fe04,0604,f8f6,100e,0c0e,0400,0402,02f6,f2fc,0a0a,02fc,fafe,120e,0a06,0004,0402,eaf0,040c,0400,f8fc,100e,0c0e,0202,fefe,fcf6,f600,0a04,fe00,0004,1008,0a04,fe00,fcfc,f4f6,0404,0200,fcfe,0c0e,120c,0200,fefc,faf8,fe00,0804,00fe,fe00,0e0a,04fe,00fe,fcfe,0000,0406,0000,fc00,040c,1010,00fe,fafc,fafe,0002,0808,0200,0800,080e,0202,fcfc,fafc,fe00,0206,0600,0006,060c,0a0c,fe00,fcfc,fafc,0202,0606,0604,0608,0a0e,0800,fafc,fafa,fcfc,0404,0606,0002,0002,140a,0400,fcfe,fafa,0002,0404,0204,0404,080e,0408,fcfe,fef8,fafe,0002,0402,0202,fe06,0c0c,0002,fefe,fcfa,fefe,fe00,0202,0004,080c,0604,0402,fcfc,fcf8,