memory_initialization_radix = 16;
memory_initialization_vector =
04f8,fc00,060a,0a06,0810,0a08,0402,fafa,f804,0600,0800,0a0a,1010,040a,0c0a,0006,faf8,0af6,04f4,1612,0e10,060c,0e0c,1416,fc00,0000,0a0e,0e0c,0c12,1010,080c,100c,0a0e,fc02,fc00,0a0a,160e,1214,080c,0a08,1410,0408,fc02,0400,1a10,1818,1016,080a,0806,0e0e,0000,fe04,0e0c,1a14,181c,0e0e,fe02,0a08,000a,f6fe,00f8,0e10,1a1a,1212,080c,0802,0c0c,0406,fe00,0604,0c06,1214,1010,0808,0a0a,0808,f802,f6fe,f4f2,0606,0e0c,0a0e,0a08,080a,080a,fe06,eaee,f6ea,0604,080a,080c,080a,080c,fc08,f8fe,f0ea,fcfa,0000,0806,0806,0a0a,0e08,fc02,eaf2,fefa,fefa,0200,0604,0e0c,040a,0002,f4f4,f8f6,fcfc,fcfc,0000,0804,0808,0004,fafc,f4f8,f8f6,fcfc,fcfc,fcfe,0808,0806,faf8,eaf0,f6f8,00fe,fafc,fcfa,0200,0806,0008,fc0a,f8f4,fefc,00fe,f8fa,fafa,02fe,0c06,02fe,f4f2,fcfa,fefc,fafe,fafa,fafa,02fc,0406,02fe,fcfe,00fe,fcfc,f8f8,f6f8,f8f8,02fa,0200,fe00,fcfc,00fe,fcfe,f8fc,f8f6,faf8,fefc,fc08,0000,0002,fcfe,fcfa,f6fa,f4f6,fcf6,fafc,faf8,00fe,fcfc,faf8,f8f8,f8f8,f8f6,fefc,fe06,fcfe,fefe,fcfc,fafc,f8f6,f6fa,fefc,00fa,fcfc,0200,fcfc,fefe,f8f4,f8f8,f8f8,f8fc,00fe,00fe,00fe,00fe,fcfc,f8f8,f8f4,f8fa,00fe,fcfe,fcfc,fefe,fcfc,fefc,f4f6,f6f4,f6f6,0204,f6f4,f8f8,fcfc,fefc,f8fc,f6f4,f6f4,fef8,fcfe,fafa,fcfa,fefc,fafc,f8fa,f8fa,f6fa,0808,fafc,f8fa,fcfc,fafc,fefc,fcf8,fcf6,f800,fe02,faf8,f8f8,fefa,fcf8,00fc,fafc,fafa,0404,fc00,fcfc,fafa,faf8,fafa,fefc,f8fc,0000,0200,00fe,fefe,00fe,fc00,08fe,fefe,fefe,0002,0404,0000,0200,0200,fc02,fefc,fe00,0200,0000,0206,fe02,04fe,0404,04fc,00fe,fefc,0c0a,060c,0406,f8fe,00fe,fafa,fcfc,0a0c,0000,060c,0c02,fafc,f4f6,fc04,f6f6,04fc,080a,0c0c,0a06,f6fa,fafa,fe00,fafc,f8f8,0406,0602,000c,fc00,f6f8,00fc,0204,fcfe,f2f4,fc08,0814,fc02,fcf8,f6f6,0400,0204,f6fa,00fa,0006,fe08,f4f6,f6f8,faf6,0804,02fe,f6f2,0806,080e,fcf6,eeee,f4f4,fcf8,0202,f6fc,02f8,06fc,fc02,f2f0,eeee,f4f4,0200,f8fa,f8f2,fe02,020e,f0f8,f2ee,f4f4,fefc,fafe,f4f6,fefc,0804,0202,faf4,fafa,fcfa,0200,f8fa,f4f4,fefa,080c,fefa,fafa,fcfe,0202,0202,f4f6,f4fa,08fa,fe00,fc00,fcfa,0402,0604,fa00,faf4,fcfc,040a,0206,fafa,0402,0806,0606,fcfc,f6fc,0208,0006,fe02,00fc,0204,0a08,0408,fc00,f8f4,0a0e,0408,fcfe,0402,0404,0c0c,0202,f2f2,0a04,0404,02fe,00fe,0000,0a08,0408,f4fa,fef4,0c0a,0002,fe02,0402,0402,0606,0208,f0f4,0608,0200,0606,0404,0406,0804,060a,fe02,fcfe,0408,0806,0404,0404,0602,0606,0806,06fe,040c,0404,0204,0402,0402,0404,080c,0610,0402,06fe,0004,0000,fefe,0402,0806,0c0a,0c0a,0804,0408,0204,fefe,0404,0808,0608,0c0a,040c,04fe,0206,fe02,0002,0808,0608,0606,0406,0c0a,0604,0202,0000,0400,0404,0608,0402,020c,0406,0002,0200,0200,0604,0606,0808,040c,fe08,0200,00fe,0404,0202,0604,0608,0a06,0208,0806,0602,0402,0402,0002,0606,0804,0402,0606,0408,0406,0202,0000,0000,0604,0004,0208,0404,0204,0402,fe02,fe00,0200,00fc,0afe,0c04,0c04,02fc,0000,0000,0000,0402,0000,0604,0404,0000,0000,0000,0000,0000,04fc,0404,f80a,04fa,0208,0000,fe02,0002,00fc,0802,fe00,0204,1006,0600,0200,0600,fe02,0002,0208,0800,040a,020e,0406,0a00,0806,0402,0400,0204,0000,0000,0000,0000,0000,0000,0000,0000,0000,0000,0000,0000,0000,0000,0000,0000,0000,0000,0000,0000,0000,0000,0000,0000,0000,0000,0000,0000,0000,0000,0000,0000,0000,0000,0000,0000,0000,0000,0000,0000,0000,0000,0000,0000,0000,0000,0000,0000,0000,0000,0000,0000,0000,0000,0000,0000,0000,0000,0000,0000,0000,0000,0000,0000,0000,0000,0000,0000,0000,0000,0000,0000,0000,0000,0000,0000,0000,0000,0000,0000,0000,0000,0000,0000,0000,0000,0000,0000,0000,0000,0000,0000,0000,0000,0000,0000,0000,0000,0000,0000,0000,0000,0000,0000,0000,0000,0000,0000,0000,0000,0000,0000,0000,0000,0000,0000,0000,0000,0000,0000,0000,0000,0000,0000,0000,0000,0000,0000,0000,0000,0000,0000,0000,0000,0000,0000,0000,0000,0000,0000,0000,0000,0000,0000,0000,0000,0000,0000,0000,0000,0000,0000,0000,0000,0000,0000,0000,0000,0000,0000,0000,0000,0000,0000,0000,0000,0000,0000,0000,0000,0000,0000,0000,0000,0000,0000,0000,0000,0000,0000,0000,0000,0000,0000,0000,0000,0000,0000,0000,0000,0000,0000,0000,0000,0000,0000,0000,0000,0000,0000,0000,0000,0000,0000,0000,0000,0000,0000,0000,0000,0000,0000,0000,0000,0000,0000,0000,0000,0000,0000,0000,0000,0000,0000,0000,0000,0000,0000,0000,0000,0000,0000,0000,0000,0000,0000,0000,0000,0000,0000,0000,0000,0000,0000,0000,0000,0000,0000,0000,0000,0000,0000,0000,0000,0000,0000,0000,0000,0000,0000,0000,0000,0000,0000,0000,0000,0000,0000,0000,0000,0000,0000,0000,0000,0000,0000,0000,0000,0000,0000,0000,0000,0000,0000,0000,0000,0000,0000,0000,0000,0000,0000,0000,0000,0000,0000,0000,0000,0000,0000,0000,0000,0000,0000,0000,0000,0000,0000,0000,0000,0000,0000,0000,0000,0000,0000,0000,0000,0000,0000,0000,0000,0000,0000,0000,0000,0000,0000,0000,0000,0000,0000,0000,0000,0000,0000,0000,0000,0000,0000,0000,0000,0000,0000,0000,0000,0000,0000,0000,0000,0000,0000,0000,0000,0000,0000,0000,0000,0000,0000,0000,0000,0000,0000,0000,0000,0000,0000,0000,0000,0000,0000,0000,0000,0000,0000,0000,0000,0000,0000,0000,0000,0000,0000,0000,0000,0000,0000,0000,0000,0000,0000,0000,0000,0000,0000,0000,0000,0000,0000,0000,0000,0000,0000,0000,0000,0000,0000,0000,0000,0000,0000,0000,0000,0000,0000,0000,0000,0000,0000,0000,0000,0000,0000,0000,0000,0000,0000,0000,0000,0000,0000,0000,0000,0000,0000,0000,0000,0000,0000,0000,0000,0000,0000,0000,0000,
0008,0400,0408,1010,160e,120e,0e0e,0204,08fa,fc04,0a02,0806,0a0c,0e12,140e,0e10,0604,fe02,feee,0206,0600,0a08,0804,0c10,0a0c,0806,f8fe,0008,0202,0806,0604,0a0a,0608,0804,f2fc,fefa,0600,0608,0404,0a08,0a0c,0200,0806,f8f2,fafc,0404,0404,0606,0a08,0006,02fe,f6f6,00fa,0202,0404,0606,0808,0404,f8f4,0c06,f6f0,fefc,0404,0604,0806,0606,fc02,02f8,f8fc,fcf8,00fe,0604,0606,0608,0002,f4fa,0602,f8f8,fa00,0604,0606,080c,0406,0002,00fc,f606,fcfa,faf8,0000,0404,080a,0004,fafe,06fe,f8fa,f8fc,00fe,fefc,0200,0202,fcfe,f6fc,f8fe,fe00,fafa,fafa,faf8,fafa,f6f8,f4f4,02f6,fefc,fafc,f8fa,f8fa,faf8,f6f6,f0f4,f2f0,0000,fefe,0000,fc00,fafa,f8f8,f2f2,ecee,0404,0804,fcfe,fefe,fcfc,fcfc,f8f8,f0f2,00f2,02fc,0406,0002,fc00,fefc,fc00,fcfc,f0f2,0406,0608,0204,00fe,fefe,0402,fe00,f8fe,04fc,0600,0608,0204,0002,0200,0408,fe02,fcfc,0a06,0406,0808,0200,0000,0604,0404,0204,0602,0806,0408,00fe,00fe,0202,0406,0402,060a,120e,0808,0004,00fe,0002,0400,0404,0202,0808,02fe,0202,fefe,0000,fcfe,00fe,fe02,0602,060a,fe00,0204,0000,fe02,fc00,fefe,fefa,0400,fe02,00fe,0204,0200,fefe,fefe,f6f6,fafe,fe00,faf8,00fe,0202,0002,fcfc,f8f8,faf6,02fc,fe00,fcfe,0200,0000,fcfe,fefe,f4f6,f6f8,f8fa,fcfc,fefe,faf8,fcfe,fefe,fafe,f6f4,fefa,f8fc,fcfe,f8fa,fefc,fe00,0000,eef6,f6f4,f6fc,f6f4,f8fa,faf8,fefe,f8fa,f4f6,eeee,fef6,f0f8,f4f0,f4f4,f6f8,f6f8,f6ee,ecf4,f4f0,fefc,e8ec,eaec,ecee,f0f2,eaea,eef0,eeec,00fe,f2fa,e4e6,e2e4,e0e2,e4e6,eee4,f0ea,f6f4,0200,f0ee,e6e6,d4d6,d6dc,dcdc,e6e6,f8f4,0000,080c,0808,0002,eef0,f4ee,f8f6,0004,040e,02f4,0a10,0002,f4f0,f0f2,f4f0,f4f6,02fa,fe0a,0a0c,02fc,f6fc,f8f8,f4f2,faf8,fcf8,fe06,02fc,0802,0002,fefc,f8f8,fcf8,f8fc,fc02,020c,0602,0400,fe00,fcfc,f8f6,fcfc,fcfa,0206,fcfe,0202,fe02,fcfc,fafa,fcfa,fe00,0408,0002,0608,fe00,fefe,fefe,fcfe,02fe,0402,0806,000a,0202,fe00,fefa,fefc,fcfc,0000,0806,0204,040a,00fe,fefe,fafe,f8fa,fcfc,fe00,080c,02fe,fafc,0000,fafc,fafa,f6f6,f8f6,fefc,0c0a,000c,0002,fcfe,f8f8,f6f6,f4f2,f8f6,1406,fa00,0400,0404,fafc,f6f6,f4f4,f4f4,0200,0c10,00fc,0402,0208,fefe,fafa,faf8,0400,1416,fefc,fe00,0808,0606,0002,0200,0806,120c,0a12,fe04,0a04,0608,0606,0808,0a08,0a0e,0c10,00fa,0202,0a08,0a0a,0c0a,0e0a,0c0c,0e0c,000c,0202,0602,0a08,0c0a,0c0a,0c0e,080c,100e,0002,0002,0002,0a06,0a08,0a0a,0c0c,100e,0204,0202,0200,0404,0808,0c0a,0c08,100c,080c,00fe,fcfe,0200,0602,0808,0608,080c,100c,0c04,0002,fcfe,0000,0604,0606,0608,0a0a,0a0e,0800,fc00,fefc,fefc,0404,0202,0a06,0e06,0600,fe02,fcfc,fefe,0000,0000,0000,0402,0a08,0602,fefe,0000,fefc,fefe,fcfe,0202,0a04,0208,040c,fe00,fc00,fcfc,00fe,0000,0002,0804,fe04,0200,0000,fe00,fcfe,fefe,0004,fefc,0202,0206,0002,0200,fefe,fcfe,fcfe,fe00,0400,fefe,fc06,fefc,0202,0002,fefe,fefe,fefa,020a,0608,f8fc,fcfa,0400,0202,0002,0404,0602,0404,fcfc,f8f4,fefc,0202,0402,0204,0e06,0602,fe02,f2fa,f6f4,fcfe,fefe,0402,0608,0808,0008,f600,f0f0,faf4,fcfe,0200,0604,0400,0c00,0402,fafa,f8f8,f6f8,fafe,fe00,0600,0202,fc06,fefc,f8f6,eef0,eef0,f6f4,fe00,0406,0402,0000,0000,0000,0000,0000,0000,0000,0000,0000,0000,0000,0000,0000,0000,0000,0000,0000,0000,0000,0000,0000,0000,0000,0000,0000,0000,0000,0000,0000,0000,0000,0000,0000,0000,0000,0000,0000,0000,0000,0000,0000,0000,0000,0000,0000,0000,0000,0000,0000,0000,0000,0000,0000,0000,0000,0000,0000,0000,0000,0000,0000,0000,0000,0000,0000,0000,0000,0000,0000,0000,0000,0000,0000,0000,0000,0000,0000,0000,0000,0000,0000,0000,0000,0000,0000,0000,0000,0000,0000,0000,0000,0000,0000,0000,0000,0000,0000,0000,0000,0000,0000,0000,0000,0000,0000,0000,0000,0000,0000,0000,0000,0000,0000,0000,0000,0000,0000,0000,0000,0000,0000,0000,0000,0000,0000,0000,0000,0000,0000,0000,0000,0000,0000,0000,0000,0000,0000,0000,0000,0000,0000,0000,0000,0000,0000,0000,0000,0000,0000,0000,0000,0000,0000,0000,0000,0000,0000,0000,0000,0000,0000,0000,0000,0000,0000,0000,0000,0000,0000,0000,0000,0000,0000,0000,0000,0000,0000,0000,0000,0000,0000,0000,0000,0000,0000,0000,0000,0000,0000,0000,0000,0000,0000,0000,0000,0000,0000,0000,0000,0000,0000,0000,0000,0000,0000,0000,0000,0000,0000,0000,0000,0000,0000,0000,0000,0000,0000,0000,0000,0000,0000,0000,0000,0000,0000,0000,0000,0000,0000,0000,0000,0000,0000,0000,0000,0000,0000,0000,0000,0000,0000,0000,0000,0000,0000,0000,0000,0000,0000,0000,0000,0000,0000,0000,0000,0000,0000,0000,0000,0000,0000,0000,0000,0000,0000,0000,0000,0000,0000,0000,0000,0000,0000,0000,0000,0000,0000,0000,0000,0000,0000,0000,0000,0000,0000,0000,0000,0000,0000,0000,0000,0000,0000,0000,0000,0000,0000,0000,0000,0000,0000,0000,0000,0000,0000,0000,0000,0000,0000,0000,0000,0000,0000,0000,0000,0000,0000,0000,0000,0000,0000,0000,0000,0000,0000,0000,0000,0000,0000,0000,0000,0000,0000,0000,0000,0000,0000,0000,0000,0000,0000,0000,0000,0000,0000,0000,0000,0000,0000,0000,0000,0000,0000,0000,0000,0000,0000,0000,0000,0000,0000,0000,0000,0000,0000,0000,0000,0000,0000,0000,0000,0000,0000,0000,0000,0000,0000,0000,0000,0000,0000,0000,0000,0000,0000,0000,0000,0000,0000,0000,0000,0000,0000,0000,0000,0000,0000,0000,0000,0000,0000,0000,0000,0000,0000,0000,0000,0000,0000,0000,0000,0000,0000,0000,0000,0000,0000,0000,0000,0000,0000,0000,0000,0000,0000,0000,0000,0000,0000,0000,0000,0000,0000,0000,0000,0000,0000,0000,0000,0000,0000,0000,0000,0000,0000,0000,
0200,0402,fefc,fc02,fefe,fcfe,0200,00fa,fc00,00f8,0000,fafa,fefe,0000,0000,fefc,00fc,00fe,fcf8,fefe,fefc,fefe,fe00,fefe,fefc,0000,fa00,fefc,0000,fefc,fefe,00fe,fefe,fefe,fc00,00fc,fefc,00fe,fefe,00fe,fe00,fcfe,fefc,fe02,fafc,00fe,fe00,0000,0000,fefe,fefe,fefe,fefc,fefe,00fe,0000,fefe,fefe,fefe,fefe,0000,fefe,0002,0200,0000,fefe,fefe,fefc,fe00,00fe,fefc,0000,fe00,fefe,fe00,fcfe,fafc,fefe,0000,fe00,fefe,fefe,fefe,fefe,fefe,0000,0004,fefe,0000,0000,00fe,fefe,fcfe,fefe,fefe,fefe,fe00,0000,fe00,fe00,fefe,fefe,00fe,fefe,0000,fefe,0000,fe00,fefe,fefe,fcfc,fefe,fefe,0000,0000,0000,fefe,fefe,fefe,fe00,fefe,0000,00fe,fefe,fefe,fefe,fefe,00fe,0000,00fe,fefe,0000,0000,fe00,fe00,fefe,fefe,fe00,fefe,fefe,00fe,fefe,fefe,fefe,0000,fe02,fefc,fefe,fefe,fefe,fefe,fefe,0000,0000,fe00,fcfe,fefe,fefe,fefe,fefe,fefe,0000,fc00,fefe,fcfc,00fe,fefe,fefe,00fe,fe00,0200,fefe,fefc,fefe,fefe,fefe,fefe,fefe,0000,fefe,00fe,fefe,0000,fefe,fefe,fefe,fefe,fefe,0000,0002,0000,0000,fefe,fefe,fefe,fe00,0000,0200,0000,0000,fefe,fefe,fefe,fefe,fe00,0200,0000,0000,fefe,fefe,fefe,fe00,fefe,fefe,00fe,0000,fefe,fe00,fefe,fefe,fefe,0000,0000,0000,fefe,fe00,fefe,fefe,fefe,00fe,0000,00fe,fefe,fefe,fe00,fefe,fefe,fefe,fefe,0000,0000,fefe,fe00,fe00,fefe,fefe,fe00,fefe,fe00,fefe,fefe,fefe,fefe,00fe,0000,fefe,fe00,00fe,fe00,fefe,fcfe,fefe,00fe,0400,fefe,0000,00fe,fefe,00fe,fefc,00fe,0000,0000,0000,fefe,fefe,fefe,fe00,fe00,0000,0000,0000,0000,0000,0000,0200,00fe,00fe,00fc,04fc,fc02,fe00,fefe,fafc,fcfc,fefe,fefc,fafe,0202,fcfa,fefe,fcfc,fcfa,fefa,0000,0002,fe02,fefe,fefc,fcfc,fcfe,fcfe,fcfe,00fe,0200,fc00,00fc,fefe,fefe,fcfc,fefc,fcfc,fe00,00fc,fcfc,00fe,0000,fefe,fefe,fcfc,0000,fc00,0000,fefe,0000,00fe,fe00,fc00,fefc,fcfe,fefc,00fe,fe00,0000,0000,0000,fcfe,fefe,0200,00fe,00fe,fe00,fefe,0000,00fe,fefe,fefc,fe00,fefe,00fe,0000,0000,0000,fcfe,fcfe,02fc,fe00,fefe,00fe,00fe,0000,00fe,fcfe,fef8,fefe,fcfe,fefe,0000,0000,fefe,fe00,fe00,04fc,fe00,fefe,00fe,00fe,0000,fefe,fcfc,fcfa,fefe,fefc,fefe,0000,fe00,fefe,fe00,fcfc,fa00,fefe,fefe,fefe,00fe,fefe,fefe,00fc,00fc,fefc,fefc,fefe,fefe,fe00,fefe,fefe,fe00,fcfe,fefe,fefe,fcfe,fefe,fefe,fefe,fcfe,fefc,0000,fefe,fefc,fefc,fefe,fefe,fcfe,00fe,0200,fe00,fcfe,fefe,fefe,fefe,fefe,fcfc,0000,00fe,fefe,fefe,fefe,fefe,fcfe,fefc,fefe,00fe,fefe,fefe,fefe,00fe,fefe,00fe,0000,fe00,fc00,fe00,fefe,fefe,00fe,00fe,fefe,fefe,00fa,00fe,00fe,00fe,fefe,fefe,fe00,fe00,fefe,00fc,fcfe,fe00,00fe,fefe,fefe,fe00,0000,fa08,0000,fefe,fefe,00fe,00fe,0000,00fe,06fe,fcfc,fefe,fefe,fefe,fefe,fefe,fc00,fefe,fcfa,0000,fefe,fefe,fefe,fefe,fefe,0200,fefe,0000,fefe,fefe,fefe,fefe,fefe,fefe,00fe,fe00,00fe,fe00,fefe,fefe,fefe,fe00,fc00,0204,fcfa,02fe,fe00,fefe,fefe,fe00,fefe,0000,0404,00fe,00fe,fefe,fefe,00fe,fefe,fefe,00fe,fa00,fe00,fe00,fe00,fefe,0000,0000,fe00,0400,00fc,00fe,00fe,0000,0000,0000,fc00,0000,0200,fefe,fefe,00fe,0200,00fe,0200,02fe,0004,fe02,0200,fefe,0000,fe00,0200,0002,0000,0000,0000,0000,0000,0000,0000,0000,0000,0000,0000,0000,0000,0000,0000,0000,0000,0000,0000,0000,0000,0000,0000,0000,0000,0000,0000,0000,0000,0000,0000,0000,0000,0000,0000,0000,0000,0000,0000,0000,0000,0000,0000,0000,0000,0000,0000,0000,0000,0000,0000,0000,0000,0000,0000,0000,0000,0000,0000,0000,0000,0000,0000,0000,0000,0000,0000,0000,0000,0000,0000,0000,0000,0000,0000,0000,0000,0000,0000,0000,0000,0000,0000,0000,0000,0000,0000,0000,0000,0000,0000,0000,0000,0000,0000,0000,0000,0000,0000,0000,0000,0000,0000,0000,0000,0000,0000,0000,0000,0000,0000,0000,0000,0000,0000,0000,0000,0000,0000,0000,0000,0000,0000,0000,0000,0000,0000,0000,0000,0000,0000,0000,0000,0000,0000,0000,0000,0000,0000,0000,0000,0000,0000,0000,0000,0000,0000,0000,0000,0000,0000,0000,0000,0000,0000,0000,0000,0000,0000,0000,0000,0000,0000,0000,0000,0000,0000,0000,0000,0000,0000,0000,0000,0000,0000,0000,0000,0000,0000,0000,0000,0000,0000,0000,0000,0000,0000,0000,0000,0000,0000,0000,0000,0000,0000,0000,0000,0000,0000,0000,0000,0000,0000,0000,0000,0000,0000,0000,0000,0000,0000,0000,0000,0000,0000,0000,0000,0000,0000,0000,0000,0000,0000,0000,0000,0000,0000,0000,0000,0000,0000,0000,0000,0000,0000,0000,0000,0000,0000,0000,0000,0000,0000,0000,0000,0000,0000,0000,0000,0000,0000,0000,0000,0000,0000,0000,0000,0000,0000,0000,0000,0000,0000,0000,0000,0000,0000,0000,0000,0000,0000,0000,0000,0000,0000,0000,0000,0000,0000,0000,0000,0000,0000,0000,0000,0000,0000,0000,0000,0000,0000,0000,0000,0000,0000,0000,0000,0000,0000,0000,0000,0000,0000,0000,0000,0000,0000,0000,0000,0000,0000,0000,0000,0000,0000,0000,0000,0000,0000,0000,0000,0000,0000,0000,0000,0000,0000,0000,0000,0000,0000,0000,0000,0000,0000,0000,0000,0000,0000,0000,0000,0000,0000,0000,0000,0000,0000,0000,0000,0000,0000,0000,0000,0000,0000,0000,0000,0000,0000,0000,0000,0000,0000,0000,0000,0000,0000,0000,0000,0000,0000,0000,0000,0000,0000,0000,0000,0000,0000,0000,0000,0000,0000,0000,0000,0000,0000,0000,0000,0000,0000,0000,0000,0000,0000,0000,0000,0000,0000,0000,0000,0000,0000,0000,0000,0000,0000,0000,0000,0000,0000,0000,0000,0000,0000,0000,0000,0000,0000,0000,0000,0000,0000,0000,0000,0000,0000,0000,0000,0000,0000,0000,0000,0000,0000,0000,0000,0000,0000,0000,0000,0000,0000,0000,0000,0000,0000,
06fc,fa06,fa08,00f8,0404,0402,f2fa,f4ea,f2fa,fafe,fc04,f8f6,f8f6,0000,0404,eeec,f8f6,fcf6,faec,f0f4,f8f8,f8fc,0002,f8fa,f4ec,f802,f2f8,f4f4,f0f2,f8f6,0002,0002,f2f2,f4f8,fa04,f8f6,f4f2,f6f8,fcfa,0404,faf8,f4f0,f600,0000,f4f8,faf4,fefc,0000,fefc,f4f8,f8f2,fcfc,fc00,f6f6,fafa,00fe,fc00,f8fa,f4f4,f8f8,fcfc,f4f4,faf4,fafc,fe00,fcfe,f6f8,f0f2,fcfc,fcfc,f8f6,fcfc,fefc,fefe,fcfc,f4f4,f4f0,0002,fcfe,fefc,fafa,fcfe,fcfc,f6f6,f4f6,fc04,fc00,fe00,00fe,00fc,fc00,f8f8,00fc,ecf0,02fe,fefe,0002,fafc,fefc,f8fe,faf6,f4fa,fefc,fe02,0004,00fe,0000,fc00,fcfa,fe00,eef0,fcfe,0200,0000,02fe,0200,fefe,00fe,f0f4,0004,faf8,0204,fefc,0000,fafc,fcfe,0002,f8f4,f8fc,0000,fcfc,0204,fefc,fe02,0200,f8fa,fefe,fcfa,fe04,02fc,fc02,02fc,fe02,0002,f8f8,fc04,0000,fafc,0806,f8f6,0404,fefc,f8fa,fefa,0204,fc02,0804,f402,0400,fe02,fc00,fef6,0404,fe00,fefc,0408,f6ee,0406,00fe,f4f4,00fc,0404,fafe,0604,ecf2,0404,fc02,f6fa,faf2,0402,fafc,02fe,f602,fcee,0204,0002,f4f6,0200,f6fc,fef8,0602,ecea,0406,fafa,f4f8,f6f6,f800,f8fa,0200,f0fa,00f8,fe00,f6f8,eef0,f8fa,f6f4,02fe,0002,f4f2,0002,f8fa,f8fa,faf6,f8fa,00fc,0000,f4f8,02fc,fe00,fafa,f4f6,fcfe,fefa,fc00,0000,faf8,fe00,f8fc,fcfe,fef8,00fe,fefc,fefc,f8fa,00fe,0200,fef8,f4f6,fcfe,fc00,fafc,fcfc,fafc,fefc,f6f6,f8fc,f4fa,00fe,fcf8,fafc,fcfc,fafa,fc00,fcf4,fcfa,0000,fcfc,fafc,fcfa,fafa,fcfc,f4f6,f8fa,00fe,fe00,f8fc,fcfa,fefc,00fc,0000,fcf8,fcfa,fefc,fafc,fef8,fe00,fcfc,fe00,fafc,fcfe,0000,fcfc,f6f6,fcfc,fcfe,f8fe,fefe,fcfa,fefc,0c10,080a,0602,fe04,0402,00fe,060a,0a0e,0c10,1008,060e,0008,0402,fefe,0004,0404,0c0c,0a06,040e,0608,0202,0404,02fc,0a04,0c0e,0e0c,060e,0000,0002,0402,0004,0404,0c08,0a08,0408,0608,0606,0002,0008,0202,0808,0c0a,1408,020a,fcfa,0202,0404,0004,0806,0408,100a,0406,fe00,0204,0404,0404,0804,0606,0808,1408,0804,0202,0402,02fe,0402,0604,0a06,0604,020e,0404,0402,fe04,0204,0004,0a0a,0e10,0a0c,02fe,0200,0204,02fe,0200,0402,0a06,0810,fe06,fe02,0000,fefe,0200,0404,0800,0804,080a,0606,0204,fefe,00fe,fefe,fefc,0606,0a10,fc00,0004,fe02,fefc,0002,fe00,04fe,060a,1008,02fc,fe00,fcfa,fefe,fefa,fcfc,0602,0a0e,fe0a,0400,f8fc,0400,fafc,0002,0202,0206,0e0a,fc00,fa00,00fa,0002,0400,fe02,0006,020a,0004,0400,fcf6,0a08,fcf8,0204,0206,0e00,1204,0006,fa00,0806,fa06,0808,0204,fe00,0808,0004,0202,0400,0a0e,00f8,060a,0604,0a0a,060e,fe00,fcfc,0c08,f4fa,0a08,0002,0a06,0a0a,0006,fcfe,0602,fe0a,00f6,040a,0202,0e04,0e08,fcfe,0200,0608,f2f4,0806,0204,0408,0e06,0004,fe00,0606,f2fa,02f6,060a,0802,0406,0c0c,0202,0606,0204,f4f6,0a08,fefe,060a,0808,0408,0806,0204,f4f6,06fe,0206,0600,0602,1210,0806,0608,fafc,fefa,0406,00fc,0402,0a0e,0c06,0808,0004,f8f6,0604,fcfe,0404,0c08,0e12,040a,0000,f8fc,0402,0002,0200,040a,0a10,0c0a,00fe,fc02,fe00,0606,fe00,0800,080e,080a,0406,02fe,0402,0404,04fe,0604,0a06,080a,060a,0006,0400,0404,fe00,0402,0600,0402,0a08,0608,fe00,060a,0204,0404,0404,0804,0610,0c0c,0804,0c04,040a,0400,0a0c,060a,fe0a,0c0e,0e0c,0c06,0c10,0202,060c,0806,040c,0c0a,0000,0000,0000,0000,0000,0000,0000,0000,0000,0000,0000,0000,0000,0000,0000,0000,0000,0000,0000,0000,0000,0000,0000,0000,0000,0000,0000,0000,0000,0000,0000,0000,0000,0000,0000,0000,0000,0000,0000,0000,0000,0000,0000,0000,0000,0000,0000,0000,0000,0000,0000,0000,0000,0000,0000,0000,0000,0000,0000,0000,0000,0000,0000,0000,0000,0000,0000,0000,0000,0000,0000,0000,0000,0000,0000,0000,0000,0000,0000,0000,0000,0000,0000,0000,0000,0000,0000,0000,0000,0000,0000,0000,0000,0000,0000,0000,0000,0000,0000,0000,0000,0000,0000,0000,0000,0000,0000,0000,0000,0000,0000,0000,0000,0000,0000,0000,0000,0000,0000,0000,0000,0000,0000,0000,0000,0000,0000,0000,0000,0000,0000,0000,0000,0000,0000,0000,0000,0000,0000,0000,0000,0000,0000,0000,0000,0000,0000,0000,0000,0000,0000,0000,0000,0000,0000,0000,0000,0000,0000,0000,0000,0000,0000,0000,0000,0000,0000,0000,0000,0000,0000,0000,0000,0000,0000,0000,0000,0000,0000,0000,0000,0000,0000,0000,0000,0000,0000,0000,0000,0000,0000,0000,0000,0000,0000,0000,0000,0000,0000,0000,0000,0000,0000,0000,0000,0000,0000,0000,0000,0000,0000,0000,0000,0000,0000,0000,0000,0000,0000,0000,0000,0000,0000,0000,0000,0000,0000,0000,0000,0000,0000,0000,0000,0000,0000,0000,0000,0000,0000,0000,0000,0000,0000,0000,0000,0000,0000,0000,0000,0000,0000,0000,0000,0000,0000,0000,0000,0000,0000,0000,0000,0000,0000,0000,0000,0000,0000,0000,0000,0000,0000,0000,0000,0000,0000,0000,0000,0000,0000,0000,0000,0000,0000,0000,0000,0000,0000,0000,0000,0000,0000,0000,0000,0000,0000,0000,0000,0000,0000,0000,0000,0000,0000,0000,0000,0000,0000,0000,0000,0000,0000,0000,0000,0000,0000,0000,0000,0000,0000,0000,0000,0000,0000,0000,0000,0000,0000,0000,0000,0000,0000,0000,0000,0000,0000,0000,0000,0000,0000,0000,0000,0000,0000,0000,0000,0000,0000,0000,0000,0000,0000,0000,0000,0000,0000,0000,0000,0000,0000,0000,0000,0000,0000,0000,0000,0000,0000,0000,0000,0000,0000,0000,0000,0000,0000,0000,0000,0000,0000,0000,0000,0000,0000,0000,0000,0000,0000,0000,0000,0000,0000,0000,0000,0000,0000,0000,0000,0000,0000,0000,0000,0000,0000,0000,0000,0000,0000,0000,0000,0000,0000,0000,0000,0000,0000,0000,0000,0000,0000,0000,0000,0000,0000,0000,0000,0000,0000,0000,0000,0000,0000,0000,0000,0000,0000,0000,0000,0000,0000,0000,0000,0000,0000,0000,0000,0000,
0402,0208,04fc,fafa,fe00,f8f8,00fc,f8f6,fefc,04fa,04fe,f802,faf2,f8f8,fcfa,fa00,0000,0202,02fe,fafa,f4f4,fafe,fafc,fefa,f4f6,fcfa,fcfe,fafc,f8fa,fafa,fef8,fe00,fcfe,f8f4,fe04,00fc,f6fa,fcf2,fcfe,02fc,fefe,fcfa,f8fa,f8fa,00fe,f0f0,0000,fcf8,0202,fafe,fcfc,06fa,fe02,ecf0,00fa,f8f8,0402,0604,fef8,fefa,fc00,faf6,f6f0,fc02,0400,0808,0002,fcfc,04fe,f6f8,f0f4,00fa,02fc,0808,0404,fefe,fcfc,02fe,f8f8,f6f0,f6fa,0204,0404,0002,fafa,00fc,fefa,f2fa,fcfc,02fe,0608,0204,fe00,fef8,fafa,00fa,fefa,fefc,0402,0202,fcfe,0000,fcfc,fc00,fefe,0000,00fe,0000,fcfc,fcfc,fcf8,f8fa,fefa,0404,00fe,0002,f6fa,faf8,0000,fe04,f8f8,fe00,0002,0604,fe00,fcfc,fcfc,0200,f4f4,f6f2,0000,0400,0406,fcfc,f6f6,00fa,f8fe,eef8,02f8,0002,0c0a,0202,f8fa,faf8,0202,fafc,ecf0,0202,0602,0204,fc00,f8f8,00fc,0202,00fe,f6f8,0202,0404,0202,fcfc,fefe,0202,fe08,fa00,fafa,fcfe,0002,0000,0002,fe00,0202,0806,fcfc,fefc,0000,02fe,0402,fe04,fef6,0406,0208,fcfc,00fe,fe02,0402,0606,fafc,fefe,0400,fe02,fefc,0200,0404,0808,fa02,fafc,fe00,0000,fefe,02fe,0404,0808,0606,f8f4,fc00,fcfe,fefe,0200,0606,0602,0a0c,f6fa,fcfc,fcf8,f8f8,00fe,0402,0002,0a08,fc00,fcf6,f8fc,f8fa,fcf8,0204,0000,0400,0206,f8f8,fe00,fcfc,faf8,fefc,0200,0002,00fe,fcfa,fefa,00fe,fc02,f8fa,00fe,02fe,f8f8,0000,fefc,fafc,0404,fcfe,faf4,f8f8,f6f6,fefa,02fe,0000,02fe,0406,f8fc,f4f4,f4f2,f8f6,fefa,0202,0600,0202,0004,f4f8,f2f2,f4f2,fcfc,0204,0004,fcfc,0402,fcfc,f2f4,f6f4,fafa,fefe,0406,0200,00fa,fafe,f8fc,f4f4,f0f0,fefa,02fc,0200,0000,0006,fefc,02fe,fe02,0000,06fa,00fe,0c00,00fe,0602,0200,0204,04fe,0404,fc04,00fe,fa04,0002,000a,0a04,fefe,0c08,0200,0000,0406,fcfe,00fe,02fc,0006,0a04,1012,0406,00fa,00f8,00fc,f802,0e0c,0400,100e,0e12,fc04,0804,fef8,0202,06fe,0406,120c,1212,080a,0000,04fa,fc04,faf6,060c,0c08,0e10,0c10,fe04,fc04,f8f8,f8f8,0602,0402,0a0c,0a0c,fe06,00fc,fa04,f6fc,fcfa,fe02,0a08,0808,0404,0004,0406,f8fc,f4f4,0202,0604,0406,0200,04fe,02f8,f8fc,faf8,02fe,00fa,0806,00fe,fcfc,04f8,f800,f8fe,f4f0,f8fe,0404,0004,fe02,f6f8,02f6,04fe,eef8,fcfa,fcf8,0604,0406,0002,fef4,04fc,0208,f2f2,f6f6,0802,0a0a,0806,fc02,0006,0200,f4f6,f4f4,fefa,0806,0a0a,0608,fcfe,0202,0006,f6f8,f4f4,00fe,0a0a,0a08,fe06,fcfa,fe04,0406,f6f8,f8f6,00fc,0a06,0202,f400,02f6,0204,0408,f4f4,f6f8,00fc,fc02,fafc,f8f4,02fc,0a08,fc02,fafa,faf8,fcfc,fafa,fafa,0af6,0204,0608,f8fa,f8fa,fafa,f8f8,f2f6,fcfc,fc02,0400,0206,fefc,faf8,fafc,fcfa,fafa,fe02,f8fc,0202,0002,fc00,fe00,fafc,f0f4,02f8,f6fc,fcfa,00fe,0402,00fe,fe00,f4f8,f4f8,fef6,fcfc,f8f6,0202,0000,0002,fcfa,f8f4,00f8,fafe,f8fc,faf6,00fe,fefe,fafc,f0f0,f6fc,f8fe,fcfa,f4fa,faf4,fefc,fafc,faf6,f8f8,fa00,fcfe,fcfc,f4f4,f6f6,f6f6,f8f2,fcf8,f4fe,fefe,fcfa,f800,f0f2,f0f0,f4f4,fcfc,faf6,0400,fa02,fef8,faf6,f6f2,f6f8,fefe,0004,f2fc,0802,fefe,f8fa,f8f6,f8f8,fefc,fe00,f6fa,06fc,fafc,00f8,fcfc,fefc,fcfa,00fe,f6fc,040a,f6f6,fa02,fefc,fe02,fcf8,02fc,f800,fcf6,0400,fafe,fcfe,fc04,fcfa,fefe,0002,02fa,fcfc,04fa,f8f8,faf4,fa02,fafe,f802,fafc,f600,fafc,0000,0000,0000,0000,0000,0000,0000,0000,0000,0000,0000,0000,0000,0000,0000,0000,0000,0000,0000,0000,0000,0000,0000,0000,0000,0000,0000,0000,0000,0000,0000,0000,0000,0000,0000,0000,0000,0000,0000,0000,0000,0000,0000,0000,0000,0000,0000,0000,0000,0000,0000,0000,0000,0000,0000,0000,0000,0000,0000,0000,0000,0000,0000,0000,0000,0000,0000,0000,0000,0000,0000,0000,0000,0000,0000,0000,0000,0000,0000,0000,0000,0000,0000,0000,0000,0000,0000,0000,0000,0000,0000,0000,0000,0000,0000,0000,0000,0000,0000,0000,0000,0000,0000,0000,0000,0000,0000,0000,0000,0000,0000,0000,0000,0000,0000,0000,0000,0000,0000,0000,0000,0000,0000,0000,0000,0000,0000,0000,0000,0000,0000,0000,0000,0000,0000,0000,0000,0000,0000,0000,0000,0000,0000,0000,0000,0000,0000,0000,0000,0000,0000,0000,0000,0000,0000,0000,0000,0000,0000,0000,0000,0000,0000,0000,0000,0000,0000,0000,0000,0000,0000,0000,0000,0000,0000,0000,0000,0000,0000,0000,0000,0000,0000,0000,0000,0000,0000,0000,0000,0000,0000,0000,0000,0000,0000,0000,0000,0000,0000,0000,0000,0000,0000,0000,0000,0000,0000,0000,0000,0000,0000,0000,0000,0000,0000,0000,0000,0000,0000,0000,0000,0000,0000,0000,0000,0000,0000,0000,0000,0000,0000,0000,0000,0000,0000,0000,0000,0000,0000,0000,0000,0000,0000,0000,0000,0000,0000,0000,0000,0000,0000,0000,0000,0000,0000,0000,0000,0000,0000,0000,0000,0000,0000,0000,0000,0000,0000,0000,0000,0000,0000,0000,0000,0000,0000,0000,0000,0000,0000,0000,0000,0000,0000,0000,0000,0000,0000,0000,0000,0000,0000,0000,0000,0000,0000,0000,0000,0000,0000,0000,0000,0000,0000,0000,0000,0000,0000,0000,0000,0000,0000,0000,0000,0000,0000,0000,0000,0000,0000,0000,0000,0000,0000,0000,0000,0000,0000,0000,0000,0000,0000,0000,0000,0000,0000,0000,0000,0000,0000,0000,0000,0000,0000,0000,0000,0000,0000,0000,0000,0000,0000,0000,0000,0000,0000,0000,0000,0000,0000,0000,0000,0000,0000,0000,0000,0000,0000,0000,0000,0000,0000,0000,0000,0000,0000,0000,0000,0000,0000,0000,0000,0000,0000,0000,0000,0000,0000,0000,0000,0000,0000,0000,0000,0000,0000,0000,0000,0000,0000,0000,0000,0000,0000,0000,0000,0000,0000,0000,0000,0000,0000,0000,0000,0000,0000,0000,0000,0000,0000,0000,0000,0000,0000,0000,0000,0000,0000,0000,0000,0000,0000,0000,0000,0000,0000,0000,0000,0000,0000,0000,0000,0000,0000,0000,0000,0000,
0200,0202,fefa,fc00,fefc,fcfe,0000,00fc,fe02,fcfa,0002,fafc,0000,02fe,fefe,fefe,fefe,02fe,fef8,fcfe,00fc,fcfc,fefe,fefe,fefe,00fe,fafe,fefc,0002,fefe,fefe,00fe,fefe,fefe,fa04,fefc,fefc,fefe,fefe,fefe,fefe,fefe,fefc,fcfe,fcfc,fefe,fefe,fefe,00fe,fefe,fefc,fefe,fefa,fefc,fefe,fe00,fefc,00fe,fefe,fefe,00fe,fcfc,0000,0000,00fe,fefe,fe00,fefc,fefe,fefc,fcfc,fefe,0000,fefe,fefe,fcfe,fcfc,fefe,00fe,fefe,00fe,fefe,fefe,fe00,fefc,0202,0000,0000,0000,fe00,fefc,fefe,fefe,00fe,0000,0000,0000,0000,fefe,fefe,fefe,fefe,fefe,00fe,0000,0000,fefe,fe00,fefe,fefe,fefc,fe00,0000,fe00,fe00,fefe,fe00,fefe,00fe,fe00,fefe,00fe,00fe,fefe,00fe,fefe,00fe,0000,02fe,00fe,0000,fefe,fefe,fefe,fe00,0000,fcfc,fe00,0000,fefe,00fe,fe00,00fe,fe00,0000,fc00,fe00,fe00,0000,00fe,0000,00fe,fefe,0000,fe02,fefe,fe00,fefe,fe00,fefe,fefe,fefe,fc00,fefe,fefe,fefe,fefe,00fe,fefe,fefe,0200,fefe,fefc,fefe,fefe,00fe,fefe,fefe,00fe,fefe,0000,00fe,0000,fefe,fefe,fefe,fefe,0000,0200,0202,0000,0000,fefe,fefe,fe00,fe00,00fe,0402,0002,0000,fefe,00fe,fe00,fefe,fefe,0400,0204,0000,0000,00fe,fefe,fefe,fefe,fefe,0200,0000,0000,fe00,fefe,0000,fefe,0200,fe00,0000,00fe,00fe,00fe,00fe,fefe,00fe,0000,fefe,00fe,fe00,fe00,fe00,fefe,fefe,fefe,00fe,00fe,00fe,0000,fe00,fefe,fefe,fe00,00fe,fefe,00fe,00fe,fefe,fefe,00fe,00fe,fe00,fefe,fefe,fefe,fefe,fcfe,fefe,00fe,0400,fefe,fe00,fefe,fefe,fefe,fcfa,0000,0000,fefe,00fe,fefe,fefe,fefe,fe00,00fe,0000,0000,0000,fe00,fefe,0000,02fe,fefe,fe00,00fc,02f8,fe02,fe00,02fe,fc00,00fe,00fe,00fc,fe00,fe02,fafc,fafc,fcfe,fcfe,fefe,0400,0204,0402,00fe,00fa,fcfc,fefc,fc00,fcfe,02fe,0202,fe02,00fe,00fe,fefe,fefe,fefe,fcfc,fe00,02fe,fefe,00fe,0000,00fe,00fe,00fe,0202,fc02,0000,fefe,0000,fe00,0000,0000,fefe,0202,00fc,fe00,fefe,0000,0000,0000,00fe,fefe,0200,fe00,fefc,fe00,fefe,0000,00fe,0000,0400,0000,00fc,00fe,0000,00fe,0000,fcfe,fe00,04fc,fefe,fcfe,0000,0000,0000,fefe,fefe,00fa,fe02,fcfc,fefe,fe00,0000,fe00,fefe,0000,0600,00fe,fcfc,00fe,fefe,0000,fefe,fefe,fefa,fefe,00fc,fefe,fefe,0000,00fe,fe00,00fe,fefe,00fe,fefe,00fe,fefe,fe00,0000,00fc,00fe,fefe,fefe,fefe,fefe,00fe,fe00,fe00,fefe,fcfe,fe00,fefe,fefe,fefe,fefe,fe00,fefe,00fa,0200,fe00,fefc,fefe,fefe,fefe,fe00,fefe,0002,0002,fefe,fefe,fefe,fe00,00fe,fafe,0200,0202,fefe,fefe,fefe,fefe,fefe,fefe,fe00,0202,fe00,fefe,fefe,fe00,00fe,00fe,0000,0000,fc00,00fe,0000,fefe,0000,fefe,fe00,fe00,00fc,0000,0000,fe00,00fe,00fe,fefe,fe00,00fe,04fe,fe00,fefe,fefe,fefe,fefe,fefe,00fe,fc04,0000,fefe,fefe,fefe,0000,0000,0200,0400,fafc,fe00,fefe,fefe,fe00,0000,fcfe,0000,00f8,fe00,fefe,fefe,fefe,fefe,fe00,04fe,02fe,0000,00fe,fefe,fefe,fefe,fefe,fc00,0000,0000,00fe,fe00,fefe,fefe,fefe,0000,fe00,0202,02fe,fefe,fe00,fefc,fefe,fefe,fefe,0200,0404,02fe,0000,fefe,fcfe,fefe,fc00,fe00,0200,fa04,0002,fe00,fefe,fefe,00fe,0000,fe02,06fe,00fc,00fe,fefe,fefe,fefe,fefe,fe02,0200,0000,fc00,fefe,fefc,0000,fefe,02fc,04fc,0202,00fe,02fe,fefe,fe00,fe04,0200,fc02,fe02,0000,0000,0000,0000,0000,0000,0000,0000,0000,0000,0000,0000,0000,0000,0000,0000,0000,0000,0000,0000,0000,0000,0000,0000,0000,0000,0000,0000,0000,0000,0000,0000,0000,0000,0000,0000,0000,0000,0000,0000,0000,0000,0000,0000,0000,0000,0000,0000,0000,0000,0000,0000,0000,0000,0000,0000,0000,0000,0000,0000,0000,0000,0000,0000,0000,0000,0000,0000,0000,0000,0000,0000,0000,0000,0000,0000,0000,0000,0000,0000,0000,0000,0000,0000,0000,0000,0000,0000,0000,0000,0000,0000,0000,0000,0000,0000,0000,0000,0000,0000,0000,0000,0000,0000,0000,0000,0000,0000,0000,0000,0000,0000,0000,0000,0000,0000,0000,0000,0000,0000,0000,0000,0000,0000,0000,0000,0000,0000,0000,0000,0000,0000,0000,0000,0000,0000,0000,0000,0000,0000,0000,0000,0000,0000,0000,0000,0000,0000,0000,0000,0000,0000,0000,0000,0000,0000,0000,0000,0000,0000,0000,0000,0000,0000,0000,0000,0000,0000,0000,0000,0000,0000,0000,0000,0000,0000,0000,0000,0000,0000,0000,0000,0000,0000,0000,0000,0000,0000,0000,0000,0000,0000,0000,0000,0000,0000,0000,0000,0000,0000,0000,0000,0000,0000,0000,0000,0000,0000,0000,0000,0000,0000,0000,0000,0000,0000,0000,0000,0000,0000,0000,0000,0000,0000,0000,0000,0000,0000,0000,0000,0000,0000,0000,0000,0000,0000,0000,0000,0000,0000,0000,0000,0000,0000,0000,0000,0000,0000,0000,0000,0000,0000,0000,0000,0000,0000,0000,0000,0000,0000,0000,0000,0000,0000,0000,0000,0000,0000,0000,0000,0000,0000,0000,0000,0000,0000,0000,0000,0000,0000,0000,0000,0000,0000,0000,0000,0000,0000,0000,0000,0000,0000,0000,0000,0000,0000,0000,0000,0000,0000,0000,0000,0000,0000,0000,0000,0000,0000,0000,0000,0000,0000,0000,0000,0000,0000,0000,0000,0000,0000,0000,0000,0000,0000,0000,0000,0000,0000,0000,0000,0000,0000,0000,0000,0000,0000,0000,0000,0000,0000,0000,0000,0000,0000,0000,0000,0000,0000,0000,0000,0000,0000,0000,0000,0000,0000,0000,0000,0000,0000,0000,0000,0000,0000,0000,0000,0000,0000,0000,0000,0000,0000,0000,0000,0000,0000,0000,0000,0000,0000,0000,0000,0000,0000,0000,0000,0000,0000,0000,0000,0000,0000,0000,0000,0000,0000,0000,0000,0000,0000,0000,0000,0000,0000,0000,0000,0000,0000,0000,0000,0000,0000,0000,0000,0000,0000,0000,0000,0000,0000,0000,0000,0000,0000,0000,0000,0000,0000,0000,0000,0000,0000,0000,0000,0000,0000,0000,0000,0000,0000,0000,0000,0000,0000,0000,0000,
04fc,fe02,080a,0202,0008,0002,0000,fcf2,f4fe,fc02,0202,f800,00f8,fc08,00fe,fafa,00f4,fe02,fefc,02fa,fcfc,f6fe,00fc,fc02,f8f8,fcfe,fcfa,fc00,fafe,fafa,fafa,00fe,fcf8,fcf4,0006,02f8,00fe,fafc,f6f6,faf8,fcfa,02fe,00fc,fafc,02fe,fcfe,f8fa,f8f6,fefe,00fc,fefe,fe00,fefa,0604,fcfe,fcfc,faf6,fefe,fafc,0000,fcfc,0202,0004,fafc,f6fc,fcfe,fafc,f6f6,fcfe,0202,0606,0202,fafc,fefc,00fe,f2f4,faf6,00fa,0804,0a0a,0002,fafa,fefa,f6fe,f2f0,f800,fcfc,0406,080a,0000,0000,fe02,f2f4,f8fc,faf6,0000,0406,0202,0000,00fc,f6f8,f6f8,fcfa,fafa,00fe,faf8,00fe,fe02,f8fc,f6f6,f8f4,f4f2,00fc,f6fc,fcf8,0200,fafa,f8f6,f2f6,fcfa,fafc,fefc,f4f2,0000,fcfe,fafa,fcfa,faf4,fe00,fafc,f4fc,fcfa,0204,fcfc,f6fa,f6f8,fa02,00fa,00fe,f4f2,0804,fafc,0000,fcfa,fcf4,0406,fefe,f6fa,04fc,fe06,fefc,fafc,f6fc,0002,fc00,fcf6,fcf8,080c,f8f6,fafc,fefa,fcf6,fcfe,f4f6,f6f6,0802,f602,f6f2,f8f6,f8fe,0002,0000,fa02,fefa,0206,eef0,faf6,faf8,fcfa,00fe,0400,fcfc,0002,f6fe,f0f0,f4f6,fcfc,0204,0202,0000,00fc,0000,eef2,f8f6,f8f8,f8f8,0002,0204,fefc,fcfc,f8fa,fafa,fafc,f8f6,0004,0602,0000,fafc,fcfc,faf8,fafa,f6fc,02fc,0204,0002,fafc,f8f6,fefc,fe00,04fe,fcf8,0204,0000,fcfe,f6f8,fafa,0200,00fe,0002,fcfc,fefe,0200,f8fa,f6f8,00fc,0202,0404,00fe,fcfc,fe00,0004,f8fe,fefc,0404,0202,0204,fcfa,fcfe,00fe,0200,00fe,0004,0204,0604,fc00,00fe,fefc,fefc,0406,0202,0402,0204,0404,fefa,0000,00fe,0802,0404,0202,0408,00fe,fefe,fafc,fafe,fefe,0808,0804,0a06,0004,fc02,0002,0200,fcfe,0604,0402,0408,0000,02fe,02fc,120a,0608,0608,080c,0608,0608,060a,0c0e,040e,0e04,0a04,060a,0206,0806,0408,0a04,080e,0608,080c,0404,080a,0406,0806,0604,0a0c,0c08,0804,0000,0606,0606,0606,04fe,0a02,0a08,0c0c,0206,0606,0408,0206,0604,0200,0404,120a,020c,0000,040a,0204,0200,0000,0404,0608,0804,00fa,0602,0806,0202,0404,0608,0e0e,1006,00fc,0002,0604,0606,0200,0406,0806,0c06,000e,00f6,fcfc,0202,fc00,fe00,0608,0e0c,0a02,fcfc,fefe,f8f8,00fe,fcfc,0200,0a08,1014,0206,0204,f6f8,fcf6,0000,00fe,0204,0e0c,0a06,0a08,0206,f8f4,00fe,f8fc,02fe,0806,0c0c,080a,060a,f6fc,00fc,0004,fefe,0c06,0a0c,100a,0806,0204,fcfa,0200,fafc,0a06,100c,0e0c,0606,0204,fafc,00fc,0004,04fe,0e10,080a,1006,0006,fe02,fafc,0606,fefa,0e0e,0a0e,0a12,0004,00fc,fcfa,04fe,0004,08fe,080a,1008,0c08,fefe,fefc,fefc,0806,fcfa,080a,0808,060a,0000,00fc,fefc,0400,fc06,02fc,0600,0608,080a,fc02,fe02,0200,0608,f6f8,0604,0608,0a0a,0000,0602,0202,0806,fc02,02fa,0606,0204,0a06,0202,0606,0204,0206,f4f2,0204,0806,0a0a,0006,0204,0604,0400,fafe,0404,0a06,040a,0a0a,0204,0204,0002,0000,02fc,0a0a,0608,0808,0404,fefe,fefc,00fe,0400,0a0c,080a,0808,060c,fafc,f6fc,fcfa,0402,0808,0a0a,0606,0c0c,0404,fcf8,fcfa,0400,0806,0a0c,0608,0402,0810,0206,fefa,0200,0804,0808,0a06,0204,020c,060a,0204,0000,0206,0408,0606,0402,0a04,0400,0a06,0402,0408,0404,0000,0402,0402,0616,0806,0806,0206,0204,fefe,fe02,fcfa,0004,1008,060a,0608,0200,fcfa,fafe,f6f8,0202,060e,0402,0406,fe02,fafc,fcfc,faf6,fef8,000c,0e00,0afc,0a08,00fe,fcfc,faf8,f8f0,0402,0002,0000,0000,0000,0000,0000,0000,0000,0000,0000,0000,0000,0000,0000,0000,0000,0000,0000,0000,0000,0000,0000,0000,0000,0000,0000,0000,0000,0000,0000,0000,0000,0000,0000,0000,0000,0000,0000,0000,0000,0000,0000,0000,0000,0000,0000,0000,0000,0000,0000,0000,0000,0000,0000,0000,0000,0000,0000,0000,0000,0000,0000,0000,0000,0000,0000,0000,0000,0000,0000,0000,0000,0000,0000,0000,0000,0000,0000,0000,0000,0000,0000,0000,0000,0000,0000,0000,0000,0000,0000,0000,0000,0000,0000,0000,0000,0000,0000,0000,0000,0000,0000,0000,0000,0000,0000,0000,0000,0000,0000,0000,0000,0000,0000,0000,0000,0000,0000,0000,0000,0000,0000,0000,0000,0000,0000,0000,0000,0000,0000,0000,0000,0000,0000,0000,0000,0000,0000,0000,0000,0000,0000,0000,0000,0000,0000,0000,0000,0000,0000,0000,0000,0000,0000,0000,0000,0000,0000,0000,0000,0000,0000,0000,0000,0000,0000,0000,0000,0000,0000,0000,0000,0000,0000,0000,0000,0000,0000,0000,0000,0000,0000,0000,0000,0000,0000,0000,0000,0000,0000,0000,0000,0000,0000,0000,0000,0000,0000,0000,0000,0000,0000,0000,0000,0000,0000,0000,0000,0000,0000,0000,0000,0000,0000,0000,0000,0000,0000,0000,0000,0000,0000,0000,0000,0000,0000,0000,0000,0000,0000,0000,0000,0000,0000,0000,0000,0000,0000,0000,0000,0000,0000,0000,0000,0000,0000,0000,0000,0000,0000,0000,0000,0000,0000,0000,0000,0000,0000,0000,0000,0000,0000,0000,0000,0000,0000,0000,0000,0000,0000,0000,0000,0000,0000,0000,0000,0000,0000,0000,0000,0000,0000,0000,0000,0000,0000,0000,0000,0000,0000,0000,0000,0000,0000,0000,0000,0000,0000,0000,0000,0000,0000,0000,0000,0000,0000,0000,0000,0000,0000,0000,0000,0000,0000,0000,0000,0000,0000,0000,0000,0000,0000,0000,0000,0000,0000,0000,0000,0000,0000,0000,0000,0000,0000,0000,0000,0000,0000,0000,0000,0000,0000,0000,0000,0000,0000,0000,0000,0000,0000,0000,0000,0000,0000,0000,0000,0000,0000,0000,0000,0000,0000,0000,0000,0000,0000,0000,0000,0000,0000,0000,0000,0000,0000,0000,0000,0000,0000,0000,0000,0000,0000,0000,0000,0000,0000,0000,0000,0000,0000,0000,0000,0000,0000,0000,0000,0000,0000,0000,0000,0000,0000,0000,0000,0000,0000,0000,0000,0000,0000,0000,0000,0000,0000,0000,0000,0000,0000,0000,0000,0000,0000,0000,0000,0000,0000,0000,0000,0000,0000,0000,0000,0000,0000,0000,0000,0000,0000,0000,0000,0000,0000,0000,0000,0000,0000,0000,
fafe,00fe,fe00,fcfc,06fe,00fe,0006,0002,fa08,0af6,0602,f6fa,00fe,fc04,fefa,00fe,00f4,02fe,02fa,fe00,00fe,0204,0200,0200,fcfa,0402,0208,f8f4,f8fc,0406,fc00,f8f8,faf6,fcfa,fafc,f8f6,f0ee,f6f4,f2f4,f0f4,f2f2,f4f6,0002,fc02,f4fa,e8e8,eaee,ecec,eef0,f4f0,fcf6,fe00,0002,ecee,ecee,eeec,f2f0,f4f0,f8f8,fefe,0208,f600,f8f8,f0f0,f8f2,fafa,f8fa,00fc,0a06,0406,fe00,02fe,fcfc,0200,fefe,0400,f6fe,0c0e,1216,0e0c,0608,0606,0202,0402,080a,0602,1412,1416,0e14,0c0c,0608,0606,0806,fafe,0e04,1a14,181a,1214,0a10,0404,0206,0204,00fc,0c08,1410,0e12,1010,0204,0200,04fe,fcfa,fcfa,0200,0608,0806,0408,fefc,fafc,fcfe,fcfc,f4f6,fafa,f6f6,fcfa,fafc,fcfc,00fc,faf8,f6fe,f4f4,f6f6,f2f4,fafc,fefe,fcfe,fa00,fefc,fafe,fafa,fcfa,fcfa,fcfc,fefe,0202,0000,fafa,fcfc,00fe,fcfe,fafa,fefe,06fe,0602,fefc,fcfe,00fe,fe00,fcfa,fefa,00fc,0806,0404,00fc,fcfe,fe00,fafa,fafa,fefe,0606,0404,0406,fc02,00fe,fcfc,fefe,fcfe,0000,0204,fefc,0400,fafc,fefc,00fc,fefe,0202,02fe,fcfa,0806,f8fc,f2f0,fefa,00fe,fcfe,fcfc,f8fe,00fe,fe04,f2f4,f6f8,00fc,fefc,fafc,fcfe,f4f4,040a,f6f8,f8f4,fefc,fefc,fcfa,fcfa,f6fa,fefa,0004,f6f6,fefe,fefe,fafc,fcfe,00fe,f6f2,100e,0002,fcfc,fcfa,fefc,fefc,00fe,f6f8,02fc,1214,0204,fefe,fafc,fcfe,fefe,fcfe,faf4,0a06,0a0c,fe04,fcfc,fcfa,fefc,0002,f6f6,f6fc,0202,0808,fe00,fcfa,fcfc,0000,f8fa,fafc,00fc,00fc,0604,0004,0002,0200,fefe,faf8,04fc,fefe,fcfc,0000,fcfe,0004,00fe,fafa,fc00,0206,fc00,fafc,fefe,0404,f8fe,fefe,02fc,0002,0206,0202,00fe,02fe,0600,04fc,fafc,0000,fe08,f6f6,eef0,f0fa,fcfa,fefe,0200,1202,02f8,0400,f4f8,f0f4,f8f4,fef8,faf2,0804,fc00,0000,fcfe,f0ee,eeee,f2f4,f4f6,fcf6,fcfe,fe00,faf6,f2f4,e6ea,f0e8,f0f0,f4f4,04fa,0000,0406,f6f6,eaf0,e6e8,f4f2,fafa,fefe,0204,0204,fe00,f6fa,f4f4,f6f2,fcf8,0404,0204,0200,02fe,0402,fa00,fcfa,fefc,0404,0a0a,040c,0200,0402,060a,0404,0406,0806,0806,0406,fefc,f806,0a0c,0a0c,0e0e,0c0c,080c,0606,fe00,0204,02fc,0a0a,0c0a,0c0c,0a0c,0204,0000,fcfc,fafa,0000,0402,080c,0606,0204,f8fc,0004,04fa,fcfe,faf6,fafa,fe00,00fc,fcfc,fcfc,fe06,faf6,f6f8,f0f4,f4f4,f8f8,0204,fe00,fefc,0800,fcfa,f6f4,f8f4,fcf8,0406,0406,0200,f8fa,fa00,faf8,fef8,fefe,0602,0a0a,fc00,fafc,0000,fa00,fe00,0406,0200,0806,0002,f8fa,fefc,fef8,0204,0604,0200,0000,0202,00fe,fef4,fe04,02fe,0200,0204,fe02,fefe,0206,fafc,0002,04fe,fafa,0004,0000,fcfc,02fe,0000,00fe,06fc,f8fa,f2ee,00fc,fc00,fefc,0400,fe06,04fe,00fa,eaec,f8f4,fcfc,00fe,fe00,0800,fa00,0a08,fcf6,f8f2,fefc,0000,fe00,00fc,0406,fc08,020a,0204,0402,0204,0202,0200,0406,fcfe,0406,0c0e,0c0e,0a0a,0402,0202,0000,fafc,0206,0c06,1212,0a0e,080c,0202,fefe,fe02,fcfa,f604,0e0c,0a12,0a0a,0404,fcfc,02fe,f8f4,02fe,06fc,0e0a,0606,0606,0000,fefe,fafc,00fa,02fe,fc00,0000,0002,0000,fe00,02fc,f406,02fc,f6fc,fcf8,faf8,f8fe,fafe,0000,fe00,06f2,0802,fcfc,f8fe,faf6,f8f6,fefe,0602,fe00,00fa,fc00,f4f8,f6f6,faf8,fcfe,00fe,0000,0400,0c04,f8fe,fafe,fcfa,faf8,00fe,0406,0200,0404,0204,f800,fef8,fefa,fe04,00fe,fe02,0602,020e,fefc,f806,0000,0800,0604,0802,04f8,fe02,0000,0000,0000,0000,0000,0000,0000,0000,0000,0000,0000,0000,0000,0000,0000,0000,0000,0000,0000,0000,0000,0000,0000,0000,0000,0000,0000,0000,0000,0000,0000,0000,0000,0000,0000,0000,0000,0000,0000,0000,0000,0000,0000,0000,0000,0000,0000,0000,0000,0000,0000,0000,0000,0000,0000,0000,0000,0000,0000,0000,0000,0000,0000,0000,0000,0000,0000,0000,0000,0000,0000,0000,0000,0000,0000,0000,0000,0000,0000,0000,0000,0000,0000,0000,0000,0000,0000,0000,0000,0000,0000,0000,0000,0000,0000,0000,0000,0000,0000,0000,0000,0000,0000,0000,0000,0000,0000,0000,0000,0000,0000,0000,0000,0000,0000,0000,0000,0000,0000,0000,0000,0000,0000,0000,0000,0000,0000,0000,0000,0000,0000,0000,0000,0000,0000,0000,0000,0000,0000,0000,0000,0000,0000,0000,0000,0000,0000,0000,0000,0000,0000,0000,0000,0000,0000,0000,0000,0000,0000,0000,0000,0000,0000,0000,0000,0000,0000,0000,0000,0000,0000,0000,0000,0000,0000,0000,0000,0000,0000,0000,0000,0000,0000,0000,0000,0000,0000,0000,0000,0000,0000,0000,0000,0000,0000,0000,0000,0000,0000,0000,0000,0000,0000,0000,0000,0000,0000,0000,0000,0000,0000,0000,0000,0000,0000,0000,0000,0000,0000,0000,0000,0000,0000,0000,0000,0000,0000,0000,0000,0000,0000,0000,0000,0000,0000,0000,0000,0000,0000,0000,0000,0000,0000,0000,0000,0000,0000,0000,0000,0000,0000,0000,0000,0000,0000,0000,0000,0000,0000,0000,0000,0000,0000,0000,0000,0000,0000,0000,0000,0000,0000,0000,0000,0000,0000,0000,0000,0000,0000,0000,0000,0000,0000,0000,0000,0000,0000,0000,0000,0000,0000,0000,0000,0000,0000,0000,0000,0000,0000,0000,0000,0000,0000,0000,0000,0000,0000,0000,0000,0000,0000,0000,0000,0000,0000,0000,0000,0000,0000,0000,0000,0000,0000,0000,0000,0000,0000,0000,0000,0000,0000,0000,0000,0000,0000,0000,0000,0000,0000,0000,0000,0000,0000,0000,0000,0000,0000,0000,0000,0000,0000,0000,0000,0000,0000,0000,0000,0000,0000,0000,0000,0000,0000,0000,0000,0000,0000,0000,0000,0000,0000,0000,0000,0000,0000,0000,0000,0000,0000,0000,0000,0000,0000,0000,0000,0000,0000,0000,0000,0000,0000,0000,0000,0000,0000,0000,0000,0000,0000,0000,0000,0000,0000,0000,0000,0000,0000,0000,0000,0000,0000,0000,0000,0000,0000,0000,0000,0000,0000,0000,0000,0000,0000,0000,0000,0000,0000,0000,0000,0000,0000,0000,0000,0000,0000,0000,0000,0000,0000,0000,0000,0000,0000,0000,0000,0000,
00fe,0202,fefa,fa02,fefc,fcfc,0200,00fc,fa02,00fa,fe00,f8fa,fefe,02fe,fefe,fefc,fefe,02fe,fefc,fcfe,00fa,fefc,fefe,fefc,fcfe,0000,fe04,00fe,0000,fefe,fefe,00fc,fefc,fefe,fefe,00fa,fefc,fefe,fefc,fefe,fefe,fefe,fefe,0002,fefe,fcfc,00fe,fefe,fefe,fefc,fefe,fe00,0202,fefe,fefc,fefe,fefe,fefe,fefe,fefe,0604,0204,fefe,00fe,fefe,fefe,fefe,fcfc,0202,0604,fe00,fefe,fefe,fefe,fefe,fefe,fafc,0402,0606,fefe,00fe,fefe,fefe,00fe,fcfe,0000,0408,0000,0000,0000,fefe,fefe,fefe,fefe,fefc,0000,0002,0000,fefe,fefe,fefe,fefe,00fe,fefe,0000,0000,fe00,fefe,fefe,fefe,fcfc,0000,fefe,0200,0002,fefe,fe00,0000,fe00,fe00,fcfc,00fe,0000,0000,fefe,00fe,fe00,fe00,0000,fefe,0000,fe00,fe00,fefe,0000,fe00,00fa,00fe,0000,fefe,fe00,fe00,00fe,fe00,00fe,fafe,fefe,fefe,fefe,fefe,fefe,0000,fefe,00fe,0002,fcfe,fefe,fefe,fefe,fefe,fefe,fefe,fafe,fefe,fcfe,fefe,fcfe,fefe,fefe,fefe,0000,fcfc,fcfe,fefc,fcfe,fefe,fefe,fefe,00fe,fcfc,fefe,fefe,fefe,fefe,fefe,fefe,fefe,fe00,0000,fe00,fefe,fefe,fefe,fefe,fefe,00fe,00fe,0200,fe00,fefe,fcfe,fefe,fefe,fefe,fefe,0202,0000,fefe,fefe,fefe,fefe,fefe,fefe,fefe,0200,fe00,fefe,fefe,fcfe,fefe,fefe,0200,fefe,00fe,fefe,fefe,fefe,00fe,fefe,00fe,0202,fefe,fefe,fe00,fefe,00fe,fe00,fefe,fe00,00fe,0000,fefe,fe00,fefe,fefe,fefe,fc00,fefe,fe00,fefe,fefe,fefe,fcfe,fefe,00fe,fe00,fe00,fefe,fefe,fefe,fefe,fefe,fefe,0200,0000,fe00,fefe,fefe,fefe,fefa,0000,0000,0000,0000,0000,00fe,fe00,fefe,00fe,0000,0000,0000,0200,00fe,0400,02fe,0000,0000,0200,00f8,fc00,fafe,fefe,fafe,fcfc,fe00,00fc,fcfa,04fe,f6fc,fcfa,fcfa,faf8,fefc,fefe,fe00,fe02,fefa,fcf8,faf8,f8fa,f8fc,fafe,fefa,02fe,fafe,fefa,fafa,fcfc,fafa,fefc,fafe,fc00,02fc,fcfa,fefa,fcfc,fcfc,fefe,fcfc,00fe,fa00,00fe,0000,fefe,fcfa,fefe,fe00,fcfa,fc00,fefc,0402,fc00,fefc,fefe,0000,fcfe,fefc,02fe,fefe,0000,fe00,fcfc,fefe,00fe,fc00,fefc,fc00,00fe,0000,fefe,fe00,0000,fcfe,fcfa,02fc,fe00,fefe,0000,0000,fe00,fefe,fafe,fef8,fefe,fcfe,00fe,0000,0000,fe00,fe00,fcfe,04fc,fefc,fefe,0000,fe00,00fe,00fe,fcfc,00fc,fefe,fefa,fefe,0000,fefe,0000,fe00,fefa,fcfc,02fe,fefe,00fe,00fe,0000,0000,fcfc,00fc,fefc,fefe,fefe,fefe,fe00,fe00,fefe,fcfc,fcfc,fefe,fefe,fcfc,fefc,fefe,fefe,fafc,fefa,fefe,fefe,fcfc,fefc,fefe,fefe,fefe,fcfe,0202,fe00,fcfc,fcfc,fefe,fefe,fefe,fafa,fe00,0000,fefe,fefe,fefe,fefe,fefe,fefc,fefc,fe00,fcfe,fefe,fefe,fefe,00fe,fefe,fefe,fcfc,fefe,fefe,fefe,fcfe,fefe,fefe,fcfe,fcfc,00fe,00fe,fefe,fefe,fefe,fefe,fefe,fcfe,fcfc,00fc,fefe,fcfe,fefe,fefe,fefe,fcfe,00fe,fa06,fe00,fefe,fcfe,fefe,fefe,00fe,fefe,0200,fcfc,fefe,fefe,fcfe,fefe,00fe,fc00,00fc,00fa,fefe,fefe,fefe,fefe,fefe,fefc,00fe,00fc,fefc,fefe,fefc,fefe,fcfe,fefe,fcfc,0002,fe00,00fc,fe00,fcfe,fefc,fefe,fefe,fc02,0404,fcfa,00fc,fefe,fcfc,fcfc,fcfe,fefc,0000,0404,00fc,0000,fefe,fefc,fefc,fc00,fefe,00fe,fa06,fefc,fcfe,fefe,fefe,00fe,fe00,00fc,06fe,fefa,fefc,00fe,00fe,00fe,fefe,fe02,fefc,0000,fcfe,fefc,00fe,0202,0000,02fe,02fe,fe00,0004,02fc,fefe,0202,0002,00fe,fe02,fe00,0000,0000,0000,0000,0000,0000,0000,0000,0000,0000,0000,0000,0000,0000,0000,0000,0000,0000,0000,0000,0000,0000,0000,0000,0000,0000,0000,0000,0000,0000,0000,0000,0000,0000,0000,0000,0000,0000,0000,0000,0000,0000,0000,0000,0000,0000,0000,0000,0000,0000,0000,0000,0000,0000,0000,0000,0000,0000,0000,0000,0000,0000,0000,0000,0000,0000,0000,0000,0000,0000,0000,0000,0000,0000,0000,0000,0000,0000,0000,0000,0000,0000,0000,0000,0000,0000,0000,0000,0000,0000,0000,0000,0000,0000,0000,0000,0000,0000,0000,0000,0000,0000,0000,0000,0000,0000,0000,0000,0000,0000,0000,0000,0000,0000,0000,0000,0000,0000,0000,0000,0000,0000,0000,0000,0000,0000,0000,0000,0000,0000,0000,0000,0000,0000,0000,0000,0000,0000,0000,0000,0000,0000,0000,0000,0000,0000,0000,0000,0000,0000,0000,0000,0000,0000,0000,0000,0000,0000,0000,0000,0000,0000,0000,0000,0000,0000,0000,0000,0000,0000,0000,0000,0000,0000,0000,0000,0000,0000,0000,0000,0000,0000,0000,0000,0000,0000,0000,0000,0000,0000,0000,0000,0000,0000,0000,0000,0000,0000,0000,0000,0000,0000,0000,0000,0000,0000,0000,0000,0000,0000,0000,0000,0000,0000,0000,0000,0000,0000,0000,0000,0000,0000,0000,0000,0000,0000,0000,0000,0000,0000,0000,0000,0000,0000,0000,0000,0000,0000,0000,0000,0000,0000,0000,0000,0000,0000,0000,0000,0000,0000,0000,0000,0000,0000,0000,0000,0000,0000,0000,0000,0000,0000,0000,0000,0000,0000,0000,0000,0000,0000,0000,0000,0000,0000,0000,0000,0000,0000,0000,0000,0000,0000,0000,0000,0000,0000,0000,0000,0000,0000,0000,0000,0000,0000,0000,0000,0000,0000,0000,0000,0000,0000,0000,0000,0000,0000,0000,0000,0000,0000,0000,0000,0000,0000,0000,0000,0000,0000,0000,0000,0000,0000,0000,0000,0000,0000,0000,0000,0000,0000,0000,0000,0000,0000,0000,0000,0000,0000,0000,0000,0000,0000,0000,0000,0000,0000,0000,0000,0000,0000,0000,0000,0000,0000,0000,0000,0000,0000,0000,0000,0000,0000,0000,0000,0000,0000,0000,0000,0000,0000,0000,0000,0000,0000,0000,0000,0000,0000,0000,0000,0000,0000,0000,0000,0000,0000,0000,0000,0000,0000,0000,0000,0000,0000,0000,0000,0000,0000,0000,0000,0000,0000,0000,0000,0000,0000,0000,0000,0000,0000,0000,0000,0000,0000,0000,0000,0000,0000,0000,0000,0000,0000,0000,0000,0000,0000,0000,0000,0000,0000,0000,0000,0000,0000,0000,0000,0000,0000,0000,0000,0000,0000,0000,0000,0000,0000,
0000,0402,fefc,fe00,fe00,fcfe,0000,00fe,fa04,00fa,0000,fcfe,0002,0000,fefe,fefe,fefe,0202,fef8,0002,0200,fefe,fe00,fefe,fefe,0000,fc04,0000,0204,fe00,fefe,00fe,fefe,fefe,fc02,02fe,00fe,fefe,fefe,fefe,00fe,fefe,fefe,0002,fefe,fefe,fefe,fefe,0000,fefe,fefe,fe00,00fe,00fe,fefc,fefe,fefe,fefe,fefe,fefe,0200,0000,0000,fe00,fefe,fefe,fefe,fefc,00fe,0000,fefe,fe00,fefe,fefe,fefe,fefe,fcfc,00fe,0202,fefe,fe00,fcfe,fefe,fefe,fcfc,0200,0002,00fe,00fe,fefe,fefc,fefe,fefe,fefe,0000,fe02,fe00,fefe,fefe,fefe,fefe,fcfe,00fe,fefe,0002,0000,fe00,fefe,fefe,fefe,fcfc,00fe,0000,fefe,fe00,fefe,fefe,fefe,fefe,fe00,fe00,00fe,00fe,fefe,fefe,fefe,fefe,fe00,fefe,fe00,fefe,fefe,fefe,fefe,fefe,00fe,fefa,0000,fefe,fefe,fefe,fefe,fefe,fe00,fefe,fa00,fefe,fefe,fefe,fefe,00fe,fefe,fefe,00fe,fe02,fcfe,fefe,fefe,fefe,fefe,fefe,00fe,fc00,fefc,fcfc,fefe,fefe,fefe,0000,fefe,0000,fcfc,fcfc,fefe,fefe,fefe,fefe,00fe,fefe,fefe,fefe,fefe,00fe,fefe,fefe,fefe,fefe,fe00,0000,fe00,fefe,fe00,fefe,fefe,fefe,fefe,0000,00fe,fe00,00fe,fefe,fefe,0000,fefe,fefe,0200,0000,fe00,00fe,fefe,fefe,fe00,fefe,fefe,0000,fe00,fefe,fefe,fefe,fe00,fefe,0000,0000,00fe,fefe,fefe,fefe,00fe,fefe,fefe,0002,fefe,fe00,fe00,fefe,fefe,fefe,fefe,fe00,0000,0000,00fe,fefe,fc00,fefe,fefe,fc00,fefe,fe00,00fe,fefe,fefe,fefe,00fe,00fe,fe00,fefe,fefe,fefe,fefe,fcfe,fefe,fefe,fe00,fefe,fe00,fefe,fcfc,fefe,fcfa,00fe,0000,fe00,fefe,fefe,00fe,fefe,fc00,0000,0000,0002,00fe,00fe,00fe,0000,02fe,00fe,fefe,0200,fef8,fe02,fcfe,fefe,fcfe,00fa,0002,00fc,fcfe,0000,fafa,fcfa,fcfa,fcfa,fefe,00fe,0202,0200,fefa,fefa,fcfa,fcfa,fa00,fafe,00fe,02fe,fcfc,00fa,fcfc,fefe,fcfc,00fc,fafc,fc00,00fc,fcfa,fefc,fefe,fefc,00fe,fcfc,00fe,fc04,00fe,fefe,00fe,fcfe,fe00,fe00,fcfc,fcfe,fefc,fefe,fefe,fe00,fefe,0000,fcfc,fcfa,02fe,fcfc,fefe,0000,fcfe,00fe,fefe,fe00,fcfc,fe00,00fe,0000,fe00,fefe,fefe,fcfe,fafe,02fc,fe00,fefe,0000,fefe,fefe,fefe,fcfe,fef8,fcfe,fcfe,fefe,fefe,fefe,fefe,fe00,0000,06fc,fefe,fefe,fefe,fefe,00fe,fefe,fcfc,fcfa,fefe,00fc,fefe,fefe,fefe,fefc,fe00,fcfc,fcfc,00fe,fefe,fefe,fefc,fefe,fefc,fcfa,00fc,fcfc,fefe,fefe,fefe,fefe,fefe,fcfe,fcfe,fcfe,fefc,fefe,fcfe,fefe,fefe,fefe,fcfc,fefa,fefe,fefc,fefe,fefc,fefe,fcfe,fefe,fcfc,0002,fe00,fcfe,fcfe,fefe,fcfe,fefe,fafa,0000,02fe,fefe,fefe,fefe,fefe,fcfe,fefc,fcfa,fe00,fefc,fcfe,fefe,fefe,fefe,fefe,fefe,fcfc,fe00,fefe,fefe,fefe,fefe,fefe,fcfe,fcfc,00fc,00fe,00fe,fefe,fefe,fefe,fefe,fefe,fcfe,02fa,fefe,fefe,fefe,fefe,fefe,fefe,00fc,fc04,fc00,fefe,fefe,fefe,fefe,fefe,0000,04fe,fcfa,fefe,fcfe,fefe,fefe,00fe,fcfe,fefc,fefc,fe00,fefe,fefe,fefe,fefe,fefe,00fe,00fe,fefc,fefe,fefe,fefe,fefe,fefe,fcfe,0202,02fe,00fc,fefe,fefe,fefe,fcfe,0000,fefe,0404,00fc,00fc,fefe,fefc,fefe,fc00,fefc,0200,0604,fefe,fefe,fefe,fefc,fefe,fcfe,fcfe,0000,f800,fcfe,fcfe,fefe,fefe,0000,0000,00fe,04fe,faf6,fefc,fefc,fefe,fefe,fefe,fc02,fcfc,00fa,f8fa,fcfa,fefc,0000,fefe,02fc,02fe,0002,fa00,00fa,fefc,0000,0000,00fe,fc02,fe00,0000,0000,0000,0000,0000,0000,0000,0000,0000,0000,0000,0000,0000,0000,0000,0000,0000,0000,0000,0000,0000,0000,0000,0000,0000,0000,0000,0000,0000,0000,0000,0000,0000,0000,0000,0000,0000,0000,0000,0000,0000,0000,0000,0000,0000,0000,0000,0000,0000,0000,0000,0000,0000,0000,0000,0000,0000,0000,0000,0000,0000,0000,0000,0000,0000,0000,0000,0000,0000,0000,0000,0000,0000,0000,0000,0000,0000,0000,0000,0000,0000,0000,0000,0000,0000,0000,0000,0000,0000,0000,0000,0000,0000,0000,0000,0000,0000,0000,0000,0000,0000,0000,0000,0000,0000,0000,0000,0000,0000,0000,0000,0000,0000,0000,0000,0000,0000,0000,0000,0000,0000,0000,0000,0000,0000,0000,0000,0000,0000,0000,0000,0000,0000,0000,0000,0000,0000,0000,0000,0000,0000,0000,0000,0000,0000,0000,0000,0000,0000,0000,0000,0000,0000,0000,0000,0000,0000,0000,0000,0000,0000,0000,0000,0000,0000,0000,0000,0000,0000,0000,0000,0000,0000,0000,0000,0000,0000,0000,0000,0000,0000,0000,0000,0000,0000,0000,0000,0000,0000,0000,0000,0000,0000,0000,0000,0000,0000,0000,0000,0000,0000,0000,0000,0000,0000,0000,0000,0000,0000,0000,0000,0000,0000,0000,0000,0000,0000,0000,0000,0000,0000,0000,0000,0000,0000,0000,0000,0000,0000,0000,0000,0000,0000,0000,0000,0000,0000,0000,0000,0000,0000,0000,0000,0000,0000,0000,0000,0000,0000,0000,0000,0000,0000,0000,0000,0000,0000,0000,0000,0000,0000,0000,0000,0000,0000,0000,0000,0000,0000,0000,0000,0000,0000,0000,0000,0000,0000,0000,0000,0000,0000,0000,0000,0000,0000,0000,0000,0000,0000,0000,0000,0000,0000,0000,0000,0000,0000,0000,0000,0000,0000,0000,0000,0000,0000,0000,0000,0000,0000,0000,0000,0000,0000,0000,0000,0000,0000,0000,0000,0000,0000,0000,0000,0000,0000,0000,0000,0000,0000,0000,0000,0000,0000,0000,0000,0000,0000,0000,0000,0000,0000,0000,0000,0000,0000,0000,0000,0000,0000,0000,0000,0000,0000,0000,0000,0000,0000,0000,0000,0000,0000,0000,0000,0000,0000,0000,0000,0000,0000,0000,0000,0000,0000,0000,0000,0000,0000,0000,0000,0000,0000,0000,0000,0000,0000,0000,0000,0000,0000,0000,0000,0000,0000,0000,0000,0000,0000,0000,0000,0000,0000,0000,0000,0000,0000,0000,0000,0000,0000,0000,0000,0000,0000,0000,0000,0000,0000,0000,0000,0000,0000,0000,0000,0000,0000,0000,0000,0000,0000,0000,0000,0000,0000,0000,0000,0000,0000,0000,0000,0000,0000,0000,0000,0000,0000,0000,
02fe,0202,fefa,fe04,00fe,fcfe,0200,00fe,fc04,00f8,00fe,fcfe,fe00,0002,0000,fefe,fefc,02fe,fef6,fe00,fefe,0000,fefe,fefe,fefe,0002,fafe,fcfe,0002,00fe,fefe,00fe,fefe,fefc,fc02,fefc,00fc,fefe,fefe,fefe,0000,fcfe,fefe,fcfe,fcfc,0000,fefe,fe00,0000,fe00,fefe,fefc,fefc,fefe,fefe,0000,fefe,0000,fefe,fefe,00fe,fefe,0002,0000,0000,fefe,fe00,fefc,fefe,fefe,fefe,0000,0000,fefe,fe00,fcfe,fafc,fefe,0402,0000,0000,0000,00fe,fe00,fcfe,0000,0206,0002,0202,0000,00fe,0000,fefe,fefe,00fc,0000,fe00,0000,fefe,0000,fefe,fefc,02fe,fefe,0000,0000,0000,fefe,fefe,fefe,fefe,0202,fe00,fe00,0000,0000,fefe,fefe,00fe,0000,fefe,00fe,00fe,0000,fefe,fefe,00fe,0000,00fe,fefe,fefe,fefe,fefe,fefe,fe00,fe00,fefc,fe00,fefe,fefe,00fe,fe00,0000,fefe,fe00,fc00,fcfc,fefe,fefe,fefe,fe00,0000,fefe,0200,fe02,fcfe,fefe,fefe,fefe,fefe,fe00,00fe,fafe,fefc,fefc,fefe,fefe,00fe,fefe,fe00,0200,fafc,fcfc,fefe,fefe,fefe,00fe,0000,fe00,fcfc,00fc,00fe,0000,fefe,fefe,0000,fefe,fe00,0200,0002,00fe,0000,fefe,fefe,fe00,fe00,fefe,0200,0000,fe00,fefe,fefe,00fe,fefe,fcfe,00fe,0000,0000,fe00,fe00,00fe,fe00,fefe,fefe,02fe,0000,0000,fefe,fefe,0000,fefe,0200,0000,0200,00fe,0000,fe00,0000,fefe,fefe,0202,0002,fe00,0000,0000,fe00,0000,fefe,fe00,0000,0200,00fe,0000,0000,00fe,fefe,fa00,fefe,fe00,0000,fefe,fe00,fe00,00fe,00fe,fe00,fefe,00fe,0000,0000,fe00,00fe,fefe,0400,fefe,fe00,fe00,fefe,fefe,fefa,00fe,0000,fe00,fefe,fefe,0000,0000,fefe,fefe,0000,0000,0000,00fe,fefe,0000,02fe,fefe,00fe,02fe,04f8,fc02,fc00,00fc,fcfe,fefc,0000,02fc,fc00,0202,fcfc,fc00,fefc,fcfa,fefe,0200,0004,0202,00fc,fefa,fcfe,fcfc,fafe,fcfe,0202,0000,fe02,00fc,fefc,fcfc,fcfc,fefc,fcfc,fefe,04fc,fcfc,00fc,fefe,fefc,fefe,fefe,0002,fc02,fe00,fcfe,00fe,fefe,0000,0002,fefe,fe02,fefc,0000,fc00,fefe,0000,0202,fe00,00fc,0600,00fe,00fe,0000,fe00,0202,0000,fefe,0000,0000,0200,0202,0000,0000,0000,fcfe,fefe,02fe,fe00,0000,0200,0000,0000,0000,fcfe,00fa,fe02,fe00,0000,0000,0000,0000,fe00,fe02,0800,0000,fefe,00fe,0000,0000,0000,fcfe,00fe,fefe,00fc,fefe,0000,0000,fe00,fefe,fefa,0000,00fe,fefe,fefe,fefe,fefe,0000,fefc,00fe,fefe,fefc,fefc,fefe,00fe,0000,fefe,00fe,fefc,fefe,fefe,fefe,fe00,00fe,fefe,fcfc,00fe,0002,fefe,fefc,00fe,fefe,fe00,0000,00fe,0404,fefe,fefe,fefe,fefe,fe00,00fe,fafc,0004,0200,fefe,fe00,fefe,fe00,fefe,fefe,0000,00fe,fefe,fefe,fe00,0000,0000,0000,0002,0000,fc00,fefe,0000,00fe,00fe,00fe,fe00,fa00,02fc,00fe,0000,0000,00fe,0000,0000,0200,fefe,02fe,fe00,0000,0000,0000,0000,0000,0200,f806,0000,fefe,fefe,00fe,0000,0000,0200,04fe,fefe,fefe,fe00,fefe,0000,0000,fe00,fefe,fefc,0000,0000,fefe,00fe,0000,0000,02fe,0000,0000,00fe,fefe,00fe,00fe,fe00,fe00,0000,0200,02fc,0000,00fe,fefe,0000,0000,fc00,0406,02fa,0000,fe00,fefe,fefe,fe00,fefe,0200,0404,0200,0000,fe00,fefe,0000,fe02,fe00,04fe,fe04,fe00,fefe,0000,fe00,0002,0000,00fe,0600,fefa,0000,fefe,0000,0002,fe00,fe02,0000,0402,fc00,00fc,0000,0202,00fe,0200,04fe,fe04,0000,0200,00fe,0202,0002,0200,fe04,fe02,0000,0000,0000,0000,0000,0000,0000,0000,0000,0000,0000,0000,0000,0000,0000,0000,0000,0000,0000,0000,0000,0000,0000,0000,0000,0000,0000,0000,0000,0000,0000,0000,0000,0000,0000,0000,0000,0000,0000,0000,0000,0000,0000,0000,0000,0000,0000,0000,0000,0000,0000,0000,0000,0000,0000,0000,0000,0000,0000,0000,0000,0000,0000,0000,0000,0000,0000,0000,0000,0000,0000,0000,0000,0000,0000,0000,0000,0000,0000,0000,0000,0000,0000,0000,0000,0000,0000,0000,0000,0000,0000,0000,0000,0000,0000,0000,0000,0000,0000,0000,0000,0000,0000,0000,0000,0000,0000,0000,0000,0000,0000,0000,0000,0000,0000,0000,0000,0000,0000,0000,0000,0000,0000,0000,0000,0000,0000,0000,0000,0000,0000,0000,0000,0000,0000,0000,0000,0000,0000,0000,0000,0000,0000,0000,0000,0000,0000,0000,0000,0000,0000,0000,0000,0000,0000,0000,0000,0000,0000,0000,0000,0000,0000,0000,0000,0000,0000,0000,0000,0000,0000,0000,0000,0000,0000,0000,0000,0000,0000,0000,0000,0000,0000,0000,0000,0000,0000,0000,0000,0000,0000,0000,0000,0000,0000,0000,0000,0000,0000,0000,0000,0000,0000,0000,0000,0000,0000,0000,0000,0000,0000,0000,0000,0000,0000,0000,0000,0000,0000,0000,0000,0000,0000,0000,0000,0000,0000,0000,0000,0000,0000,0000,0000,0000,0000,0000,0000,0000,0000,0000,0000,0000,0000,0000,0000,0000,0000,0000,0000,0000,0000,0000,0000,0000,0000,0000,0000,0000,0000,0000,0000,0000,0000,0000,0000,0000,0000,0000,0000,0000,0000,0000,0000,0000,0000,0000,0000,0000,0000,0000,0000,0000,0000,0000,0000,0000,0000,0000,0000,0000,0000,0000,0000,0000,0000,0000,0000,0000,0000,0000,0000,0000,0000,0000,0000,0000,0000,0000,0000,0000,0000,0000,0000,0000,0000,0000,0000,0000,0000,0000,0000,0000,0000,0000,0000,0000,0000,0000,0000,0000,0000,0000,0000,0000,0000,0000,0000,0000,0000,0000,0000,0000,0000,0000,0000,0000,0000,0000,0000,0000,0000,0000,0000,0000,0000,0000,0000,0000,0000,0000,0000,0000,0000,0000,0000,0000,0000,0000,0000,0000,0000,0000,0000,0000,0000,0000,0000,0000,0000,0000,0000,0000,0000,0000,0000,0000,0000,0000,0000,0000,0000,0000,0000,0000,0000,0000,0000,0000,0000,0000,0000,0000,0000,0000,0000,0000,0000,0000,0000,0000,0000,0000,0000,0000,0000,0000,0000,0000,0000,0000,0000,0000,0000,0000,0000,0000,0000,0000,0000,0000,0000,0000,0000,0000,0000,0000,0000,0000,0000,0000,0000,0000,0000,0000,0000,0000,
0602,0200,02f6,fef8,f8fc,f8f8,0204,02f8,fc04,00f8,00fc,fa02,00fc,f8fc,02fe,f800,0606,0202,fefa,fcf6,0000,fe02,fefe,0204,fafc,0000,0002,fcf8,0604,0202,0202,0406,02fe,fcfe,0404,0000,fe02,0204,0202,0802,0404,fcfe,fc00,fc00,06fa,0204,0200,02fe,0608,0002,fafa,0606,fc00,fefe,0000,fafc,0400,0604,02fe,fcfa,fe02,fefa,f8fa,0002,0000,0808,0200,fafc,0202,0002,f802,00fe,02fc,0604,0002,fe00,fcfe,0402,fefe,fef8,fe00,0400,fa02,fefe,fefe,f8fa,fe06,f6f8,0808,0202,0208,faf6,fcfe,00fc,fafc,00fa,0602,0406,0204,f8fc,02fe,0000,00fc,fefe,faf8,0404,0002,0000,f8f6,0004,fcfc,f606,faf6,02fc,0402,fe02,f8f6,0802,fefe,0000,f800,fefa,0406,0004,f6f6,fefa,fe02,fefc,fa02,faf6,0200,0200,f4fa,fefa,0406,fcfc,fe0a,f4f6,fefc,0204,fafc,f8f4,0202,fafc,fcfc,f6fe,f8f2,0202,fafc,f6f6,0000,fa02,fcfa,02fe,fcf8,faf6,fefe,fcfe,04fe,0200,faf6,fcfe,0004,fafc,fafa,fcfc,0000,fafe,f6f8,fcfa,fcfe,0000,0000,fefc,0404,fe02,f4f2,fafa,fefa,fefc,0202,fe00,0404,0404,f0f2,faf6,fcfa,f6fc,fefc,0604,0402,0404,f4fa,f4f2,fefe,fcfe,f6f4,0400,0202,0204,fafc,f0f2,fcf8,fefe,f8fe,f6f8,00fe,0404,0002,f4f4,f6f4,fefe,fe00,fcfa,fefc,0200,0002,f4f6,fafa,fefe,00fe,fafe,fc02,fefe,fefe,f8fa,fcfa,fcfa,fcfc,fcfc,fefc,fefe,fefe,fcfc,fefc,fafa,fefe,fefc,f6f8,0200,0000,fe00,fefe,0000,fefc,fafa,f4fe,02fe,fe00,fefe,00fe,0202,00fc,fafe,00fc,f8f8,fe00,fefe,fefc,0200,fe00,fefe,fcfc,fe00,00fe,fe00,00fe,0000,0002,fcfc,fcfe,0000,f8fe,0604,fe00,00fe,02fc,00fe,fe00,0000,0000,02fc,0204,00fc,00fe,fcfe,fcfc,0200,0200,0200,0608,0000,0208,0004,0406,0800,0202,0a02,020c,fefc,0c0a,0808,0200,0c0c,fe04,0200,fc12,0202,0406,0806,0202,0808,0008,0600,0806,0006,04fe,0602,0206,0808,0a08,0802,0a00,0e06,fafe,fe00,0402,0402,0a0c,080a,060a,0802,00fe,0200,00fc,0000,0c06,0606,0804,0806,0808,0004,f6f6,0204,0200,0406,0606,0604,020a,06fe,f8f6,04fe,0200,0404,f4f8,0200,fe02,0004,fefe,fcf6,0406,0404,fe00,f8f2,0606,0806,0206,f8f6,0606,0608,0000,f4f6,00f6,0400,0202,0000,02fe,0602,0202,00fc,f8f8,0800,0202,0002,fcf6,0204,0204,fafa,fefe,faf8,080e,0400,f8fe,0404,0404,fafe,fefe,0204,04fc,0c0c,0006,fcf8,0604,fe00,f8fa,0604,f800,fe06,0406,f8fc,0604,0004,faf8,00fe,0000,04fe,fc0a,0204,00fe,0002,fcfc,00fe,fe02,fc00,0804,020a,0404,0000,fcfe,fcfc,0200,f8fa,f4fc,06fc,0404,0202,fcfe,fefe,02fe,f600,fef8,fafc,0400,0806,0002,00fe,0202,fcfe,f6f4,08fe,0404,0600,0200,fefe,0404,f8fe,f0f2,f8fc,fefe,fcfe,0000,0202,0202,0002,f2f4,00f8,0202,0404,fcf8,00fc,fe00,0404,f8fa,f6f0,fe04,0404,fe02,f8fa,0000,0200,0002,f8f8,fcfe,fc04,0202,0000,fcfc,fcfe,0404,f8fc,fefc,0002,fefe,fc00,fa00,fcfc,00fc,0000,fcfc,fcfc,0a0c,0808,00fc,fefc,fcfa,fefe,fc02,fcfa,0000,0406,fc04,fefe,fcfe,0000,02fc,fefc,0402,0202,0402,06fe,fefe,0000,02fe,0004,fcfe,fe02,0004,04fe,0000,00fe,0204,0206,0004,0008,0202,0604,fe02,0002,0404,0606,0404,fcfe,0002,0400,020a,0400,0406,0606,0406,0200,0400,0208,0400,0000,0604,0604,0202,0808,0006,fe04,0204,0200,0202,0206,0202,02fc,0a00,0404,0a00,0206,080a,080a,0604,00fe,0000,0804,08fc,02fe,0000,0000,0000,0000,0000,0000,0000,0000,0000,0000,0000,0000,0000,0000,0000,0000,0000,0000,0000,0000,0000,0000,0000,0000,0000,0000,0000,0000,0000,0000,0000,0000,0000,0000,0000,0000,0000,0000,0000,0000,0000,0000,0000,0000,0000,0000,0000,0000,0000,0000,0000,0000,0000,0000,0000,0000,0000,0000,0000,0000,0000,0000,0000,0000,0000,0000,0000,0000,0000,0000,0000,0000,0000,0000,0000,0000,0000,0000,0000,0000,0000,0000,0000,0000,0000,0000,0000,0000,0000,0000,0000,0000,0000,0000,0000,0000,0000,0000,0000,0000,0000,0000,0000,0000,0000,0000,0000,0000,0000,0000,0000,0000,0000,0000,0000,0000,0000,0000,0000,0000,0000,0000,0000,0000,0000,0000,0000,0000,0000,0000,0000,0000,0000,0000,0000,0000,0000,0000,0000,0000,0000,0000,0000,0000,0000,0000,0000,0000,0000,0000,0000,0000,0000,0000,0000,0000,0000,0000,0000,0000,0000,0000,0000,0000,0000,0000,0000,0000,0000,0000,0000,0000,0000,0000,0000,0000,0000,0000,0000,0000,0000,0000,0000,0000,0000,0000,0000,0000,0000,0000,0000,0000,0000,0000,0000,0000,0000,0000,0000,0000,0000,0000,0000,0000,0000,0000,0000,0000,0000,0000,0000,0000,0000,0000,0000,0000,0000,0000,0000,0000,0000,0000,0000,0000,0000,0000,0000,0000,0000,0000,0000,0000,0000,0000,0000,0000,0000,0000,0000,0000,0000,0000,0000,0000,0000,0000,0000,0000,0000,0000,0000,0000,0000,0000,0000,0000,0000,0000,0000,0000,0000,0000,0000,0000,0000,0000,0000,0000,0000,0000,0000,0000,0000,0000,0000,0000,0000,0000,0000,0000,0000,0000,0000,0000,0000,0000,0000,0000,0000,0000,0000,0000,0000,0000,0000,0000,0000,0000,0000,0000,0000,0000,0000,0000,0000,0000,0000,0000,0000,0000,0000,0000,0000,0000,0000,0000,0000,0000,0000,0000,0000,0000,0000,0000,0000,0000,0000,0000,0000,0000,0000,0000,0000,0000,0000,0000,0000,0000,0000,0000,0000,0000,0000,0000,0000,0000,0000,0000,0000,0000,0000,0000,0000,0000,0000,0000,0000,0000,0000,0000,0000,0000,0000,0000,0000,0000,0000,0000,0000,0000,0000,0000,0000,0000,0000,0000,0000,0000,0000,0000,0000,0000,0000,0000,0000,0000,0000,0000,0000,0000,0000,0000,0000,0000,0000,0000,0000,0000,0000,0000,0000,0000,0000,0000,0000,0000,0000,0000,0000,0000,0000,0000,0000,0000,0000,0000,0000,0000,0000,0000,0000,0000,0000,0000,0000,0000,0000,0000,0000,0000,0000,0000,0000,0000,0000,0000,0000,0000,0000,0000,0000,0000,0000,0000,0000,0000,
0400,0202,fefc,fe04,0000,fcfe,0200,00fc,fa02,fef8,00fe,fafc,0000,0000,00fe,fefe,fefe,0000,fef6,fe00,fefc,fefe,fe00,fefc,fefc,0002,fa00,fe00,0000,fefe,fefe,00fe,fefe,fcfc,fc02,00fc,fefa,fefc,fefe,fefe,fefe,fcfe,fefc,fe00,fcfc,fefe,fefe,fefe,00fe,fefe,fefe,fcfe,0000,fefe,fcfc,fe00,fefe,fefe,fefe,fefe,0202,0200,0000,00fe,fefe,fefc,fefe,fcfc,0000,0000,fcfc,fefe,fefe,fefe,fefe,fcfe,fafc,00fe,0202,fefe,0000,fcfe,fefe,fefe,fcfc,fefe,0002,fe00,00fe,fefe,fefc,fefe,fcfe,fcfe,fefc,fcfe,fefe,0000,fefe,fefe,fefe,fcfc,00fe,fcfe,0000,fe00,fefe,fefe,fefe,fcfe,fcfc,00fe,fe00,0000,fe00,fefe,fefe,fefe,fefe,fefe,fc00,00fe,fefe,fefe,fefe,fefe,fefe,0000,00fc,fefe,fefe,fefe,fefe,fefe,fefe,00fe,fefc,fefe,fcfe,fefe,fefe,fefe,00fe,fefe,00fe,fc00,fcfc,fcfc,fefe,fefe,00fe,fefe,fefe,fefe,fc00,fafc,fefe,fefe,fefe,fefe,fefe,00fe,fcfe,fcfc,fcfc,fefe,fefe,fefe,fe00,fe00,0000,fcfc,fcfc,fefe,fefe,fefe,fefe,fe00,00fe,fefe,fefc,fefe,0000,fefe,fefe,00fe,fefe,fefe,0200,0000,fefe,0000,fefe,fefe,00fe,fefe,0000,0200,0000,fefe,fefe,fefe,0000,fefe,fefe,0000,0200,0000,fefe,fefe,fefe,fe00,fefe,fefe,0200,0000,00fe,fefe,fefe,00fe,fefe,0400,0000,0200,fe00,fe00,fefe,fefe,fefe,fefe,0204,0000,0000,fe00,fefe,fefe,fefe,00fe,fe02,0200,0002,0000,fe00,fefe,fefe,fefe,fa00,fefe,0000,fefe,fefe,fefe,fcfe,fefe,0000,fe00,fe00,fefe,fefe,fefe,fcfe,fefe,fefe,0200,fefe,fe00,fefe,fefe,fefe,fcfa,00fe,0000,fe00,fefe,fefe,00fe,fefe,fe00,fe00,00fe,0200,0000,fe00,00fe,00fe,02fe,fefe,fe00,00fe,00f8,fc02,fa00,fefe,fc00,00fa,fe00,00fc,fcfe,0200,fafc,fefc,fcfc,fcfa,fefc,fefe,0002,0002,fefa,fcfa,fcfc,fcfa,fa00,fefe,00fe,00fe,fafe,fefc,fefc,fcfc,fcfa,fefc,fafc,fefe,02fa,fcfc,00fe,0000,fcfc,00fe,fcfc,fefe,fc02,00fe,0000,0202,fefc,fefe,fe00,fefc,fcfe,00fc,0000,fe00,0000,fefe,0000,fefe,fcfe,00fe,fefe,00fe,0002,fcfe,00fe,00fe,fe00,fcfc,fe00,00fe,0200,fe00,0000,0000,fcfe,fcfe,02fc,fc00,fefe,0200,fefe,0000,fefe,fcfe,fef8,fc00,fcfe,fefe,fe00,fe00,fe00,fc00,fe00,04fc,fefe,fefc,00fe,fefe,00fe,fefe,fcfc,fcfc,fefe,fefc,fefe,fefe,fefe,fefe,fe00,fcfc,f8fe,00fe,fefe,fefe,fefe,fefe,fefe,fcfa,00fc,fcfc,fefc,fefe,fefe,fefe,fefe,fcfe,fefe,fcfc,fefc,fefe,fcfc,fefe,fefe,fefe,fafc,fef8,fefe,fefe,fcfc,fcfc,fefe,fcfe,fcfe,fefe,0000,0000,fcfe,fcfc,fefe,fcfe,fefe,fafc,00fe,02fe,fefe,fcfe,fefe,fefe,fefc,fefc,fcfc,fefc,fcfe,fefe,fefe,fefe,fefe,00fe,00fe,fefe,fa00,fefe,fe00,fefe,fefe,fefe,fcfe,fafe,00fa,00fe,00fe,fefe,fefe,fefe,fefe,fefe,fcfe,02fc,fcfe,fcfe,fe00,fefe,fefe,fefe,00fe,f806,fe00,fefe,fefe,fefe,fefe,fefe,fefe,06fc,fefc,fcfc,fcfc,fefe,fefe,fefe,fafe,fefc,fcfa,fefe,fcfe,fefe,fefe,00fe,fefe,00fe,0000,fefe,fefe,fefe,fefe,fefe,fefe,fcfe,0400,00fe,00fc,fefe,fefe,fefe,fefe,fe00,fa00,0204,00fa,00fe,fefe,fefc,fefc,fcfe,fefa,0000,0604,00fe,fefe,fefe,fefe,00fe,fcfe,fefe,0000,fa02,fefe,fefe,fcfe,fcfe,0000,fe00,00fc,06fe,fefa,00fe,fefc,fefe,0000,fefc,fe02,fefe,0200,fcfc,fcfc,fefe,0000,fefe,02fe,02fe,fe00,fc02,00fc,fefc,00fe,fefe,0000,fc02,fe00,0000,0000,0000,0000,0000,0000,0000,0000,0000,0000,0000,0000,0000,0000,0000,0000,0000,0000,0000,0000,0000,0000,0000,0000,0000,0000,0000,0000,0000,0000,0000,0000,0000,0000,0000,0000,0000,0000,0000,0000,0000,0000,0000,0000,0000,0000,0000,0000,0000,0000,0000,0000,0000,0000,0000,0000,0000,0000,0000,0000,0000,0000,0000,0000,0000,0000,0000,0000,0000,0000,0000,0000,0000,0000,0000,0000,0000,0000,0000,0000,0000,0000,0000,0000,0000,0000,0000,0000,0000,0000,0000,0000,0000,0000,0000,0000,0000,0000,0000,0000,0000,0000,0000,0000,0000,0000,0000,0000,0000,0000,0000,0000,0000,0000,0000,0000,0000,0000,0000,0000,0000,0000,0000,0000,0000,0000,0000,0000,0000,0000,0000,0000,0000,0000,0000,0000,0000,0000,0000,0000,0000,0000,0000,0000,0000,0000,0000,0000,0000,0000,0000,0000,0000,0000,0000,0000,0000,0000,0000,0000,0000,0000,0000,0000,0000,0000,0000,0000,0000,0000,0000,0000,0000,0000,0000,0000,0000,0000,0000,0000,0000,0000,0000,0000,0000,0000,0000,0000,0000,0000,0000,0000,0000,0000,0000,0000,0000,0000,0000,0000,0000,0000,0000,0000,0000,0000,0000,0000,0000,0000,0000,0000,0000,0000,0000,0000,0000,0000,0000,0000,0000,0000,0000,0000,0000,0000,0000,0000,0000,0000,0000,0000,0000,0000,0000,0000,0000,0000,0000,0000,0000,0000,0000,0000,0000,0000,0000,0000,0000,0000,0000,0000,0000,0000,0000,0000,0000,0000,0000,0000,0000,0000,0000,0000,0000,0000,0000,0000,0000,0000,0000,0000,0000,0000,0000,0000,0000,0000,0000,0000,0000,0000,0000,0000,0000,0000,0000,0000,0000,0000,0000,0000,0000,0000,0000,0000,0000,0000,0000,0000,0000,0000,0000,0000,0000,0000,0000,0000,0000,0000,0000,0000,0000,0000,0000,0000,0000,0000,0000,0000,0000,0000,0000,0000,0000,0000,0000,0000,0000,0000,0000,0000,0000,0000,0000,0000,0000,0000,0000,0000,0000,0000,0000,0000,0000,0000,0000,0000,0000,0000,0000,0000,0000,0000,0000,0000,0000,0000,0000,0000,0000,0000,0000,0000,0000,0000,0000,0000,0000,0000,0000,0000,0000,0000,0000,0000,0000,0000,0000,0000,0000,0000,0000,0000,0000,0000,0000,0000,0000,0000,0000,0000,0000,0000,0000,0000,0000,0000,0000,0000,0000,0000,0000,0000,0000,0000,0000,0000,0000,0000,0000,0000,0000,0000,0000,0000,0000,0000,0000,0000,0000,0000,0000,0000,0000,0000,0000,0000,0000,0000,0000,0000,0000,0000,0000,0000,0000,0000,0000,0000,0000,0000,0000,0000,0000,0000,
02fe,0202,fefc,f8fe,fcfe,fefe,0400,00fc,fa04,fcf8,fe00,fafa,fefe,0000,fefc,fefc,fefe,0202,fef8,fefe,00fe,fc00,fefe,fefc,fcfa,0002,fcfe,02fe,00fe,fc00,fefc,0000,fefc,fcfc,0006,02fa,00fc,fcfa,fafe,fefe,02fe,fefc,fefe,fafe,fe00,fe00,fefc,fcfe,0000,fefe,fefc,0202,fcfc,02fc,fafa,fefc,fefe,fefc,fcfc,fefe,0402,00fe,0000,fefe,fa00,fcfc,fefe,fcfc,fcfe,fefe,fefc,fe00,fefe,fcfc,fcfe,fcfe,00fc,fefc,fefe,0404,00fe,fafa,fefa,fefe,fefc,00fe,fa00,fcfc,0606,fe00,fafa,fcfc,fefe,fefe,00fc,f8fa,0204,0004,fc00,fcfe,fefc,fefe,06fc,fcfe,0002,02fe,0204,fcfc,fefc,fcfc,00fc,fcfe,02fc,fcfe,0202,0202,fcfe,fcfe,fefc,0000,fcfe,0000,fefc,fe02,0000,fcfe,fefe,fcfe,fe02,0002,fafc,00fe,0000,fcfe,fcfe,fe00,0400,0806,fafc,00fe,fe00,0000,fefe,fe00,fe00,fe02,fa02,fcfa,00fe,00fe,fe00,fefe,fefe,02fe,0402,f8fa,fefe,fefe,fefe,fefe,fefe,00fe,fa00,fcfe,fafa,00fc,fcfc,fefe,fcfe,fefe,0002,fcf6,fcfc,fafa,fe00,fcfc,fefe,fefe,00fe,0000,fefe,fcfe,0200,fcfc,fefe,fefc,fefe,0404,0004,0006,0000,0002,fcfc,fcfc,fefe,fefe,0800,0604,0404,0202,fe00,00fe,fcfe,fefe,f8fc,0408,0402,0606,0202,fc00,fc00,fcfc,fefe,fefc,0202,0402,0002,0206,fe00,fcfc,fefc,0806,0404,0400,0404,0400,0202,fefc,fefe,00fe,080a,0002,00fe,fefe,0402,fe02,fcfc,fefe,0404,0404,0202,fefe,0000,fe04,fefc,fefe,fa00,02fe,0204,fefe,00fe,0202,fe02,fefe,00fe,fe00,fefe,fefe,fcfe,0002,fe00,fefe,fefe,fe00,fefe,fe00,fcfc,fe00,0200,00fe,fe00,0000,0000,fefe,fefe,fefe,fe00,0006,0000,fefe,0000,0000,fefe,fefe,fafe,00fc,0200,fe00,0200,02fa,f802,fefc,fefe,fcfe,00fc,fe04,fe02,fa00,0600,fcfc,0000,fcf8,fafe,0400,0402,0010,0406,04fe,04fa,fc00,fcfe,fc00,fc00,0406,04fe,fa04,0000,00fc,02fa,fcfa,00fc,fa00,fe02,00f8,fa00,0200,fe02,fcfa,00fc,00fa,0200,fe0a,00fe,0000,0804,fafc,f8fc,00fe,fefe,fe04,fefe,0202,fcfe,0406,fc00,fc00,fcfc,00fc,0a00,fefe,fefc,0a06,fe02,0000,00fe,0006,fcfe,fe02,fafc,0400,0606,0002,00fe,fcfc,0204,06fe,fcfe,fcfc,0204,0404,fe00,0000,fcfa,04fc,0202,fa02,0000,00fe,0404,0404,fe02,0408,0c00,0006,0000,fcfc,00fe,0402,0404,fcfa,fc00,02fe,00fa,fefe,fafa,0002,0402,0000,0400,0204,0002,fc02,fcfc,00fe,00fe,0004,fcfa,0000,02fc,0200,f6fa,fefa,fafe,02fe,0400,fc02,0804,0000,fc00,faf8,fcfc,fefa,0200,00fe,0000,0004,00fc,f8fa,fcfa,fcfa,fcfc,00fe,fefe,0200,0202,fafa,fafa,fafa,fafe,00fe,fa00,0002,0afc,fafc,fcfc,fafe,fcfc,f8fa,00fa,00fc,fe02,fefe,f8fc,fcfc,fe00,fefe,02fc,0204,fe00,f806,00fe,fefe,0000,0000,fafc,fe00,fafe,0402,02fc,0202,0200,0000,0002,fafa,02fe,fcfe,fefe,fe00,0000,0202,0000,fe00,0000,0000,fc08,fefa,fe00,fefe,fefe,0202,fefe,fe00,08fe,fc00,fcfe,fe02,fcfe,00fe,0000,fcfe,fcfc,fefe,fe00,fe00,fcfc,fcfc,00fe,fcfa,0002,fe00,00fe,02fc,fcfc,fcfa,00fc,fcfe,fcfe,06fc,06fe,04fa,0000,fefc,fefc,fefe,fefe,fc00,0406,02f8,fe06,fe00,fcfc,fcfc,00fe,fcfc,00fe,04fe,00fe,0000,fcfe,fefe,00fe,fe04,fc02,0208,00fc,fe02,fe00,fe00,fcfe,0000,00fe,fe00,0600,00fa,04fe,fcfa,0200,0200,02fe,0000,0000,fe02,0200,02fc,fc00,0200,0000,04fe,0604,0002,f602,0604,fefc,00fa,0000,0200,fe02,0000,0000,0000,0000,0000,0000,0000,0000,0000,0000,0000,0000,0000,0000,0000,0000,0000,0000,0000,0000,0000,0000,0000,0000,0000,0000,0000,0000,0000,0000,0000,0000,0000,0000,0000,0000,0000,0000,0000,0000,0000,0000,0000,0000,0000,0000,0000,0000,0000,0000,0000,0000,0000,0000,0000,0000,0000,0000,0000,0000,0000,0000,0000,0000,0000,0000,0000,0000,0000,0000,0000,0000,0000,0000,0000,0000,0000,0000,0000,0000,0000,0000,0000,0000,0000,0000,0000,0000,0000,0000,0000,0000,0000,0000,0000,0000,0000,0000,0000,0000,0000,0000,0000,0000,0000,0000,0000,0000,0000,0000,0000,0000,0000,0000,0000,0000,0000,0000,0000,0000,0000,0000,0000,0000,0000,0000,0000,0000,0000,0000,0000,0000,0000,0000,0000,0000,0000,0000,0000,0000,0000,0000,0000,0000,0000,0000,0000,0000,0000,0000,0000,0000,0000,0000,0000,0000,0000,0000,0000,0000,0000,0000,0000,0000,0000,0000,0000,0000,0000,0000,0000,0000,0000,0000,0000,0000,0000,0000,0000,0000,0000,0000,0000,0000,0000,0000,0000,0000,0000,0000,0000,0000,0000,0000,0000,0000,0000,0000,0000,0000,0000,0000,0000,0000,0000,0000,0000,0000,0000,0000,0000,0000,0000,0000,0000,0000,0000,0000,0000,0000,0000,0000,0000,0000,0000,0000,0000,0000,0000,0000,0000,0000,0000,0000,0000,0000,0000,0000,0000,0000,0000,0000,0000,0000,0000,0000,0000,0000,0000,0000,0000,0000,0000,0000,0000,0000,0000,0000,0000,0000,0000,0000,0000,0000,0000,0000,0000,0000,0000,0000,0000,0000,0000,0000,0000,0000,0000,0000,0000,0000,0000,0000,0000,0000,0000,0000,0000,0000,0000,0000,0000,0000,0000,0000,0000,0000,0000,0000,0000,0000,0000,0000,0000,0000,0000,0000,0000,0000,0000,0000,0000,0000,0000,0000,0000,0000,0000,0000,0000,0000,0000,0000,0000,0000,0000,0000,0000,0000,0000,0000,0000,0000,0000,0000,0000,0000,0000,0000,0000,0000,0000,0000,0000,0000,0000,0000,0000,0000,0000,0000,0000,0000,0000,0000,0000,0000,0000,0000,0000,0000,0000,0000,0000,0000,0000,0000,0000,0000,0000,0000,0000,0000,0000,0000,0000,0000,0000,0000,0000,0000,0000,0000,0000,0000,0000,0000,0000,0000,0000,0000,0000,0000,0000,0000,0000,0000,0000,0000,0000,0000,0000,0000,0000,0000,0000,0000,0000,0000,0000,0000,0000,0000,0000,0000,0000,0000,0000,0000,0000,0000,0000,0000,0000,0000,0000,0000,0000,0000,0000,0000,0000,0000,0000,0000,0000,0000,0000,0000,0000,0000,0000,0000,0000,0000,0000,0000,0000,
06fa,fe02,fe06,fcf6,fc02,f800,00fe,0402,fa00,fefe,0200,fefa,02fa,fa02,fefc,00fe,fcfc,fafa,f8f4,faf6,fafc,f2f4,f8f6,f4f6,fc00,0004,f8f4,faf4,fcf8,f8fe,f8f4,fcf8,f8f6,f8fa,f604,fcfa,00fa,fe02,f6f8,f6f4,f2f2,f4f4,fe04,fafc,0400,0400,fcfe,f4f6,f4f4,f4f2,faf8,fe02,00fe,0200,fe00,fafc,f0f4,f2f6,fef8,00fe,0200,0404,0002,fefe,f4fc,f4f8,f4f2,0000,0004,0608,0202,fefe,0002,f8f8,f8f8,fcf6,0006,0006,0404,fcfe,0202,f8fc,fafa,eeec,0400,fcfe,00fe,fcfa,0002,0002,00fe,f4fe,f6f2,0404,f8fa,fefc,0204,0202,0204,0202,ecea,0802,fefc,fcf6,0200,0204,0200,0c0c,eef2,f6ec,0402,f8f8,0200,0406,fafa,0e0a,f806,e8e8,0200,00fc,fefc,0202,fe00,06fc,1416,eaf0,f6ec,00fe,fafa,0002,0400,f4f8,1614,f404,ece8,fcfa,fc00,fefa,fefe,fc02,0cfc,1216,eef4,f8f6,00fe,00fe,fcfe,0202,f6f6,1210,f8fe,faf6,02fa,fef8,fe00,00fe,fc00,0a02,080e,fafa,fafa,0402,fefc,fcfe,0206,faf6,0808,f6fa,fefa,0400,f4fe,fefc,0602,fe00,02fe,0404,fefc,fefc,0000,faf8,fefe,0202,f6fc,0202,fa02,00fe,0200,fcfe,fefa,04fe,fefe,00fa,0204,0200,fcfc,fe00,fcfc,00fe,0202,fafa,0402,fcfe,fe00,fefc,fcfe,fcfc,0600,0002,00fe,fe02,fcfe,fcfa,0202,fafc,fefe,0002,fafc,0002,fcfe,fcf6,00fe,fa00,faf8,fcfe,faf8,00fc,fafc,f4f4,fafa,0202,fcfa,fe00,f8f8,f8f8,fe00,f6fa,fefa,fefc,fafa,fefc,fafa,f8fa,faf8,fafa,faf6,f8fe,fa00,00fe,fefe,fcfc,faf8,fc02,fafa,faf8,02fa,f8fa,0000,f8fa,fafe,02fe,fefa,f6fa,f8fa,fc02,fefe,00fe,fcf8,f8f8,fc00,fefe,fafa,00fe,fafc,00fe,f6fa,fcf8,02fe,02fc,f8fa,fafa,0000,fc00,fcfe,f4f8,fcfc,fe04,fa02,fcf8,00fe,060a,04fe,0002,06fc,00fe,fefa,fe06,0406,020c,0200,fe04,fefc,0206,00fc,04fe,020c,0204,0806,fcfa,fcfa,0606,0004,02fe,fc04,fe06,0c0a,fa02,fafc,fe00,0604,0208,02fc,0204,0408,0804,fa00,fc00,0400,0808,0200,fcfe,0402,0008,fa04,0200,fcfe,0602,060a,0002,fafe,0a04,0808,0402,fcfe,00fc,0604,0404,fe00,0402,0800,fe02,0204,fafa,0804,0604,fcfe,00fe,0204,fe04,0402,f6f8,fefc,0202,fafe,faf6,fe06,0804,0006,fcfe,fefe,fcfe,0202,f8fa,02fc,1012,08fe,0006,fcfa,fcfe,fefe,0000,f8f6,06fc,0604,0608,fcfe,fcfc,f8f8,0204,f6ee,0402,0612,0608,0202,fcfc,f8fc,0602,ecf8,00f6,0402,020a,0600,00fc,fe00,02fc,fe06,f0e8,04fc,040c,0a00,0004,0000,fcfa,0a0c,e2e8,0000,080a,040c,0408,fefe,fe00,0c06,f802,fcf2,0206,0a06,0602,0202,0200,fefe,0a0a,ece8,fefe,0a08,0204,0606,fe00,fefe,0e08,f400,fcf8,0608,0608,0204,0000,fefe,00fc,0408,f4f2,04fa,0604,fe00,0002,fe00,fc00,0602,f800,fc00,0600,0608,fe02,fe00,fefe,fcfe,0204,faf6,0a04,0c00,0200,fefe,00fe,fe00,0202,fafe,0a08,0604,0602,fefc,fefc,00fe,00fe,0202,0000,0608,0a08,0204,0002,0000,0000,0404,fafe,0604,0206,0a00,fefe,fe00,0200,0200,0002,00fe,0400,00fc,04fe,0602,0404,0202,0400,fcfe,fefe,fc00,0808,0000,0604,0204,0200,fe04,00fc,fcfc,0402,0206,0400,0000,0206,0002,fafa,f800,fafc,0402,fefe,0202,fefe,fe00,fc00,fc00,fafe,fe04,0ef8,0202,fe00,fe00,00fc,fefe,00fe,02fa,0c06,fc00,0406,fe00,fefe,0000,fe00,02fc,02fa,0202,00fe,0206,0000,00fc,00fe,08fe,0202,0206,fc02,0204,fcfa,fefc,fe02,0400,060a,fc00,0afe,fe06,0202,0002,0800,0c06,0402,0002,0802,0000,0000,0000,0000,0000,0000,0000,0000,0000,0000,0000,0000,0000,0000,0000,0000,0000,0000,0000,0000,0000,0000,0000,0000,0000,0000,0000,0000,0000,0000,0000,0000,0000,0000,0000,0000,0000,0000,0000,0000,0000,0000,0000,0000,0000,0000,0000,0000,0000,0000,0000,0000,0000,0000,0000,0000,0000,0000,0000,0000,0000,0000,0000,0000,0000,0000,0000,0000,0000,0000,0000,0000,0000,0000,0000,0000,0000,0000,0000,0000,0000,0000,0000,0000,0000,0000,0000,0000,0000,0000,0000,0000,0000,0000,0000,0000,0000,0000,0000,0000,0000,0000,0000,0000,0000,0000,0000,0000,0000,0000,0000,0000,0000,0000,0000,0000,0000,0000,0000,0000,0000,0000,0000,0000,0000,0000,0000,0000,0000,0000,0000,0000,0000,0000,0000,0000,0000,0000,0000,0000,0000,0000,0000,0000,0000,0000,0000,0000,0000,0000,0000,0000,0000,0000,0000,0000,0000,0000,0000,0000,0000,0000,0000,0000,0000,0000,0000,0000,0000,0000,0000,0000,0000,0000,0000,0000,0000,0000,0000,0000,0000,0000,0000,0000,0000,0000,0000,0000,0000,0000,0000,0000,0000,0000,0000,0000,0000,0000,0000,0000,0000,0000,0000,0000,0000,0000,0000,0000,0000,0000,0000,0000,0000,0000,0000,0000,0000,0000,0000,0000,0000,0000,0000,0000,0000,0000,0000,0000,0000,0000,0000,0000,0000,0000,0000,0000,0000,0000,0000,0000,0000,0000,0000,0000,0000,0000,0000,0000,0000,0000,0000,0000,0000,0000,0000,0000,0000,0000,0000,0000,0000,0000,0000,0000,0000,0000,0000,0000,0000,0000,0000,0000,0000,0000,0000,0000,0000,0000,0000,0000,0000,0000,0000,0000,0000,0000,0000,0000,0000,0000,0000,0000,0000,0000,0000,0000,0000,0000,0000,0000,0000,0000,0000,0000,0000,0000,0000,0000,0000,0000,0000,0000,0000,0000,0000,0000,0000,0000,0000,0000,0000,0000,0000,0000,0000,0000,0000,0000,0000,0000,0000,0000,0000,0000,0000,0000,0000,0000,0000,0000,0000,0000,0000,0000,0000,0000,0000,0000,0000,0000,0000,0000,0000,0000,0000,0000,0000,0000,0000,0000,0000,0000,0000,0000,0000,0000,0000,0000,0000,0000,0000,0000,0000,0000,0000,0000,0000,0000,0000,0000,0000,0000,0000,0000,0000,0000,0000,0000,0000,0000,0000,0000,0000,0000,0000,0000,0000,0000,0000,0000,0000,0000,0000,0000,0000,0000,0000,0000,0000,0000,0000,0000,0000,0000,0000,0000,0000,0000,0000,0000,0000,0000,0000,0000,0000,0000,0000,0000,0000,0000,0000,0000,0000,0000,0000,0000,0000,0000,0000,0000,0000,0000,0000,0000,0000,0000,
02fc,0002,fefa,faf6,f4f4,fefc,00f8,f2f6,00fc,f402,fe0a,f4f4,fafc,02fa,fa02,f6f8,faf8,02fe,0202,eef6,f6f0,00f8,0206,fe00,f6f6,fefa,fa00,fafe,f8f4,fafa,0404,00fa,0004,fcfa,fe04,fa00,fa02,fafa,0802,fe04,0606,fafc,fefe,f6fa,f8f8,f8f8,0200,0606,fe00,020a,f6f6,f6f6,f2fa,eeee,fcfa,0200,0200,0a08,fafe,fefe,f8fa,f0f0,fcf8,02fe,0204,0200,0408,fef8,f8fa,f2f4,f4f0,00fc,0404,0202,0200,fc00,0600,f6f8,eeea,fcf4,0406,0404,00fe,02fe,fe00,fefe,f0f6,f6f4,fefc,0406,fefc,fefc,0000,fcfc,060c,f6f6,fefc,0404,0604,00fe,fe00,f8fa,fe06,0004,fefe,0200,0204,fe00,0402,0402,f6f4,0406,00fe,0000,0200,0002,0202,fe04,f8f8,fef8,0204,fe00,fefe,0000,0400,fe02,f4f4,fcfc,0000,0404,fefe,02fe,fe00,f8fc,eaea,f8f4,fcfc,0202,fc00,fefe,0202,f8fa,e8ee,f0ea,fafe,fe00,0002,fefc,0400,fe00,ecee,e6e8,f8f6,faf6,0806,0404,0404,0004,f0f8,f0f2,ece8,fcfa,00fe,0808,0604,080c,f8fa,f2f2,ecee,f6f6,f6f0,0400,0a0a,0e0e,0004,f6f2,eef4,eef0,fef8,fcfc,0402,0e10,080c,fafc,faf8,f2f2,f4f2,f4f2,02fc,0a06,0a0e,0206,fcfc,f8f6,f6f6,fcfe,f8f6,0200,0808,0402,fe00,f6f8,fafa,fcfa,f6f6,fcfc,0202,fe02,0002,fefe,00fc,fefe,f8fa,fcfa,fefe,fefc,fcfe,fcfc,fcfe,fe00,fcfc,f4f6,fcfc,fafa,fefe,fefe,0002,fefc,0004,fafe,fafa,faf8,fcfc,fe00,fefe,fefc,0602,fc02,faf4,fc00,fefc,fefe,fefe,0202,02fe,fe02,fafc,fefe,fcfe,fefc,fcfc,0200,02fe,02fe,0000,f8f0,fefe,fcfc,fefe,fcfc,00fc,fcfe,fefe,0000,f4f4,f4f8,fcfe,fcfc,f8f6,f8fe,00fc,0202,f6ee,f0f4,f4f2,f2f4,ecf0,fcf4,f8f8,0202,0002,f6f0,eaec,ecec,eef0,f6f2,fcf8,fcfa,0204,0c0c,0c12,0404,0608,0808,0200,0c02,0604,1010,040a,060c,0800,fe04,0002,04fe,0806,0406,1408,0a0a,0c06,0204,0000,fefe,0804,020c,0a02,0e10,080a,0608,0204,02fe,0402,0a0c,0400,0c04,0a0a,0806,0404,0000,0402,0806,0a0c,0002,0608,0806,0606,0404,00fe,0404,1008,1004,0608,0808,0c0a,0200,0002,0204,0604,040c,0404,060a,0a06,0204,0000,0000,0402,0408,060c,0806,0004,060a,0002,0202,0402,0204,0808,0a0a,0402,0c08,0606,0202,0404,0402,0004,000c,0c0c,0800,0a10,0406,0002,0002,0406,0e04,fc08,0000,0c0a,0808,0000,0406,0202,faf6,0c04,fa02,0400,0808,0200,0200,0204,fc00,0806,0000,fafa,0404,fe02,0000,0404,0000,f4f8,0a04,f800,00fc,00fe,00fe,0400,fe00,fafa,0c04,0806,fcf6,fefe,0000,0606,0006,0000,0404,0004,f600,fcfc,0204,0a08,0608,0604,0a0a,0604,0e08,fcfa,0200,0806,080c,0202,0606,0602,fe04,fcfc,fefe,0602,0c0c,0408,0604,0408,0206,0a08,fe00,fefc,0604,0202,0602,0202,fcfa,fe04,0002,0200,00fe,fcfe,fefe,0204,fc00,0404,fefc,0004,fe00,fcfc,f8fa,00fe,fcfc,04fe,0a04,0602,0406,fe00,fafa,fafa,fafc,f8fa,0c00,04fa,0202,0002,fafa,fafa,fafa,fcfe,00f8,fa06,0008,0002,fefa,fafc,fcfc,fef8,f8fc,0206,0602,0604,fefe,fcfc,f8fc,fcfe,0004,0200,fe06,0404,0002,fafc,fcfc,fcfa,00fe,00fe,0804,0006,0000,fefe,fcfe,fc00,0002,f8fa,06fc,0a06,0206,fe02,0200,0200,0000,f8fa,0000,0404,fc06,00fe,0000,0000,0202,fe02,f8f8,0606,0004,0002,06fe,00fe,fefc,0400,00f8,fa04,000a,04fe,0608,fafe,fc00,0602,0404,fc02,0402,02fe,0a10,0604,fefe,fe00,0206,0a02,fcf8,0402,0600,0e06,00fe,fefe,0a08,0604,fe06,0202,0204,0000,0000,0000,0000,0000,0000,0000,0000,0000,0000,0000,0000,0000,0000,0000,0000,0000,0000,0000,0000,0000,0000,0000,0000,0000,0000,0000,0000,0000,0000,0000,0000,0000,0000,0000,0000,0000,0000,0000,0000,0000,0000,0000,0000,0000,0000,0000,0000,0000,0000,0000,0000,0000,0000,0000,0000,0000,0000,0000,0000,0000,0000,0000,0000,0000,0000,0000,0000,0000,0000,0000,0000,0000,0000,0000,0000,0000,0000,0000,0000,0000,0000,0000,0000,0000,0000,0000,0000,0000,0000,0000,0000,0000,0000,0000,0000,0000,0000,0000,0000,0000,0000,0000,0000,0000,0000,0000,0000,0000,0000,0000,0000,0000,0000,0000,0000,0000,0000,0000,0000,0000,0000,0000,0000,0000,0000,0000,0000,0000,0000,0000,0000,0000,0000,0000,0000,0000,0000,0000,0000,0000,0000,0000,0000,0000,0000,0000,0000,0000,0000,0000,0000,0000,0000,0000,0000,0000,0000,0000,0000,0000,0000,0000,0000,0000,0000,0000,0000,0000,0000,0000,0000,0000,0000,0000,0000,0000,0000,0000,0000,0000,0000,0000,0000,0000,0000,0000,0000,0000,0000,0000,0000,0000,0000,0000,0000,0000,0000,0000,0000,0000,0000,0000,0000,0000,0000,0000,0000,0000,0000,0000,0000,0000,0000,0000,0000,0000,0000,0000,0000,0000,0000,0000,0000,0000,0000,0000,0000,0000,0000,0000,0000,0000,0000,0000,0000,0000,0000,0000,0000,0000,0000,0000,0000,0000,0000,0000,0000,0000,0000,0000,0000,0000,0000,0000,0000,0000,0000,0000,0000,0000,0000,0000,0000,0000,0000,0000,0000,0000,0000,0000,0000,0000,0000,0000,0000,0000,0000,0000,0000,0000,0000,0000,0000,0000,0000,0000,0000,0000,0000,0000,0000,0000,0000,0000,0000,0000,0000,0000,0000,0000,0000,0000,0000,0000,0000,0000,0000,0000,0000,0000,0000,0000,0000,0000,0000,0000,0000,0000,0000,0000,0000,0000,0000,0000,0000,0000,0000,0000,0000,0000,0000,0000,0000,0000,0000,0000,0000,0000,0000,0000,0000,0000,0000,0000,0000,0000,0000,0000,0000,0000,0000,0000,0000,0000,0000,0000,0000,0000,0000,0000,0000,0000,0000,0000,0000,0000,0000,0000,0000,0000,0000,0000,0000,0000,0000,0000,0000,0000,0000,0000,0000,0000,0000,0000,0000,0000,0000,0000,0000,0000,0000,0000,0000,0000,0000,0000,0000,0000,0000,0000,0000,0000,0000,0000,0000,0000,0000,0000,0000,0000,0000,0000,0000,0000,0000,0000,0000,0000,0000,0000,0000,0000,0000,0000,0000,0000,0000,0000,0000,0000,0000,0000,0000,0000,0000,0000,0000,0000,0000,0000,0000,0000,0000,0000,0000,
02fe,0202,fefc,fc02,fefe,fe00,0200,00fe,fa02,fef8,fe02,f8fa,00fe,0000,00fe,fefe,fefc,0200,fefa,fefc,00fc,fe00,fe00,fefe,fefc,0000,fafe,fefe,0002,0000,0002,0200,fefe,fefe,fe04,fefc,00fc,00fe,0000,0000,0000,fcfe,fefe,0002,fafc,0000,00fe,0000,0000,fefe,fefe,fe00,fefc,fefe,fefe,0000,fefe,0000,fcfe,fefe,0000,fcfc,0000,00fe,fe00,fefe,fe00,fcfc,fefe,fefe,fefc,fefe,00fe,00fe,0000,fcfe,fcfc,fefc,fe00,fefe,fe00,fefe,00fe,fe00,fcfe,00fe,0004,fcfe,0000,0000,00fe,fefe,fcfe,fefe,fefe,fefe,fe00,0000,0000,fe00,fefe,fcfe,00fc,fefe,0000,0000,0000,fe00,fefe,fefe,fcfe,0002,fe00,0000,0000,0000,fe00,fe00,00fe,fe02,fe00,00fe,00fe,fe00,fefe,fefe,fefe,fefe,fefe,0000,0000,00fe,fefe,fefe,fefe,0000,fefc,0000,fefe,00fe,fefe,fefe,fefe,fe00,fefe,fe00,fefc,fefe,fefe,fefe,fefe,fefe,fefe,0000,0002,fcfe,fefe,fefe,fefe,fefe,fefe,fefe,fcfe,fefe,fcfc,00fe,fefe,fefe,fefe,fefe,0202,fefe,fcfe,00fe,fe00,fefe,fefe,fefe,00fe,0000,00fe,fefe,0000,fe00,fefe,00fe,fefe,0000,0204,0002,0000,0000,fefe,fefe,fefe,fefe,0400,0202,0000,0000,fefe,fefe,fefe,fefe,fe00,0202,0000,0000,fe00,fefe,fefe,fefe,fefe,0000,00fe,0000,0000,0000,fefe,00fe,fefe,0402,0000,0000,00fe,0000,fefe,fefe,fefe,fefe,0204,fe00,fefe,00fe,0000,fefe,fefe,fefe,fe00,0000,0200,00fe,0000,0000,fefe,fefe,fe00,fefe,0000,fe00,0000,0000,fe00,00fe,00fe,fe00,fe00,00fe,fe00,fe00,fc00,fefe,fe00,0200,fefe,fe00,fefe,fefe,fefe,fefc,fefe,0000,fe00,fefe,00fe,00fe,fe00,0002,0000,0000,0002,0000,0000,fefe,fe00,0200,00fe,0000,02fc,08fa,fe00,fefe,0400,fefe,fefe,0002,0000,fcfc,0200,fcfe,0000,00fe,fe00,02fe,0002,0004,0002,fefc,02fc,fefe,fe00,fe02,fefe,0400,02fe,0002,00fc,fe02,0000,fefa,00fe,fcfc,fe00,04fc,fefe,0200,fe00,fefc,00fe,fefe,0002,fe02,0000,fe00,0202,fefe,00fe,fe00,fefc,fe02,00fe,fefe,fe00,0200,0000,0000,fcfe,fefe,0400,00fe,00fe,0002,fefe,0000,0000,fcfe,fcfc,fe02,fe00,0200,0000,0000,0002,fefe,0000,0000,fe00,fefe,0200,0000,0000,00fe,fefe,00fc,fe00,fcfe,0000,0202,0000,0000,fe02,0000,06fe,0000,00fe,0000,fe00,00fe,00fe,fefc,fefe,fefe,00fc,00fe,0000,00fe,fefe,0000,fefe,0000,00fe,fefe,00fe,fefe,fefe,00fe,00fe,02fc,fcfc,fefe,fefe,fefe,fefe,fefe,fe00,fe00,fefe,fefe,fefe,fefe,fefe,fefe,fefe,fe00,02fc,fe02,00fe,fefc,fefc,fefe,fefe,fefe,00fe,0402,0000,fefe,fefe,00fe,fefe,00fe,fcfe,0002,0000,fefe,fefe,fefe,fefe,fefe,00fc,fe00,fe00,fefe,fe00,fe00,0000,fefe,00fe,0000,00fe,fa02,0000,fe00,00fe,0000,fefe,fe00,fefe,02fc,0000,0000,0000,0000,fefe,fefe,0000,fe00,02fc,fefe,fefe,00fe,0000,00fe,0000,0000,fa06,0000,fefe,fefe,fefe,00fe,0000,0000,0800,fefc,fefe,fefe,fefe,fefe,00fe,fe00,fefe,00fe,00fe,fefe,fefe,0000,00fe,0000,0200,00fe,fe00,fefe,fefe,fefe,00fe,fefe,0000,00fe,0200,00fe,fe00,fefe,00fe,00fe,fe02,fe02,0206,fcf8,0202,00fe,00fe,fefe,fe00,00fe,0002,0404,0200,fe00,fefe,fefe,00fe,0000,0000,02fe,fc00,0002,fe00,fe00,fe00,0000,0200,fefe,0400,00f8,00fe,fefe,0000,0000,00fe,fe00,0000,0200,fefe,fefe,00fe,0202,02fe,0200,0402,0002,fc02,0200,00fe,02fe,0200,0200,fe02,fe02,0000,0000,0000,0000,0000,0000,0000,0000,0000,0000,0000,0000,0000,0000,0000,0000,0000,0000,0000,0000,0000,0000,0000,0000,0000,0000,0000,0000,0000,0000,0000,0000,0000,0000,0000,0000,0000,0000,0000,0000,0000,0000,0000,0000,0000,0000,0000,0000,0000,0000,0000,0000,0000,0000,0000,0000,0000,0000,0000,0000,0000,0000,0000,0000,0000,0000,0000,0000,0000,0000,0000,0000,0000,0000,0000,0000,0000,0000,0000,0000,0000,0000,0000,0000,0000,0000,0000,0000,0000,0000,0000,0000,0000,0000,0000,0000,0000,0000,0000,0000,0000,0000,0000,0000,0000,0000,0000,0000,0000,0000,0000,0000,0000,0000,0000,0000,0000,0000,0000,0000,0000,0000,0000,0000,0000,0000,0000,0000,0000,0000,0000,0000,0000,0000,0000,0000,0000,0000,0000,0000,0000,0000,0000,0000,0000,0000,0000,0000,0000,0000,0000,0000,0000,0000,0000,0000,0000,0000,0000,0000,0000,0000,0000,0000,0000,0000,0000,0000,0000,0000,0000,0000,0000,0000,0000,0000,0000,0000,0000,0000,0000,0000,0000,0000,0000,0000,0000,0000,0000,0000,0000,0000,0000,0000,0000,0000,0000,0000,0000,0000,0000,0000,0000,0000,0000,0000,0000,0000,0000,0000,0000,0000,0000,0000,0000,0000,0000,0000,0000,0000,0000,0000,0000,0000,0000,0000,0000,0000,0000,0000,0000,0000,0000,0000,0000,0000,0000,0000,0000,0000,0000,0000,0000,0000,0000,0000,0000,0000,0000,0000,0000,0000,0000,0000,0000,0000,0000,0000,0000,0000,0000,0000,0000,0000,0000,0000,0000,0000,0000,0000,0000,0000,0000,0000,0000,0000,0000,0000,0000,0000,0000,0000,0000,0000,0000,0000,0000,0000,0000,0000,0000,0000,0000,0000,0000,0000,0000,0000,0000,0000,0000,0000,0000,0000,0000,0000,0000,0000,0000,0000,0000,0000,0000,0000,0000,0000,0000,0000,0000,0000,0000,0000,0000,0000,0000,0000,0000,0000,0000,0000,0000,0000,0000,0000,0000,0000,0000,0000,0000,0000,0000,0000,0000,0000,0000,0000,0000,0000,0000,0000,0000,0000,0000,0000,0000,0000,0000,0000,0000,0000,0000,0000,0000,0000,0000,0000,0000,0000,0000,0000,0000,0000,0000,0000,0000,0000,0000,0000,0000,0000,0000,0000,0000,0000,0000,0000,0000,0000,0000,0000,0000,0000,0000,0000,0000,0000,0000,0000,0000,0000,0000,0000,0000,0000,0000,0000,0000,0000,0000,0000,0000,0000,0000,0000,0000,0000,0000,0000,0000,0000,0000,0000,0000,0000,0000,0000,0000,0000,0000,0000,0000,0000,0000,0000,0000,0000,0000,0000,0000,0000,0000,0000,0000,0000,0000,0000,
0202,fc02,0208,fe02,faf8,fafe,fa00,06fc,f60c,0800,02fc,0004,00fc,fa06,fcfc,0000,06fe,0000,0000,0808,0002,0000,fafc,f800,fe00,0400,0002,0a0a,0208,0004,fafe,00fe,fafe,02fa,fcfa,0a04,1010,000a,f4fa,fcfa,0000,f2f8,fcfa,0804,1e16,040c,f8fa,f6f4,fafa,f8f6,02fe,0c06,160e,0e10,f4fc,f8fa,f8f6,f8fa,f8f4,fafa,100c,0e12,fa00,f8f6,f8f8,f0f4,f8f4,fef2,0200,060c,f6fa,f8f6,faf8,f6f8,f2f0,f4f4,f4f6,fcf8,f0f4,fef8,fcfe,faf8,f2f4,f0ee,f6f4,f6f8,f0f4,00f8,060c,fafc,f2f8,f0f4,f4f2,fafc,eef0,fefc,1010,0204,f8fa,f6f4,f6f6,f4f2,fe00,00fc,100e,060a,fefe,fafe,0000,f2f6,f8f8,0404,100c,1214,0608,fe00,0200,fefe,f4fa,0202,0e0c,1612,080c,0606,0404,0202,0404,fe02,0408,100c,060c,0400,060a,0404,0204,fefc,0006,0404,f8fe,f2ee,0802,0606,0404,0204,02fe,0000,eef6,e8e6,fcf8,0404,0202,0402,0204,fafc,f4f8,e4e2,faf4,fefc,00fe,fefc,04fe,fe02,ecee,e4e2,f8f4,fefc,fcfe,fafc,00fe,080a,eaf0,e8e6,f4ee,00fe,fcfc,f8fa,0200,0802,0000,eeec,fef6,0002,fe00,f8f8,0200,0400,0608,fe02,fafa,0404,fcfc,f8f6,fefc,0202,0806,0002,0202,00fc,fafe,f6f6,fcfe,0004,0602,0202,0e0a,0208,0200,fafc,00fc,0202,0202,0406,0000,060e,0002,0000,00fe,0000,0604,0402,0202,0a0c,0206,0202,0202,0402,0202,0000,0202,0806,0808,0004,0604,0402,0202,fefc,fcfc,fef8,0004,0000,0400,0806,0406,fefe,fcfe,f6fc,fa00,fefe,fefe,0406,0808,fc00,faf6,faf8,fcfc,fe02,fcfa,0402,0202,0200,fafc,f8f6,f8f8,02fe,0200,0200,fc00,fafa,fa00,fef8,f8f8,fafa,fe02,0402,0002,fcfc,fcfe,f4fa,f8f8,f8fa,0000,00fe,0608,fafc,faf6,faf4,f6f4,f8f4,fef8,f6fa,f8f6,f6f8,f6f4,f6f2,fcfe,f6fc,08fe,fcf4,fcfc,fefa,fefc,00fe,f8ee,f8f4,00fc,0004,fc04,00fc,0202,fc08,f6f4,eef0,f8fa,02fc,fe06,02fa,0002,fe02,faf8,eaee,fef2,fefc,00fe,0008,fcfe,00fe,f8fe,fefa,f6fc,02f6,fa08,0204,fefc,faf2,fefe,fefe,0000,0406,fafa,0402,08fe,f2f2,faf6,fe00,0602,0608,fe00,0600,1002,f8f4,eeec,fefc,0402,0806,0608,08fe,fefe,fefc,eef0,f8f6,02fe,0806,0606,0000,0002,0000,f4fa,faf4,00fc,0602,0406,0002,02fc,06fc,f8fe,f8fc,fefc,fefe,0406,fe00,fcfe,fefc,f8fe,0200,0002,fe00,0200,fafa,fefc,00f6,fe04,0200,0202,0002,f8fa,f4f6,f8fa,f8f8,02fa,0404,0604,00fe,f4f8,f4f4,f8f8,fcfc,fcf8,fa00,fe00,fefc,f6fa,fef8,fcfe,fcfa,f8f8,fafc,fefc,fefe,fafa,02fe,0808,0200,fafe,f8fa,06fe,fcfc,fefe,0404,100e,060a,0200,fc00,fc00,fcfa,00fc,0600,100e,0a0c,0206,0404,fef8,0200,f800,06fc,0808,0a0c,0204,0402,0004,00fe,fc04,fcfc,0402,0406,fcfa,0002,0404,0606,fe00,02fa,00fc,00fe,f4f8,fcf6,00fe,0408,fa02,0406,fefc,00fc,f6f8,f6f2,0200,0404,fcfe,0202,0200,fcfc,fcfc,fafc,0000,0804,0208,fc00,0204,f800,00fe,fe00,0202,0606,060a,02fe,0200,0208,fafc,0000,0000,0402,0804,fe00,0004,f8fe,f8fe,fcf8,00fe,0002,0406,0206,02fc,0202,0002,f8fa,fcfc,00fe,0604,0002,0000,0c04,02fe,fefe,fefe,fefc,0202,0002,00fe,0004,fe04,0404,0002,0002,fefe,fcfe,0000,02fe,02fe,0806,0604,0604,fc02,fcfa,fcfc,0000,fe06,0800,060c,0808,0208,fefe,fcfc,0000,00fa,06fe,0004,0606,0606,0202,0200,fe04,0400,fc04,0002,080c,0806,0206,0400,0402,fe00,fc02,0a02,0a04,0608,0410,0404,0804,04fe,fefe,060e,0806,0000,0000,0000,0000,0000,0000,0000,0000,0000,0000,0000,0000,0000,0000,0000,0000,0000,0000,0000,0000,0000,0000,0000,0000,0000,0000,0000,0000,0000,0000,0000,0000,0000,0000,0000,0000,0000,0000,0000,0000,0000,0000,0000,0000,0000,0000,0000,0000,0000,0000,0000,0000,0000,0000,0000,0000,0000,0000,0000,0000,0000,0000,0000,0000,0000,0000,0000,0000,0000,0000,0000,0000,0000,0000,0000,0000,0000,0000,0000,0000,0000,0000,0000,0000,0000,0000,0000,0000,0000,0000,0000,0000,0000,0000,0000,0000,0000,0000,0000,0000,0000,0000,0000,0000,0000,0000,0000,0000,0000,0000,0000,0000,0000,0000,0000,0000,0000,0000,0000,0000,0000,0000,0000,0000,0000,0000,0000,0000,0000,0000,0000,0000,0000,0000,0000,0000,0000,0000,0000,0000,0000,0000,0000,0000,0000,0000,0000,0000,0000,0000,0000,0000,0000,0000,0000,0000,0000,0000,0000,0000,0000,0000,0000,0000,0000,0000,0000,0000,0000,0000,0000,0000,0000,0000,0000,0000,0000,0000,0000,0000,0000,0000,0000,0000,0000,0000,0000,0000,0000,0000,0000,0000,0000,0000,0000,0000,0000,0000,0000,0000,0000,0000,0000,0000,0000,0000,0000,0000,0000,0000,0000,0000,0000,0000,0000,0000,0000,0000,0000,0000,0000,0000,0000,0000,0000,0000,0000,0000,0000,0000,0000,0000,0000,0000,0000,0000,0000,0000,0000,0000,0000,0000,0000,0000,0000,0000,0000,0000,0000,0000,0000,0000,0000,0000,0000,0000,0000,0000,0000,0000,0000,0000,0000,0000,0000,0000,0000,0000,0000,0000,0000,0000,0000,0000,0000,0000,0000,0000,0000,0000,0000,0000,0000,0000,0000,0000,0000,0000,0000,0000,0000,0000,0000,0000,0000,0000,0000,0000,0000,0000,0000,0000,0000,0000,0000,0000,0000,0000,0000,0000,0000,0000,0000,0000,0000,0000,0000,0000,0000,0000,0000,0000,0000,0000,0000,0000,0000,0000,0000,0000,0000,0000,0000,0000,0000,0000,0000,0000,0000,0000,0000,0000,0000,0000,0000,0000,0000,0000,0000,0000,0000,0000,0000,0000,0000,0000,0000,0000,0000,0000,0000,0000,0000,0000,0000,0000,0000,0000,0000,0000,0000,0000,0000,0000,0000,0000,0000,0000,0000,0000,0000,0000,0000,0000,0000,0000,0000,0000,0000,0000,0000,0000,0000,0000,0000,0000,0000,0000,0000,0000,0000,0000,0000,0000,0000,0000,0000,0000,0000,0000,0000,0000,0000,0000,0000,0000,0000,0000,0000,0000,0000,0000,0000,0000,0000,0000,0000,0000,0000,0000,0000,0000,0000,0000,0000,0000,0000,0000,0000,0000,0000,0000,0000,0000,0000,0000,
02fa,0004,fefa,f8fa,f6fa,fefe,0004,fcf8,0002,04fc,0408,f804,f8f6,fcfc,0200,fcfe,fcfe,0402,02f6,fcf6,f8f8,fafa,fafe,0000,f8f4,fe02,fc02,fafe,fafe,fafc,f8fa,fcfa,fcfe,fcfa,0204,02fa,0002,f8f6,fefe,faf4,fefc,fcfc,00fe,fc00,04fe,f2f2,02fa,f2f6,faf6,fafa,00fe,0600,fafe,fcfe,f8fa,fefe,f2ee,fcfe,fefc,fefc,fc02,0600,f8fc,fe00,f0f8,02fc,00fe,fc00,fefe,00fe,fc00,00fc,fe00,00f4,0004,0000,fef8,00fe,00fc,00fc,0400,f4f8,04fe,fe00,f6fc,f8fc,f8f2,fefc,fefe,fa04,fcf8,0002,fafc,fcfa,fc00,00fc,fe00,0202,f6f6,0402,f6fe,fafe,fcfa,fcfc,0000,fefa,f4fa,00fc,0002,fcf6,fcf8,f802,0000,fa00,fc00,fcf8,0404,f8fa,fefa,02fa,fafa,0002,fefa,f6f8,0402,0004,f8f8,fefa,fcfc,00fe,f8fc,fe02,02fe,0404,f8fc,fcfc,f4fe,0202,fe00,00fe,fefc,0404,0000,fafc,fafe,f8f8,fc00,fcfa,0004,fefa,0000,fcfe,f8fc,f8f8,fc00,fefa,04fe,fc00,fafe,fefc,f8fa,fefc,eef2,faf6,fcfa,0204,faf8,f6f8,f6f4,faf8,fcfe,f4f2,fafc,0602,fcfe,f6f6,f2f2,f6f6,fefa,f8fc,faf6,fefa,0004,f8f8,f4f6,f6f4,f8f8,00fe,f8fa,fcf8,0604,fc00,f6f6,f8f8,f8f6,fcfa,fe00,fcf8,00fe,0406,fafc,f8f8,f8fa,f8f8,fafe,0402,0000,0402,0404,f6f6,fefa,f6f8,fcfc,0000,0204,fefe,0402,0206,f8f8,fafc,fcf8,fefe,0202,fe00,0200,0604,f6fa,fcf8,faf8,0000,fefc,0202,00fe,0200,0206,f6f6,f8fa,fefe,fcfc,0002,0204,0000,0202,f6f8,f8f8,fefc,fc00,00fe,0002,fcfe,00fe,fe02,fcfe,fcfa,00fc,fefc,0200,0000,fefa,0000,f8fa,fcfc,0002,fe00,fcfe,0000,fcfa,00fa,fa00,fafc,02fe,00fe,fafc,fcfc,fafe,fafc,0000,0200,fefc,0002,0002,fefe,faf8,fcfa,fcf8,fa00,02fe,0202,02fc,0cfc,0608,06f8,020a,fa06,04f6,0804,0806,0208,000a,02fe,0002,0002,f4fe,0208,060a,0606,0804,0a02,02fc,fe04,0200,02fa,0406,0608,1006,fe06,0204,00fe,0400,fafe,0604,0a04,02fc,0602,0000,0206,0202,fe02,04fe,060a,1008,0efc,fc08,04fe,0604,0200,f8f8,0a0c,0608,0c04,0608,fefe,00fe,0004,fc02,0a04,060a,0808,fe08,fefe,00fc,0204,0204,fcf8,0808,0806,0808,0006,fafe,02fc,0604,f8fc,0602,080a,0606,0802,fafc,faf4,0202,fc00,02fc,0606,0002,0004,040a,f8f8,00fc,0000,faf4,0402,fe06,0c0a,0c08,f802,fefa,0202,f4fc,02fe,0602,02f8,060a,fa04,f8fa,00fc,fc00,faf6,0406,00fe,080a,0602,fefe,fefe,02fe,fafa,0602,0200,fef6,0a08,0202,f800,fcfa,fe04,0000,fe02,0202,0204,0806,fa02,fefc,0400,0202,0404,0604,02fe,0404,0208,0402,fef8,0606,0604,02fc,fe04,0004,0206,0204,fcfe,0402,fe04,0000,0002,0602,0204,0c08,0604,fef8,0204,0000,fe00,fe00,02fe,0608,0602,fa00,0400,fefe,fe00,0404,04fe,0408,0406,0400,fefa,0000,fefe,fefc,0602,0402,0404,0002,fcfc,0000,fa02,fcfc,00fe,0002,0804,0606,0004,0002,0004,fefa,0000,0002,fe06,0806,0408,0002,0606,fe00,fcfc,fefe,0208,0206,0404,0204,0604,0406,fcfe,00fc,0000,060a,06fe,0604,0406,0608,fefe,fafc,02fe,0602,0a08,0408,0606,0608,0206,fcfc,00f6,0000,04fe,0206,0402,0204,0204,fefc,fefa,0000,0606,0604,0c08,0408,0204,fafc,fefe,04fc,0402,020c,0e08,0406,0404,fe00,00fc,fafe,fe0c,08fe,0208,0208,0806,0000,fefe,0000,00f8,0a06,020a,0a04,0200,0606,0200,02fe,0000,0400,0406,0608,fe08,0204,0404,fa02,0204,0202,08fe,000a,0afc,0200,0400,0606,0002,0608,0a00,0602,0600,0000,0000,0000,0000,0000,0000,0000,0000,0000,0000,0000,0000,0000,0000,0000,0000,0000,0000,0000,0000,0000,0000,0000,0000,0000,0000,0000,0000,0000,0000,0000,0000,0000,0000,0000,0000,0000,0000,0000,0000,0000,0000,0000,0000,0000,0000,0000,0000,0000,0000,0000,0000,0000,0000,0000,0000,0000,0000,0000,0000,0000,0000,0000,0000,0000,0000,0000,0000,0000,0000,0000,0000,0000,0000,0000,0000,0000,0000,0000,0000,0000,0000,0000,0000,0000,0000,0000,0000,0000,0000,0000,0000,0000,0000,0000,0000,0000,0000,0000,0000,0000,0000,0000,0000,0000,0000,0000,0000,0000,0000,0000,0000,0000,0000,0000,0000,0000,0000,0000,0000,0000,0000,0000,0000,0000,0000,0000,0000,0000,0000,0000,0000,0000,0000,0000,0000,0000,0000,0000,0000,0000,0000,0000,0000,0000,0000,0000,0000,0000,0000,0000,0000,0000,0000,0000,0000,0000,0000,0000,0000,0000,0000,0000,0000,0000,0000,0000,0000,0000,0000,0000,0000,0000,0000,0000,0000,0000,0000,0000,0000,0000,0000,0000,0000,0000,0000,0000,0000,0000,0000,0000,0000,0000,0000,0000,0000,0000,0000,0000,0000,0000,0000,0000,0000,0000,0000,0000,0000,0000,0000,0000,0000,0000,0000,0000,0000,0000,0000,0000,0000,0000,0000,0000,0000,0000,0000,0000,0000,0000,0000,0000,0000,0000,0000,0000,0000,0000,0000,0000,0000,0000,0000,0000,0000,0000,0000,0000,0000,0000,0000,0000,0000,0000,0000,0000,0000,0000,0000,0000,0000,0000,0000,0000,0000,0000,0000,0000,0000,0000,0000,0000,0000,0000,0000,0000,0000,0000,0000,0000,0000,0000,0000,0000,0000,0000,0000,0000,0000,0000,0000,0000,0000,0000,0000,0000,0000,0000,0000,0000,0000,0000,0000,0000,0000,0000,0000,0000,0000,0000,0000,0000,0000,0000,0000,0000,0000,0000,0000,0000,0000,0000,0000,0000,0000,0000,0000,0000,0000,0000,0000,0000,0000,0000,0000,0000,0000,0000,0000,0000,0000,0000,0000,0000,0000,0000,0000,0000,0000,0000,0000,0000,0000,0000,0000,0000,0000,0000,0000,0000,0000,0000,0000,0000,0000,0000,0000,0000,0000,0000,0000,0000,0000,0000,0000,0000,0000,0000,0000,0000,0000,0000,0000,0000,0000,0000,0000,0000,0000,0000,0000,0000,0000,0000,0000,0000,0000,0000,0000,0000,0000,0000,0000,0000,0000,0000,0000,0000,0000,0000,0000,0000,0000,0000,0000,0000,0000,0000,0000,0000,0000,0000,0000,0000,0000,0000,0000,0000,0000,0000,0000,0000,0000,0000,0000,0000,0000,0000,0000,0000,0000,0000,0000,0000,0000,0000,0000,
