memory_initialization_radix=16;
memory_initialization_vector=
00fe,02fe,fefe,0000,fefe,fefe,fefe,0200,0206,00fe,fefc,fcfc,fefe,0000,fcfc,fc00,0200,00fe,fcfe,fcfe,0000,0000,0000,fefe,fcfe,fe02,fcfe,fcfa,00fe,fe00,fefe,fe00,fefc,fefc,fefc,fcfc,fcfe,fe00,fefe,00fe,fefe,fefc,fc00,fefe,fefa,fcfe,fefe,fefe,0000,fefe,fefe,fefe,fcfa,fefe,fefe,00fe,fefe,fefe,fcfe,fefe,0000,fcfc,fefe,00fe,fefe,fe00,fefc,fe00,00fe,fefc,fefc,fefe,fefe,fefe,fefe,fcfc,02fe,fefe,fefe,fefe,fefe,fefe,00fe,fefc,fcfc,0000,0000,fefe,fefe,fefe,fefe,fefe,fefe,00fe,0000,fefe,fefe,fefe,fefe,fefe,fefe,fcfc,0000,0000,fefe,fe00,fefe,fefe,fefe,fefe,02fe,fcfe,fefe,fefe,fefe,00fe,fefe,fefe,fcfe,0000,fefe,fefc,fefe,fe00,00fe,fefe,fefe,02fe,fcfe,fefe,fefe,fe00,fe00,fefe,fefe,fe00,00fe,fe00,fefe,fefe,0000,fefe,fefe,fe00,02fe,fefe,fefe,fefe,fefe,00fe,fefe,fefe,fefe,02fc,00fe,fefe,fefe,0000,fefe,fe00,fefe,fefe,fcfc,fcfc,fcfe,00fe,fefe,fefe,fefe,0000,fe00,fcfc,fcfc,fefe,00fe,fefe,fefe,fefe,fe00,fefc,fefe,fefe,0000,fefe,fefe,fefe,fefe,00fe,0000,fe00,fe00,fefe,fefe,fefe,fefe,fefe,00fe,00fe,fe00,0000,fefe,fefe,00fe,fefe,fefc,0000,00fe,fefe,fe00,fefe,fefe,fefe,fefe,fe00,0000,fe00,0000,fefe,fefe,fefe,fe00,fefe,00fe,fefe,fe00,00fe,fefe,fefe,fefe,00fc,00fe,fe00,fefe,fe00,00fe,fefe,fefe,0000,0000,0000,0000,0000,0000,fefe,fefe,00fe,00fe,fe00,fefe,0000,fefe,fefe,fefe,fefe,00fc,fefe,fefe,fefe,fefe,fefe,fefe,fefe,0000,00fe,fe00,fefe,fefe,fefe,fefe,fefe,fe00,0000,fefe,00fe,fefe,00fe,0000,fefe,0000,fa02,0000,fe00,0000,fefe,02fe,00fe,0000,0000,0002,00f8,00f8,0002,fcfe,fafc,fcfc,fc04,0002,00fe,fefe,fefc,fcfa,fcfa,fafa,fefc,0000,fe00,fcfc,fe00,fcfe,fafc,fcfe,fcfc,fefa,fe00,00fe,fefc,fefc,fcfc,fcfa,fefe,fefc,fefe,0000,00fa,fcfc,fefe,fefc,fefc,00fe,fefe,fcfe,fcfe,fefe,00fe,fefe,fefe,fefe,fe00,00fc,0002,fe00,fefe,fefe,fefe,fefe,fefe,fefe,fafe,fefe,fcfc,fcfe,fefe,fefe,fefe,fefc,fafe,fefe,00fe,fefe,fefe,fefc,fefe,fefe,00fe,fefe,02fe,fefe,fefe,fe00,0000,fefe,00fe,0000,fcfe,fefc,fefe,fefe,fefe,00fe,00fe,fcfe,fefe,fefe,fcfe,fefe,fefe,fe00,fefe,fefe,fefc,0002,fefc,fefe,fefe,fe00,fe00,fe00,fcfc,fefc,fcfc,fcfc,fcfe,fefe,fefe,fefe,fe00,fafc,fcfe,fefe,fefe,fefe,fe00,00fe,00fe,fcfe,00fc,00fe,fefe,fefe,fefe,fe00,fefe,fefe,00fc,0000,fcfe,fefe,fefe,fefe,fe00,fe00,fcfe,fefc,fcfe,fefe,fefe,fefe,fefe,fefe,fcfe,fefc,02fe,00fc,fefe,fefe,fe00,fefe,fefe,fefe,fe00,0000,fefe,fefe,fefe,00fe,fefe,fefe,fefe,fefe,00fe,fefe,fefe,0000,fefe,fefe,fefe,fefc,fe00,fefe,fefe,fefe,00fe,fefe,fefe,00fa,fc02,00fe,fefe,fefe,fefe,fefe,fefe,fefe,fe00,fcfc,fefe,fefe,00fe,fe00,fe00,fefe,fe00,0200,fcfe,fe00,fefe,fefe,fefe,fefe,fcfe,00fe,00fe,fcfe,fefe,fefe,0000,fefe,fefe,fe02,0400,fcfe,fefe,fefe,fefe,fefe,00fc,00fe,02fe,0000,fefe,00fe,fefe,fe00,fefe,fe00,0002,0202,fefc,0000,00fe,fefe,00fe,fefe,0004,00fe,fe02,00fe,fefe,fefe,fefe,fefe,0000,0204,0402,fafe,fefe,fefe,fefe,fefe,fe00,0202,fe02,00fe,fafe,00fe,fefe,00fc,fe02,fc00,0202,04fe,fefc,fefc,fefe,0000,04fe,fcfe,0000,0202,0000,04fa,00fe,fefe,0204,0002,0000,fefe,0000,0000,0000,0000,0000,0000,0000,0000,0000,0000,0000,0000,0000,0000,0000,0000,0000,0000,0000,0000,0000,0000,0000,0000,0000,0000,0000,0000,0000,0000,0000,0000,0000,0000,0000,0000,0000,0000,0000,0000,0000,0000,0000,0000,0000,0000,0000,0000,0000,0000,0000,0000,0000,0000,0000,0000,0000,0000,0000,0000,0000,0000,0000,0000,0000,0000,0000,0000,0000,0000,0000,0000,0000,0000,0000,0000,0000,0000,0000,0000,0000,0000,0000,0000,0000,0000,0000,0000,0000,0000,0000,0000,0000,0000,0000,0000,0000,0000,0000,0000,0000,0000,0000,0000,0000,0000,0000,0000,0000,0000,0000,0000,0000,0000,0000,0000,0000,0000,0000,0000,0000,0000,0000,0000,0000,0000,0000,0000,0000,0000,0000,0000,0000,0000,0000,0000,0000,0000,0000,0000,0000,0000,0000,0000,0000,0000,0000,0000,0000,0000,0000,0000,0000,0000,0000,0000,0000,0000,0000,0000,0000,0000,0000,0000,0000,0000,0000,0000,0000,0000,0000,0000,0000,0000,0000,0000,0000,0000,0000,0000,0000,0000,0000,0000,0000,0000,0000,0000,0000,0000,0000,0000,0000,0000,0000,0000,0000,0000,0000,0000,0000,0000,0000,0000,0000,0000,0000,0000,0000,0000,0000,0000,0000,0000,0000,0000,0000,0000,0000,0000,0000,0000,0000,0000,0000,0000,0000,0000,0000,0000,0000,0000,0000,0000,0000,0000,0000,0000,0000,0000,0000,0000,0000,0000,0000,0000,0000,0000,0000,0000,0000,0000,0000,0000,0000,0000,0000,0000,0000,0000,0000,0000,0000,0000,0000,0000,0000,0000,0000,0000,0000,0000,0000,0000,0000,0000,0000,0000,0000,0000,0000,0000,0000,0000,0000,0000,0000,0000,0000,0000,0000,0000,0000,0000,0000,0000,0000,0000,0000,0000,0000,0000,0000,0000,0000,0000,0000,0000,0000,0000,0000,0000,0000,0000,0000,0000,0000,0000,0000,0000,0000,0000,0000,0000,0000,0000,0000,0000,0000,0000,0000,0000,0000,0000,0000,0000,0000,0000,0000,0000,0000,0000,0000,0000,0000,0000,0000,0000,0000,0000,0000,0000,0000,0000,0000,0000,0000,0000,0000,0000,0000,0000,0000,0000,0000,0000,0000,0000,0000,0000,0000,0000,0000,0000,0000,0000,0000,0000,0000,0000,0000,0000,0000,0000,0000,0000,0000,0000,0000,0000,0000,0000,0000,0000,0000,0000,0000,0000,0000,0000,0000,0000,0000,0000,0000,0000,0000,0000,0000,0000,0000,0000,0000,0000,0000,0000,0000,0000,0000,0000,0000,0000,0000,0000,0000,0000,0000,0000,0000,0000,0000,0000,0000,0000,0000,0000,0000,0000,0000,0000,0000,0000,0000,0000,0000,0000,0000,fe00,fcfc,00fa,fefe,fc00,fafc,fefc,0006,0400,fafe,0000,fefa,faf8,fcfe,fcf8,fe00,fe00,00fa,fcfc,f6fa,fefc,fefe,fefe,fcfe,fafe,0402,fafc,fafe,fefa,fcfe,fcfe,fcfe,fcfe,fcfc,04fe,fafc,fefe,fafc,fefe,fefe,fcfe,fefe,f8fa,fe00,fcfa,fcfa,fe00,fcfc,fefe,00fe,fefe,02fe,fefa,0000,fcfe,fefc,fcfc,0000,fcfc,fe00,fefe,0004,0200,00fe,fcfc,fcfe,00fe,fe00,fefe,0200,0402,fefe,fcfc,fcfe,fefe,fcfe,04fe,fcfc,0202,00fe,fafc,fcfc,00fe,fefe,fafc,fefa,fc02,fefe,fcfc,fcfc,fefe,fefe,fcfe,fafa,00fc,fcfe,0000,fcfc,fefe,fefe,fefc,fefe,0200,fe00,0200,fefe,fcfc,fefe,fefe,fefc,02fc,fefe,0002,0000,fefe,fcfc,fe00,fcfe,fa00,00fc,0200,0200,fe00,fefc,fefe,00fe,fefe,fefc,f8fa,fe00,0000,00fe,fcfe,fe00,00fc,00fe,fcfa,f8fc,0404,0202,0000,fe00,fefe,fefe,02fe,fcfe,fc00,0404,0202,fefe,fefe,00fe,fefe,00fa,fcfa,0002,0402,fefe,fefe,fefe,fefe,0002,fafa,fcfa,0002,0000,fefc,fefe,fefe,fefe,00fe,fafa,fcfe,0002,fefe,fefe,fefe,fefe,fe04,fefc,fcfc,fc00,0000,fefe,fefe,fefe,fefe,0000,0000,fefe,0000,fefc,fefe,fefe,fefe,fafa,fe00,0000,00fe,0404,fcfc,fefe,fefe,fefe,fefc,fcfe,fcfe,0002,02fe,fcfc,fefe,fcfe,00fe,fcfc,00fe,fefe,0404,fcfc,fcfe,fefe,fefe,00fe,fcfc,fefe,0000,0402,fefc,00fe,fefe,0000,00fe,fefe,0000,0204,00fe,fefc,fefc,fe00,00fe,fcfc,0000,0204,0808,fefc,fefe,fefe,fefc,fcfc,fcfc,0000,0202,00fc,fefc,fefe,00fc,fefe,fcfe,fcfc,0000,0202,fcfe,fefe,0000,fefc,fefe,fcfc,fefe,0002,00fc,fcfe,fefe,0400,0000,fefe,fcfe,00fe,0000,02fe,fefe,fc04,0000,0000,fe00,fcfe,02fe,fef8,fefc,0000,0202,00f8,fefc,00fa,fcfa,f8f4,fafe,fafe,0202,fcfc,f8fa,0002,fcf6,fef8,f8f8,fcfc,0200,0402,fc00,00fe,0200,fcfe,fcfc,fafa,fcfe,fe04,04fc,00fe,fe00,00fa,00fe,0000,fcfc,00fe,02f8,04f6,fefe,0200,0000,0402,fefc,0200,0006,fefc,fcfe,0400,0402,0202,0200,fa00,fefe,0006,fcfe,0204,0204,0002,00fe,0000,0200,0206,00fe,fcfe,00fe,0402,0200,fcfe,0002,fe06,0400,00fe,0204,0202,0002,00fe,fefe,0000,0000,0204,00fe,fe02,0202,0202,fcfe,04fe,02fe,fe04,fcfe,fefc,0400,0200,00fe,0004,fc00,00fa,02fc,fcfe,fc00,fcfe,0000,00fe,0000,06fe,fc06,fcfe,fcfc,00fe,00fe,0000,0000,fc00,02fe,0200,fafc,fcfe,0000,fe00,fefc,fefc,fc00,0800,fcfe,fcfa,0000,0202,0200,fe00,fefe,02fc,0000,fcfc,fafc,0202,0200,fefe,00fc,02fe,0002,fefe,fcfa,fcfe,0202,fcfe,fe00,00fe,fcfa,fefc,fefc,fcfc,fefe,fefe,fcfc,fefe,0000,0400,00fc,fcfc,fcfc,0000,fcfe,fcfe,02fe,fe00,0206,fe00,fefc,fcfe,fefc,fcfc,00fe,fc00,06fa,0604,fefe,fefe,0000,fefc,fe00,fe00,0002,fe00,00fc,fcfe,fe00,fefe,fcfc,00fe,fef8,0002,00fe,fcfc,fcfe,fefe,fcfe,00fe,fc04,0000,fe00,fcfc,fefc,fefe,fcfe,fefe,fefe,fcfc,0200,fcfe,fcfc,fefe,00fc,fcfe,fcfe,fe00,00fc,02fa,fcfe,fcfc,fefe,fcfc,00fe,fc02,fa02,0406,fefa,fcfe,fcfe,fefe,fcfe,fcfa,00fe,0006,00fe,fc00,fcfc,fefe,fcfc,fefe,fafe,0006,0008,fc04,fefc,fefe,fefc,fe00,fefe,0006,0000,0204,04fe,fefc,fefe,fefe,00fe,fe00,0202,0600,fc02,00fe,fafe,fefe,fe04,fefe,0004,0006,0200,fe04,0400,0202,fefe,fe00,0202,0202,0000,00fc,0202,0000,0002,06fe,fefa,fa00,0400,00fc,08fa,0204,fe02,0006,0202,02fe,fcfe,0202,0000,0000,0000,0000,0000,0000,0000,0000,0000,0000,0000,0000,0000,0000,0000,0000,0000,0000,0000,0000,0000,0000,0000,0000,0000,0000,0000,0000,0000,0000,0000,0000,0000,0000,0000,0000,0000,0000,0000,0000,0000,0000,0000,0000,0000,0000,0000,0000,0000,0000,0000,0000,0000,0000,0000,0000,0000,0000,0000,0000,0000,0000,0000,0000,0000,0000,0000,0000,0000,0000,0000,0000,0000,0000,0000,0000,0000,0000,0000,0000,0000,0000,0000,0000,0000,0000,0000,0000,0000,0000,0000,0000,0000,0000,0000,0000,0000,0000,0000,0000,0000,0000,0000,0000,0000,0000,0000,0000,0000,0000,0000,0000,0000,0000,0000,0000,0000,0000,0000,0000,0000,0000,0000,0000,0000,0000,0000,0000,0000,0000,0000,0000,0000,0000,0000,0000,0000,0000,0000,0000,0000,0000,0000,0000,0000,0000,0000,0000,0000,0000,0000,0000,0000,0000,0000,0000,0000,0000,0000,0000,0000,0000,0000,0000,0000,0000,0000,0000,0000,0000,0000,0000,0000,0000,0000,0000,0000,0000,0000,0000,0000,0000,0000,0000,0000,0000,0000,0000,0000,0000,0000,0000,0000,0000,0000,0000,0000,0000,0000,0000,0000,0000,0000,0000,0000,0000,0000,0000,0000,0000,0000,0000,0000,0000,0000,0000,0000,0000,0000,0000,0000,0000,0000,0000,0000,0000,0000,0000,0000,0000,0000,0000,0000,0000,0000,0000,0000,0000,0000,0000,0000,0000,0000,0000,0000,0000,0000,0000,0000,0000,0000,0000,0000,0000,0000,0000,0000,0000,0000,0000,0000,0000,0000,0000,0000,0000,0000,0000,0000,0000,0000,0000,0000,0000,0000,0000,0000,0000,0000,0000,0000,0000,0000,0000,0000,0000,0000,0000,0000,0000,0000,0000,0000,0000,0000,0000,0000,0000,0000,0000,0000,0000,0000,0000,0000,0000,0000,0000,0000,0000,0000,0000,0000,0000,0000,0000,0000,0000,0000,0000,0000,0000,0000,0000,0000,0000,0000,0000,0000,0000,0000,0000,0000,0000,0000,0000,0000,0000,0000,0000,0000,0000,0000,0000,0000,0000,0000,0000,0000,0000,0000,0000,0000,0000,0000,0000,0000,0000,0000,0000,0000,0000,0000,0000,0000,0000,0000,0000,0000,0000,0000,0000,0000,0000,0000,0000,0000,0000,0000,0000,0000,0000,0000,0000,0000,0000,0000,0000,0000,0000,0000,0000,0000,0000,0000,0000,0000,0000,0000,0000,0000,0000,0000,0000,0000,0000,0000,0000,0000,0000,0000,0000,0000,0000,0000,0000,0000,0000,0000,0000,0000,0000,0000,0000,0000,0000,0000,0000,0000,0000,0000,0000,0000,0000,0000,0000,0000,0000,0000,0000,0000,0000,0000,0000,0000,0000,0000,00fc,fcfc,0000,fefe,fcfc,00fe,0000,0206,00fa,fefe,fefe,fefe,fefe,fcfe,fcfe,0000,00fe,fe00,fcfe,00fe,fe00,fefe,fefe,fcfe,fefe,fefc,fcfc,00fe,00fe,fefe,fefe,fefc,fefe,02fe,fefe,fefe,fcfe,00fe,fe00,fefe,fefe,f8fc,00fe,fcfe,fefe,00fe,fefe,fefe,fefe,fefe,00fe,00fc,0000,fe00,00fe,fefe,fefe,fcfe,0000,0200,0000,0000,0000,fefe,fefe,fefe,fe00,0000,0200,fefe,0000,0000,fefe,fefe,fcfe,02fe,0000,0000,0000,fe00,fefe,fefe,fefe,fcfc,fefe,0202,0000,00fe,00fe,fefe,fefe,fefc,fcfe,0000,fefe,fe00,fefe,fefe,fcfe,fefe,fcfc,0000,fe00,fe00,0000,fe00,fefe,fefe,fefe,02fe,00fe,0000,fe00,fefe,fefe,fcfe,fefe,fcfe,0000,00fe,fefe,fefe,fefe,fefe,fefe,fefe,fcfe,fcfc,00fe,fefe,fefe,fefe,fefe,fefe,fe00,fefe,fefc,fefe,fefe,fefe,fefe,fefe,fefe,00fc,fefe,fefc,fefe,fefe,fefe,fefe,fefe,00fe,00fc,00fe,fcfe,fefe,fefe,fefe,fe00,fefe,00fe,fefc,fefc,fefe,fefe,fefe,fefe,fefe,fe00,fefe,fcfe,fcfe,fe00,fefe,fefe,fefe,fefe,fefe,fcfc,fefe,fefe,fefe,fefe,fefe,0000,0000,fefe,0000,0000,fefe,fefe,fefe,fefe,00fe,fefe,0000,0000,fefe,fefe,fefe,fefe,00fe,0000,fcfe,00fe,fe00,fefe,fefe,fefe,fe00,00fe,00fe,0000,00fe,fefc,fefe,fefe,fe00,fefe,fefe,00fe,00fe,fefe,fefe,fefe,fefe,00fe,fefe,00fe,0200,fe00,fefe,fefe,fefe,fefe,fefe,fe00,0000,0000,00fe,fefe,fefe,fefe,0000,fefe,00fe,fe00,00fe,fefe,fefe,fefe,fefe,fe00,00fe,fefe,fefe,fefe,fefe,fefe,fcfc,00fe,0000,00fe,fe00,fefe,fefe,fefe,fe00,fefe,00fe,0402,00fe,fe00,fefe,fefe,fe00,fcfe,0000,fe02,0000,0000,0000,fefe,0000,00fc,0000,00fe,0000,04f6,02f8,02fc,fcfe,f6fa,fafa,fa02,0000,fe02,fefa,fcfc,faf8,faf8,fafa,fcfe,0000,fcfe,fcfc,fe00,fcfc,fafc,fcfc,fcfc,fafc,fcfe,00fc,fafa,fefc,fcfc,fcfc,fcfe,fcfc,0000,fefe,00fc,fcfc,00fc,fcfc,fefe,fefe,fefe,fafe,fefe,fe00,0000,fefe,fefe,00fe,fefc,fefa,0004,0000,fefe,fefe,fefe,fe00,fefe,fcfc,f8fe,fcfe,fcfe,fcfe,fe00,fefe,0000,fefc,fcfe,fefe,00fe,00fe,fefe,fe00,fe00,fefe,fe00,fcfc,00fe,fefe,00fe,0000,0000,fefe,00fe,fefc,fafc,fcfc,fe00,fefe,fefe,0000,00fe,fc00,fefc,fefe,fcfe,fefe,00fe,fe00,fefe,fefc,fefc,0004,fefc,fefe,fefe,fefe,00fe,fefe,fcfc,fefa,fcfa,fcfc,fefe,fefe,fefe,fefe,fe00,fafe,fefc,fcfe,fefe,fefe,fefe,00fe,fefe,fcfc,fc00,fcfe,fcfe,fefe,fefe,fefe,fefe,fefc,fefc,fefc,fcfe,fefe,fefe,fefe,fefe,fefe,fcfe,fefa,fcfc,fcfe,fefe,fefe,fefe,fefe,fefe,fefe,0202,fefc,fefe,fefe,fefe,fefe,fefe,fefe,0000,00fe,fe00,0000,fefe,00fe,fefe,fe00,fc00,00fc,00fe,fe00,fefe,fefe,fefe,fefe,fefe,fefe,fefe,fefe,00fe,fefe,fefe,fefe,fe00,00fa,0000,fefe,fefe,fefe,fefe,00fe,fefe,fefe,fcfe,fcfc,fefe,fefe,fefe,fefe,0000,fcfe,00fe,04fe,fcfe,fefe,fefe,fefe,fe00,fe00,fe00,fcfc,fefe,fefe,fefe,fefe,fefe,00fe,fefe,0000,0200,fefe,fefe,fefe,fefe,fefe,fefe,00fe,fe02,fefe,fcfe,fefe,fefe,fefe,fefe,fc00,0002,0000,fcfc,fefe,fefe,fefe,fefe,fefe,fe02,02fc,00fe,00fe,fefe,fefe,fefe,0000,fefe,0202,0400,fcfe,fefc,fefe,fefe,fe00,fe00,02fe,fe00,0002,fefe,fe00,00fe,fefe,fe02,fe02,02fe,0400,00fe,00fa,0000,02fe,02fc,fefc,fefe,0204,02fe,08fc,fefe,fefe,0202,00fe,fe00,fe02,0200,0000,0000,0000,0000,0000,0000,0000,0000,0000,0000,0000,0000,0000,0000,0000,0000,0000,0000,0000,0000,0000,0000,0000,0000,0000,0000,0000,0000,0000,0000,0000,0000,0000,0000,0000,0000,0000,0000,0000,0000,0000,0000,0000,0000,0000,0000,0000,0000,0000,0000,0000,0000,0000,0000,0000,0000,0000,0000,0000,0000,0000,0000,0000,0000,0000,0000,0000,0000,0000,0000,0000,0000,0000,0000,0000,0000,0000,0000,0000,0000,0000,0000,0000,0000,0000,0000,0000,0000,0000,0000,0000,0000,0000,0000,0000,0000,0000,0000,0000,0000,0000,0000,0000,0000,0000,0000,0000,0000,0000,0000,0000,0000,0000,0000,0000,0000,0000,0000,0000,0000,0000,0000,0000,0000,0000,0000,0000,0000,0000,0000,0000,0000,0000,0000,0000,0000,0000,0000,0000,0000,0000,0000,0000,0000,0000,0000,0000,0000,0000,0000,0000,0000,0000,0000,0000,0000,0000,0000,0000,0000,0000,0000,0000,0000,0000,0000,0000,0000,0000,0000,0000,0000,0000,0000,0000,0000,0000,0000,0000,0000,0000,0000,0000,0000,0000,0000,0000,0000,0000,0000,0000,0000,0000,0000,0000,0000,0000,0000,0000,0000,0000,0000,0000,0000,0000,0000,0000,0000,0000,0000,0000,0000,0000,0000,0000,0000,0000,0000,0000,0000,0000,0000,0000,0000,0000,0000,0000,0000,0000,0000,0000,0000,0000,0000,0000,0000,0000,0000,0000,0000,0000,0000,0000,0000,0000,0000,0000,0000,0000,0000,0000,0000,0000,0000,0000,0000,0000,0000,0000,0000,0000,0000,0000,0000,0000,0000,0000,0000,0000,0000,0000,0000,0000,0000,0000,0000,0000,0000,0000,0000,0000,0000,0000,0000,0000,0000,0000,0000,0000,0000,0000,0000,0000,0000,0000,0000,0000,0000,0000,0000,0000,0000,0000,0000,0000,0000,0000,0000,0000,0000,0000,0000,0000,0000,0000,0000,0000,0000,0000,0000,0000,0000,0000,0000,0000,0000,0000,0000,0000,0000,0000,0000,0000,0000,0000,0000,0000,0000,0000,0000,0000,0000,0000,0000,0000,0000,0000,0000,0000,0000,0000,0000,0000,0000,0000,0000,0000,0000,0000,0000,0000,0000,0000,0000,0000,0000,0000,0000,0000,0000,0000,0000,0000,0000,0000,0000,0000,0000,0000,0000,0000,0000,0000,0000,0000,0000,0000,0000,0000,0000,0000,0000,0000,0000,0000,0000,0000,0000,0000,0000,0000,0000,0000,0000,0000,0000,0000,0000,0000,0000,0000,0000,0000,0000,0000,0000,0000,0000,0000,0000,0000,0000,0000,0000,0000,0000,0000,0000,0000,0000,0000,0000,0000,0000,0000,0000,0000,0000,0000,0000,0000,0000,0000,0000,0000,0000,0000,00fc,fcfc,0000,fefe,fefe,00fe,0002,0206,00fc,fefe,fefa,fefe,00fe,fcfe,fafe,0000,02fc,fcfe,fcfc,00fe,fefe,fefe,fefe,fefe,0200,fefe,fcfc,00fe,fefe,fefe,fefe,fefc,fcfc,02fe,fcfc,fefc,fefe,fefe,fefe,fefe,fefe,f8fc,02fe,fcfc,fefe,fefe,fefc,fefe,00fe,fefe,0200,fefe,fcfe,fe00,fefe,fefe,fefe,fefe,0202,0402,fe00,0002,0000,fefc,fefe,fefe,fe00,0000,0202,00fe,00fe,fefe,fefe,fefe,fcfc,0200,0002,0200,0000,fe00,fefe,fefe,fcfe,fcfc,00fe,0404,0200,00fe,fefe,fefe,fefe,fefe,fcfc,0202,fe00,fe00,fefe,fefe,fefe,fefc,fcfc,0200,0000,fe00,0000,fefe,fefe,fefe,fefe,0600,fefe,0002,fe00,0000,fefe,fcfe,fcfe,fcfe,0202,0000,fe00,00fe,fefe,fefe,fefe,fefe,fe00,fcfc,0000,fefe,fefe,fefe,fefe,fefe,fe00,fefe,fefe,fefe,fefe,fefe,fe00,fefe,fe00,02fc,fcfe,fefc,fefe,fefe,fefe,fefe,fefe,fefe,00fc,00fe,fefe,fefe,fefe,fefe,fe00,fefe,fefe,fcfc,fefc,fcfe,fefe,fcfe,fefe,fefe,fefe,fefe,fcfc,fcfe,fefe,fefe,fefe,fefe,fefe,fefe,fcfc,fefe,fe00,fefe,fefe,fefe,00fe,fe00,fcfc,0000,0000,fe00,fefe,fefe,fe00,fefe,fcfc,0000,0200,0000,fefe,fefe,fefe,fefe,00fe,fcfc,0000,0000,00fe,fefe,fefe,fe00,fefe,00fe,fe00,0002,00fe,fefe,fefe,fefe,fefe,fe00,fefc,0000,0000,00fe,fefe,fefe,fefe,fefe,00fe,0000,0000,fefe,0000,00fe,fefe,fefe,0000,0000,0202,0000,0000,0000,fcfe,fe00,fefe,fefe,fe00,0000,00fe,fefe,fefc,fefe,fefe,00fc,0000,fe00,fefe,fefe,fefe,fcfe,fefe,0000,fefe,fe00,00fe,fefe,fefe,fefc,fefe,00fe,0600,0000,0000,fe00,00fe,0000,fefe,00fe,fa02,0200,0000,fefe,00fe,0200,02fe,0000,0000,0200,02f6,02f8,fe00,fc00,f8fc,fafa,fa00,02fe,fefe,fefe,00fe,fcf8,fcf8,fafa,fefe,0000,fcfa,fcfc,fcfe,fefc,fcfe,fefe,fcfc,fcfc,fe02,00fc,fcfc,00fa,fcfc,fefc,fcfe,fcfc,fe00,fe00,00fa,fcfc,fefc,fefc,00fe,00fe,00fe,fafc,fcfc,fe00,0000,0000,0000,00fe,fefe,00fc,0002,fe02,0200,fe00,fe00,00fe,00fe,fefe,f8fc,fcfe,fe00,fe00,fe00,fefe,00fe,fefc,fafe,fefe,00fe,0000,0200,00fe,0000,fefe,0000,fcfe,00fc,0000,0000,0000,0000,00fe,00fe,0000,f8fc,fcfe,fe00,00fe,fe00,0000,00fe,fafe,00fc,fefe,fcfe,fefe,0000,0000,00fe,fefe,00fc,fe02,fefc,fefe,fe00,fefe,0000,fe00,fcfc,00f8,fcfa,fcfc,fcfe,fefe,fe00,fefe,fefe,f8fe,fefc,fefe,00fe,fefe,fefe,fefe,00fe,fefc,fcfe,fefe,fcfe,fefc,fefe,fefe,fefe,fefc,fefc,00fe,fafc,fefc,fcfe,fefe,fefe,fefe,fefe,00fe,fcfe,fefc,fcfc,fefe,fefe,fefe,fefe,00fe,0200,fefc,00fe,fefc,fefe,fefe,fefe,00fe,fe02,0000,fe00,fefe,fefe,fefe,fefe,fe00,fc00,00fe,02fe,fefe,fefe,fefe,fefe,fefe,fefe,fcfe,0000,00fe,fefe,fefe,fefe,fe00,fefe,00fa,0000,fefe,fefe,fefe,fefe,00fe,fefe,fcfe,fefe,fefc,fcfe,fefe,fefe,fefe,fefe,fcfe,fe00,0400,fefe,fcfe,fefe,fefe,fefe,fefe,fefe,fefc,0200,fefe,fefe,fefc,fefe,fefe,fefe,0000,02fc,00fe,fefe,fcfe,fefe,fefe,fefc,00fe,0002,0200,fcfe,fefe,fefe,fefe,fefe,fc00,fe02,0004,fefc,fe00,fefe,fefe,fefe,fefe,0006,fefc,0002,00fe,fefe,fefe,fefe,0000,0000,0202,0202,fc00,00fc,fcfe,fefe,fefe,fefe,0000,0002,0002,fcfe,fe00,fe00,fefe,fe00,fc02,02fe,0400,00fe,00fc,fefe,0000,04fe,fcfa,00fe,0204,00fe,0cfc,fefe,0000,0402,02fe,fefe,fe00,fe00,0000,0000,0000,0000,0000,0000,0000,0000,0000,0000,0000,0000,0000,0000,0000,0000,0000,0000,0000,0000,0000,0000,0000,0000,0000,0000,0000,0000,0000,0000,0000,0000,0000,0000,0000,0000,0000,0000,0000,0000,0000,0000,0000,0000,0000,0000,0000,0000,0000,0000,0000,0000,0000,0000,0000,0000,0000,0000,0000,0000,0000,0000,0000,0000,0000,0000,0000,0000,0000,0000,0000,0000,0000,0000,0000,0000,0000,0000,0000,0000,0000,0000,0000,0000,0000,0000,0000,0000,0000,0000,0000,0000,0000,0000,0000,0000,0000,0000,0000,0000,0000,0000,0000,0000,0000,0000,0000,0000,0000,0000,0000,0000,0000,0000,0000,0000,0000,0000,0000,0000,0000,0000,0000,0000,0000,0000,0000,0000,0000,0000,0000,0000,0000,0000,0000,0000,0000,0000,0000,0000,0000,0000,0000,0000,0000,0000,0000,0000,0000,0000,0000,0000,0000,0000,0000,0000,0000,0000,0000,0000,0000,0000,0000,0000,0000,0000,0000,0000,0000,0000,0000,0000,0000,0000,0000,0000,0000,0000,0000,0000,0000,0000,0000,0000,0000,0000,0000,0000,0000,0000,0000,0000,0000,0000,0000,0000,0000,0000,0000,0000,0000,0000,0000,0000,0000,0000,0000,0000,0000,0000,0000,0000,0000,0000,0000,0000,0000,0000,0000,0000,0000,0000,0000,0000,0000,0000,0000,0000,0000,0000,0000,0000,0000,0000,0000,0000,0000,0000,0000,0000,0000,0000,0000,0000,0000,0000,0000,0000,0000,0000,0000,0000,0000,0000,0000,0000,0000,0000,0000,0000,0000,0000,0000,0000,0000,0000,0000,0000,0000,0000,0000,0000,0000,0000,0000,0000,0000,0000,0000,0000,0000,0000,0000,0000,0000,0000,0000,0000,0000,0000,0000,0000,0000,0000,0000,0000,0000,0000,0000,0000,0000,0000,0000,0000,0000,0000,0000,0000,0000,0000,0000,0000,0000,0000,0000,0000,0000,0000,0000,0000,0000,0000,0000,0000,0000,0000,0000,0000,0000,0000,0000,0000,0000,0000,0000,0000,0000,0000,0000,0000,0000,0000,0000,0000,0000,0000,0000,0000,0000,0000,0000,0000,0000,0000,0000,0000,0000,0000,0000,0000,0000,0000,0000,0000,0000,0000,0000,0000,0000,0000,0000,0000,0000,0000,0000,0000,0000,0000,0000,0000,0000,0000,0000,0000,0000,0000,0000,0000,0000,0000,0000,0000,0000,0000,0000,0000,0000,0000,0000,0000,0000,0000,0000,0000,0000,0000,0000,0000,0000,0000,0000,0000,0000,0000,0000,0000,0000,0000,0000,0000,0000,0000,0000,0000,0000,0000,0000,0000,0000,0000,0000,0000,0000,0000,0000,0000,0000,0000,0000,0000,0000,0000,0000,0000,0000,0000,fe02,02fa,f0f2,f0f6,f0f4,f2f2,f2fa,0202,0604,fcf4,f2f0,f2f4,e6e2,e8ec,ece8,ecf6,fc00,00f8,ecf2,ecf0,f6f4,eaec,ecf0,f2f8,fcfc,0400,fcf2,f0ea,f8fe,faf6,f2f2,eef4,fafa,fefe,0402,eeee,fa00,0406,fcfa,f6f6,f6fe,fa02,0000,f6f0,f2f6,0a0a,0604,00fc,fafc,0206,02fe,00f8,f2f6,040c,1410,0a06,0202,0a08,0a0a,fefc,ecee,fe04,1816,1210,0a0a,0606,0c0c,0000,eeee,fafa,0e16,1414,1410,0e0c,0a08,0806,fcf0,f0f8,060e,1412,0e14,0c0a,0806,0408,0200,f2f4,0608,0c0a,080a,0400,fcfc,0c08,0200,f4f4,0204,0802,fe00,fefc,fafa,060a,0c0c,fafc,fcfe,0204,fefa,f8f8,fcfc,fa02,0a0a,fcf2,fafc,0c08,00fc,00fc,fcfe,00fc,0804,1008,f4f2,0008,0806,0804,fe00,fc00,0206,000a,fef6,fe00,0806,0406,0202,fcfe,0000,02fe,0c02,f4f8,0206,0400,0000,00fe,0002,0202,fe04,fcf6,0806,0402,fe00,00fe,fefe,fe00,fefe,0402,f8f4,0202,fefc,fcfe,fcfc,04fe,0200,fe02,fef8,fe06,02fe,fcfc,fcfa,fafc,fe00,fe00,0000,f8fa,0402,f8fa,fcfa,fcfa,fcfe,fafc,0000,fafa,fe04,0000,f8f6,f6fa,f8fa,fcfe,0002,00fa,fafa,0200,fcfc,f8fa,fafa,fafc,0002,0200,f8f8,f8fe,fcfc,faf8,fafa,fcf8,fe02,0002,f6f8,fcfc,00fe,fcfa,f8fc,02fe,fefe,0200,02f8,f6f8,fcfc,0000,fe00,0202,0002,0004,02fe,f8f2,fc00,fefc,fefe,0406,0a06,0402,02fe,f8f8,f8fc,f8f8,f6f8,fa00,0c08,0402,fc00,f6f8,f8fc,fefe,f6f6,f2f2,0004,fcfe,fafa,fc02,fafc,fe00,fcfc,fafa,fafc,fefe,fafe,fafe,00fe,00fe,0000,fcfc,0000,fefe,faf8,fcfc,fe02,0000,0000,00fe,fe00,0000,fefa,f802,fc00,fcfe,fefe,0200,0002,00fe,00fc,f8f6,faf8,fcfe,0000,f600,0204,0202,0200,f6f6,f6fe,f8f8,00fe,00fe,0000,02fe,fe08,f2f4,fefe,0006,0406,f606,0e08,fc06,02f4,f6f8,0602,0404,0404,0400,fc02,1004,02fe,0400,0806,fe02,0a0a,060a,0c0c,0002,020c,060a,0a0a,0808,060a,0e10,1016,0206,0002,0006,0e08,0a0c,0e10,1616,1818,1616,f806,fc04,080c,100e,1212,161c,1c1a,1c1c,0400,0204,0004,1414,1214,1216,1c1c,1e1a,1408,fa00,fcfe,1214,1612,1214,1a1c,1412,0c04,fe02,0602,0410,1414,0a0a,1010,0604,0002,fc02,faf6,fe02,1412,0400,fefe,fefc,fafe,f6f6,f6fa,fcfe,0e16,0a02,f2f2,f2f8,fafa,00fa,fc02,fafe,0410,0e06,f8f4,f2f2,f6f6,0002,f6f4,f6fa,00fc,100c,f6f8,f6f4,f4f2,f6f8,fcf6,f4f4,f8fc,040a,fef4,f6f6,f6f4,f2f2,f8fc,f6fc,f0f6,0400,08fe,f4f6,f6f2,f2f0,f0f0,fcf8,f8f0,fafe,0004,f4f4,f6f6,f2f2,f0f0,f6f8,fafc,eef2,fcfe,02fc,faf4,f8f6,f6f6,f4f6,f8f8,fefc,f6fc,0000,fefc,fafa,f8fa,faf8,faf8,00fa,f4f8,fcfe,fcf6,fefe,fc00,fefc,faf8,fafc,fc00,fcfa,f4f6,fafe,fcfe,00fe,fefe,f8f8,fefe,f6fc,fe00,faf8,fefe,0002,0400,fefa,fcfa,f8f4,0408,f6f6,f8fc,0202,0406,0400,fefa,f4fa,f6f4,00fa,f4f6,fafa,0406,0a08,0202,f8f8,f2f6,fa00,f6f4,f4f8,fcfe,080a,0606,00fc,f2e8,f4f8,0400,f6f6,f4f8,0004,0606,0000,f4f2,eef4,00fa,fcf2,f2f4,fefe,00fe,0200,fcfc,eeec,f2fa,0002,f4f6,f8f6,fefc,fcfc,fafc,f4f8,f2f6,fc0c,f8fa,f2fc,f2fa,fafa,f8f8,f6fe,eef8,fefc,fafc,f6fe,fef6,fcfa,f8fa,f8fe,fa00,fafc,08fa,fef8,f6fc,f8fa,fefe,fcf8,00fe,f4f6,fafe,00f6,fef8,f4f6,fe00,fcfc,02fe,fc00,fafe,02fc,fcfa,f6fc,fafc,fc02,f8fe,fefc,f800,fefe,0004,fef4,f8fa,0400,f6fa,f8fc,fa00,fc00,020a,00f6,f4fa,f4f8,faf4,f8fe,faf8,fa00,fafe,fe02,0000,0000,0000,0000,0000,0000,0000,0000,0000,0000,0000,0000,0000,0000,0000,0000,0000,0000,0000,0000,0000,0000,0000,0000,0000,0000,0000,0000,0000,0000,0000,0000,0000,0000,0000,0000,0000,0000,0000,0000,0000,0000,0000,0000,0000,0000,0000,0000,0000,0000,0000,0000,0000,0000,0000,0000,0000,0000,0000,0000,0000,0000,0000,0000,0000,0000,0000,0000,0000,0000,0000,0000,0000,0000,0000,0000,0000,0000,0000,0000,0000,0000,0000,0000,0000,0000,0000,0000,0000,0000,0000,0000,0000,0000,0000,0000,0000,0000,0000,0000,0000,0000,0000,0000,0000,0000,0000,0000,0000,0000,0000,0000,0000,0000,0000,0000,0000,0000,0000,0000,0000,0000,0000,0000,0000,0000,0000,0000,0000,0000,0000,0000,0000,0000,0000,0000,0000,0000,0000,0000,0000,0000,0000,0000,0000,0000,0000,0000,0000,0000,0000,0000,0000,0000,0000,0000,0000,0000,0000,0000,0000,0000,0000,0000,0000,0000,0000,0000,0000,0000,0000,0000,0000,0000,0000,0000,0000,0000,0000,0000,0000,0000,0000,0000,0000,0000,0000,0000,0000,0000,0000,0000,0000,0000,0000,0000,0000,0000,0000,0000,0000,0000,0000,0000,0000,0000,0000,0000,0000,0000,0000,0000,0000,0000,0000,0000,0000,0000,0000,0000,0000,0000,0000,0000,0000,0000,0000,0000,0000,0000,0000,0000,0000,0000,0000,0000,0000,0000,0000,0000,0000,0000,0000,0000,0000,0000,0000,0000,0000,0000,0000,0000,0000,0000,0000,0000,0000,0000,0000,0000,0000,0000,0000,0000,0000,0000,0000,0000,0000,0000,0000,0000,0000,0000,0000,0000,0000,0000,0000,0000,0000,0000,0000,0000,0000,0000,0000,0000,0000,0000,0000,0000,0000,0000,0000,0000,0000,0000,0000,0000,0000,0000,0000,0000,0000,0000,0000,0000,0000,0000,0000,0000,0000,0000,0000,0000,0000,0000,0000,0000,0000,0000,0000,0000,0000,0000,0000,0000,0000,0000,0000,0000,0000,0000,0000,0000,0000,0000,0000,0000,0000,0000,0000,0000,0000,0000,0000,0000,0000,0000,0000,0000,0000,0000,0000,0000,0000,0000,0000,0000,0000,0000,0000,0000,0000,0000,0000,0000,0000,0000,0000,0000,0000,0000,0000,0000,0000,0000,0000,0000,0000,0000,0000,0000,0000,0000,0000,0000,0000,0000,0000,0000,0000,0000,0000,0000,0000,0000,0000,0000,0000,0000,0000,0000,0000,0000,0000,0000,0000,0000,0000,0000,0000,0000,0000,0000,0000,0000,0000,0000,0000,0000,0000,0000,0000,0000,0000,0000,0000,0000,0000,0000,0000,0000,0000,0000,0000,0000,0000,0000,0000,0000,0000,0000,0000,0000,0000,fefc,fafc,00fe,fc00,fcfc,00fe,0002,0202,0000,fefe,fcfa,fefc,fefc,fafc,fafe,fefe,00fa,fc00,fcfe,0000,fefe,fefc,fefc,fc00,0002,fcfe,fefe,02fe,fe00,fefe,fcfe,fefc,fcfe,02fe,fcfe,fefe,fcfe,fefe,fefe,fefc,fefc,fafc,00fe,fefc,fefe,fefe,fefc,fefe,fefc,fefe,0200,00fc,fefc,fefe,fefe,fefe,fefe,fefe,0002,0400,fe00,fefe,0000,fcfe,fefe,fefe,fe00,0000,0000,fefe,fefe,fefe,fcfe,fefe,fcfc,0200,0002,00fe,0000,00fe,fefe,fefc,fefc,fcfc,fe00,0202,0000,0000,fefe,fefe,fefc,fefc,fcfe,0000,00fe,fe00,0000,fefe,fefe,fefe,fcfc,0000,0000,fe00,fe00,0000,fe00,fefe,fefe,04fe,00fc,fe00,fe00,00fe,fefe,fefe,fefe,fa00,0000,fefe,fefe,fefe,fefe,00fe,fe00,fefe,fefe,fefc,0000,fefe,fefe,fe00,fefe,fefe,fe00,fefe,0000,0000,fefe,0000,00fe,fefe,fefe,00fe,fe02,0000,fe00,fefe,fefe,fefe,fefe,fe00,00fe,0400,fefc,fefe,fefe,fefe,fe00,fefe,00fe,fefe,fefc,fefe,fefe,fefe,fefe,fefe,fefe,00fe,fefe,fcfe,fefe,fefe,fefe,fefe,fefe,fe00,fefe,fefe,fefe,fe00,fefe,fefe,fefe,fe00,0202,0202,00fe,0000,fefe,fefe,00fe,fefe,fefe,0202,0200,00fe,00fe,fefe,fefe,fefe,fefe,fefe,0200,0000,00fe,00fe,fefe,fefe,fefe,0000,0000,0000,00fe,fe00,fefe,fefe,fefe,fefe,fefe,0000,fefe,fefe,0000,fefe,fefe,fefe,0000,0000,0000,fefe,0000,0000,fefe,fefe,fe00,0200,0202,00fe,0000,0000,fefe,fefe,fe00,fefe,0000,0000,fe00,0000,fefe,fefe,fefe,00fc,fe00,fefe,fefe,00fe,fefe,fefe,fefe,0000,00fe,fe00,fefe,fefe,fefc,fefe,fefe,fe00,fe00,fefe,00fe,fefe,fefe,fe00,fcfe,0000,f802,0000,fe00,fefe,fefe,00fc,00fc,fe00,00fe,0000,00f8,00fa,fe02,fcfe,f8fa,fafa,fa00,00fe,fefe,fefe,00fe,fcf8,fcf8,fafa,00fc,0000,fcfc,fefe,fe00,fcfc,fcfe,fefe,fcfc,fcfa,fe00,00fc,fefe,fefc,fcfc,fcfc,fefe,fcfe,0002,00fe,00fc,fcfe,00fe,fefc,fefe,00fe,fefe,fa00,fafc,fe00,0200,0000,0000,00fe,fcfe,00fe,fe02,fe00,0000,fe00,00fe,0000,fefe,fcfc,fafe,fefc,fefc,fc00,fefe,fefe,0000,fefc,fafe,fcfe,0000,00fe,0000,fe00,fefe,fefe,fe00,fc00,02fc,fe00,fe00,0000,00fe,0000,00fe,0000,fafc,fcfc,fe00,fefe,fefe,fe00,0000,fafe,00fa,fefe,fcfe,fefe,fefe,fe00,fefe,fefe,00fc,fe02,fefa,fefe,fcfe,fefe,fefe,fe00,fcfc,00fa,fcfa,fcfc,fcfe,fcfe,fefe,fefe,fefe,fafe,fafe,fefe,00fe,fefe,fefe,fefe,0000,fefc,fefa,fcfe,fefe,fefe,fefe,fefe,fefe,00fe,fefc,00fe,fafe,fefe,fefc,fefe,fefe,fe00,fefe,00fc,fcfe,fcfe,fcfe,fcfc,fefe,fefe,fefe,fefe,00fe,00fe,00fe,fefc,fefe,fefe,fe00,00fe,fc00,0000,fe00,fefe,fefe,fefe,fcfe,fe00,fc00,00fc,02fe,fefe,fefe,fefe,fefe,fefe,fcfe,fcfe,0000,00fe,fefe,fefe,00fe,fefe,fefe,fef8,fe00,00fc,fefe,fefe,fefe,fefe,00fe,fcfc,fcfe,fefa,fefe,fefe,fefe,fefe,fe00,fcfe,fefe,0200,fefe,fcfe,fefe,fefe,fefe,fefe,fe00,fefc,02fe,fcfe,fefc,fefe,fefe,fefc,fefe,fe00,04fe,00fe,fefe,fcfe,fefe,fefe,fefc,fefe,fe00,0200,fcfe,fefe,fefe,fefe,fefe,fe00,0004,0000,fefc,fefe,fefe,fefe,fe00,fcfe,0002,00fc,fe00,00fe,fefe,fefe,fe00,0000,fefe,0202,0402,f8fe,00fc,fefe,fefe,fefe,fe00,00fc,0002,0000,fcfe,fefe,fefe,fefc,fe00,fc02,0200,04fe,fefc,fefc,fefe,00fe,04fe,fcfc,fefe,0004,fefa,04fa,fefe,fe00,0004,02fe,fe00,fc00,fe04,0000,0000,0000,0000,0000,0000,0000,0000,0000,0000,0000,0000,0000,0000,0000,0000,0000,0000,0000,0000,0000,0000,0000,0000,0000,0000,0000,0000,0000,0000,0000,0000,0000,0000,0000,0000,0000,0000,0000,0000,0000,0000,0000,0000,0000,0000,0000,0000,0000,0000,0000,0000,0000,0000,0000,0000,0000,0000,0000,0000,0000,0000,0000,0000,0000,0000,0000,0000,0000,0000,0000,0000,0000,0000,0000,0000,0000,0000,0000,0000,0000,0000,0000,0000,0000,0000,0000,0000,0000,0000,0000,0000,0000,0000,0000,0000,0000,0000,0000,0000,0000,0000,0000,0000,0000,0000,0000,0000,0000,0000,0000,0000,0000,0000,0000,0000,0000,0000,0000,0000,0000,0000,0000,0000,0000,0000,0000,0000,0000,0000,0000,0000,0000,0000,0000,0000,0000,0000,0000,0000,0000,0000,0000,0000,0000,0000,0000,0000,0000,0000,0000,0000,0000,0000,0000,0000,0000,0000,0000,0000,0000,0000,0000,0000,0000,0000,0000,0000,0000,0000,0000,0000,0000,0000,0000,0000,0000,0000,0000,0000,0000,0000,0000,0000,0000,0000,0000,0000,0000,0000,0000,0000,0000,0000,0000,0000,0000,0000,0000,0000,0000,0000,0000,0000,0000,0000,0000,0000,0000,0000,0000,0000,0000,0000,0000,0000,0000,0000,0000,0000,0000,0000,0000,0000,0000,0000,0000,0000,0000,0000,0000,0000,0000,0000,0000,0000,0000,0000,0000,0000,0000,0000,0000,0000,0000,0000,0000,0000,0000,0000,0000,0000,0000,0000,0000,0000,0000,0000,0000,0000,0000,0000,0000,0000,0000,0000,0000,0000,0000,0000,0000,0000,0000,0000,0000,0000,0000,0000,0000,0000,0000,0000,0000,0000,0000,0000,0000,0000,0000,0000,0000,0000,0000,0000,0000,0000,0000,0000,0000,0000,0000,0000,0000,0000,0000,0000,0000,0000,0000,0000,0000,0000,0000,0000,0000,0000,0000,0000,0000,0000,0000,0000,0000,0000,0000,0000,0000,0000,0000,0000,0000,0000,0000,0000,0000,0000,0000,0000,0000,0000,0000,0000,0000,0000,0000,0000,0000,0000,0000,0000,0000,0000,0000,0000,0000,0000,0000,0000,0000,0000,0000,0000,0000,0000,0000,0000,0000,0000,0000,0000,0000,0000,0000,0000,0000,0000,0000,0000,0000,0000,0000,0000,0000,0000,0000,0000,0000,0000,0000,0000,0000,0000,0000,0000,0000,0000,0000,0000,0000,0000,0000,0000,0000,0000,0000,0000,0000,0000,0000,0000,0000,0000,0000,0000,0000,0000,0000,0000,0000,0000,0000,0000,0000,0000,0000,0000,0000,0000,0000,0000,0000,0000,0000,0000,0000,0000,0000,0000,0000,0000,0000,0000,0000,0000,0000,0000,0000,00fc,fefc,fc04,00fe,00fe,fefc,00fc,0406,02fe,0000,0804,0202,00fe,fe00,fa00,fe00,02fc,fe02,fe04,00fe,fc00,00fe,fefe,fcfc,fefe,fafe,fafc,04fc,fefc,fefe,fefe,fcfc,fcfc,fafa,fafe,0200,fefe,fcfc,0202,fefe,fcfe,f8fa,fefe,fcfc,00fe,fefc,00fe,00fe,0000,fefe,00fe,00fa,fcfc,fefe,fe00,fc00,fe00,fc00,fc00,00fc,fafa,00fe,fe00,fefe,fe00,00fe,fcfc,fefe,fefe,fcfe,00fe,fefe,fafc,0002,00fe,04fe,fcfe,fe00,0000,00fe,00fc,fefe,0002,00fc,fefe,0002,0200,02fe,0000,fefe,fefe,02fe,fcf8,0202,0200,0000,fefe,00fe,fefe,fe00,fefa,fe00,0400,0202,fe00,fefe,fefe,00fc,02fe,02fe,fcfa,0002,fcfe,00fe,fcfe,0202,0202,fcfc,0000,0000,00fe,fefe,fefe,0002,0000,fcfe,06fe,fafa,0002,00fe,fcfe,fcfe,0202,00fc,fe00,00fe,fafc,0602,fe00,0200,0000,00fc,fc00,02fc,fafc,0002,0404,0002,0200,fc00,fafc,fefc,00fc,fefa,0002,0404,0202,fefc,fefc,fcfe,fe02,fcfc,fcfc,0204,0202,fefe,0002,fcfc,fefe,0200,fcfc,fefe,0200,0200,fe00,fcfa,fefe,00fe,fafa,fefe,fe00,0000,00fe,00fe,fafc,fcfe,fcfa,fe00,0000,fefe,00fe,00fe,fcfa,fefc,fcfe,fe00,0200,00fe,fe00,fe00,fefe,fefe,fcfe,fcfa,00fe,0002,fcfc,0000,fcfc,fefe,fefc,00fc,fc00,fefe,00fe,fe00,00fe,fe00,fefe,fcfc,fcfc,fcfc,00fc,fcfc,0000,fefe,fefe,fefc,fefc,fe00,fe00,fcfc,fefe,0202,fefc,fcfc,fefc,fefe,0000,fefe,0202,0202,0200,fcfa,fefe,fefc,fe00,fefe,fe00,fefe,0000,fefe,fefe,fefa,fe00,fefe,fcfe,0000,00fe,00fc,fcfe,0200,fefe,fe00,fefe,fcfe,00fe,f8fc,fcfc,0200,fefe,00fe,0000,fefc,fefe,faf8,fcfe,0002,f602,fefe,fe00,fefe,fcfc,00fa,fcfc,fafe,04fc,0200,06fc,02fa,0206,fe02,f600,fafa,f802,0000,fc00,fc06,fefe,fef6,f8f6,fafa,fcf8,0602,00fe,fcfa,00fe,fe02,fa00,f6fa,fcfc,00fa,fe00,fefe,fcfc,02fc,fefe,fcf8,fe00,fcfa,fe00,fe04,00fe,fafa,fefe,fafa,0002,fefc,0400,fa00,fefe,00fe,fafa,00fe,fefe,0200,0000,04fc,0008,0000,fefc,fefe,fefe,0204,fe02,0400,f8fc,fcfa,00fc,0002,fefe,0000,0000,fefe,fef8,00fc,0000,0002,0402,0000,0200,fe00,00fe,fcfc,fcfe,00fe,0404,0000,fe00,fcfe,0400,fefe,fa02,fe00,fe00,0200,fefe,fe00,0002,fefe,00fe,0000,fcfe,0200,fefc,0000,fcfe,0002,00fa,fe08,00fe,fe00,0000,fcfe,0000,0606,0200,fc00,fc02,fafa,0000,fefe,0002,0000,0600,fcfc,fafe,0000,00fe,fe00,fe00,0000,0004,fcfc,00f6,02fe,fefc,fefe,0202,0202,0202,fefc,02fc,0202,0202,fefe,0000,0202,0000,fefe,00fe,fc04,fefe,00fe,fefe,0002,0202,00fe,fcfe,fe02,0a06,0200,0000,fcfe,fe00,0000,fe00,fefe,fe00,0000,0000,fefe,fcfe,0002,fe00,fe00,fcfe,fcfe,02fe,fcfe,fefe,fe00,fefe,fefe,fe00,fcfc,fe00,fefe,fe00,fefe,0000,0000,fcfe,fcfa,0002,02fe,fefe,fe00,fefe,fefe,00fe,fcfe,02fe,04fc,fafe,00fc,fefc,fe00,fcfe,fefe,fefe,0600,fcfa,fcfe,fefc,fcfe,fefe,02fc,fc02,fef6,f8fc,fefe,fefe,fcfe,fe00,0000,0000,0402,0404,fcfa,fe00,fefc,fefe,00fe,fefe,0000,02fc,fefe,00fe,fefc,fcfe,fefe,0200,00fe,fc04,0202,fefe,fe00,fefe,fcfe,0200,00fe,0404,fc04,0000,0200,fefe,fe00,fefc,0000,0000,0208,0a06,fafe,02fe,00fe,fefe,00fe,00fe,fe02,fefe,fefe,f800,02fc,0000,00fe,0004,fcfc,02fe,0400,fe00,fe02,fe00,0200,02fe,f8fa,00fe,0200,fcfc,04fc,0002,fe00,0202,00fe,0602,fe00,0000,0000,0000,0000,0000,0000,0000,0000,0000,0000,0000,0000,0000,0000,0000,0000,0000,0000,0000,0000,0000,0000,0000,0000,0000,0000,0000,0000,0000,0000,0000,0000,0000,0000,0000,0000,0000,0000,0000,0000,0000,0000,0000,0000,0000,0000,0000,0000,0000,0000,0000,0000,0000,0000,0000,0000,0000,0000,0000,0000,0000,0000,0000,0000,0000,0000,0000,0000,0000,0000,0000,0000,0000,0000,0000,0000,0000,0000,0000,0000,0000,0000,0000,0000,0000,0000,0000,0000,0000,0000,0000,0000,0000,0000,0000,0000,0000,0000,0000,0000,0000,0000,0000,0000,0000,0000,0000,0000,0000,0000,0000,0000,0000,0000,0000,0000,0000,0000,0000,0000,0000,0000,0000,0000,0000,0000,0000,0000,0000,0000,0000,0000,0000,0000,0000,0000,0000,0000,0000,0000,0000,0000,0000,0000,0000,0000,0000,0000,0000,0000,0000,0000,0000,0000,0000,0000,0000,0000,0000,0000,0000,0000,0000,0000,0000,0000,0000,0000,0000,0000,0000,0000,0000,0000,0000,0000,0000,0000,0000,0000,0000,0000,0000,0000,0000,0000,0000,0000,0000,0000,0000,0000,0000,0000,0000,0000,0000,0000,0000,0000,0000,0000,0000,0000,0000,0000,0000,0000,0000,0000,0000,0000,0000,0000,0000,0000,0000,0000,0000,0000,0000,0000,0000,0000,0000,0000,0000,0000,0000,0000,0000,0000,0000,0000,0000,0000,0000,0000,0000,0000,0000,0000,0000,0000,0000,0000,0000,0000,0000,0000,0000,0000,0000,0000,0000,0000,0000,0000,0000,0000,0000,0000,0000,0000,0000,0000,0000,0000,0000,0000,0000,0000,0000,0000,0000,0000,0000,0000,0000,0000,0000,0000,0000,0000,0000,0000,0000,0000,0000,0000,0000,0000,0000,0000,0000,0000,0000,0000,0000,0000,0000,0000,0000,0000,0000,0000,0000,0000,0000,0000,0000,0000,0000,0000,0000,0000,0000,0000,0000,0000,0000,0000,0000,0000,0000,0000,0000,0000,0000,0000,0000,0000,0000,0000,0000,0000,0000,0000,0000,0000,0000,0000,0000,0000,0000,0000,0000,0000,0000,0000,0000,0000,0000,0000,0000,0000,0000,0000,0000,0000,0000,0000,0000,0000,0000,0000,0000,0000,0000,0000,0000,0000,0000,0000,0000,0000,0000,0000,0000,0000,0000,0000,0000,0000,0000,0000,0000,0000,0000,0000,0000,0000,0000,0000,0000,0000,0000,0000,0000,0000,0000,0000,0000,0000,0000,0000,0000,0000,0000,0000,0000,0000,0000,0000,0000,0000,0000,0000,0000,0000,0000,0000,0000,0000,0000,0000,0000,0000,0000,0000,0000,0000,0000,0000,0000,0000,0000,0000,0000,0000,0000,0000,0000,0000,0000,0000,0000,fe00,0a06,fafe,fefc,f8fc,0e08,fefa,f8fa,00f8,fe02,f2f6,fcf4,f4f0,fa08,080a,fafc,00fc,fc02,06f4,fa00,ece6,f4f2,060a,f6f6,fafc,0806,f8f8,f8fa,f8f2,e8ea,fc04,04fc,faf6,00f4,fcfc,f8f6,fefc,e8e4,ecf6,0608,fa02,faf4,fefa,f6f6,0002,eee6,e0e6,0206,02fe,fcfe,fcf6,f4f4,fafe,f8f0,dee4,f200,0202,fcfc,fef6,f8f8,f6f6,0402,eae4,e6f2,0406,0402,fefe,f8f6,f0f2,f802,f2ec,e2e4,0002,0200,fe00,faf8,02fa,faf8,00fa,e6e4,f4fe,0602,fefe,0400,eef0,f8f2,fe00,f2ea,e2f0,0406,fafe,00fe,fcf8,fefc,f800,06fe,e4e8,0404,0200,00fe,fefc,f8f8,f0f8,0006,f2ea,f400,0802,fafc,00fe,f6f8,04f4,fc02,02fe,eef0,0808,fcfc,fcfe,fafa,fc06,f4f4,0204,f2f2,0408,fcf6,fafc,fcfc,f8fc,fcf8,fc04,0600,fafe,0afe,fcfe,fafc,faf8,faf8,f8f8,0204,fefc,0406,fcfe,faf8,f8fa,fcfc,fcfa,0202,0600,0000,02fe,00fe,fafa,fafc,faf8,0002,0200,fefe,0202,0002,00fc,fcfa,00fe,0202,0002,0200,0000,0200,fefc,02fe,0002,fefa,fcfc,0404,fefe,0202,0002,0204,0404,02fe,00fe,fefe,0202,fcfe,00fe,0404,0202,0600,faf8,f6f8,fe02,fefa,0000,0204,0200,0202,00fc,f6f6,fafa,fefe,00fe,0204,0000,fcfc,0200,fafc,f8fc,fcfa,0000,0202,0402,00fe,fefe,f8f6,fcfa,00fe,fefc,fe02,0000,00fe,fcfc,fafc,f6f8,fe00,fafa,0000,0200,fefe,00fe,fafa,f6f6,f8fa,fefc,0000,fe00,fefc,fefe,fcfa,faf6,fc02,fafc,fafa,0200,fcfc,fcfc,fcfc,f4f6,f6fc,f8f8,fcfe,00fc,00fe,fafc,fefc,f6f2,fcfc,0002,fcfc,fc00,00fc,fefa,fcfa,f4f4,f6f4,fcfe,faf8,fefc,fcfa,fefc,fefc,faf8,f4f6,fc00,0a02,fcfe,fefc,fafa,fcf8,f8f8,f8f8,f6f6,fc04,f8fc,fefe,f4fa,fcfc,f6f2,faf4,f8f8,fcfc,0000,0e0e,1812,120a,00fc,0408,0806,0e08,0c0a,0606,0e10,1212,0804,04fe,0606,0006,100a,0c0a,0a12,0808,0afe,fe00,0206,0200,fe0a,0a10,040c,0a06,0e0c,faf8,fe00,0202,fefc,0c0a,0610,1206,040a,fefa,f8f8,0808,fe02,0202,0208,0c08,0602,0404,f6f2,fe02,0000,fefc,040e,0a0e,0c02,0a0a,fef6,f6fe,0808,fcfc,0004,0804,0410,0202,0602,f2f4,0c0c,02fe,fc00,020c,060e,0e02,0606,f8f6,060c,0c00,fa02,0602,0608,0408,0204,00fc,f402,0e0c,f6f8,0002,0afe,0808,0602,0604,f8f4,1010,f8f2,fafc,0400,fafa,0206,040a,faf8,fc0c,08fa,fc00,02fc,0400,fefe,0406,04fa,f6fa,120c,f2fa,0004,0208,0808,0808,0200,f8fa,060c,f0ee,0402,0604,0802,0a0a,fefa,fafa,fe02,0af8,fc02,0608,0806,0406,0204,fcfa,0004,080a,f2fa,0408,0606,0206,080c,02fe,fe00,0002,f8ee,0202,0604,0402,080a,0406,fc00,0202,00fe,f4fc,0406,0002,fc02,0204,fc02,0204,fafa,f8f8,0000,fef8,00fc,00fe,0a00,0006,04fe,fafc,fcfe,02fe,fcfc,fcfc,0204,00fe,0804,f8f6,00fc,fe00,04fe,fafa,fa04,0206,0408,fefc,fe02,0000,fe02,fcfe,0200,0406,fefe,0200,f8fc,02fe,fefc,fefe,00fa,04fe,0c06,0404,fefc,0202,fefe,0000,fe00,fefc,040e,0804,02fe,fefe,02fe,fcfa,00fe,fefc,0406,0604,0404,fe00,0204,fcfc,00fe,fe00,fefc,0402,0604,0002,0002,0404,0000,02fe,00fc,0000,0604,0602,0000,0406,0404,0202,0600,fefc,060c,0808,0404,0002,0408,0602,0604,04fe,fe06,0604,0404,0402,0004,0808,0604,0602,0202,040c,0608,0204,0602,040a,0a08,0606,0400,0206,0e04,0600,0406,0404,0806,0602,0604,0804,0006,0608,0000,0202,0402,0402,0606,0406,0404,0808,0604,0402,0206,02fe,0402,0600,04fc,04fe,0000,0000,0000,0000,0000,0000,0000,0000,0000,0000,0000,0000,0000,0000,0000,0000,0000,0000,0000,0000,0000,0000,0000,0000,0000,0000,0000,0000,0000,0000,0000,0000,0000,0000,0000,0000,0000,0000,0000,0000,0000,0000,0000,0000,0000,0000,0000,0000,0000,0000,0000,0000,0000,0000,0000,0000,0000,0000,0000,0000,0000,0000,0000,0000,0000,0000,0000,0000,0000,0000,0000,0000,0000,0000,0000,0000,0000,0000,0000,0000,0000,0000,0000,0000,0000,0000,0000,0000,0000,0000,0000,0000,0000,0000,0000,0000,0000,0000,0000,0000,0000,0000,0000,0000,0000,0000,0000,0000,0000,0000,0000,0000,0000,0000,0000,0000,0000,0000,0000,0000,0000,0000,0000,0000,0000,0000,0000,0000,0000,0000,0000,0000,0000,0000,0000,0000,0000,0000,0000,0000,0000,0000,0000,0000,0000,0000,0000,0000,0000,0000,0000,0000,0000,0000,0000,0000,0000,0000,0000,0000,0000,0000,0000,0000,0000,0000,0000,0000,0000,0000,0000,0000,0000,0000,0000,0000,0000,0000,0000,0000,0000,0000,0000,0000,0000,0000,0000,0000,0000,0000,0000,0000,0000,0000,0000,0000,0000,0000,0000,0000,0000,0000,0000,0000,0000,0000,0000,0000,0000,0000,0000,0000,0000,0000,0000,0000,0000,0000,0000,0000,0000,0000,0000,0000,0000,0000,0000,0000,0000,0000,0000,0000,0000,0000,0000,0000,0000,0000,0000,0000,0000,0000,0000,0000,0000,0000,0000,0000,0000,0000,0000,0000,0000,0000,0000,0000,0000,0000,0000,0000,0000,0000,0000,0000,0000,0000,0000,0000,0000,0000,0000,0000,0000,0000,0000,0000,0000,0000,0000,0000,0000,0000,0000,0000,0000,0000,0000,0000,0000,0000,0000,0000,0000,0000,0000,0000,0000,0000,0000,0000,0000,0000,0000,0000,0000,0000,0000,0000,0000,0000,0000,0000,0000,0000,0000,0000,0000,0000,0000,0000,0000,0000,0000,0000,0000,0000,0000,0000,0000,0000,0000,0000,0000,0000,0000,0000,0000,0000,0000,0000,0000,0000,0000,0000,0000,0000,0000,0000,0000,0000,0000,0000,0000,0000,0000,0000,0000,0000,0000,0000,0000,0000,0000,0000,0000,0000,0000,0000,0000,0000,0000,0000,0000,0000,0000,0000,0000,0000,0000,0000,0000,0000,0000,0000,0000,0000,0000,0000,0000,0000,0000,0000,0000,0000,0000,0000,0000,0000,0000,0000,0000,0000,0000,0000,0000,0000,0000,0000,0000,0000,0000,0000,0000,0000,0000,0000,0000,0000,0000,0000,0000,0000,0000,0000,0000,0000,0000,0000,0000,0000,0000,0000,0000,0000,0000,0000,0000,0000,0000,0000,0000,0000,0000,0000,0000,0000,fe00,00fc,00fc,00fe,fefe,fcfc,00fe,0002,0204,fe00,fefe,fefc,00fe,00fe,fcfe,fcfe,0000,00fe,fc00,fcfe,0000,fe00,fefe,fefe,fefe,fe00,fcfe,fefc,0200,fe00,fefc,fe00,fefe,fefc,02fe,00fe,fcfe,fefe,fefe,fefe,00fe,fefc,fafc,fefe,fefa,fcfe,fefe,fefc,fefe,fefe,fefe,00fe,fefc,fefe,fefe,fefe,fefe,fe00,fefe,0000,0200,00fe,fefe,00fe,fefc,0000,fefe,fe00,0000,0000,fefe,00fe,00fe,fefe,00fe,fcfe,0400,fe00,00fe,fefe,00fe,fefe,00fe,fefe,fcfc,fe00,0000,fefe,00fe,00fe,fefe,fefe,fefc,fefc,0000,fefe,fefe,00fe,fefe,fefe,fefe,fcfc,fefe,0000,fefe,fefe,fefe,fefe,fefe,fefe,00fc,fefe,fefe,fefe,fefe,fefe,fefe,fefe,fcfe,0000,fefe,fefe,fe00,fefe,00fe,00fe,fefe,fe00,fcfe,fefe,fefe,00fe,fefe,fe00,fefe,fe00,fe00,fefe,00fe,fe00,00fe,fefe,fe00,fe00,02fe,fefe,fefc,fefe,00fe,fe00,fefe,00fe,00fe,02fe,00fe,fcfe,fefe,fe00,fefe,fe00,fefe,00fc,fcfc,fcfc,fcfe,fefe,fefe,fefe,fefe,fe00,fefe,fcfc,fcfc,fefe,fe00,fefe,fefe,fefe,fe00,fafc,fefe,fefe,fefe,fefe,fefe,fefe,fefe,fefe,00fe,fe00,fefe,00fe,fefe,fe00,fefe,fefe,fefe,00fe,0000,fe00,fefe,fefe,fefe,fefe,fcfc,0000,00fe,fefe,fefe,fefe,fefe,fefe,fefe,0002,0000,fe00,fefe,fefe,fefe,fefe,fefe,fefe,0000,0000,fefe,00fe,fe00,00fe,fefe,fefc,fe00,fe00,00fe,0000,fe00,fefe,fefe,0000,fefe,0000,0200,fefe,00fe,fefe,fefe,fe00,00fe,00fe,0000,0000,fefe,fefe,fefe,fefe,00fc,fefe,fefe,fefe,fefe,fefe,fcfc,fefe,0000,00fe,0000,fefe,fefe,fefe,fefe,fefe,fefe,0000,fe00,0000,0000,fefe,0000,fe00,0000,f602,0200,0000,0000,00fe,0200,02fe,fe00,00fc,0000,02f8,00f6,0000,fcfe,f6fa,fafc,fc04,0200,00fe,fefe,fefc,faf8,fcf8,faf8,00fc,0000,fcfe,fafc,fc00,fcfc,fcfa,fafc,fcfc,fafa,0000,00fe,fefa,fcfa,fafc,fcfa,fcfc,fcfc,00fe,fe00,00fa,fcfc,fefc,fcfc,fefe,0200,00fe,fafe,fefe,fefe,0000,fefe,fefe,00fe,fe00,00fc,0002,fe00,00fe,fefe,00fe,fe00,00fe,00fe,fafc,fcfc,fafc,fcfe,fe00,fefe,fe00,fefe,fcfc,fefe,00fe,00fe,fefe,fefe,fefe,00fe,0000,fcfc,00fc,fefe,fefe,fe00,fe00,fe00,00fe,0000,fcfc,fcfc,fefe,fefe,fefe,00fe,00fe,fa00,02fe,fc00,fcfe,fefe,fefe,fefe,00fe,fefe,00fc,fe04,fefc,fefe,fefe,fefe,0000,0000,fcfc,00fa,fefc,fcfc,fefe,fefe,fefe,fefe,fefe,f8fe,fcfe,fefe,00fc,fefe,fefe,0000,0000,fcfc,fefc,fefe,fefe,fefe,fefe,fefe,fefe,fefc,00fc,02fe,fafe,fefc,fefe,fefe,fe00,fe00,fcfe,fcfc,fcfe,fefe,fefe,fefe,fefe,fefe,fcfc,fefc,0202,fefc,fefe,fefe,fefe,fefe,fe00,fefe,fc00,00fe,fe00,fefe,fefe,0000,fefe,fefe,fcfe,0000,00fe,fe00,fefe,fefe,fefe,fefe,fe00,fefe,00fe,00fe,fefe,fefe,fe00,fefe,fefe,fef8,fefe,00fe,fefe,fefe,fefe,fefe,fefe,fcfc,fefe,fefc,fe00,fefe,fefe,fefe,0000,fcfe,fe00,04fc,fefe,fefe,fefe,fefe,fe00,fefe,fefe,fefc,00fe,fc00,fefe,fefe,fefe,00fe,fefe,fe00,0402,fefc,fefe,fefe,fefe,fefe,00fc,fe00,0202,0000,fcfe,fefe,fefe,fefe,fefe,fe00,0004,fe00,fcfc,00fe,fefe,fefe,0000,fefe,fe04,02fe,0000,fefc,fefe,fefe,fefe,fe00,fefe,0404,0002,f8fc,fcfc,fefc,fefe,fefe,fefe,02fc,0000,0002,fefc,fefe,fe00,00fe,0002,fe00,0000,0600,00fe,00fc,00fe,0200,04fc,fcfc,00fe,0402,00fc,08fc,fe00,00fe,0204,0200,fefe,fefe,fe00,0000,0000,0000,0000,0000,0000,0000,0000,0000,0000,0000,0000,0000,0000,0000,0000,0000,0000,0000,0000,0000,0000,0000,0000,0000,0000,0000,0000,0000,0000,0000,0000,0000,0000,0000,0000,0000,0000,0000,0000,0000,0000,0000,0000,0000,0000,0000,0000,0000,0000,0000,0000,0000,0000,0000,0000,0000,0000,0000,0000,0000,0000,0000,0000,0000,0000,0000,0000,0000,0000,0000,0000,0000,0000,0000,0000,0000,0000,0000,0000,0000,0000,0000,0000,0000,0000,0000,0000,0000,0000,0000,0000,0000,0000,0000,0000,0000,0000,0000,0000,0000,0000,0000,0000,0000,0000,0000,0000,0000,0000,0000,0000,0000,0000,0000,0000,0000,0000,0000,0000,0000,0000,0000,0000,0000,0000,0000,0000,0000,0000,0000,0000,0000,0000,0000,0000,0000,0000,0000,0000,0000,0000,0000,0000,0000,0000,0000,0000,0000,0000,0000,0000,0000,0000,0000,0000,0000,0000,0000,0000,0000,0000,0000,0000,0000,0000,0000,0000,0000,0000,0000,0000,0000,0000,0000,0000,0000,0000,0000,0000,0000,0000,0000,0000,0000,0000,0000,0000,0000,0000,0000,0000,0000,0000,0000,0000,0000,0000,0000,0000,0000,0000,0000,0000,0000,0000,0000,0000,0000,0000,0000,0000,0000,0000,0000,0000,0000,0000,0000,0000,0000,0000,0000,0000,0000,0000,0000,0000,0000,0000,0000,0000,0000,0000,0000,0000,0000,0000,0000,0000,0000,0000,0000,0000,0000,0000,0000,0000,0000,0000,0000,0000,0000,0000,0000,0000,0000,0000,0000,0000,0000,0000,0000,0000,0000,0000,0000,0000,0000,0000,0000,0000,0000,0000,0000,0000,0000,0000,0000,0000,0000,0000,0000,0000,0000,0000,0000,0000,0000,0000,0000,0000,0000,0000,0000,0000,0000,0000,0000,0000,0000,0000,0000,0000,0000,0000,0000,0000,0000,0000,0000,0000,0000,0000,0000,0000,0000,0000,0000,0000,0000,0000,0000,0000,0000,0000,0000,0000,0000,0000,0000,0000,0000,0000,0000,0000,0000,0000,0000,0000,0000,0000,0000,0000,0000,0000,0000,0000,0000,0000,0000,0000,0000,0000,0000,0000,0000,0000,0000,0000,0000,0000,0000,0000,0000,0000,0000,0000,0000,0000,0000,0000,0000,0000,0000,0000,0000,0000,0000,0000,0000,0000,0000,0000,0000,0000,0000,0000,0000,0000,0000,0000,0000,0000,0000,0000,0000,0000,0000,0000,0000,0000,0000,0000,0000,0000,0000,0000,0000,0000,0000,0000,0000,0000,0000,0000,0000,0000,0000,0000,0000,0000,0000,0000,0000,0000,0000,0000,0000,0000,0000,0000,0000,0000,0000,0000,0000,0000,0000,0000,0000,0000,0000,0000,0000,0000,02fe,00fc,f4fc,0206,fe02,0002,fefe,00fe,00f6,fe00,f6ee,f6f6,fafe,f8fa,fefc,f4fc,fe04,fc04,f6f4,ecea,ecee,fafe,0204,02fe,fefe,0400,f2f2,ece2,ecec,f8fc,0202,fefe,faf4,0004,fafa,eae8,e2e4,f4fc,0400,0400,fc00,f6fc,fafa,f0e8,dee2,e0ea,0002,0406,02fc,0000,fe04,faf8,dcda,d8da,fa00,0406,0404,0204,0600,fc00,eee0,dadc,eaf6,0606,080c,0c08,0806,0208,f0e4,d8d8,e0e8,0406,0808,0a08,0c0a,fcfc,0c00,e6dc,e2e4,fc04,0608,0806,0804,f8f4,fafc,f2e0,dee6,eaf4,080a,0606,02fc,f0ea,ecf2,fcf4,dee4,ecea,0a10,0604,faf6,ece8,e4e2,f0f6,f0e6,eaee,fc0a,0a04,fcf8,eeec,e6e8,e8ea,f8f2,e2ea,f4f8,1412,fefa,f6f0,f2f0,f4ee,f0f8,e8ea,eef4,0c16,04fe,faf6,f6fa,0000,f8f8,fcec,eaf0,fe04,1608,faf8,f8fa,0204,0604,f4f6,eeec,fcfe,0e14,fcfa,fcfc,fcfe,0608,02fc,f0e8,f4fa,040a,06fc,f8f8,fafc,0206,0606,f6f8,ecf6,0004,100c,f8f6,f8fa,fcfc,0406,02fc,f6ee,f8fe,0206,02fc,fafc,fcfa,fefe,0806,fcfa,ecf0,fcfe,0a08,faf8,fe00,fefe,0202,fefa,f4f0,fafc,0204,00fe,fefe,fefe,0000,0602,fafa,f4f6,fe02,0406,0000,0000,0204,0002,fafc,f6f6,f6f8,fe02,0200,0202,0200,0000,02fe,fafa,faf8,fefc,0002,0000,0202,0402,0002,fcf8,f6f8,fafa,fe00,0000,0002,0404,0402,0202,f8fa,faf8,fcfc,fe00,0002,0002,0400,fefe,faf8,fafc,f8fc,fafc,0002,fe00,fe00,0000,fcfc,fafe,fafa,fafa,fe00,0000,0000,fcfa,f4f6,fafc,fafa,00fe,fefc,0000,fe00,fefa,f8f8,fafc,fe02,fcfc,fe00,02fe,fe00,fefc,faf8,f2f4,fc00,fafe,0000,0200,0202,fc00,fefc,f6f6,fcfe,0600,fefe,0402,0200,fe02,fefc,f8f4,fafc,0208,f4fc,fcfa,0004,fefc,fcfe,00fc,f8f8,fe02,0000,0c08,060e,0a04,0002,0204,0406,0812,0c0e,080e,0e06,060c,fcf8,fc02,fe00,0a0c,080a,1208,0c0a,0806,00fe,0200,0200,fe00,0c0c,0808,060e,02fe,fe00,0204,00fe,fe00,080a,100e,0604,0a00,0804,fe02,0604,02fe,fc02,0e0e,1408,0afe,0002,02fe,0406,fefe,fc00,0c08,0604,0408,0202,0a08,0408,02fe,0404,0c0c,0c08,0202,0408,060e,0406,0e06,0200,080c,06fc,040c,0606,0402,0e0c,0e10,00fe,0402,0400,fe04,0604,08fe,1212,080e,0a00,0002,0200,fefe,0e06,0204,0810,0e0a,100a,f6fa,0000,fe02,1414,0406,0404,1014,0e12,faf4,0002,0402,0c0c,1406,00fc,060c,0c0a,04fc,f8fe,0404,0608,080e,fe08,0406,0e0e,0808,f0f4,0404,0804,0002,fcfc,0404,0c10,0606,f8f0,0004,0404,0400,fcfc,fe00,0e06,0e08,04fe,f2fa,0402,0204,fafe,fcf6,fa02,0e0e,0602,f2f2,0004,0204,0000,fafa,fe02,100e,0c0a,faf6,f8fe,02fe,fe00,0000,f6fa,fe04,0a0c,fcfa,f0f4,0000,fe00,fcfe,04fe,02f8,0a08,0802,faf6,f8f8,fefe,fcfe,fe00,fafe,00fe,0a06,fcfc,f8f6,0000,fefe,02fe,04fc,fc04,0608,0000,fcfa,f8fc,02fe,fefe,0002,fe00,fefc,0200,fafc,fcf8,0000,0002,0204,00fc,fafe,0406,00fa,fcfe,fafa,0404,0402,0000,0000,fc08,0202,0000,fefe,0002,00fc,00fa,faf8,0000,0402,0000,0000,fefc,0000,fefe,fefc,0002,fc02,04fe,0204,00fe,fe00,0000,0200,0200,0404,0404,0406,0000,0000,00fe,0002,0804,04fe,040e,0802,0002,0200,fefe,0004,0808,0602,fe08,0606,0000,fefe,0204,fcfe,0200,0a08,0600,00fe,0602,fe02,0402,0200,0604,0402,0008,fc04,0602,00fe,0204,0002,fe00,00fc,06fe,06fe,f6fe,0002,fc02,fc00,0208,fa04,fe00,fa02,0204,0606,fcfe,02fe,04fe,02fc,faf8,0afc,0a02,fcf6,0000,0000,0000,0000,0000,0000,0000,0000,0000,0000,0000,0000,0000,0000,0000,0000,0000,0000,0000,0000,0000,0000,0000,0000,0000,0000,0000,0000,0000,0000,0000,0000,0000,0000,0000,0000,0000,0000,0000,0000,0000,0000,0000,0000,0000,0000,0000,0000,0000,0000,0000,0000,0000,0000,0000,0000,0000,0000,0000,0000,0000,0000,0000,0000,0000,0000,0000,0000,0000,0000,0000,0000,0000,0000,0000,0000,0000,0000,0000,0000,0000,0000,0000,0000,0000,0000,0000,0000,0000,0000,0000,0000,0000,0000,0000,0000,0000,0000,0000,0000,0000,0000,0000,0000,0000,0000,0000,0000,0000,0000,0000,0000,0000,0000,0000,0000,0000,0000,0000,0000,0000,0000,0000,0000,0000,0000,0000,0000,0000,0000,0000,0000,0000,0000,0000,0000,0000,0000,0000,0000,0000,0000,0000,0000,0000,0000,0000,0000,0000,0000,0000,0000,0000,0000,0000,0000,0000,0000,0000,0000,0000,0000,0000,0000,0000,0000,0000,0000,0000,0000,0000,0000,0000,0000,0000,0000,0000,0000,0000,0000,0000,0000,0000,0000,0000,0000,0000,0000,0000,0000,0000,0000,0000,0000,0000,0000,0000,0000,0000,0000,0000,0000,0000,0000,0000,0000,0000,0000,0000,0000,0000,0000,0000,0000,0000,0000,0000,0000,0000,0000,0000,0000,0000,0000,0000,0000,0000,0000,0000,0000,0000,0000,0000,0000,0000,0000,0000,0000,0000,0000,0000,0000,0000,0000,0000,0000,0000,0000,0000,0000,0000,0000,0000,0000,0000,0000,0000,0000,0000,0000,0000,0000,0000,0000,0000,0000,0000,0000,0000,0000,0000,0000,0000,0000,0000,0000,0000,0000,0000,0000,0000,0000,0000,0000,0000,0000,0000,0000,0000,0000,0000,0000,0000,0000,0000,0000,0000,0000,0000,0000,0000,0000,0000,0000,0000,0000,0000,0000,0000,0000,0000,0000,0000,0000,0000,0000,0000,0000,0000,0000,0000,0000,0000,0000,0000,0000,0000,0000,0000,0000,0000,0000,0000,0000,0000,0000,0000,0000,0000,0000,0000,0000,0000,0000,0000,0000,0000,0000,0000,0000,0000,0000,0000,0000,0000,0000,0000,0000,0000,0000,0000,0000,0000,0000,0000,0000,0000,0000,0000,0000,0000,0000,0000,0000,0000,0000,0000,0000,0000,0000,0000,0000,0000,0000,0000,0000,0000,0000,0000,0000,0000,0000,0000,0000,0000,0000,0000,0000,0000,0000,0000,0000,0000,0000,0000,0000,0000,0000,0000,0000,0000,0000,0000,0000,0000,0000,0000,0000,0000,0000,0000,0000,0000,0000,0000,0000,0000,0000,0000,0000,0000,0000,0000,0000,0000,0000,0000,0000,0000,0000,0000,0000,0000,0000,0000,0000,fcfe,000a,f2f8,f8fc,0600,fc02,f8f8,fefe,04fe,fef6,f6f8,eef6,f8fc,fcf8,fafa,f8f8,fc02,fcf6,00fe,f6fa,f2f0,0000,fafc,02fa,f4fe,fe02,0208,f8f6,faf8,fcfc,00fe,fafe,f8f8,fef2,02fe,02f8,f4f4,f8fa,fafa,fafa,fefe,fef8,0a0a,0602,faf4,f6f4,f8fa,fcfe,fe00,0006,0200,0204,0002,f8fa,00fe,fafc,fefe,0000,fefe,0204,04fe,00fe,fcfc,fcfc,0200,0202,fe00,0404,0204,0004,0200,fe00,0000,0402,0204,0604,fe06,0402,0002,0402,0202,0204,0406,0204,00fe,f8fe,f6f2,0000,fe00,0400,0204,0602,0202,f6f6,fcfa,f8fc,fe00,fe00,fe00,fe00,0200,f6f4,f6f8,fcfa,fefe,00fe,fefc,fcfe,fcfc,fcfc,0206,0202,0804,0606,0202,fafa,fcf8,f6f8,eef6,0804,1214,0e0e,0606,0000,fe00,f8fa,f4f4,0602,060c,1816,0c08,0604,fefe,00fa,f6f8,fcfa,00fa,0006,140e,0a08,0200,0404,0000,0202,00fa,e6ea,f0fc,0202,0202,0002,00fe,0604,00f6,f0ea,dcd4,e2e4,f2f6,fcfe,0002,0404,0202,04fc,f0ea,e4de,e8ee,f8f8,f8fc,0204,0402,fafa,fefe,f6f4,f2f2,f8fc,fcfa,fc00,0206,fcfc,02fe,fcfe,fefc,fafa,fcfc,fefe,0202,00fa,f8fa,fcfc,fafe,f8f8,fcfc,fe00,00fe,0000,fcfa,fcfe,0000,00fc,fe00,fefe,fe00,0000,fafc,fcfa,fafe,fafc,fcfe,fcfc,fcfa,fefe,fefe,fcfc,f2f0,f8f6,fcfa,02fe,fcfe,fafe,fcfc,fafa,faf8,e4ea,eef0,fe02,0000,fcfa,fcfe,faf8,fcfc,f4ec,eeee,f6fa,fefe,fefc,fefe,fe00,fe00,f8fe,f4f6,f8f8,fc00,fc00,fefc,0002,00fe,faf8,fcfa,fe00,fcfa,fafa,fefc,0000,0200,fefa,fcfe,0000,0602,fcfa,fcfe,0000,fcfe,fcfa,fcfe,fafe,0608,0404,fefe,fe00,fe00,fcfc,fefe,0200,0002,0606,0202,fc00,fefe,fef8,fafc,f204,04fe,0204,0608,0404,0000,0200,faf6,0404,0002,0202,fafa,fcfa,fefc,fe02,fa02,0808,0004,0808,04fe,02fe,fe04,0800,0200,fcfc,0208,060c,fc00,0004,0204,0200,00fc,fcfc,fe08,080a,0806,02fc,0000,02fe,02fe,00fc,0804,0a0c,040c,0afe,fcfe,0404,0404,0202,fe00,0600,fe0c,1004,00fc,0000,0400,0204,0402,0406,0600,0008,f8f6,f8fa,0404,0404,0406,0000,fcfc,0802,0a00,fefe,fafe,0000,0000,0002,fcfe,0004,0400,fcfe,f6f6,fafc,fafc,fcfc,fefa,fafa,0204,0600,fcfc,fafa,f8f8,fafa,fe00,f8fe,0208,040a,fefe,fe00,fefc,fe00,fcfe,fefa,f6fc,0000,04fe,0608,0604,0204,0206,0204,fefe,0808,0404,f6fa,0606,0a06,0808,0806,0600,0408,0000,02fc,f6f8,0406,0a0a,0a08,0606,fefe,fefe,0efa,f4f0,eef2,0204,0604,0002,0000,fafa,fc00,04fc,e8e4,e4e8,f6f8,fafc,0002,fcfa,fcfc,f804,fef8,ece6,e0e0,eaee,f6f8,fafa,f8fa,fefc,0a04,0402,f8f6,eeee,f4f8,fcfc,fcfc,fafc,f802,1418,1212,0602,00fe,0004,02fe,fe02,f602,0c12,1e1c,1414,0c0c,0808,0606,0200,fefc,0000,1414,1e1a,1612,0c0c,0c08,0806,0a06,fefe,0404,1218,1614,120e,0c0a,0606,0404,02fe,fc04,0402,0e0e,0c0a,080a,0404,0202,0602,0404,fafc,f4fa,0002,0402,02fe,0204,fafe,fe0a,080a,f4ee,eef4,f6fa,fafa,fe02,0000,0402,060a,fcf8,eeee,ecf0,f2f2,fefe,0202,fefe,020c,080a,faf8,f2f2,f2f2,f8fe,00fe,fafc,0006,040e,0000,0000,fafc,fafe,fe02,fcfa,fafe,0a08,020c,0408,0204,0200,0202,fcfc,f802,0006,040a,fc00,0608,0808,0406,0000,00fe,0402,0208,0a02,fefc,0408,0806,0404,0202,0208,fe02,0402,f8fc,fc04,0404,0206,0604,0202,0206,fe06,0c04,02fe,fefa,fafa,0204,0402,0204,0202,0806,0000,02fe,fa00,fa00,fe02,0202,0404,0202,0206,0000,0000,0000,0000,0000,0000,0000,0000,0000,0000,0000,0000,0000,0000,0000,0000,0000,0000,0000,0000,0000,0000,0000,0000,0000,0000,0000,0000,0000,0000,0000,0000,0000,0000,0000,0000,0000,0000,0000,0000,0000,0000,0000,0000,0000,0000,0000,0000,0000,0000,0000,0000,0000,0000,0000,0000,0000,0000,0000,0000,0000,0000,0000,0000,0000,0000,0000,0000,0000,0000,0000,0000,0000,0000,0000,0000,0000,0000,0000,0000,0000,0000,0000,0000,0000,0000,0000,0000,0000,0000,0000,0000,0000,0000,0000,0000,0000,0000,0000,0000,0000,0000,0000,0000,0000,0000,0000,0000,0000,0000,0000,0000,0000,0000,0000,0000,0000,0000,0000,0000,0000,0000,0000,0000,0000,0000,0000,0000,0000,0000,0000,0000,0000,0000,0000,0000,0000,0000,0000,0000,0000,0000,0000,0000,0000,0000,0000,0000,0000,0000,0000,0000,0000,0000,0000,0000,0000,0000,0000,0000,0000,0000,0000,0000,0000,0000,0000,0000,0000,0000,0000,0000,0000,0000,0000,0000,0000,0000,0000,0000,0000,0000,0000,0000,0000,0000,0000,0000,0000,0000,0000,0000,0000,0000,0000,0000,0000,0000,0000,0000,0000,0000,0000,0000,0000,0000,0000,0000,0000,0000,0000,0000,0000,0000,0000,0000,0000,0000,0000,0000,0000,0000,0000,0000,0000,0000,0000,0000,0000,0000,0000,0000,0000,0000,0000,0000,0000,0000,0000,0000,0000,0000,0000,0000,0000,0000,0000,0000,0000,0000,0000,0000,0000,0000,0000,0000,0000,0000,0000,0000,0000,0000,0000,0000,0000,0000,0000,0000,0000,0000,0000,0000,0000,0000,0000,0000,0000,0000,0000,0000,0000,0000,0000,0000,0000,0000,0000,0000,0000,0000,0000,0000,0000,0000,0000,0000,0000,0000,0000,0000,0000,0000,0000,0000,0000,0000,0000,0000,0000,0000,0000,0000,0000,0000,0000,0000,0000,0000,0000,0000,0000,0000,0000,0000,0000,0000,0000,0000,0000,0000,0000,0000,0000,0000,0000,0000,0000,0000,0000,0000,0000,0000,0000,0000,0000,0000,0000,0000,0000,0000,0000,0000,0000,0000,0000,0000,0000,0000,0000,0000,0000,0000,0000,0000,0000,0000,0000,0000,0000,0000,0000,0000,0000,0000,0000,0000,0000,0000,0000,0000,0000,0000,0000,0000,0000,0000,0000,0000,0000,0000,0000,0000,0000,0000,0000,0000,0000,0000,0000,0000,0000,0000,0000,0000,0000,0000,0000,0000,0000,0000,0000,0000,0000,0000,0000,0000,0000,0000,0000,0000,0000,0000,0000,0000,0000,0000,0000,0000,0000,0000,0000,0000,0000,0000,0000,0000,0000,0000,0000,0000,0000,0000,0000,0000,0000,0000,00fc,0a08,06fe,fe00,0804,0e08,0002,0600,000a,0006,0004,0202,0c0a,0c0e,0604,02fa,0402,0c0c,1010,0c0c,0a06,0606,0c08,fefc,0000,0208,0410,0e14,0404,0404,0204,0a06,0206,0200,0006,100c,0804,0200,0000,0406,0602,fefe,080a,060e,100e,0004,0402,0406,0a0c,00fa,fcf8,0408,100a,0804,0406,0202,0808,0604,fafe,0404,0e12,0606,0204,0400,0204,0204,fefe,fcfc,0a12,0c0a,0604,0202,0202,0200,fcfe,fcfa,f604,0c0c,0806,0806,0406,0202,fafa,fefe,f800,040a,0806,0a0a,0402,0200,fefa,fafe,02fc,0806,0e08,0206,0604,0202,fefc,f8f8,fc00,fefe,0804,fe00,0606,0202,02fe,fcfe,fc00,00fe,0a0c,00fc,0006,0602,0202,fc00,fcfc,0202,faf8,0c04,fe00,0404,0000,00fe,fefc,fe00,fe00,0e0e,0404,0406,0202,fefc,fe00,0002,fcfe,f4fa,0a0c,0808,0606,00fc,fefe,0204,02fe,f6f6,080a,080a,0604,fefc,fc00,0404,0602,f6f6,f4fa,0806,0606,faf8,f6fa,0406,0606,00fa,f0f0,02fc,f4fa,fcfa,f6f2,0006,0808,0604,f2f2,f6fc,eeee,f8f6,f8f4,f0f8,0c0a,0608,00f8,f0ee,f2ee,eef2,f6f8,f2ec,0008,0806,0400,f8f4,f802,eaec,f4f4,f8f4,eef8,0608,0604,fcfe,f4f6,f0f0,f6f8,f8fa,f2f2,fc00,0606,00fe,fefa,02fe,f4fa,fafe,faf8,f2f6,fe02,0204,00fe,fafc,fcfa,0200,fefc,f4f4,f8f8,0200,0000,faf8,fefc,fefe,fefe,faf8,f6f8,fe00,0204,fefc,fafc,0200,fefc,fcfc,f6f8,fafa,0002,00fe,faf8,fcfc,0202,faf8,faf8,fafa,fefe,0200,0000,fafa,0608,0602,fcfc,fafa,fcfe,0204,0200,fcfc,fe04,080a,0802,fc00,fafc,fe00,0402,0202,00fc,fc00,0406,0404,00fe,00fe,0808,0002,fefa,0204,fe02,0606,0404,0202,0206,02fe,0604,0206,00fa,0404,0604,0608,0408,0202,0404,0002,0002,fc06,0afc,0202,0208,0200,fafc,0afc,08f8,0006,000a,fef8,fe02,f8f4,f6f8,faf8,02fc,fc06,0602,00fe,f2f2,fafa,f4f2,f4f4,f804,fc08,0802,0200,f0f0,f8f8,f8f8,faf8,eeee,0806,0604,0400,f8f4,f6fa,faf8,f8f8,f6f2,f2f4,0202,0206,02fa,f4f8,fefe,f8f8,f8f6,f0ee,0004,020c,02fe,f6f4,fcfa,fcfe,fafa,f8f8,f2f4,fe04,08fe,f6f8,f6f8,fafe,0000,0000,fafc,fa06,0008,f8fc,f8f6,f6f6,0002,0002,0000,fafa,02fa,0004,fef8,faf6,fafa,0200,00fe,0404,020c,020e,fafc,fafc,f8f8,0406,fe00,0202,fe02,0608,0802,fefe,fafa,fc04,0604,0000,0608,0000,0a06,0000,fcfc,fcfc,0606,0402,0808,0400,0a04,08fe,0200,0000,0002,0204,080a,0c08,0208,0c06,fcfe,0204,fe00,0004,0808,080a,0202,0a0e,00f8,fa00,00fe,fe00,060a,0606,0806,0a14,0202,f8f6,fafc,fefe,0608,0c08,0802,0606,0c06,f4f0,f2f2,f8fc,0204,0c10,0404,0606,1216,0008,f0ea,f2f6,0402,080e,0804,0002,060a,0a0e,f8e8,f0ee,f8fe,0406,0c06,0000,0406,0808,0806,e8f4,f6f4,0204,0c0e,0000,fe02,0406,0602,fef8,fcfc,fe00,080c,0604,00fc,fefe,0a0a,0404,f800,0402,0608,0c0a,0200,fcfe,fcfe,080c,0402,0608,0608,0808,0602,00fe,fcfc,fe06,0a00,0406,0404,0c08,0808,0402,fefc,0004,0806,080a,0600,0406,0808,0404,fcfc,fc00,0408,040a,0402,fefe,0406,0404,00fe,0200,0606,0a04,0a08,00fe,0004,0604,fe00,0002,0402,0a06,0a06,fefe,00fc,0404,0200,0002,06fe,0002,0808,02fe,fafc,0000,0202,0200,fe04,0002,000a,0810,fcfc,fcfc,0002,00fe,fefe,fc00,0008,0004,0604,f8f8,f800,00fc,0000,0206,040c,0206,0808,08fe,faf6,fefa,fefe,fefe,0402,0806,0812,0612,0c04,fefc,fe02,fe04,0208,0a0c,0208,0afe,0000,0000,0000,0000,0000,0000,0000,0000,0000,0000,0000,0000,0000,0000,0000,0000,0000,0000,0000,0000,0000,0000,0000,0000,0000,0000,0000,0000,0000,0000,0000,0000,0000,0000,0000,0000,0000,0000,0000,0000,0000,0000,0000,0000,0000,0000,0000,0000,0000,0000,0000,0000,0000,0000,0000,0000,0000,0000,0000,0000,0000,0000,0000,0000,0000,0000,0000,0000,0000,0000,0000,0000,0000,0000,0000,0000,0000,0000,0000,0000,0000,0000,0000,0000,0000,0000,0000,0000,0000,0000,0000,0000,0000,0000,0000,0000,0000,0000,0000,0000,0000,0000,0000,0000,0000,0000,0000,0000,0000,0000,0000,0000,0000,0000,0000,0000,0000,0000,0000,0000,0000,0000,0000,0000,0000,0000,0000,0000,0000,0000,0000,0000,0000,0000,0000,0000,0000,0000,0000,0000,0000,0000,0000,0000,0000,0000,0000,0000,0000,0000,0000,0000,0000,0000,0000,0000,0000,0000,0000,0000,0000,0000,0000,0000,0000,0000,0000,0000,0000,0000,0000,0000,0000,0000,0000,0000,0000,0000,0000,0000,0000,0000,0000,0000,0000,0000,0000,0000,0000,0000,0000,0000,0000,0000,0000,0000,0000,0000,0000,0000,0000,0000,0000,0000,0000,0000,0000,0000,0000,0000,0000,0000,0000,0000,0000,0000,0000,0000,0000,0000,0000,0000,0000,0000,0000,0000,0000,0000,0000,0000,0000,0000,0000,0000,0000,0000,0000,0000,0000,0000,0000,0000,0000,0000,0000,0000,0000,0000,0000,0000,0000,0000,0000,0000,0000,0000,0000,0000,0000,0000,0000,0000,0000,0000,0000,0000,0000,0000,0000,0000,0000,0000,0000,0000,0000,0000,0000,0000,0000,0000,0000,0000,0000,0000,0000,0000,0000,0000,0000,0000,0000,0000,0000,0000,0000,0000,0000,0000,0000,0000,0000,0000,0000,0000,0000,0000,0000,0000,0000,0000,0000,0000,0000,0000,0000,0000,0000,0000,0000,0000,0000,0000,0000,0000,0000,0000,0000,0000,0000,0000,0000,0000,0000,0000,0000,0000,0000,0000,0000,0000,0000,0000,0000,0000,0000,0000,0000,0000,0000,0000,0000,0000,0000,0000,0000,0000,0000,0000,0000,0000,0000,0000,0000,0000,0000,0000,0000,0000,0000,0000,0000,0000,0000,0000,0000,0000,0000,0000,0000,0000,0000,0000,0000,0000,0000,0000,0000,0000,0000,0000,0000,0000,0000,0000,0000,0000,0000,0000,0000,0000,0000,0000,0000,0000,0000,0000,0000,0000,0000,0000,0000,0000,0000,0000,0000,0000,0000,0000,0000,0000,0000,0000,0000,0000,0000,0000,0000,0000,0000,0000,0000,0000,0000,0000,0000,0000,0000,0000,0000,0000,0000,0000,0000,0000,0000,0000,0000,fafc,fcfc,fefe,fc00,fefa,00fe,fe02,0202,0000,fe00,fcf8,fefe,fefe,fcfe,fafe,fefe,00fc,0000,fcfc,fe00,fefe,fefe,fefc,fcfe,0002,fe00,fcfc,02fe,fefe,fcfc,fefe,fefc,fcfc,0804,0202,fefa,fafe,fcfe,fcfe,fefe,fefc,fafe,0608,fcfa,fcfa,fcfc,fcfc,fefe,fefc,fefe,0a08,02fe,fefe,fefe,fefe,fefe,fefe,fcfe,0a08,0604,0808,0402,0000,fefc,fefe,fefc,fefe,0406,080a,0400,fefe,fefe,fefe,fefe,fcfe,04fe,fe02,0402,00fe,fefe,fefc,fefc,fcfc,fcfc,fafc,0004,fe00,00fe,fefc,fefe,fefe,fefe,fafa,0200,fcfc,fcfc,fefe,fcfc,fcfc,fefe,fcfa,0000,fefe,fcfc,00fe,fefe,fefe,fefe,fefe,04fe,fefc,fafe,fc00,00fe,fefe,fcfe,fefe,fafe,0000,fcfe,fefe,fe00,fefe,fefe,00fe,fefe,fa00,fcfa,00fe,fefc,fefe,00fe,fcfe,fefe,fefe,fcfe,fefe,fefe,fcfe,fe00,fe00,fefe,0000,00f8,f8fe,fefc,fcfe,fefe,fefe,fefe,fefe,fefe,fcf8,00fc,fefe,fefe,fefe,fefe,fe00,00fe,fcf8,fafc,fefe,fcfc,fefe,fefe,fefe,fe00,fefe,fcf8,fafc,fcfc,fe00,fefe,fefe,fefe,fefe,fcfc,f6f6,fcfe,fefe,fefe,fefe,fefe,fefe,fe00,fcf8,fefe,fefe,00fe,fefe,fefe,fefe,fefe,fafc,0200,fe00,fe00,fefc,fefc,fefe,00fe,00fe,fc00,0000,0202,00fe,fcfe,fefe,fefe,fefe,00fe,0404,fe00,0200,fefc,fefe,fefe,fefe,fe00,fefc,00fe,00fe,fefe,fefe,fefe,fefe,fefe,0200,fefe,0000,00fe,00fe,fefe,fefe,fefe,0000,00fe,0000,0000,0000,00fe,fcfe,fefe,fe00,fefe,fcfe,0000,fefe,00fe,fefc,fefe,fefe,00fe,fe00,fefe,fcfe,00fe,fefe,fcfc,fefe,0000,0000,0000,0000,fefe,00fe,fefe,fe00,0000,0000,fefe,fe00,fe00,0000,0002,fcfc,0000,fc00,0000,0000,fe00,00fe,0200,02fe,fe00,00fe,0000,02f4,02fa,fe00,fcfc,fafc,f8fa,fcfe,0200,fcfe,fefe,fc00,f8f8,f8f8,fcf8,fefe,fe00,fafa,fcfe,00fe,fafc,fafa,fcfe,fefa,fafe,02fe,02fe,0000,fcfa,f8f8,fefc,fcfc,fcfc,0000,fc00,06fc,0002,fefe,0200,fefc,0402,fe00,fc00,0202,0406,0808,0200,fe00,00fe,fc00,00fa,0204,0000,0608,fe00,fcfe,fcfe,fcfe,fcfe,f8fc,fcfc,fc00,0200,0000,fcfe,fefe,00fe,fafe,fcfa,fefa,0202,0000,0000,fe00,fefe,00fe,fafc,00fa,0202,fcfc,00fe,0000,0000,00fe,fefe,f8fe,f8fe,fefe,fefe,fefe,fe00,00fe,f800,0200,fc00,fafe,fcfc,fe00,0000,fefe,fcfc,02fe,fe08,fcfa,fcfe,fe00,fefe,0000,00fe,fafa,02f8,00f8,fafc,fcfe,fcfc,fefe,00fe,fefe,fafa,fcfc,fefc,00fe,fcfe,fcfc,00fe,0000,fcfc,fa00,fefe,fcfc,fcfc,fcfc,fefe,fcfe,fefa,fefe,fefa,fafe,fefe,fcfc,fefe,fefe,fc00,fefc,fefc,00fe,fcfc,fefe,fcfc,fefe,fefc,fcfc,fefc,0400,fcfe,02fe,fefc,fcfe,fefe,fefe,fefe,fe02,0404,fe00,fefc,fcfe,fe00,fefe,fc00,fa00,00fc,00fc,fefe,fefe,fefe,fefe,fefc,fcfe,fafc,00fe,0000,fcfc,fefe,fefe,fe00,fefe,fefc,02fc,fefe,fcfc,fefc,fefe,fefe,00fc,fcfe,fcfe,fefc,fc00,fcfc,fefe,fcfc,fefe,f8fe,00fe,00fe,fc00,fcfe,fcfe,fefe,fe00,fefe,fcfe,fefa,0202,fcfe,fefc,fefc,fefe,fefe,fc00,0002,04fe,fefc,fefe,fcfe,fefc,fcfe,fefc,fc02,0202,0200,fcfe,fefc,fefe,fefe,fcfe,fc02,0000,fe02,00fc,00fc,fefe,fcfe,fe00,fefc,fe04,fefc,0202,fefe,fefc,fefe,fe00,fefe,fcfe,0408,0404,fafe,fefc,fcfe,00fc,fefc,fcfe,fe00,0204,fe00,fefe,0000,fe00,00fc,fe00,fc02,0000,06fe,04fe,00f8,fe00,02fc,08fc,fafc,0000,0404,fefe,0cfc,fefc,00fe,0204,0400,fefe,fe00,fe00,0000,0000,0000,0000,0000,0000,0000,0000,0000,0000,0000,0000,0000,0000,0000,0000,0000,0000,0000,0000,0000,0000,0000,0000,0000,0000,0000,0000,0000,0000,0000,0000,0000,0000,0000,0000,0000,0000,0000,0000,0000,0000,0000,0000,0000,0000,0000,0000,0000,0000,0000,0000,0000,0000,0000,0000,0000,0000,0000,0000,0000,0000,0000,0000,0000,0000,0000,0000,0000,0000,0000,0000,0000,0000,0000,0000,0000,0000,0000,0000,0000,0000,0000,0000,0000,0000,0000,0000,0000,0000,0000,0000,0000,0000,0000,0000,0000,0000,0000,0000,0000,0000,0000,0000,0000,0000,0000,0000,0000,0000,0000,0000,0000,0000,0000,0000,0000,0000,0000,0000,0000,0000,0000,0000,0000,0000,0000,0000,0000,0000,0000,0000,0000,0000,0000,0000,0000,0000,0000,0000,0000,0000,0000,0000,0000,0000,0000,0000,0000,0000,0000,0000,0000,0000,0000,0000,0000,0000,0000,0000,0000,0000,0000,0000,0000,0000,0000,0000,0000,0000,0000,0000,0000,0000,0000,0000,0000,0000,0000,0000,0000,0000,0000,0000,0000,0000,0000,0000,0000,0000,0000,0000,0000,0000,0000,0000,0000,0000,0000,0000,0000,0000,0000,0000,0000,0000,0000,0000,0000,0000,0000,0000,0000,0000,0000,0000,0000,0000,0000,0000,0000,0000,0000,0000,0000,0000,0000,0000,0000,0000,0000,0000,0000,0000,0000,0000,0000,0000,0000,0000,0000,0000,0000,0000,0000,0000,0000,0000,0000,0000,0000,0000,0000,0000,0000,0000,0000,0000,0000,0000,0000,0000,0000,0000,0000,0000,0000,0000,0000,0000,0000,0000,0000,0000,0000,0000,0000,0000,0000,0000,0000,0000,0000,0000,0000,0000,0000,0000,0000,0000,0000,0000,0000,0000,0000,0000,0000,0000,0000,0000,0000,0000,0000,0000,0000,0000,0000,0000,0000,0000,0000,0000,0000,0000,0000,0000,0000,0000,0000,0000,0000,0000,0000,0000,0000,0000,0000,0000,0000,0000,0000,0000,0000,0000,0000,0000,0000,0000,0000,0000,0000,0000,0000,0000,0000,0000,0000,0000,0000,0000,0000,0000,0000,0000,0000,0000,0000,0000,0000,0000,0000,0000,0000,0000,0000,0000,0000,0000,0000,0000,0000,0000,0000,0000,0000,0000,0000,0000,0000,0000,0000,0000,0000,0000,0000,0000,0000,0000,0000,0000,0000,0000,0000,0000,0000,0000,0000,0000,0000,0000,0000,0000,0000,0000,0000,0000,0000,0000,0000,0000,0000,0000,0000,0000,0000,0000,0000,0000,0000,0000,0000,0000,0000,0000,0000,0000,0000,0000,0000,0000,0000,0000,0000,0000,0000,0000,0000,0000,0000,0000,0000,0000,0000,0000,0000,0000,fc04,0400,0408,1418,0a0c,0806,0608,06fe,02fe,fc00,fafc,0806,0e0e,040e,1014,fe0a,0804,0006,08fe,fafc,0002,0606,0c10,0a04,04fc,0200,f2fa,f4f0,0002,0c0c,0e0c,0602,fcfc,0208,fefe,f0ee,fe02,0a0e,0e0a,0604,fe02,fcfc,f4f2,f6f2,f6fe,0806,0e12,0a06,fcfa,fcfc,00fe,f4f4,f0f2,080a,0c10,1210,fe00,f8f6,0400,f8f6,f2f4,0008,060a,1010,fcf8,fafa,f4fa,00fc,f6f0,fafa,0804,0a08,fef6,f0f4,f0f0,faf6,06fc,f4f8,0608,0408,f8f6,eaec,f0f0,f2f4,f8fe,fafa,fe04,0002,fefa,f4f4,faf6,f4f4,f0f2,04fa,0402,0200,00fe,fefc,fafe,f4f6,eeee,f4fc,0806,0400,fefe,fcfc,fcfc,00fc,fefa,f8f8,02fc,0808,0002,fefe,fcfc,0202,080a,0200,0606,0004,0204,00fe,00fe,0202,040a,0c0c,080c,fcf8,fe00,00fe,0000,fefe,0202,0a0c,0a0a,0c04,fefa,fefe,fefe,fefa,fe00,0406,0606,0a0a,fafc,fefa,00fe,fe00,fcfe,0402,0200,0404,0404,fefe,fefe,0000,0000,00fe,fcfe,0404,0400,fafa,fcfc,0002,fe00,0000,fefe,fe02,0002,0206,fcfc,0000,0402,0002,00fe,fcfa,0000,fcfa,fa00,fefe,0004,0404,0200,00fc,fafc,0000,0202,02fe,0002,0402,0402,fe00,fefe,fefe,fc00,fefe,fcfe,0002,0200,fefe,0000,fefc,fafc,0402,00fc,fefc,0000,fefe,0002,fcf8,fafa,fc02,fcfc,fcfe,fe02,00fe,fefe,faf6,f6f8,f4fc,04fe,fcfa,fafa,fefe,f8f8,f6f0,f2f2,f6f4,fcfe,fcfa,f4f4,f4f6,f8f6,f0f2,ecee,ecf2,f2f6,0000,f0f2,ecea,ecee,eeec,e4e6,eae8,eef0,fafc,f8f4,f0f0,e8e8,ecea,eae8,eee8,f0ee,f0f8,0200,f4f2,eeec,eae6,eaea,eaea,ece8,eeec,00fe,faf6,f4f6,f2ee,f2f0,eaf2,e8f0,f2f2,f4fc,0802,f6f4,f4f4,f0f4,f6f4,ecf2,e8f2,f6f8,fe02,fef8,f8f4,f8f8,02fe,f6f4,f2fc,f4f6,fcf8,0002,120c,1016,0e04,0406,0000,0200,0608,fe06,fe06,0a10,0808,f6fa,fafe,fcf8,fe04,0006,0400,0812,0606,fef8,fafa,fafe,f0f2,fc04,fcfa,060e,0e08,0200,f4fc,faf8,f0f0,ecf2,1002,0200,080c,0604,fcf6,fcfc,faf4,eaea,fcfc,02f8,0604,0604,02fe,fafe,fafc,e8e6,eaee,0804,0202,0204,0202,fcfc,fafa,ece8,e8f0,f6fc,00f8,0404,0202,fe00,02fe,f4f0,f0f6,f8fc,0404,fcfc,0804,0404,0002,fefe,fefe,0608,0404,02fc,0202,0604,fe00,0200,0208,0808,0c0e,0afe,f8fc,0604,02fc,0200,0000,0808,0608,0a0a,fafc,0806,0404,0204,0602,080a,0a06,0202,02fe,fcf6,0404,0402,0202,0404,0c08,fcfa,0002,fefc,0c08,0404,0002,0402,0608,04fc,f2f4,fcfa,fafa,0404,00fe,0204,0402,0200,f8f6,f4fa,00fa,fcfe,0202,fe00,0402,0202,fe00,fefe,0002,02f8,04fe,0202,0002,0000,0200,0000,fc00,0002,fefe,fe00,fefc,fefe,0000,0202,0402,fe00,04fa,fefe,fefe,fafc,fe00,02fe,0200,02fe,0602,08fc,fefc,fcfe,00fe,0202,0002,fc00,fafc,00fe,0200,0000,fcfe,0202,0202,0004,fef8,0002,0600,fe00,fe00,0000,0204,0406,04fe,fe02,fe00,0202,00fe,0202,0404,0608,0204,fe00,fc04,0e04,fe00,fe02,0202,0808,0400,0406,0a02,fa02,0404,02fe,0204,0206,0400,0404,00fe,06fc,0400,fc02,0204,0204,0000,0208,0602,0402,fe06,fefa,0204,0604,0202,0408,0a08,0206,0000,0404,0202,060a,0404,0406,0606,0604,fe00,0408,0804,fe06,0402,0200,02fe,0600,f800,fe04,0cfe,00fe,fe00,00fe,fefe,fef6,04fa,0802,0002,0406,f8f6,00fa,fefa,fcf4,fcfc,0008,fe06,0c02,00fe,fafc,f8f2,f4f8,f4f8,0600,0404,f4fc,0400,f8fc,f0f6,eeee,f0f4,f4fe,0002,f8f4,0e06,fef8,f4ec,f0e4,eee8,f2f8,00fa,0806,fcf0,0000,0000,0000,0000,0000,0000,0000,0000,0000,0000,0000,0000,0000,0000,0000,0000,0000,0000,0000,0000,0000,0000,0000,0000,0000,0000,0000,0000,0000,0000,0000,0000,0000,0000,0000,0000,0000,0000,0000,0000,0000,0000,0000,0000,0000,0000,0000,0000,0000,0000,0000,0000,0000,0000,0000,0000,0000,0000,0000,0000,0000,0000,0000,0000,0000,0000,0000,0000,0000,0000,0000,0000,0000,0000,0000,0000,0000,0000,0000,0000,0000,0000,0000,0000,0000,0000,0000,0000,0000,0000,0000,0000,0000,0000,0000,0000,0000,0000,0000,0000,0000,0000,0000,0000,0000,0000,0000,0000,0000,0000,0000,0000,0000,0000,0000,0000,0000,0000,0000,0000,0000,0000,0000,0000,0000,0000,0000,0000,0000,0000,0000,0000,0000,0000,0000,0000,0000,0000,0000,0000,0000,0000,0000,0000,0000,0000,0000,0000,0000,0000,0000,0000,0000,0000,0000,0000,0000,0000,0000,0000,0000,0000,0000,0000,0000,0000,0000,0000,0000,0000,0000,0000,0000,0000,0000,0000,0000,0000,0000,0000,0000,0000,0000,0000,0000,0000,0000,0000,0000,0000,0000,0000,0000,0000,0000,0000,0000,0000,0000,0000,0000,0000,0000,0000,0000,0000,0000,0000,0000,0000,0000,0000,0000,0000,0000,0000,0000,0000,0000,0000,0000,0000,0000,0000,0000,0000,0000,0000,0000,0000,0000,0000,0000,0000,0000,0000,0000,0000,0000,0000,0000,0000,0000,0000,0000,0000,0000,0000,0000,0000,0000,0000,0000,0000,0000,0000,0000,0000,0000,0000,0000,0000,0000,0000,0000,0000,0000,0000,0000,0000,0000,0000,0000,0000,0000,0000,0000,0000,0000,0000,0000,0000,0000,0000,0000,0000,0000,0000,0000,0000,0000,0000,0000,0000,0000,0000,0000,0000,0000,0000,0000,0000,0000,0000,0000,0000,0000,0000,0000,0000,0000,0000,0000,0000,0000,0000,0000,0000,0000,0000,0000,0000,0000,0000,0000,0000,0000,0000,0000,0000,0000,0000,0000,0000,0000,0000,0000,0000,0000,0000,0000,0000,0000,0000,0000,0000,0000,0000,0000,0000,0000,0000,0000,0000,0000,0000,0000,0000,0000,0000,0000,0000,0000,0000,0000,0000,0000,0000,0000,0000,0000,0000,0000,0000,0000,0000,0000,0000,0000,0000,0000,0000,0000,0000,0000,0000,0000,0000,0000,0000,0000,0000,0000,0000,0000,0000,0000,0000,0000,0000,0000,0000,0000,0000,0000,0000,0000,0000,0000,0000,0000,0000,0000,0000,0000,0000,0000,0000,0000,0000,0000,0000,0000,0000,0000,0000,0000,0000,0000,0000,0000,0000,0000,0000,0000,0000,0000,0000,0000,0000,0000,0000,0000,0000,0000,0000,0000,02fe,fcfc,fefe,fefe,fcfc,00fe,0000,0204,fefe,fcfc,fcfc,00fe,00fe,fefc,fafe,0000,00fc,fcfe,fcfc,00fe,fefe,fefe,fefe,fcfe,fe02,fafe,fcfc,00fe,fefe,00fe,fefe,fefc,fefe,00fc,fcfe,fcfe,fe00,0000,fefe,fefe,fefc,fafe,fefe,fefc,fefe,0000,fefe,fefe,fefe,fe00,00fe,fefa,fefe,00fe,00fe,fefe,fe00,fefe,fefe,0000,fefe,00fe,00fe,fefe,fe00,fefe,fe00,fe00,0000,fefe,fefe,fefe,fefe,fefe,fcfe,02fe,00fe,00fe,fefe,fefe,fefe,fefe,fefe,fcfc,fe00,0202,fe00,00fe,fefe,fefe,fefe,fefe,00fe,0000,fefe,fefe,00fe,fefe,fefe,fefe,fcfc,fe00,fe00,00fe,0000,fefe,fefe,fefe,fefe,00fe,fefe,fefe,fefe,00fe,fefe,fefe,fefe,fc00,0002,00fe,fefe,fefe,fefe,00fe,00fe,fefe,00fe,fcfe,0000,fe00,fefe,fe00,fefe,00fe,0000,fcfe,fefe,0000,fefe,00fe,00fe,fefe,fe00,00fe,fc00,fefe,00fe,fefe,fe00,fefe,fefe,fe00,00fc,02fe,00fe,fefe,fefe,fefe,fefe,fefe,00fe,fcfc,fefc,fcfe,fefe,fefe,fefe,fefe,fefe,00fe,fcfe,fefe,fefe,fefe,fefe,fe00,fefe,fe02,fcfe,fefe,fefe,fefe,fefe,fefe,00fe,fefe,0000,0000,fe00,fefe,00fe,fefe,fefe,fefe,fefe,0200,00fe,00fe,fefe,fefe,fefe,fefe,00fe,fefc,0000,fe00,fefe,0000,fe00,00fe,fefe,fefe,fe00,fe00,fefe,fefe,fefe,fefe,fefe,fe00,fefe,fefe,fefe,fefe,fefe,fefe,fefe,fefe,fefe,00fe,fe00,fefe,fefe,fefe,fefe,fefe,0000,fefe,00fe,00fe,00fe,00fe,fefe,fefe,fe00,00fe,fefe,fefe,fefe,fefe,fefc,00fe,fe00,00fe,fe00,fefe,fefc,00fe,fefe,fcfe,00fe,0000,fefe,fe00,fefe,fefe,fefe,fefc,fefe,fe00,0000,0000,0000,fefe,fefe,0000,fefe,0000,fa02,0200,fe00,0000,fefe,02fe,00fc,0000,00fe,0002,02f6,fef6,fe00,fc00,f8fa,fafc,fa00,0000,02fc,fefe,fcfc,f8f8,fcf8,fcfc,fefe,fe02,fcfc,fcfe,fa00,fcfc,fcfc,fe00,fefc,fcfa,fefe,fefc,fcfc,fcfa,fcfc,fcfc,fcfe,fcfc,fe00,fefe,00fa,fcfa,fefc,fcfc,fe00,fefe,fefe,f8fc,fafc,fc00,00fe,fefe,fefe,fefe,fcfe,fcfc,fe02,fefe,fefe,fefe,fefc,fe00,fefe,fcfe,fcfe,fefe,fafc,fcfe,fe00,fefc,fefe,fefe,fafe,fcfe,fefe,fefe,fefe,fefc,fefe,fefe,fe00,fcfe,00fc,fcfe,fefe,fefe,0000,00fe,00fe,0000,f8fa,fcfc,fefe,fefe,fefe,fefe,0000,fafe,fefc,fcfe,fcfe,fefe,fefe,fefe,fefe,fefe,00fa,0000,fefa,fcfe,fefe,fefe,fe00,fefe,fcfa,fef8,fcfa,fcfc,fefe,fefe,fefe,fefe,fefe,f8fe,fafe,fefe,00fe,fefe,fefe,fefe,fe00,fcfc,fcfa,fcfe,fefe,fefe,fefe,fefe,00fe,fefc,fefa,00fe,fafe,fefe,fefc,fefe,fefe,fe00,fcfe,fefc,fcfc,fcfc,fcfe,fefe,fefe,fefe,fcfe,fefe,0002,fefc,00fe,fefc,fcfe,fefe,fefe,00fe,fe02,00fe,fefe,fefe,fcfe,fefe,fefe,fefe,fcfe,fefe,00fe,fefe,fefe,fefe,fefe,fefe,fe00,00fe,fefe,00fe,fefe,fefe,fefe,fefe,fefc,00f8,fe00,fefe,fefe,fefe,fefe,fefe,fefe,fefe,fcfe,fcfc,fefe,fefe,fefe,fefe,fefe,fcfe,fefe,02fe,fcfe,fefe,fefe,fefe,fefe,fefe,fe02,fcfc,02fe,fefe,fefe,fefe,fefe,fefe,fefe,fc00,04fe,fefc,fefe,fefe,fefe,fefe,fefc,00fe,0000,0200,fcfe,fefe,fefe,fefe,fefe,fefe,0004,0000,fcfe,00fe,fefe,fefc,fefe,fefe,0004,00fc,fe00,fefc,fefc,fefc,fefe,fe00,00fe,0002,0000,f8fc,fefe,fcfe,fefc,fe00,fefe,02fe,fe00,0000,fafc,fefe,fefe,fefc,fefe,fc00,02fe,0400,fefa,fcfc,00fe,00fe,04fc,fcfa,fefe,0202,fefc,06fa,fefe,fefe,0404,0000,fefe,fcfe,fcfe,0000,0000,0000,0000,0000,0000,0000,0000,0000,0000,0000,0000,0000,0000,0000,0000,0000,0000,0000,0000,0000,0000,0000,0000,0000,0000,0000,0000,0000,0000,0000,0000,0000,0000,0000,0000,0000,0000,0000,0000,0000,0000,0000,0000,0000,0000,0000,0000,0000,0000,0000,0000,0000,0000,0000,0000,0000,0000,0000,0000,0000,0000,0000,0000,0000,0000,0000,0000,0000,0000,0000,0000,0000,0000,0000,0000,0000,0000,0000,0000,0000,0000,0000,0000,0000,0000,0000,0000,0000,0000,0000,0000,0000,0000,0000,0000,0000,0000,0000,0000,0000,0000,0000,0000,0000,0000,0000,0000,0000,0000,0000,0000,0000,0000,0000,0000,0000,0000,0000,0000,0000,0000,0000,0000,0000,0000,0000,0000,0000,0000,0000,0000,0000,0000,0000,0000,0000,0000,0000,0000,0000,0000,0000,0000,0000,0000,0000,0000,0000,0000,0000,0000,0000,0000,0000,0000,0000,0000,0000,0000,0000,0000,0000,0000,0000,0000,0000,0000,0000,0000,0000,0000,0000,0000,0000,0000,0000,0000,0000,0000,0000,0000,0000,0000,0000,0000,0000,0000,0000,0000,0000,0000,0000,0000,0000,0000,0000,0000,0000,0000,0000,0000,0000,0000,0000,0000,0000,0000,0000,0000,0000,0000,0000,0000,0000,0000,0000,0000,0000,0000,0000,0000,0000,0000,0000,0000,0000,0000,0000,0000,0000,0000,0000,0000,0000,0000,0000,0000,0000,0000,0000,0000,0000,0000,0000,0000,0000,0000,0000,0000,0000,0000,0000,0000,0000,0000,0000,0000,0000,0000,0000,0000,0000,0000,0000,0000,0000,0000,0000,0000,0000,0000,0000,0000,0000,0000,0000,0000,0000,0000,0000,0000,0000,0000,0000,0000,0000,0000,0000,0000,0000,0000,0000,0000,0000,0000,0000,0000,0000,0000,0000,0000,0000,0000,0000,0000,0000,0000,0000,0000,0000,0000,0000,0000,0000,0000,0000,0000,0000,0000,0000,0000,0000,0000,0000,0000,0000,0000,0000,0000,0000,0000,0000,0000,0000,0000,0000,0000,0000,0000,0000,0000,0000,0000,0000,0000,0000,0000,0000,0000,0000,0000,0000,0000,0000,0000,0000,0000,0000,0000,0000,0000,0000,0000,0000,0000,0000,0000,0000,0000,0000,0000,0000,0000,0000,0000,0000,0000,0000,0000,0000,0000,0000,0000,0000,0000,0000,0000,0000,0000,0000,0000,0000,0000,0000,0000,0000,0000,0000,0000,0000,0000,0000,0000,0000,0000,0000,0000,0000,0000,0000,0000,0000,0000,0000,0000,0000,0000,0000,0000,0000,0000,0000,0000,0000,0000,0000,0000,0000,0000,0000,0000,0000,0000,0000,0000,0000,0000,0000,0000,0000,0000,0000,0000,0000,0000,0000,00fe,f8f8,fe02,fc00,fcfc,00fe,0202,0406,fefe,fc00,fafc,0002,fc00,fcfe,fe00,0000,fe00,fcfe,fa00,0204,fefe,fe00,fefc,00fe,0004,fcfe,fafa,00fa,fefe,00fe,fcfe,fcfe,fefc,04fe,f8fa,0002,0404,fefe,fc00,fcfe,fefc,fafe,00fe,fc00,00fe,fefc,fcfc,fefe,fefc,fefe,0400,00fe,fafe,fefe,fcfe,fefe,00fe,fcfc,fe00,0200,0002,0204,fefe,fcfe,0000,fefe,fefc,fe00,0402,0402,0406,00fe,fe00,fefe,fcfe,04fa,0202,0002,0204,0202,fe00,fefe,fcfe,fcfa,fcfc,0004,0004,0200,0000,0000,fefc,00fe,fafc,fcfa,0200,0000,fefe,fefe,fefc,fcfe,fe00,02fa,fafa,fefc,fcfc,fe00,fefe,fefc,0000,04fc,0000,fcfe,fefe,fcfc,fefe,fcfe,0000,0002,04fe,0406,fefe,fcfc,fefe,fefe,0000,0000,fcfc,fe04,0402,00fe,fefe,00fe,fefe,00fe,0000,fafe,fe02,0002,fefe,0000,fefe,fe00,0000,0200,fafa,02fe,fefe,0002,fefe,fefe,0000,fefe,02fc,fefe,fefe,0000,fefe,fefc,fefe,00fe,00fe,fcfa,0202,0200,fefc,fcfc,00fe,fefe,fefe,fe00,0000,0402,00fe,fefc,fcfe,fefe,fefe,0004,fcfe,0402,0002,fefe,fefe,fefe,00fe,fefe,fefa,0202,0404,fefc,fcfe,fefe,fe00,fefe,f6fc,fcfe,fefe,fcfc,fcfc,fefe,0000,fefc,fcfe,fcfc,02fe,fefe,fcfe,fcfe,fe00,00fe,fe00,f8fa,0004,0202,fcfa,fcfc,fcfe,0000,fefe,0000,0402,0202,fefc,fefe,fcfc,fefe,0400,fefe,f8fe,0402,0200,fefc,fefc,fc00,0202,0200,fe00,fefe,0000,00fe,fcfc,fcfa,0000,0202,fe00,fcfa,fefc,fefe,fefc,0000,fefc,0000,00fc,00fe,fcfc,fefe,0000,fe00,00fe,fc00,0000,fefe,fcfc,fefe,0000,fefe,fefe,fefc,0200,fe00,02fe,fe00,fe00,0202,0002,00fe,fc00,0000,fa04,0000,fe00,0200,0000,0000,fefc,0000,0002,0000,02f8,04fc,00fc,fe08,f6fe,fc00,f800,04fe,0806,fa02,00fa,fcf8,fafa,f6f8,fefc,0000,0000,fefc,fafc,fafa,fcfc,fcfa,fafa,fafe,0406,0000,fafa,fcf8,fafc,f8fa,fc00,fcfc,0400,0604,00f6,fcf8,fafa,fafc,fafe,fcfe,fe02,fc00,fcfe,0000,fcfc,fefe,fafa,fefe,00fe,00fc,fe04,f8fc,04fe,0002,fefc,fefc,0002,fe02,fcfa,fefc,fe02,02fe,0200,fefe,0200,02fc,0202,0000,fef8,0004,0404,0200,fe02,00fe,fe04,fefa,00f8,0000,0002,0202,0000,fefe,00fe,fefa,fcfe,fcfc,0000,0002,fe00,fefe,00fe,fafe,06fe,fcfe,fa00,0002,0002,0000,fe00,fe00,fefe,0000,00fc,fc00,0000,0200,0000,fefe,0004,0406,00fe,00fc,0400,0402,0000,0200,0200,fc00,00fe,fe00,fe02,0402,0204,0002,02fe,fc02,fa04,fe00,f8fc,0004,00fe,0402,0002,fefc,0004,0000,fc00,fcfc,fefe,00fe,fefe,0000,fcfe,fcf8,0002,fcfe,fe00,fefe,fefc,fefe,fefe,0600,0202,00fc,0000,0000,00fe,fcfe,00fe,fe00,04fe,02fe,fefe,0000,00fe,fefe,fefe,0202,0000,06fe,00fc,0002,00fe,fefe,fefe,0002,00f8,fc00,0000,0000,fefe,fefe,fcfe,fe00,0004,06fe,fe00,0000,00fe,fefe,fefe,fe00,0002,0004,00fe,f8fc,fefe,0000,fcfe,fefe,fe00,0202,04fa,0000,fefe,fe00,fcfc,fefe,fe00,0002,fe00,02f8,f802,fe00,00fe,fcfe,fefe,0000,fe02,fe00,0000,fefe,00fc,fefe,fcfe,fcfe,0000,00fc,0004,fa02,fcfe,fefe,fefe,00fe,fe00,0000,fe04,0000,f8fe,fefe,fefe,00fe,fefe,0200,0402,0202,0202,fafe,fefc,00fe,0000,fe00,0202,02fe,0406,fe06,fe02,fefe,fe02,0000,fe02,0406,00fe,0606,fe02,fa00,00fe,fe00,0000,0202,08fe,0202,08fa,02fe,0200,0202,02fc,0404,0200,08fe,fe08,0afc,00fe,fefe,02fe,0602,02fe,0400,02fe,0000,0000,0000,0000,0000,0000,0000,0000,0000,0000,0000,0000,0000,0000,0000,0000,0000,0000,0000,0000,0000,0000,0000,0000,0000,0000,0000,0000,0000,0000,0000,0000,0000,0000,0000,0000,0000,0000,0000,0000,0000,0000,0000,0000,0000,0000,0000,0000,0000,0000,0000,0000,0000,0000,0000,0000,0000,0000,0000,0000,0000,0000,0000,0000,0000,0000,0000,0000,0000,0000,0000,0000,0000,0000,0000,0000,0000,0000,0000,0000,0000,0000,0000,0000,0000,0000,0000,0000,0000,0000,0000,0000,0000,0000,0000,0000,0000,0000,0000,0000,0000,0000,0000,0000,0000,0000,0000,0000,0000,0000,0000,0000,0000,0000,0000,0000,0000,0000,0000,0000,0000,0000,0000,0000,0000,0000,0000,0000,0000,0000,0000,0000,0000,0000,0000,0000,0000,0000,0000,0000,0000,0000,0000,0000,0000,0000,0000,0000,0000,0000,0000,0000,0000,0000,0000,0000,0000,0000,0000,0000,0000,0000,0000,0000,0000,0000,0000,0000,0000,0000,0000,0000,0000,0000,0000,0000,0000,0000,0000,0000,0000,0000,0000,0000,0000,0000,0000,0000,0000,0000,0000,0000,0000,0000,0000,0000,0000,0000,0000,0000,0000,0000,0000,0000,0000,0000,0000,0000,0000,0000,0000,0000,0000,0000,0000,0000,0000,0000,0000,0000,0000,0000,0000,0000,0000,0000,0000,0000,0000,0000,0000,0000,0000,0000,0000,0000,0000,0000,0000,0000,0000,0000,0000,0000,0000,0000,0000,0000,0000,0000,0000,0000,0000,0000,0000,0000,0000,0000,0000,0000,0000,0000,0000,0000,0000,0000,0000,0000,0000,0000,0000,0000,0000,0000,0000,0000,0000,0000,0000,0000,0000,0000,0000,0000,0000,0000,0000,0000,0000,0000,0000,0000,0000,0000,0000,0000,0000,0000,0000,0000,0000,0000,0000,0000,0000,0000,0000,0000,0000,0000,0000,0000,0000,0000,0000,0000,0000,0000,0000,0000,0000,0000,0000,0000,0000,0000,0000,0000,0000,0000,0000,0000,0000,0000,0000,0000,0000,0000,0000,0000,0000,0000,0000,0000,0000,0000,0000,0000,0000,0000,0000,0000,0000,0000,0000,0000,0000,0000,0000,0000,0000,0000,0000,0000,0000,0000,0000,0000,0000,0000,0000,0000,0000,0000,0000,0000,0000,0000,0000,0000,0000,0000,0000,0000,0000,0000,0000,0000,0000,0000,0000,0000,0000,0000,0000,0000,0000,0000,0000,0000,0000,0000,0000,0000,0000,0000,0000,0000,0000,0000,0000,0000,0000,0000,0000,0000,0000,0000,0000,0000,0000,0000,0000,0000,0000,0000,0000,0000,0000,0000,0000,0000,0000,0000,0000,0000,0000,0000,0000,0000,0000,0000,0000,0000,0000,0000,02fe,0408,0002,00fc,0600,fa06,00f2,fa02,080c,fefc,04fe,020a,0202,fefa,0004,0400,02f8,faf8,00fe,00fc,00fc,fafa,f8f2,f0f8,fe06,fef4,02fe,0008,f6fc,f0f2,f4f6,f2f6,fafa,fefa,fcfc,0200,fcfa,f6fa,f8f6,f2f4,eefc,fc00,fef8,f6fc,fefe,fafc,faf4,f0ec,ecf2,f8fe,00fc,fcfa,fcfe,fefa,00fa,f2f0,f0ee,eeee,fafe,fcfa,fafa,fcfc,0404,f4f4,f0f4,e8ec,f4f4,fcfc,fafa,fafe,0002,fcf6,f2f0,f6f2,f2f0,f2fa,f2f4,fcfe,0002,04fe,f2f4,f4f8,f4f4,f2f2,f4f2,faf6,0402,0404,f6f6,f6f6,f8f2,f6f4,f2f6,f8fe,fe02,fefe,00fc,fcfc,fafa,00fa,f4f0,f6f6,f8fc,fcfa,fe00,fafe,faf6,fefe,0200,e6ec,f8fa,f8fa,fafa,fefc,0202,fa00,0404,fcf0,e8f6,f8f6,fefa,0202,fe00,fcfa,0406,0606,eae8,faf8,fafc,0204,fcfc,0202,0006,0804,04f6,f2f8,fcf8,0202,0602,fc00,fefe,0806,080a,f0f2,fcfc,fefc,0406,fc00,0202,0408,0a06,08fc,fe00,fc00,0202,0400,0406,fe00,0a0a,0606,fefc,0202,0202,0804,0204,0602,060a,080a,0404,fcfc,0404,0404,0402,080a,0004,0808,0a0a,0a08,0200,0006,0806,0608,0804,0808,0c10,0608,04fe,0202,0208,0606,0a08,0204,0408,0c08,0c06,0200,0002,0a06,0a08,0404,0404,0a0a,0404,00fe,0000,0004,0204,0604,0200,0002,fefc,faf8,0800,0002,fefc,0404,fefe,fcfc,fefc,fcf8,fcfc,fcfc,fcfc,fafc,fefc,fafc,fafc,f8f6,f0f4,04fe,fcfc,fafa,fefc,f8f8,fcfc,fcfc,f4f2,fafc,faf6,f8fa,fafc,f8f8,fafc,fcfe,fcfa,f8fa,fcfa,f8f8,fafa,fcfc,f8fa,fefc,0000,00fe,0200,faf8,fcfc,fcfe,f8f8,fefc,fafe,0406,0004,f8fa,fcfc,fefc,f8fa,fcf8,fcfa,0202,0802,0402,fefc,fcfe,fcf6,fcf8,f8fa,fefe,080c,fc04,fcfc,0204,f8fc,f4f8,f8f8,fcfc,0002,0a04,0200,fe00,fc02,fc00,0402,0402,0400,00fc,0004,0602,02fc,00fc,f800,00fe,0806,fe02,020c,040a,0000,02fc,f8f8,0404,080c,0e0a,fafe,0604,10fc,f8f8,f2f4,fc00,060a,100c,0608,fe0a,0a0e,fefa,f6ea,f2f8,0204,0a0e,0c0a,fa04,fc06,fcfe,f6f0,ecf0,0002,0604,0a0a,0a0a,0006,0a0c,fcf4,f4f2,fafe,0404,0608,0206,0800,0202,02fa,f6f6,f6fe,0200,0202,0400,0006,0404,0e08,f6f6,fafa,0402,0204,0202,fefe,0606,fc04,f400,f8fe,fe00,fe00,0200,fefe,fe00,0202,0c12,fe00,00fe,0200,0404,fcfe,fefe,000a,080a,0202,0202,0404,0404,02fe,fcfc,fefa,0402,0210,0808,0604,0604,0804,f8fc,fcf6,00f8,0204,fe04,0a08,0806,0406,fefa,f8fc,f8f8,0600,0612,080c,0806,0202,0400,fe02,fcfa,fa00,0406,060a,0a08,0602,0002,0002,00fe,00fa,0200,0c10,0a0c,0200,00fc,0602,0000,fe00,f2f6,0202,0604,0400,fcfc,0004,00fe,02fc,04fa,00fe,060a,0206,fcf8,fafc,0402,0002,0000,f8f6,0004,0608,fcf6,fafa,0204,fefc,0202,02fc,0002,000a,fefe,f8fc,f8fc,00fe,0000,0402,fe00,0604,fcfe,fcfe,00fe,0200,fe00,0204,fe00,0404,0c02,fcf8,fcfe,0002,0002,0200,00fa,0606,0a02,fef8,fcfe,0002,0204,0202,0000,fafc,0608,0e06,f6f8,fc00,0406,0202,0202,f8f6,fe04,060e,04f6,fafa,0204,0402,0002,fefc,fafa,0406,0204,f8f6,fcfe,0204,0000,fefc,fcfe,02fc,0602,00f8,f6fa,00fe,f8f8,fafc,fafc,f4f6,fe08,0a02,f6f6,fafc,f6f6,fafa,fcfc,f6f6,fcf8,0400,0402,f8fa,faf8,f6fa,fafc,fefc,f2f2,0000,0c0a,fefe,fcfc,f4f4,fefe,00fe,0006,fefa,0006,0602,0002,fefa,fc02,fcfe,fe00,f8fe,040c,0a0c,0606,0402,fefc,0600,0200,0c08,0208,0600,0606,060c,0004,0a08,0804,0e10,0a0c,0404,0a16,0000,0000,0000,0000,0000,0000,0000,0000,0000,0000,0000,0000,0000,0000,0000,0000,0000,0000,0000,0000,0000,0000,0000,0000,0000,0000,0000,0000,0000,0000,0000,0000,0000,0000,0000,0000,0000,0000,0000,0000,0000,0000,0000,0000,0000,0000,0000,0000,0000,0000,0000,0000,0000,0000,0000,0000,0000,0000,0000,0000,0000,0000,0000,0000,0000,0000,0000,0000,0000,0000,0000,0000,0000,0000,0000,0000,0000,0000,0000,0000,0000,0000,0000,0000,0000,0000,0000,0000,0000,0000,0000,0000,0000,0000,0000,0000,0000,0000,0000,0000,0000,0000,0000,0000,0000,0000,0000,0000,0000,0000,0000,0000,0000,0000,0000,0000,0000,0000,0000,0000,0000,0000,0000,0000,0000,0000,0000,0000,0000,0000,0000,0000,0000,0000,0000,0000,0000,0000,0000,0000,0000,0000,0000,0000,0000,0000,0000,0000,0000,0000,0000,0000,0000,0000,0000,0000,0000,0000,0000,0000,0000,0000,0000,0000,0000,0000,0000,0000,0000,0000,0000,0000,0000,0000,0000,0000,0000,0000,0000,0000,0000,0000,0000,0000,0000,0000,0000,0000,0000,0000,0000,0000,0000,0000,0000,0000,0000,0000,0000,0000,0000,0000,0000,0000,0000,0000,0000,0000,0000,0000,0000,0000,0000,0000,0000,0000,0000,0000,0000,0000,0000,0000,0000,0000,0000,0000,0000,0000,0000,0000,0000,0000,0000,0000,0000,0000,0000,0000,0000,0000,0000,0000,0000,0000,0000,0000,0000,0000,0000,0000,0000,0000,0000,0000,0000,0000,0000,0000,0000,0000,0000,0000,0000,0000,0000,0000,0000,0000,0000,0000,0000,0000,0000,0000,0000,0000,0000,0000,0000,0000,0000,0000,0000,0000,0000,0000,0000,0000,0000,0000,0000,0000,0000,0000,0000,0000,0000,0000,0000,0000,0000,0000,0000,0000,0000,0000,0000,0000,0000,0000,0000,0000,0000,0000,0000,0000,0000,0000,0000,0000,0000,0000,0000,0000,0000,0000,0000,0000,0000,0000,0000,0000,0000,0000,0000,0000,0000,0000,0000,0000,0000,0000,0000,0000,0000,0000,0000,0000,0000,0000,0000,0000,0000,0000,0000,0000,0000,0000,0000,0000,0000,0000,0000,0000,0000,0000,0000,0000,0000,0000,0000,0000,0000,0000,0000,0000,0000,0000,0000,0000,0000,0000,0000,0000,0000,0000,0000,0000,0000,0000,0000,0000,0000,0000,0000,0000,0000,0000,0000,0000,0000,0000,0000,0000,0000,0000,0000,0000,0000,0000,0000,0000,0000,0000,0000,0000,0000,0000,0000,0000,0000,0000,0000,0000,0000,0000,0000,0000,0000,0000,0000,0000,0000,0000,0000,0000,0000,0000,0000,0000,0000,0000,0000,0000,0000,0000,0000,00fa,fafc,fefe,fe00,fcfc,fefe,0200,0400,fefc,fefe,fefa,fcfe,fefe,fcfc,fafe,0200,00fc,fcfc,f8fa,00fc,fefe,00fe,fefe,fcfc,0404,fafc,f8f8,fcf6,fefc,fefe,0000,fefc,fcfc,02fc,f8f8,fcfa,0000,fefe,fefe,fefe,fefe,f6f8,fefa,f8fa,00fe,fefc,fefc,fefe,00fe,fcfe,fefa,faf8,fe00,0000,fefe,fefe,0000,fefe,00fe,fcfc,f8fe,0000,0202,fefe,0000,fefc,fefe,00fc,fafc,fefe,fefe,fefe,fe00,0000,fcfc,00fc,fafc,fefe,fe00,fefe,fefe,fefe,fefe,fcfc,02fa,0200,fe00,fefe,fefe,fefe,fefe,fefe,fefa,fe00,fefe,0000,fefe,fefe,fefe,fefe,fcfc,0202,0404,0202,0000,0000,fefe,fefc,fefc,0200,fe00,0204,0002,0000,fefe,fefe,fefe,fcfe,0202,0004,0200,0000,fefe,fefe,fefe,fefe,00fc,fefe,0202,fe00,fefe,fefe,fefe,fefe,fe00,fcfe,fe02,0000,fefe,fefe,00fe,fefe,fe00,00fc,fe00,fefe,fefe,fefe,00fe,fefe,fefe,fefe,fcfa,00fe,fefc,fefe,fefe,fefe,0000,fe00,fe00,f8f6,fcfe,fefe,fefe,fefe,fefe,fefe,fefe,fcfa,fafa,fcfe,fefe,0000,fefe,00fe,00fe,fefe,fcfa,fefe,0000,0000,fefe,fefe,fefe,fefe,fefe,0000,0002,0200,00fe,00fe,fe00,fefe,fafc,0202,0202,0000,0000,0000,00fe,fefe,fefe,fefe,0400,0000,00fe,0000,0000,fefe,fefe,00fe,0002,0200,fefe,0002,00fe,fefe,fefc,fefe,fefc,0200,00fe,fefe,0002,00fe,fefe,fefe,0000,0002,0000,fcfc,0000,0000,fefe,fcfe,fe00,0002,0200,00fe,0200,0202,fefe,fefe,fefe,fcfe,0000,0000,fc00,0000,fefc,fefe,fefe,00fa,fe02,fefe,fcfe,0200,0002,fcfe,fefe,0000,fefe,00fe,fefe,fefe,0000,fefe,fe00,fefe,0200,fefe,fefe,fefe,0000,0200,fefc,0000,f804,0000,0000,fefe,00fc,0200,00fc,fefe,0000,0200,04fc,06fa,0404,fe00,fafa,f8fa,fa00,fe00,02fe,02fe,0000,fefa,fef8,fcfc,fefe,0804,fefa,fe00,0200,04fe,fefe,fefe,00fe,fc00,fcfe,00fc,fcfe,0400,fefc,fefc,0000,fefa,0202,fe00,02fc,fcfc,0202,fe00,fefc,02fe,0402,fc00,02fc,fefe,00fe,0200,0000,0200,fe04,fe00,0202,fe00,02fe,fcfe,fcfe,fefe,fe00,fefc,fe02,fcfe,fcfc,fcfc,fefe,fefe,0000,0200,fefe,00fe,02fc,fcfe,fe00,fefe,0000,fe00,0202,fafc,00fe,fefc,0000,fe00,0000,0002,02fe,0004,fa02,fefe,fe00,0200,0000,0200,00fe,fefc,00fe,02fe,fcfc,0004,0202,0002,00fe,fcfe,02fc,0406,0200,fefe,0202,fe00,0000,00fe,fcfe,02fc,00fc,fcfa,fe00,00fe,00fe,fefe,fefe,fefe,0000,00fe,fefe,fe00,fefe,fefe,0002,fefe,fcfc,0000,fefe,fcfe,fefe,fefe,fefe,02fe,fefc,0202,fcfe,fcfc,fefc,00fe,00fe,fe00,0000,02fe,fc00,fefc,fcfe,fcfe,fefe,00fe,fe00,0200,0a04,00fe,fefe,fcfc,fe00,0000,fe00,0200,0202,0200,fefe,fefe,fe00,0000,fe00,0000,0000,02fe,00fe,0000,0000,0000,0000,02fe,fe00,fefc,0002,00fe,fe00,fe00,0000,0000,fefe,02fe,0200,0002,00fe,00fe,0000,0000,0000,fefc,fefc,00fe,fcfe,fe00,00fe,fefe,0000,fc00,0000,0000,fcfc,fcfe,fefe,fefe,00fe,fefe,fefe,fefc,0000,fcfe,fefe,fcfe,fefe,fefe,0000,0402,0200,00fa,fcfe,fcfc,fefe,fefe,00fc,0000,0000,0200,00fe,fcfe,fefe,fcfe,fefe,fe00,fc00,0406,00fc,00fe,fefe,fc00,0002,fefe,0004,fefa,0006,0400,fefe,fcfe,fefe,fe00,fefe,02fe,0604,fcfe,00fe,fe00,0000,0000,fe00,0202,0004,fefe,fa02,0400,fefe,00fc,fc02,fc00,00fc,02fe,00fc,fcfe,fe00,0200,0400,fefa,0000,0006,0000,0afe,fe00,0000,0404,0400,00fe,fefe,0000,0000,0000,0000,0000,0000,0000,0000,0000,0000,0000,0000,0000,0000,0000,0000,0000,0000,0000,0000,0000,0000,0000,0000,0000,0000,0000,0000,0000,0000,0000,0000,0000,0000,0000,0000,0000,0000,0000,0000,0000,0000,0000,0000,0000,0000,0000,0000,0000,0000,0000,0000,0000,0000,0000,0000,0000,0000,0000,0000,0000,0000,0000,0000,0000,0000,0000,0000,0000,0000,0000,0000,0000,0000,0000,0000,0000,0000,0000,0000,0000,0000,0000,0000,0000,0000,0000,0000,0000,0000,0000,0000,0000,0000,0000,0000,0000,0000,0000,0000,0000,0000,0000,0000,0000,0000,0000,0000,0000,0000,0000,0000,0000,0000,0000,0000,0000,0000,0000,0000,0000,0000,0000,0000,0000,0000,0000,0000,0000,0000,0000,0000,0000,0000,0000,0000,0000,0000,0000,0000,0000,0000,0000,0000,0000,0000,0000,0000,0000,0000,0000,0000,0000,0000,0000,0000,0000,0000,0000,0000,0000,0000,0000,0000,0000,0000,0000,0000,0000,0000,0000,0000,0000,0000,0000,0000,0000,0000,0000,0000,0000,0000,0000,0000,0000,0000,0000,0000,0000,0000,0000,0000,0000,0000,0000,0000,0000,0000,0000,0000,0000,0000,0000,0000,0000,0000,0000,0000,0000,0000,0000,0000,0000,0000,0000,0000,0000,0000,0000,0000,0000,0000,0000,0000,0000,0000,0000,0000,0000,0000,0000,0000,0000,0000,0000,0000,0000,0000,0000,0000,0000,0000,0000,0000,0000,0000,0000,0000,0000,0000,0000,0000,0000,0000,0000,0000,0000,0000,0000,0000,0000,0000,0000,0000,0000,0000,0000,0000,0000,0000,0000,0000,0000,0000,0000,0000,0000,0000,0000,0000,0000,0000,0000,0000,0000,0000,0000,0000,0000,0000,0000,0000,0000,0000,0000,0000,0000,0000,0000,0000,0000,0000,0000,0000,0000,0000,0000,0000,0000,0000,0000,0000,0000,0000,0000,0000,0000,0000,0000,0000,0000,0000,0000,0000,0000,0000,0000,0000,0000,0000,0000,0000,0000,0000,0000,0000,0000,0000,0000,0000,0000,0000,0000,0000,0000,0000,0000,0000,0000,0000,0000,0000,0000,0000,0000,0000,0000,0000,0000,0000,0000,0000,0000,0000,0000,0000,0000,0000,0000,0000,0000,0000,0000,0000,0000,0000,0000,0000,0000,0000,0000,0000,0000,0000,0000,0000,0000,0000,0000,0000,0000,0000,0000,0000,0000,0000,0000,0000,0000,0000,0000,0000,0000,0000,0000,0000,0000,0000,0000,0000,0000,0000,0000,0000,0000,0000,0000,0000,0000,0000,0000,0000,0000,0000,0000,0000,0000,0000,0000,0000,0000,0000,0000,0000,0000,0000,0000,0000,0000,0000,0000,0000,0000,0000,0000,0000,0000,fe00,fc00,f6fa,fefe,fe02,fefe,0002,fe02,0200,fc00,fefe,fafa,fefa,fe00,fe00,fafe,fefe,fefe,fcfc,fafa,fefe,fefe,00fe,fefe,00fe,0404,fcfa,fafa,fafa,0002,fefe,fe00,fefc,fe00,0000,fafc,fcfa,0004,0400,fe00,fefe,fcfc,f8fc,fefc,fcfc,0402,0402,fefe,fefe,fefc,fcfe,fefc,fafc,0002,0202,fefe,fefe,fefe,fefe,0200,fefe,fafe,0404,0200,00fe,fefc,fefc,fe00,fefc,fcfe,0000,0202,00fe,00fe,fefe,fcfe,0200,fcfc,fefe,0200,fe00,00fe,00fe,fefc,fcfe,00fc,fe00,fe02,0000,fe00,00fe,00fe,fefe,fafc,fcfc,00fe,00fe,fefe,0000,fefe,fefe,fcfc,0200,fe00,fefe,fefe,0000,0000,fefe,fefe,04fe,00fe,0002,0000,0000,fefe,fefe,fefe,fc00,0200,0204,0200,0000,fe00,fe00,fefe,fefe,fcfe,fafc,0202,0202,fe00,00fe,fefe,fefe,0000,fafa,fafc,fe00,00fe,00fe,00fe,fefe,fefe,00fa,fcfc,fefc,fe00,fefe,fefe,fefe,fefe,fefe,fcfc,00fe,fefc,fefe,fefe,fefe,fe00,fe00,fefe,fcfa,fcfc,fefe,fefe,fefe,fefe,fefe,0000,00fe,fefe,fcfe,00fe,fefe,fefe,fefe,fefe,fefe,fefe,fefe,fefe,0000,fefe,fefe,fefe,fefe,0000,0202,0000,0000,0000,fefe,fe00,fefe,fcfa,0000,0000,fefe,00fe,fefe,fefe,fefe,fefe,fcfe,fe00,fefe,0000,fcfe,fefe,fefe,fefe,0000,00fe,0200,00fe,fefe,fefe,fefe,fefe,fefe,0200,00fe,00fe,fe00,fe00,00fe,fefe,fefe,0002,0200,00fe,fefc,0000,fe00,fefe,fefe,fe00,0200,0000,00fe,0000,0000,fefe,fefe,fe00,fefe,0000,0000,fe00,fe00,00fe,fefe,fefe,00fe,fe00,fefe,fefe,fefe,fefe,fefe,fefe,0000,fefe,fefe,fefe,fefe,fefe,fefe,fefe,00fe,0402,fe00,fefe,fefe,fefe,fefe,0000,00fe,fa02,0000,0000,fefe,fefe,fefc,00fc,0000,0000,0202,02fc,0400,0402,fefe,fefc,fafc,f8fc,0400,fc02,02fc,fe00,00fc,00fe,faf8,0000,00fe,fcfa,02fe,00f8,0202,0204,00fe,fefc,fc00,fe00,00fe,00fe,0200,0202,0200,fc00,fafc,fe04,fe02,02fa,fefc,0000,0202,fe00,fefe,0004,f802,fefe,fafe,00fe,0402,fe00,0400,fefc,02fe,0204,0000,fefc,fe02,0000,0202,0402,fcfc,fcfe,fe02,fefc,00fe,0200,0000,0002,02fc,0000,04fe,00fc,fe00,0200,0000,0002,0200,fc00,fa02,fe00,fefc,0000,fefe,0000,0202,02fe,fe00,fafe,fefe,fefe,00fe,fe00,0002,0202,fcfe,02fc,00fc,fcfe,0000,0000,0000,0000,fefe,fcfa,0002,fcfc,fefe,0002,00fe,fe00,0000,fafc,fcfe,fe00,fafc,0000,0000,fefe,fefe,00fe,fc00,0200,fefe,fefe,0000,fefe,fefe,fefe,fe00,fc00,fefc,fefe,fefe,fefe,fefc,fcfe,fefe,fe00,fefe,fefc,fefe,fefe,fefe,fcfe,fefe,00fe,fefc,00fe,fcfe,fefe,fefe,fefe,fefc,0000,0002,0004,0000,00fe,fcfe,fefe,fefe,fc00,0000,fe04,fefe,fefe,fefe,fefe,fefe,fefe,fe00,00fe,00fe,00fe,0000,00fe,0000,00fe,00fe,fefe,fc00,fcfc,00fe,fefe,fefe,fefe,00fe,00fe,00fa,0200,00fe,fcfe,fefe,fefe,fefe,fefe,fe00,fcfc,fcfc,fefe,fefe,fefe,fefe,fe00,fefe,fe00,0002,0000,fefe,fefc,fefe,fefe,fcfe,fcfc,fcfa,fefe,fefe,fcfe,fefe,fe00,fefe,0000,fefe,0200,00fe,fefe,fcfe,fefe,fe00,00fe,fc02,00fe,fe00,fc00,fefe,fefe,fefe,fefe,fc00,00fc,0202,fc02,00fe,fe00,fefe,fe00,0000,fe02,00fe,0202,0202,fefe,fe00,fe00,fe02,fefe,0002,0400,fe02,fefe,fcfe,fefe,fe00,fe00,00fe,0002,0404,fe02,fe00,fefe,fefe,fefe,fe04,02fc,0600,02fa,00fe,00fe,fefe,02fe,fefa,fe00,0208,02fc,06fc,0000,0000,0004,02fe,fe00,fc00,0004,0000,0000,0000,0000,0000,0000,0000,0000,0000,0000,0000,0000,0000,0000,0000,0000,0000,0000,0000,0000,0000,0000,0000,0000,0000,0000,0000,0000,0000,0000,0000,0000,0000,0000,0000,0000,0000,0000,0000,0000,0000,0000,0000,0000,0000,0000,0000,0000,0000,0000,0000,0000,0000,0000,0000,0000,0000,0000,0000,0000,0000,0000,0000,0000,0000,0000,0000,0000,0000,0000,0000,0000,0000,0000,0000,0000,0000,0000,0000,0000,0000,0000,0000,0000,0000,0000,0000,0000,0000,0000,0000,0000,0000,0000,0000,0000,0000,0000,0000,0000,0000,0000,0000,0000,0000,0000,0000,0000,0000,0000,0000,0000,0000,0000,0000,0000,0000,0000,0000,0000,0000,0000,0000,0000,0000,0000,0000,0000,0000,0000,0000,0000,0000,0000,0000,0000,0000,0000,0000,0000,0000,0000,0000,0000,0000,0000,0000,0000,0000,0000,0000,0000,0000,0000,0000,0000,0000,0000,0000,0000,0000,0000,0000,0000,0000,0000,0000,0000,0000,0000,0000,0000,0000,0000,0000,0000,0000,0000,0000,0000,0000,0000,0000,0000,0000,0000,0000,0000,0000,0000,0000,0000,0000,0000,0000,0000,0000,0000,0000,0000,0000,0000,0000,0000,0000,0000,0000,0000,0000,0000,0000,0000,0000,0000,0000,0000,0000,0000,0000,0000,0000,0000,0000,0000,0000,0000,0000,0000,0000,0000,0000,0000,0000,0000,0000,0000,0000,0000,0000,0000,0000,0000,0000,0000,0000,0000,0000,0000,0000,0000,0000,0000,0000,0000,0000,0000,0000,0000,0000,0000,0000,0000,0000,0000,0000,0000,0000,0000,0000,0000,0000,0000,0000,0000,0000,0000,0000,0000,0000,0000,0000,0000,0000,0000,0000,0000,0000,0000,0000,0000,0000,0000,0000,0000,0000,0000,0000,0000,0000,0000,0000,0000,0000,0000,0000,0000,0000,0000,0000,0000,0000,0000,0000,0000,0000,0000,0000,0000,0000,0000,0000,0000,0000,0000,0000,0000,0000,0000,0000,0000,0000,0000,0000,0000,0000,0000,0000,0000,0000,0000,0000,0000,0000,0000,0000,0000,0000,0000,0000,0000,0000,0000,0000,0000,0000,0000,0000,0000,0000,0000,0000,0000,0000,0000,0000,0000,0000,0000,0000,0000,0000,0000,0000,0000,0000,0000,0000,0000,0000,0000,0000,0000,0000,0000,0000,0000,0000,0000,0000,0000,0000,0000,0000,0000,0000,0000,0000,0000,0000,0000,0000,0000,0000,0000,0000,0000,0000,0000,0000,0000,0000,0000,0000,0000,0000,0000,0000,0000,0000,0000,0000,0000,0000,0000,0000,0000,0000,0000,0000,0000,0000,0000,0000,0000,0000,0000,0000,0000,0000,0000,0000,0000,0000,0000,0000,0000,fefe,0406,fc02,fcfa,0000,0008,0004,fcfe,04fa,0000,0402,fefe,0200,0204,0404,faf6,fcf4,f2f6,02fa,faf8,f6f6,fc00,fcfc,f6fc,f6fa,08fe,04fc,fcfe,fcf8,f2f4,fcfc,f8f8,f4f4,fcf0,fafa,02fe,fefe,f8f4,faf8,02fe,fafa,f2f2,fe04,fafa,fcfe,00fc,f8f8,fcfc,fcf8,f2f0,faf4,fefc,fcfc,fefe,f8f6,f6f8,fcf8,f2f2,f4f4,0402,fefc,fefa,fefe,f8f8,fcfe,f4f6,f2ee,fafa,0002,0002,0000,faf8,fcfa,fefa,f4f4,eaf0,04fe,0400,0000,fcf8,fcfc,fe00,f6f6,f0f0,ecf0,0402,0402,fcfa,fcfc,fafe,fcf8,faf6,eef0,0002,0200,00fc,fafc,fefa,fefe,0002,e8e4,eaea,0204,00fe,f6fa,0202,f6f8,0004,00ee,e0e8,04fe,0000,faf4,0204,f6f0,fc00,0a08,d6d6,e6f0,fa02,fcfc,fa02,02f6,f2f8,080a,fce6,e0e4,00f8,fefa,f8fa,0c08,e8ea,0408,0a08,dce0,f4f8,f4fc,f8fc,040a,f6ec,f802,0a08,f4ec,eaf2,00f8,fefc,0002,02fc,f2f6,0406,04fe,eeea,f4f8,fafc,0202,0606,f6f8,0402,0606,f8f4,ecf4,fe00,fefe,0404,00fa,0202,0202,00fa,f4f2,f4f4,fefe,0200,0404,0004,02fe,0202,fef8,faf6,fefe,0004,0404,0200,0000,fe00,0602,faf6,f4f4,0002,0402,0202,02fe,00fe,0202,00fe,f4f2,00fe,0202,0000,0400,fefc,fe00,fe02,fcf8,f0f8,0204,0204,0604,0000,fcfc,0202,00fe,f2f2,0404,00fe,0204,0404,fcfe,fc00,fe02,fafa,f6fa,0000,fe02,0404,0000,fefe,fe02,fefe,f6f8,0002,fefe,0004,0200,00fe,fcfe,00fe,fe00,f8fa,fafa,0002,0202,0002,0000,fe00,fefc,f8f8,f8fc,fafa,0000,0204,0202,fe00,fefc,fefc,faf8,f8fa,fe00,fe02,0402,0400,fcfe,fafc,fafc,f6f4,fa00,0400,0402,fe00,02fe,f6f4,f8fc,fe00,f6fa,0204,0204,fefc,0004,fcfc,f6f8,f4fe,fefa,fcfe,0000,0408,02fa,fefa,fafe,fcf8,0002,0810,160e,0e14,1010,0c06,0802,0802,1410,0804,1010,0c0c,0a0a,0808,0400,fc0c,0c0a,0e0a,080a,0c06,0a08,0a08,0808,0602,0c12,0a10,020e,0200,0006,0606,0406,0204,020a,080e,0e0e,04fa,00fc,0206,0804,0404,0406,0810,0a12,0c06,00fe,0204,0604,0604,0206,0608,1416,1412,06fe,0204,0602,0406,0404,0806,0a10,0c0e,0408,0202,080a,0202,0402,0604,080e,0a0e,0a10,0a08,080a,0602,0604,fe00,0408,0808,1010,080a,0806,0806,0004,0200,fe00,0806,1010,100e,0808,0808,0806,0402,fe00,0206,0802,120c,0c0c,080a,0606,00fe,f8fa,0202,fef8,0e0e,1010,0e08,0404,0a06,ecee,fe02,0402,f804,1210,0e0c,0402,0408,f8ec,f6fe,0604,faf2,100e,080c,0404,0402,06fc,ecf8,0a0c,04fc,f602,120a,0c06,0204,0608,eaea,0008,0604,f8f2,020e,1216,0004,0202,fef2,f4fe,0c08,fefe,fa04,1006,0c06,0004,fc02,eef2,060a,04fc,fcfe,0a0c,0c08,0200,fefa,faf4,fc02,0604,00fc,fefe,0c0e,0a0c,fefe,fcfa,fafc,0404,0602,fc00,0e0a,0e14,fefe,fcfc,fafe,0202,0808,fe00,0202,0a0a,fc00,fefc,fafa,fe00,0404,0000,fe00,0c0c,0a0a,fefa,fcf8,f8fc,0002,0406,0402,0802,040c,0004,fcf8,faf8,0000,0604,0404,0200,0208,080a,00fe,fefe,fcfc,0004,0406,0204,0008,0a0a,0402,fcfe,fcfa,fafe,0002,0202,0402,0400,0c08,0400,fe00,fcfa,fe02,0202,fe02,0604,0c00,0404,0204,02fe,fafa,00fe,00fe,0006,080c,0c0a,fe00,0400,fcfc,fcfc,