memory_initialization_radix=16;
memory_initialization_vector=
f804,00fc,0a06,060a,1008,080a,0204,fafa,04f8,0006,0008,0a0a,1010,0a04,0a0c,0600,f8fa,f60a,f404,1216,100e,0c06,0c0e,1614,00fc,0000,0e0a,0c0e,120c,1010,0c08,0c10,0e0a,02fc,00fc,0a0a,0e16,1412,0c08,080a,1014,0804,02fc,0004,101a,1818,1610,0a08,0608,0e0e,0000,04fe,0c0e,141a,1c18,0e0e,02fe,080a,0a00,fef6,f800,100e,1a1a,1212,0c08,0208,0c0c,0604,00fe,0406,060c,1412,1010,0808,0a0a,0808,02f8,fef6,f2f4,0606,0c0e,0e0a,080a,0a08,0a08,06fe,eeea,eaf6,0406,0a08,0c08,0a08,0c08,08fc,fef8,eaf0,fafc,0000,0608,0608,0a0a,080e,02fc,f2ea,fafe,fafe,0002,0406,0c0e,0a04,0200,f4f4,f6f8,fcfc,fcfc,0000,0408,0808,0400,fcfa,f8f4,f6f8,fcfc,fcfc,fefc,0808,0608,f8fa,f0ea,f8f6,fe00,fcfa,fafc,0002,0608,0800,0afc,f4f8,fcfe,fe00,faf8,fafa,fe02,060c,fe02,f2f4,fafc,fcfe,fefa,fafa,fafa,fc02,0604,fe02,fefc,fe00,fcfc,f8f8,f8f6,f8f8,fa02,0002,00fe,fcfc,fe00,fefc,fcf8,f6f8,f8fa,fcfe,08fc,0000,0200,fefc,fafc,faf6,f6f4,f6fc,fcfa,f8fa,fe00,fcfc,f8fa,f8f8,f8f8,f6f8,fcfe,06fe,fefc,fefe,fcfc,fcfa,f6f8,faf6,fcfe,fa00,fcfc,0002,fcfc,fefe,f4f8,f8f8,f8f8,fcf8,fe00,fe00,fe00,fe00,fcfc,f8f8,f4f8,faf8,fe00,fefc,fcfc,fefe,fcfc,fcfe,f6f4,f4f6,f6f6,0402,f4f6,f8f8,fcfc,fcfe,fcf8,f4f6,f4f6,f8fe,fefc,fafa,fafc,fcfe,fcfa,faf8,faf8,faf6,0808,fcfa,faf8,fcfc,fcfa,fcfe,f8fc,f6fc,00f8,02fe,f8fa,f8f8,fafe,f8fc,fc00,fcfa,fafa,0404,00fc,fcfc,fafa,f8fa,fafa,fcfe,fcf8,0000,0002,fe00,fefe,fe00,00fc,fe08,fefe,fefe,0200,0404,0000,0002,0002,02fc,fcfe,00fe,0002,0000,0602,02fe,fe04,0404,fc04,fe00,fcfe,0a0c,0c06,0604,fef8,fe00,fafa,fcfc,0c0a,0000,0c06,020c,fcfa,f6f4,04fc,f6f6,fc04,0a08,0c0c,060a,faf6,fafa,00fe,fcfa,f8f8,0604,0206,0c00,00fc,f8f6,fc00,0402,fefc,f4f2,08fc,1408,02fc,f8fc,f6f6,0004,0402,faf6,fa00,0600,08fe,f6f4,f8f6,f6fa,0408,fe02,f2f6,0608,0e08,f6fc,eeee,f4f4,f8fc,0202,fcf6,f802,fc06,02fc,f0f2,eeee,f4f4,0002,faf8,f2f8,02fe,0e02,f8f0,eef2,f4f4,fcfe,fefa,f6f4,fcfe,0408,0202,f4fa,fafa,fafc,0002,faf8,f4f4,fafe,0c08,fafe,fafa,fefc,0202,0202,f6f4,faf4,fa08,00fe,00fc,fafc,0204,0406,00fa,f4fa,fcfc,0a04,0602,fafa,0204,0608,0606,fcfc,fcf6,0802,0600,02fe,fc00,0402,080a,0804,00fc,f4f8,0e0a,0804,fefc,0204,0404,0c0c,0202,f2f2,040a,0404,fe02,fe00,0000,080a,0804,faf4,f4fe,0a0c,0200,02fe,0204,0204,0606,0802,f4f0,0806,0002,0606,0404,0604,0408,0a06,02fe,fefc,0804,0608,0404,0404,0206,0606,0608,fe06,0c04,0404,0402,0204,0204,0404,0c08,1006,0204,fe06,0400,0000,fefe,0204,0608,0a0c,0a0c,0408,0804,0402,fefe,0404,0808,0806,0a0c,0c04,fe04,0602,02fe,0200,0808,0806,0606,0604,0a0c,0406,0202,0000,0004,0404,0806,0204,0c02,0604,0200,0002,0002,0406,0606,0808,0c04,08fe,0002,fe00,0404,0202,0406,0806,060a,0802,0608,0206,0204,0204,0200,0606,0408,0204,0606,0804,0604,0202,0000,0000,0406,0400,0802,0404,0402,0204,02fe,00fe,0002,fc00,fe0a,040c,040c,fc02,0000,0000,0000,0204,0000,0406,0404,0000,0000,0000,0000,0000,fc04,0404,0af8,fa04,0802,0000,02fe,0200,fc00,0208,00fe,0402,0610,0006,0002,0006,02fe,0200,0802,0008,0a04,0e02,0604,000a,0608,0204,0004,0402,0000,0000,0000,0000,0000,0000,0000,0000,0000,0000,0000,0000,0000,0000,0000,0000,0000,0000,0000,0000,0000,0000,0000,0000,0000,0000,0000,0000,0000,0000,0000,0000,0000,0000,0000,0000,0000,0000,0000,0000,0000,0000,0000,0000,0000,0000,0000,0000,0000,0000,0000,0000,0000,0000,0000,0000,0000,0000,0000,0000,0000,0000,0000,0000,0000,0000,0000,0000,0000,0000,0000,0000,0000,0000,0000,0000,0000,0000,0000,0000,0000,0000,0000,0000,0000,0000,0000,0000,0000,0000,0000,0000,0000,0000,0000,0000,0000,0000,0000,0000,0000,0000,0000,0000,0000,0000,0000,0000,0000,0000,0000,0000,0000,0000,0000,0000,0000,0000,0000,0000,0000,0000,0000,0000,0000,0000,0000,0000,0000,0000,0000,0000,0000,0000,0000,0000,0000,0000,0000,0000,0000,0000,0000,0000,0000,0000,0000,0000,0000,0000,0000,0000,0000,0000,0000,0000,0000,0000,0000,0000,0000,0000,0000,0000,0000,0000,0000,0000,0000,0000,0000,0000,0000,0000,0000,0000,0000,0000,0000,0000,0000,0000,0000,0000,0000,0000,0000,0000,0000,0000,0000,0000,0000,0000,0000,0000,0000,0000,0000,0000,0000,0000,0000,0000,0000,0000,0000,0000,0000,0000,0000,0000,0000,0000,0000,0000,0000,0000,0000,0000,0000,0000,0000,0000,0000,0000,0000,0000,0000,0000,0000,0000,0000,0000,0000,0000,0000,0000,0000,0000,0000,0000,0000,0000,0000,0000,0000,0000,0000,0000,0000,0000,0000,0000,0000,0000,0000,0000,0000,0000,0000,0000,0000,0000,0000,0000,0000,0000,0000,0000,0000,0000,0000,0000,0000,0000,0000,0000,0000,0000,0000,0000,0000,0000,0000,0000,0000,0000,0000,0000,0000,0000,0000,0000,0000,0000,0000,0000,0000,0000,0000,0000,0000,0000,0000,0000,0000,0000,0000,0000,0000,0000,0000,0000,0000,0000,0000,0000,0000,0000,0000,0000,0000,0000,0000,0000,0000,0000,0000,0000,0000,0000,0000,0000,0000,0000,0000,0000,0000,0000,0000,0000,0000,0000,0000,0000,0000,0000,0000,0000,0000,0000,0000,0000,0000,0000,0000,0000,0000,0000,0000,0000,0000,0000,0000,0000,0000,0000,0000,0000,0000,0000,0000,0000,0000,0000,0000,0000,0000,0000,0000,0000,0000,0000,0000,0000,0000,0000,0000,0000,0000,0000,0000,0000,0000,0000,0000,0000,0000,0000,0000,0000,0000,0000,0000,0000,0000,0000,0000,0000,0000,0000,0000,0000,0000,0000,0000,0000,0000,0000,0000,0000,0000,0000,0000,0000,0000,0000,0000,0000,0000,0000,0000,0000,0000,0000,0000,0000,0000,0000,0000,0000,0000,0000,0000,0000,0800,0004,0804,1010,0e16,0e12,0e0e,0402,fa08,04fc,020a,0608,0c0a,120e,0e14,100e,0406,02fe,eefe,0602,0006,080a,0408,100c,0c0a,0608,fef8,0800,0202,0608,0406,0a0a,0806,0408,fcf2,fafe,0006,0806,0404,080a,0c0a,0002,0608,f2f8,fcfa,0404,0404,0606,080a,0600,fe02,f6f6,fa00,0202,0404,0606,0808,0404,f4f8,060c,f0f6,fcfe,0404,0406,0608,0606,02fc,f802,fcf8,f8fc,fe00,0406,0606,0806,0200,faf4,0206,f8f8,00fa,0406,0606,0c08,0604,0200,fc00,06f6,fafc,f8fa,0000,0404,0a08,0400,fefa,fe06,faf8,fcf8,fe00,fcfe,0002,0202,fefc,fcf6,fef8,00fe,fafa,fafa,f8fa,fafa,f8f6,f4f4,f602,fcfe,fcfa,faf8,faf8,f8fa,f6f6,f4f0,f0f2,0000,fefe,0000,00fc,fafa,f8f8,f2f2,eeec,0404,0408,fefc,fefe,fcfc,fcfc,f8f8,f2f0,f200,fc02,0604,0200,00fc,fcfe,00fc,fcfc,f2f0,0604,0806,0402,fe00,fefe,0204,00fe,fef8,fc04,0006,0806,0402,0200,0002,0804,02fe,fcfc,060a,0604,0808,0002,0000,0406,0404,0402,0206,0608,0804,fe00,fe00,0202,0604,0204,0a06,0e12,0808,0400,fe00,0200,0004,0404,0202,0808,fe02,0202,fefe,0000,fefc,fe00,02fe,0206,0a06,00fe,0402,0000,02fe,00fc,fefe,fafe,0004,02fe,fe00,0402,0002,fefe,fefe,f6f6,fefa,00fe,f8fa,fe00,0202,0200,fcfc,f8f8,f6fa,fc02,00fe,fefc,0002,0000,fefc,fefe,f6f4,f8f6,faf8,fcfc,fefe,f8fa,fefc,fefe,fefa,f4f6,fafe,fcf8,fefc,faf8,fcfe,00fe,0000,f6ee,f4f6,fcf6,f4f6,faf8,f8fa,fefe,faf8,f6f4,eeee,f6fe,f8f0,f0f4,f4f4,f8f6,f8f6,eef6,f4ec,f0f4,fcfe,ece8,ecea,eeec,f2f0,eaea,f0ee,ecee,fe00,faf2,e6e4,e4e2,e2e0,e6e4,e4ee,eaf0,f4f6,0002,eef0,e6e6,d6d4,dcd6,dcdc,e6e6,f4f8,0000,0c08,0808,0200,f0ee,eef4,f6f8,0400,0e04,f402,100a,0200,f0f4,f2f0,f0f4,f6f4,fa02,0afe,0c0a,fc02,fcf6,f8f8,f2f4,f8fa,f8fc,06fe,fc02,0208,0200,fcfe,f8f8,f8fc,fcf8,02fc,0c02,0206,0004,00fe,fcfc,f6f8,fcfc,fafc,0602,fefc,0202,02fe,fcfc,fafa,fafc,00fe,0804,0200,0806,00fe,fefe,fefe,fefc,fe02,0204,0608,0a00,0202,00fe,fafe,fcfe,fcfc,0000,0608,0402,0a04,fe00,fefe,fefa,faf8,fcfc,00fe,0c08,fe02,fcfa,0000,fcfa,fafa,f6f6,f6f8,fcfe,0a0c,0c00,0200,fefc,f8f8,f6f6,f2f4,f6f8,0614,00fa,0004,0404,fcfa,f6f6,f4f4,f4f4,0002,100c,fc00,0204,0802,fefe,fafa,f8fa,0004,1614,fcfe,00fe,0808,0606,0200,0002,0608,0c12,120a,04fe,040a,0806,0606,0808,080a,0e0a,100c,fa00,0202,080a,0a0a,0a0c,0a0e,0c0c,0c0e,0c00,0202,0206,080a,0a0c,0a0c,0e0c,0c08,0e10,0200,0200,0200,060a,080a,0a0a,0c0c,0e10,0402,0202,0002,0404,0808,0a0c,080c,0c10,0c08,fe00,fefc,0002,0206,0808,0806,0c08,0c10,040c,0200,fefc,0000,0406,0606,0806,0a0a,0e0a,0008,00fc,fcfe,fcfe,0404,0202,060a,060e,0006,02fe,fcfc,fefe,0000,0000,0000,0204,080a,0206,fefe,0000,fcfe,fefe,fefc,0202,040a,0802,0c04,00fe,00fc,fcfc,fe00,0000,0200,0408,04fe,0002,0000,00fe,fefc,fefe,0400,fcfe,0202,0602,0200,0002,fefe,fefc,fefc,00fe,0004,fefe,06fc,fcfe,0202,0200,fefe,fefe,fafe,0a02,0806,fcf8,fafc,0004,0202,0200,0404,0206,0404,fcfc,f4f8,fcfe,0202,0204,0402,060e,0206,02fe,faf2,f4f6,fefc,fefe,0204,0806,0808,0800,00f6,f0f0,f4fa,fefc,0002,0406,0004,000c,0204,fafa,f8f8,f8f6,fefa,00fe,0006,0202,06fc,fcfe,f6f8,f0ee,f0ee,f4f6,00fe,0604,0204,0000,0000,0000,0000,0000,0000,0000,0000,0000,0000,0000,0000,0000,0000,0000,0000,0000,0000,0000,0000,0000,0000,0000,0000,0000,0000,0000,0000,0000,0000,0000,0000,0000,0000,0000,0000,0000,0000,0000,0000,0000,0000,0000,0000,0000,0000,0000,0000,0000,0000,0000,0000,0000,0000,0000,0000,0000,0000,0000,0000,0000,0000,0000,0000,0000,0000,0000,0000,0000,0000,0000,0000,0000,0000,0000,0000,0000,0000,0000,0000,0000,0000,0000,0000,0000,0000,0000,0000,0000,0000,0000,0000,0000,0000,0000,0000,0000,0000,0000,0000,0000,0000,0000,0000,0000,0000,0000,0000,0000,0000,0000,0000,0000,0000,0000,0000,0000,0000,0000,0000,0000,0000,0000,0000,0000,0000,0000,0000,0000,0000,0000,0000,0000,0000,0000,0000,0000,0000,0000,0000,0000,0000,0000,0000,0000,0000,0000,0000,0000,0000,0000,0000,0000,0000,0000,0000,0000,0000,0000,0000,0000,0000,0000,0000,0000,0000,0000,0000,0000,0000,0000,0000,0000,0000,0000,0000,0000,0000,0000,0000,0000,0000,0000,0000,0000,0000,0000,0000,0000,0000,0000,0000,0000,0000,0000,0000,0000,0000,0000,0000,0000,0000,0000,0000,0000,0000,0000,0000,0000,0000,0000,0000,0000,0000,0000,0000,0000,0000,0000,0000,0000,0000,0000,0000,0000,0000,0000,0000,0000,0000,0000,0000,0000,0000,0000,0000,0000,0000,0000,0000,0000,0000,0000,0000,0000,0000,0000,0000,0000,0000,0000,0000,0000,0000,0000,0000,0000,0000,0000,0000,0000,0000,0000,0000,0000,0000,0000,0000,0000,0000,0000,0000,0000,0000,0000,0000,0000,0000,0000,0000,0000,0000,0000,0000,0000,0000,0000,0000,0000,0000,0000,0000,0000,0000,0000,0000,0000,0000,0000,0000,0000,0000,0000,0000,0000,0000,0000,0000,0000,0000,0000,0000,0000,0000,0000,0000,0000,0000,0000,0000,0000,0000,0000,0000,0000,0000,0000,0000,0000,0000,0000,0000,0000,0000,0000,0000,0000,0000,0000,0000,0000,0000,0000,0000,0000,0000,0000,0000,0000,0000,0000,0000,0000,0000,0000,0000,0000,0000,0000,0000,0000,0000,0000,0000,0000,0000,0000,0000,0000,0000,0000,0000,0000,0000,0000,0000,0000,0000,0000,0000,0000,0000,0000,0000,0000,0000,0000,0000,0000,0000,0000,0000,0000,0000,0000,0000,0000,0000,0000,0000,0000,0000,0000,0000,0000,0000,0000,0000,0000,0000,0000,0000,0000,0000,0000,0000,0000,0000,0000,0000,0000,0000,0000,0000,0000,0000,0000,0000,0000,0000,0000,0000,0000,0000,0000,0000,0000,0000,0000,0000,0000,0000,0000,0000,0000,0000,0002,0204,fcfe,02fc,fefe,fefc,0002,fa00,00fc,f800,0000,fafa,fefe,0000,0000,fcfe,fc00,fe00,f8fc,fefe,fcfe,fefe,00fe,fefe,fcfe,0000,00fa,fcfe,0000,fcfe,fefe,fe00,fefe,fefe,00fc,fc00,fcfe,fe00,fefe,fe00,00fe,fefc,fcfe,02fe,fcfa,fe00,00fe,0000,0000,fefe,fefe,fefe,fcfe,fefe,fe00,0000,fefe,fefe,fefe,fefe,0000,fefe,0200,0002,0000,fefe,fefe,fcfe,00fe,fe00,fcfe,0000,00fe,fefe,00fe,fefc,fcfa,fefe,0000,00fe,fefe,fefe,fefe,fefe,fefe,0000,0400,fefe,0000,0000,fe00,fefe,fefc,fefe,fefe,fefe,00fe,0000,00fe,00fe,fefe,fefe,fe00,fefe,0000,fefe,0000,00fe,fefe,fefe,fcfc,fefe,fefe,0000,0000,0000,fefe,fefe,fefe,00fe,fefe,0000,fe00,fefe,fefe,fefe,fefe,fe00,0000,fe00,fefe,0000,0000,00fe,00fe,fefe,fefe,00fe,fefe,fefe,fe00,fefe,fefe,fefe,0000,02fe,fcfe,fefe,fefe,fefe,fefe,fefe,0000,0000,00fe,fefc,fefe,fefe,fefe,fefe,fefe,0000,00fc,fefe,fcfc,fe00,fefe,fefe,fe00,00fe,0002,fefe,fcfe,fefe,fefe,fefe,fefe,fefe,0000,fefe,fe00,fefe,0000,fefe,fefe,fefe,fefe,fefe,0000,0200,0000,0000,fefe,fefe,fefe,00fe,0000,0002,0000,0000,fefe,fefe,fefe,fefe,00fe,0002,0000,0000,fefe,fefe,fefe,00fe,fefe,fefe,fe00,0000,fefe,00fe,fefe,fefe,fefe,0000,0000,0000,fefe,00fe,fefe,fefe,fefe,fe00,0000,fe00,fefe,fefe,00fe,fefe,fefe,fefe,fefe,0000,0000,fefe,00fe,00fe,fefe,fefe,00fe,fefe,00fe,fefe,fefe,fefe,fefe,fe00,0000,fefe,00fe,fe00,00fe,fefe,fefc,fefe,fe00,0004,fefe,0000,fe00,fefe,fe00,fcfe,fe00,0000,0000,0000,fefe,fefe,fefe,00fe,00fe,0000,0000,0000,0000,0000,0000,0002,fe00,fe00,fc00,fc04,02fc,00fe,fefe,fcfa,fcfc,fefe,fcfe,fefa,0202,fafc,fefe,fcfc,fafc,fafe,0000,0200,02fe,fefe,fcfe,fcfc,fefc,fefc,fefc,fe00,0002,00fc,fc00,fefe,fefe,fcfc,fcfe,fcfc,00fe,fc00,fcfc,fe00,0000,fefe,fefe,fcfc,0000,00fc,0000,fefe,0000,fe00,00fe,00fc,fcfe,fefc,fcfe,fe00,00fe,0000,0000,0000,fefc,fefe,0002,fe00,fe00,00fe,fefe,0000,fe00,fefe,fcfe,00fe,fefe,fe00,0000,0000,0000,fefc,fefc,fc02,00fe,fefe,fe00,fe00,0000,fe00,fefc,f8fe,fefe,fefc,fefe,0000,0000,fefe,00fe,00fe,fc04,00fe,fefe,fe00,fe00,0000,fefe,fcfc,fafc,fefe,fcfe,fefe,0000,00fe,fefe,00fe,fcfc,00fa,fefe,fefe,fefe,fe00,fefe,fefe,fc00,fc00,fcfe,fcfe,fefe,fefe,00fe,fefe,fefe,00fe,fefc,fefe,fefe,fefc,fefe,fefe,fefe,fefc,fcfe,0000,fefe,fcfe,fcfe,fefe,fefe,fefc,fe00,0002,00fe,fefc,fefe,fefe,fefe,fefe,fcfc,0000,fe00,fefe,fefe,fefe,fefe,fefc,fcfe,fefe,fe00,fefe,fefe,fefe,fe00,fefe,fe00,0000,00fe,00fc,00fe,fefe,fefe,fe00,fe00,fefe,fefe,fa00,fe00,fe00,fe00,fefe,fefe,00fe,00fe,fefe,fc00,fefc,00fe,fe00,fefe,fefe,00fe,0000,08fa,0000,fefe,fefe,fe00,fe00,0000,fe00,fe06,fcfc,fefe,fefe,fefe,fefe,fefe,00fc,fefe,fafc,0000,fefe,fefe,fefe,fefe,fefe,0002,fefe,0000,fefe,fefe,fefe,fefe,fefe,fefe,fe00,00fe,fe00,00fe,fefe,fefe,fefe,00fe,00fc,0402,fafc,fe02,00fe,fefe,fefe,00fe,fefe,0000,0404,fe00,fe00,fefe,fefe,fe00,fefe,fefe,fe00,00fa,00fe,00fe,00fe,fefe,0000,0000,00fe,0004,fc00,fe00,fe00,0000,0000,0000,00fc,0000,0002,fefe,fefe,fe00,0002,fe00,0002,fe02,0400,02fe,0002,fefe,0000,00fe,0002,0200,0000,0000,0000,0000,0000,0000,0000,0000,0000,0000,0000,0000,0000,0000,0000,0000,0000,0000,0000,0000,0000,0000,0000,0000,0000,0000,0000,0000,0000,0000,0000,0000,0000,0000,0000,0000,0000,0000,0000,0000,0000,0000,0000,0000,0000,0000,0000,0000,0000,0000,0000,0000,0000,0000,0000,0000,0000,0000,0000,0000,0000,0000,0000,0000,0000,0000,0000,0000,0000,0000,0000,0000,0000,0000,0000,0000,0000,0000,0000,0000,0000,0000,0000,0000,0000,0000,0000,0000,0000,0000,0000,0000,0000,0000,0000,0000,0000,0000,0000,0000,0000,0000,0000,0000,0000,0000,0000,0000,0000,0000,0000,0000,0000,0000,0000,0000,0000,0000,0000,0000,0000,0000,0000,0000,0000,0000,0000,0000,0000,0000,0000,0000,0000,0000,0000,0000,0000,0000,0000,0000,0000,0000,0000,0000,0000,0000,0000,0000,0000,0000,0000,0000,0000,0000,0000,0000,0000,0000,0000,0000,0000,0000,0000,0000,0000,0000,0000,0000,0000,0000,0000,0000,0000,0000,0000,0000,0000,0000,0000,0000,0000,0000,0000,0000,0000,0000,0000,0000,0000,0000,0000,0000,0000,0000,0000,0000,0000,0000,0000,0000,0000,0000,0000,0000,0000,0000,0000,0000,0000,0000,0000,0000,0000,0000,0000,0000,0000,0000,0000,0000,0000,0000,0000,0000,0000,0000,0000,0000,0000,0000,0000,0000,0000,0000,0000,0000,0000,0000,0000,0000,0000,0000,0000,0000,0000,0000,0000,0000,0000,0000,0000,0000,0000,0000,0000,0000,0000,0000,0000,0000,0000,0000,0000,0000,0000,0000,0000,0000,0000,0000,0000,0000,0000,0000,0000,0000,0000,0000,0000,0000,0000,0000,0000,0000,0000,0000,0000,0000,0000,0000,0000,0000,0000,0000,0000,0000,0000,0000,0000,0000,0000,0000,0000,0000,0000,0000,0000,0000,0000,0000,0000,0000,0000,0000,0000,0000,0000,0000,0000,0000,0000,0000,0000,0000,0000,0000,0000,0000,0000,0000,0000,0000,0000,0000,0000,0000,0000,0000,0000,0000,0000,0000,0000,0000,0000,0000,0000,0000,0000,0000,0000,0000,0000,0000,0000,0000,0000,0000,0000,0000,0000,0000,0000,0000,0000,0000,0000,0000,0000,0000,0000,0000,0000,0000,0000,0000,0000,0000,0000,0000,0000,0000,0000,0000,0000,0000,0000,0000,0000,0000,0000,0000,0000,0000,0000,0000,0000,0000,0000,0000,0000,0000,0000,0000,0000,0000,0000,0000,0000,0000,0000,0000,0000,0000,0000,0000,0000,0000,0000,0000,0000,0000,0000,0000,0000,0000,0000,0000,0000,0000,0000,0000,0000,0000,0000,0000,0000,0000,0000,0000,0000,0000,0000,0000,0000,0000,0000,fc06,06fa,08fa,f800,0404,0204,faf2,eaf4,faf2,fefa,04fc,f6f8,f6f8,0000,0404,ecee,f6f8,f6fc,ecfa,f4f0,f8f8,fcf8,0200,faf8,ecf4,02f8,f8f2,f4f4,f2f0,f6f8,0200,0200,f2f2,f8f4,04fa,f6f8,f2f4,f8f6,fafc,0404,f8fa,f0f4,00f6,0000,f8f4,f4fa,fcfe,0000,fcfe,f8f4,f2f8,fcfc,00fc,f6f6,fafa,fe00,00fc,faf8,f4f4,f8f8,fcfc,f4f4,f4fa,fcfa,00fe,fefc,f8f6,f2f0,fcfc,fcfc,f6f8,fcfc,fcfe,fefe,fcfc,f4f4,f0f4,0200,fefc,fcfe,fafa,fefc,fcfc,f6f6,f6f4,04fc,00fc,00fe,fe00,fc00,00fc,f8f8,fc00,f0ec,fe02,fefe,0200,fcfa,fcfe,fef8,f6fa,faf4,fcfe,02fe,0400,fe00,0000,00fc,fafc,00fe,f0ee,fefc,0002,0000,fe02,0002,fefe,fe00,f4f0,0400,f8fa,0402,fcfe,0000,fcfa,fefc,0200,f4f8,fcf8,0000,fcfc,0402,fcfe,02fe,0002,faf8,fefe,fafc,04fe,fc02,02fc,fc02,02fe,0200,f8f8,04fc,0000,fcfa,0608,f6f8,0404,fcfe,faf8,fafe,0402,02fc,0408,02f4,0004,02fe,00fc,f6fe,0404,00fe,fcfe,0804,eef6,0604,fe00,f4f4,fc00,0404,fefa,0406,f2ec,0404,02fc,faf6,f2fa,0204,fcfa,fe02,02f6,eefc,0402,0200,f6f4,0002,fcf6,f8fe,0206,eaec,0604,fafa,f8f4,f6f6,00f8,faf8,0002,faf0,f800,00fe,f8f6,f0ee,faf8,f4f6,fe02,0200,f2f4,0200,faf8,faf8,f6fa,faf8,fc00,0000,f8f4,fc02,00fe,fafa,f6f4,fefc,fafe,00fc,0000,f8fa,00fe,fcf8,fefc,f8fe,fe00,fcfe,fcfe,faf8,fe00,0002,f8fe,f6f4,fefc,00fc,fcfa,fcfc,fcfa,fcfe,f6f6,fcf8,faf4,fe00,f8fc,fcfa,fcfc,fafa,00fc,f4fc,fafc,0000,fcfc,fcfa,fafc,fafa,fcfc,f6f4,faf8,fe00,00fe,fcf8,fafc,fcfe,fc00,0000,f8fc,fafc,fcfe,fcfa,f8fe,00fe,fcfc,00fe,fcfa,fefc,0000,fcfc,f6f6,fcfc,fefc,fef8,fefe,fafc,fcfe,100c,0a08,0206,04fe,0204,fe00,0a06,0e0a,100c,0810,0e06,0800,0204,fefe,0400,0404,0c0c,060a,0e04,0806,0202,0404,fc02,040a,0e0c,0c0e,0e06,0000,0200,0204,0400,0404,080c,080a,0804,0806,0606,0200,0800,0202,0808,0a0c,0814,0a02,fafc,0202,0404,0400,0608,0804,0a10,0604,00fe,0402,0404,0404,0408,0606,0808,0814,0408,0202,0204,fe02,0204,0406,060a,0406,0e02,0404,0204,04fe,0402,0400,0a0a,100e,0c0a,fe02,0002,0402,fe02,0002,0204,060a,1008,06fe,02fe,0000,fefe,0002,0404,0008,0408,0a08,0606,0402,fefe,fe00,fefe,fcfe,0606,100a,00fc,0400,02fe,fcfe,0200,00fe,fe04,0a06,0810,fc02,00fe,fafc,fefe,fafe,fcfc,0206,0e0a,0afe,0004,fcf8,0004,fcfa,0200,0202,0602,0a0e,00fc,00fa,fa00,0200,0004,02fe,0600,0a02,0400,0004,f6fc,080a,f8fc,0402,0602,000e,0412,0600,00fa,0608,06fa,0808,0402,00fe,0808,0400,0202,0004,0e0a,f800,0a06,0406,0a0a,0e06,00fe,fcfc,080c,faf4,080a,0200,060a,0a0a,0600,fefc,0206,0afe,f600,0a04,0202,040e,080e,fefc,0002,0806,f4f2,0608,0402,0804,060e,0400,00fe,0606,faf2,f602,0a06,0208,0604,0c0c,0202,0606,0402,f6f4,080a,fefe,0a06,0808,0804,0608,0402,f6f4,fe06,0602,0006,0206,1012,0608,0806,fcfa,fafe,0604,fc00,0204,0e0a,060c,0808,0400,f6f8,0406,fefc,0404,080c,120e,0a04,0000,fcf8,0204,0200,0002,0a04,100a,0a0c,fe00,02fc,00fe,0606,00fe,0008,0e08,0a08,0604,fe02,0204,0404,fe04,0406,060a,0a08,0a06,0600,0004,0404,00fe,0204,0006,0204,080a,0806,00fe,0a06,0402,0404,0404,0408,1006,0c0c,0408,040c,0a04,0004,0c0a,0a06,0afe,0e0c,0c0e,060c,100c,0202,0c06,0608,0c04,0a0c,0000,0000,0000,0000,0000,0000,0000,0000,0000,0000,0000,0000,0000,0000,0000,0000,0000,0000,0000,0000,0000,0000,0000,0000,0000,0000,0000,0000,0000,0000,0000,0000,0000,0000,0000,0000,0000,0000,0000,0000,0000,0000,0000,0000,0000,0000,0000,0000,0000,0000,0000,0000,0000,0000,0000,0000,0000,0000,0000,0000,0000,0000,0000,0000,0000,0000,0000,0000,0000,0000,0000,0000,0000,0000,0000,0000,0000,0000,0000,0000,0000,0000,0000,0000,0000,0000,0000,0000,0000,0000,0000,0000,0000,0000,0000,0000,0000,0000,0000,0000,0000,0000,0000,0000,0000,0000,0000,0000,0000,0000,0000,0000,0000,0000,0000,0000,0000,0000,0000,0000,0000,0000,0000,0000,0000,0000,0000,0000,0000,0000,0000,0000,0000,0000,0000,0000,0000,0000,0000,0000,0000,0000,0000,0000,0000,0000,0000,0000,0000,0000,0000,0000,0000,0000,0000,0000,0000,0000,0000,0000,0000,0000,0000,0000,0000,0000,0000,0000,0000,0000,0000,0000,0000,0000,0000,0000,0000,0000,0000,0000,0000,0000,0000,0000,0000,0000,0000,0000,0000,0000,0000,0000,0000,0000,0000,0000,0000,0000,0000,0000,0000,0000,0000,0000,0000,0000,0000,0000,0000,0000,0000,0000,0000,0000,0000,0000,0000,0000,0000,0000,0000,0000,0000,0000,0000,0000,0000,0000,0000,0000,0000,0000,0000,0000,0000,0000,0000,0000,0000,0000,0000,0000,0000,0000,0000,0000,0000,0000,0000,0000,0000,0000,0000,0000,0000,0000,0000,0000,0000,0000,0000,0000,0000,0000,0000,0000,0000,0000,0000,0000,0000,0000,0000,0000,0000,0000,0000,0000,0000,0000,0000,0000,0000,0000,0000,0000,0000,0000,0000,0000,0000,0000,0000,0000,0000,0000,0000,0000,0000,0000,0000,0000,0000,0000,0000,0000,0000,0000,0000,0000,0000,0000,0000,0000,0000,0000,0000,0000,0000,0000,0000,0000,0000,0000,0000,0000,0000,0000,0000,0000,0000,0000,0000,0000,0000,0000,0000,0000,0000,0000,0000,0000,0000,0000,0000,0000,0000,0000,0000,0000,0000,0000,0000,0000,0000,0000,0000,0000,0000,0000,0000,0000,0000,0000,0000,0000,0000,0000,0000,0000,0000,0000,0000,0000,0000,0000,0000,0000,0000,0000,0000,0000,0000,0000,0000,0000,0000,0000,0000,0000,0000,0000,0000,0000,0000,0000,0000,0000,0000,0000,0000,0000,0000,0000,0000,0000,0000,0000,0000,0000,0000,0000,0000,0000,0000,0000,0000,0000,0000,0000,0000,0000,0000,0000,0000,0000,0000,0000,0000,0000,0000,0000,0000,0000,0000,0000,0000,0000,0000,0000,0000,0000,0000,0000,0000,0000,0204,0802,fc04,fafa,00fe,f8f8,fc00,f6f8,fcfe,fa04,fe04,02f8,f2fa,f8f8,fafc,00fa,0000,0202,fe02,fafa,f4f4,fefa,fcfa,fafe,f6f4,fafc,fefc,fcfa,faf8,fafa,f8fe,00fe,fefc,f4f8,04fe,fc00,faf6,f2fc,fefc,fc02,fefe,fafc,faf8,faf8,fe00,f0f0,0000,f8fc,0202,fefa,fcfc,fa06,02fe,f0ec,fa00,f8f8,0204,0406,f8fe,fafe,00fc,f6fa,f0f6,02fc,0004,0808,0200,fcfc,fe04,f8f6,f4f0,fa00,fc02,0808,0404,fefe,fcfc,fe02,f8f8,f0f6,faf6,0402,0404,0200,fafa,fc00,fafe,faf2,fcfc,fe02,0806,0402,00fe,f8fe,fafa,fa00,fafe,fcfe,0204,0202,fefc,0000,fcfc,00fc,fefe,0000,fe00,0000,fcfc,fcfc,f8fc,faf8,fafe,0404,fe00,0200,faf6,f8fa,0000,04fe,f8f8,00fe,0200,0406,00fe,fcfc,fcfc,0002,f4f4,f2f6,0000,0004,0604,fcfc,f6f6,fa00,fef8,f8ee,f802,0200,0a0c,0202,faf8,f8fa,0202,fcfa,f0ec,0202,0206,0402,00fc,f8f8,fc00,0202,fe00,f8f6,0202,0404,0202,fcfc,fefe,0202,08fe,00fa,fafa,fefc,0200,0000,0200,00fe,0202,0608,fcfc,fcfe,0000,fe02,0204,04fe,f6fe,0604,0802,fcfc,fe00,02fe,0204,0606,fcfa,fefe,0004,02fe,fcfe,0002,0404,0808,02fa,fcfa,00fe,0000,fefe,fe02,0404,0808,0606,f4f8,00fc,fefc,fefe,0002,0606,0206,0c0a,faf6,fcfc,f8fc,f8f8,fe00,0204,0200,080a,00fc,f6fc,fcf8,faf8,f8fc,0402,0000,0004,0602,f8f8,00fe,fcfc,f8fa,fcfe,0002,0200,fe00,fafc,fafe,fe00,02fc,faf8,fe00,fe02,f8f8,0000,fcfe,fcfa,0404,fefc,f4fa,f8f8,f6f6,fafe,fe02,0000,fe02,0604,fcf8,f4f4,f2f4,f6f8,fafe,0202,0006,0202,0400,f8f4,f2f2,f2f4,fcfc,0402,0400,fcfc,0204,fcfc,f4f2,f4f6,fafa,fefe,0604,0002,fa00,fefa,fcf8,f4f4,f0f0,fafe,fc02,0002,0000,0600,fcfe,fe02,02fe,0000,fa06,fe00,000c,fe00,0206,0002,0402,fe04,0404,04fc,fe00,04fa,0200,0a00,040a,fefe,080c,0002,0000,0604,fefc,fe00,fc02,0600,040a,1210,0604,fa00,f800,fc00,02f8,0c0e,0004,0e10,120e,04fc,0408,f8fe,0202,fe06,0604,0c12,1212,0a08,0000,fa04,04fc,f6fa,0c06,080c,100e,100c,04fe,04fc,f8f8,f8f8,0206,0204,0c0a,0c0a,06fe,fc00,04fa,fcf6,fafc,02fe,080a,0808,0404,0400,0604,fcf8,f4f4,0202,0406,0604,0002,fe04,f802,fcf8,f8fa,fe02,fa00,0608,fe00,fcfc,f804,00f8,fef8,f0f4,fef8,0404,0400,02fe,f8f6,f602,fe04,f8ee,fafc,f8fc,0406,0604,0200,f4fe,fc04,0802,f2f2,f6f6,0208,0a0a,0608,02fc,0600,0002,f6f4,f4f4,fafe,0608,0a0a,0806,fefc,0202,0600,f8f6,f4f4,fe00,0a0a,080a,06fe,fafc,04fe,0604,f8f6,f6f8,fc00,060a,0202,00f4,f602,0402,0804,f4f4,f8f6,fc00,02fc,fcfa,f4f8,fc02,080a,02fc,fafa,f8fa,fcfc,fafa,fafa,f60a,0402,0806,faf8,faf8,fafa,f8f8,f6f2,fcfc,02fc,0004,0602,fcfe,f8fa,fcfa,fafc,fafa,02fe,fcf8,0202,0200,00fc,00fe,fcfa,f4f0,f802,fcf6,fafc,fe00,0204,fe00,00fe,f8f4,f8f4,f6fe,fcfc,f6f8,0202,0000,0200,fafc,f4f8,f800,fefa,fcf8,f6fa,fe00,fefe,fcfa,f0f0,fcf6,fef8,fafc,faf4,f4fa,fcfe,fcfa,f6fa,f8f8,00fa,fefc,fcfc,f4f4,f6f6,f6f6,f2f8,f8fc,fef4,fefe,fafc,00f8,f2f0,f0f0,f4f4,fcfc,f6fa,0004,02fa,f8fe,f6fa,f2f6,f8f6,fefe,0400,fcf2,0208,fefe,faf8,f6f8,f8f8,fcfe,00fe,faf6,fc06,fcfa,f800,fcfc,fcfe,fafc,fe00,fcf6,0a04,f6f6,02fa,fcfe,02fe,f8fc,fc02,00f8,f6fc,0004,fefa,fefc,04fc,fafc,fefe,0200,fa02,fcfc,fa04,f8f8,f4fa,02fa,fefa,02f8,fcfa,00f6,fcfa,0000,0000,0000,0000,0000,0000,0000,0000,0000,0000,0000,0000,0000,0000,0000,0000,0000,0000,0000,0000,0000,0000,0000,0000,0000,0000,0000,0000,0000,0000,0000,0000,0000,0000,0000,0000,0000,0000,0000,0000,0000,0000,0000,0000,0000,0000,0000,0000,0000,0000,0000,0000,0000,0000,0000,0000,0000,0000,0000,0000,0000,0000,0000,0000,0000,0000,0000,0000,0000,0000,0000,0000,0000,0000,0000,0000,0000,0000,0000,0000,0000,0000,0000,0000,0000,0000,0000,0000,0000,0000,0000,0000,0000,0000,0000,0000,0000,0000,0000,0000,0000,0000,0000,0000,0000,0000,0000,0000,0000,0000,0000,0000,0000,0000,0000,0000,0000,0000,0000,0000,0000,0000,0000,0000,0000,0000,0000,0000,0000,0000,0000,0000,0000,0000,0000,0000,0000,0000,0000,0000,0000,0000,0000,0000,0000,0000,0000,0000,0000,0000,0000,0000,0000,0000,0000,0000,0000,0000,0000,0000,0000,0000,0000,0000,0000,0000,0000,0000,0000,0000,0000,0000,0000,0000,0000,0000,0000,0000,0000,0000,0000,0000,0000,0000,0000,0000,0000,0000,0000,0000,0000,0000,0000,0000,0000,0000,0000,0000,0000,0000,0000,0000,0000,0000,0000,0000,0000,0000,0000,0000,0000,0000,0000,0000,0000,0000,0000,0000,0000,0000,0000,0000,0000,0000,0000,0000,0000,0000,0000,0000,0000,0000,0000,0000,0000,0000,0000,0000,0000,0000,0000,0000,0000,0000,0000,0000,0000,0000,0000,0000,0000,0000,0000,0000,0000,0000,0000,0000,0000,0000,0000,0000,0000,0000,0000,0000,0000,0000,0000,0000,0000,0000,0000,0000,0000,0000,0000,0000,0000,0000,0000,0000,0000,0000,0000,0000,0000,0000,0000,0000,0000,0000,0000,0000,0000,0000,0000,0000,0000,0000,0000,0000,0000,0000,0000,0000,0000,0000,0000,0000,0000,0000,0000,0000,0000,0000,0000,0000,0000,0000,0000,0000,0000,0000,0000,0000,0000,0000,0000,0000,0000,0000,0000,0000,0000,0000,0000,0000,0000,0000,0000,0000,0000,0000,0000,0000,0000,0000,0000,0000,0000,0000,0000,0000,0000,0000,0000,0000,0000,0000,0000,0000,0000,0000,0000,0000,0000,0000,0000,0000,0000,0000,0000,0000,0000,0000,0000,0000,0000,0000,0000,0000,0000,0000,0000,0000,0000,0000,0000,0000,0000,0000,0000,0000,0000,0000,0000,0000,0000,0000,0000,0000,0000,0000,0000,0000,0000,0000,0000,0000,0000,0000,0000,0000,0000,0000,0000,0000,0000,0000,0000,0000,0000,0000,0000,0000,0000,0000,0000,0000,0000,0000,0000,0000,0000,0000,0000,0000,0000,0000,0000,0000,0000,0000,0000,0000,0002,0202,fafe,00fc,fcfe,fefc,0000,fc00,02fe,fafc,0200,fcfa,0000,fe02,fefe,fefe,fefe,fe02,f8fe,fefc,fc00,fcfc,fefe,fefe,fefe,fe00,fefa,fcfe,0200,fefe,fefe,fe00,fefe,fefe,04fa,fcfe,fcfe,fefe,fefe,fefe,fefe,fefe,fcfe,fefc,fcfc,fefe,fefe,fefe,fe00,fefe,fcfe,fefe,fafe,fcfe,fefe,00fe,fcfe,fe00,fefe,fefe,fe00,fcfc,0000,0000,fe00,fefe,00fe,fcfe,fefe,fcfe,fcfc,fefe,0000,fefe,fefe,fefc,fcfc,fefe,fe00,fefe,fe00,fefe,fefe,00fe,fcfe,0202,0000,0000,0000,00fe,fcfe,fefe,fefe,fe00,0000,0000,0000,0000,fefe,fefe,fefe,fefe,fefe,fe00,0000,0000,fefe,00fe,fefe,fefe,fcfe,00fe,0000,00fe,00fe,fefe,00fe,fefe,fe00,00fe,fefe,fe00,fe00,fefe,fe00,fefe,fe00,0000,fe02,fe00,0000,fefe,fefe,fefe,00fe,0000,fcfc,00fe,0000,fefe,fe00,00fe,fe00,00fe,0000,00fc,00fe,00fe,0000,fe00,0000,fe00,fefe,0000,02fe,fefe,00fe,fefe,00fe,fefe,fefe,fefe,00fc,fefe,fefe,fefe,fefe,fe00,fefe,fefe,0002,fefe,fcfe,fefe,fefe,fe00,fefe,fefe,fe00,fefe,0000,fe00,0000,fefe,fefe,fefe,fefe,0000,0002,0202,0000,0000,fefe,fefe,00fe,00fe,fe00,0204,0200,0000,fefe,fe00,00fe,fefe,fefe,0004,0402,0000,0000,fe00,fefe,fefe,fefe,fefe,0002,0000,0000,00fe,fefe,0000,fefe,0002,00fe,0000,fe00,fe00,fe00,fe00,fefe,fe00,0000,fefe,fe00,00fe,00fe,00fe,fefe,fefe,fefe,fe00,fe00,fe00,0000,00fe,fefe,fefe,00fe,fe00,fefe,fe00,fe00,fefe,fefe,fe00,fe00,00fe,fefe,fefe,fefe,fefe,fefc,fefe,fe00,0004,fefe,00fe,fefe,fefe,fefe,fafc,0000,0000,fefe,fe00,fefe,fefe,fefe,00fe,fe00,0000,0000,0000,00fe,fefe,0000,fe02,fefe,00fe,fc00,f802,02fe,00fe,fe02,00fc,fe00,fe00,fc00,00fe,02fe,fcfa,fcfa,fefc,fefc,fefe,0004,0402,0204,fe00,fa00,fcfc,fcfe,00fc,fefc,fe02,0202,02fe,fe00,fe00,fefe,fefe,fefe,fcfc,00fe,fe02,fefe,fe00,0000,fe00,fe00,fe00,0202,02fc,0000,fefe,0000,00fe,0000,0000,fefe,0202,fc00,00fe,fefe,0000,0000,0000,fe00,fefe,0002,00fe,fcfe,00fe,fefe,0000,fe00,0000,0004,0000,fc00,fe00,0000,fe00,0000,fefc,00fe,fc04,fefe,fefc,0000,0000,0000,fefe,fefe,fa00,02fe,fcfc,fefe,00fe,0000,00fe,fefe,0000,0006,fe00,fcfc,fe00,fefe,0000,fefe,fefe,fafe,fefe,fc00,fefe,fefe,0000,fe00,00fe,fe00,fefe,fe00,fefe,fe00,fefe,00fe,0000,fc00,fe00,fefe,fefe,fefe,fefe,fe00,00fe,00fe,fefe,fefc,00fe,fefe,fefe,fefe,fefe,00fe,fefe,fa00,0002,00fe,fcfe,fefe,fefe,fefe,00fe,fefe,0200,0200,fefe,fefe,fefe,00fe,fe00,fefa,0002,0202,fefe,fefe,fefe,fefe,fefe,fefe,00fe,0202,00fe,fefe,fefe,00fe,fe00,fe00,0000,0000,00fc,fe00,0000,fefe,0000,fefe,00fe,00fe,fc00,0000,0000,00fe,fe00,fe00,fefe,00fe,fe00,fe04,00fe,fefe,fefe,fefe,fefe,fefe,fe00,04fc,0000,fefe,fefe,fefe,0000,0000,0002,0004,fcfa,00fe,fefe,fefe,00fe,0000,fefc,0000,f800,00fe,fefe,fefe,fefe,fefe,00fe,fe04,fe02,0000,fe00,fefe,fefe,fefe,fefe,00fc,0000,0000,fe00,00fe,fefe,fefe,fefe,0000,00fe,0202,fe02,fefe,00fe,fcfe,fefe,fefe,fefe,0002,0404,fe02,0000,fefe,fefc,fefe,00fc,00fe,0002,04fa,0200,00fe,fefe,fefe,fe00,0000,02fe,fe06,fc00,fe00,fefe,fefe,fefe,fefe,02fe,0002,0000,00fc,fefe,fcfe,0000,fefe,fc02,fc04,0202,fe00,fe02,fefe,00fe,04fe,0002,02fc,02fe,0000,0000,0000,0000,0000,0000,0000,0000,0000,0000,0000,0000,0000,0000,0000,0000,0000,0000,0000,0000,0000,0000,0000,0000,0000,0000,0000,0000,0000,0000,0000,0000,0000,0000,0000,0000,0000,0000,0000,0000,0000,0000,0000,0000,0000,0000,0000,0000,0000,0000,0000,0000,0000,0000,0000,0000,0000,0000,0000,0000,0000,0000,0000,0000,0000,0000,0000,0000,0000,0000,0000,0000,0000,0000,0000,0000,0000,0000,0000,0000,0000,0000,0000,0000,0000,0000,0000,0000,0000,0000,0000,0000,0000,0000,0000,0000,0000,0000,0000,0000,0000,0000,0000,0000,0000,0000,0000,0000,0000,0000,0000,0000,0000,0000,0000,0000,0000,0000,0000,0000,0000,0000,0000,0000,0000,0000,0000,0000,0000,0000,0000,0000,0000,0000,0000,0000,0000,0000,0000,0000,0000,0000,0000,0000,0000,0000,0000,0000,0000,0000,0000,0000,0000,0000,0000,0000,0000,0000,0000,0000,0000,0000,0000,0000,0000,0000,0000,0000,0000,0000,0000,0000,0000,0000,0000,0000,0000,0000,0000,0000,0000,0000,0000,0000,0000,0000,0000,0000,0000,0000,0000,0000,0000,0000,0000,0000,0000,0000,0000,0000,0000,0000,0000,0000,0000,0000,0000,0000,0000,0000,0000,0000,0000,0000,0000,0000,0000,0000,0000,0000,0000,0000,0000,0000,0000,0000,0000,0000,0000,0000,0000,0000,0000,0000,0000,0000,0000,0000,0000,0000,0000,0000,0000,0000,0000,0000,0000,0000,0000,0000,0000,0000,0000,0000,0000,0000,0000,0000,0000,0000,0000,0000,0000,0000,0000,0000,0000,0000,0000,0000,0000,0000,0000,0000,0000,0000,0000,0000,0000,0000,0000,0000,0000,0000,0000,0000,0000,0000,0000,0000,0000,0000,0000,0000,0000,0000,0000,0000,0000,0000,0000,0000,0000,0000,0000,0000,0000,0000,0000,0000,0000,0000,0000,0000,0000,0000,0000,0000,0000,0000,0000,0000,0000,0000,0000,0000,0000,0000,0000,0000,0000,0000,0000,0000,0000,0000,0000,0000,0000,0000,0000,0000,0000,0000,0000,0000,0000,0000,0000,0000,0000,0000,0000,0000,0000,0000,0000,0000,0000,0000,0000,0000,0000,0000,0000,0000,0000,0000,0000,0000,0000,0000,0000,0000,0000,0000,0000,0000,0000,0000,0000,0000,0000,0000,0000,0000,0000,0000,0000,0000,0000,0000,0000,0000,0000,0000,0000,0000,0000,0000,0000,0000,0000,0000,0000,0000,0000,0000,0000,0000,0000,0000,0000,0000,0000,0000,0000,0000,0000,0000,0000,0000,0000,0000,0000,0000,0000,0000,0000,0000,0000,0000,0000,0000,0000,0000,0000,0000,0000,0000,0000,0000,0000,0000,0000,0000,fc04,02fe,0a08,0202,0800,0200,0000,f2fc,fef4,02fc,0202,00f8,f800,08fc,fe00,fafa,f400,02fe,fcfe,fa02,fcfc,fef6,fc00,02fc,f8f8,fefc,fafc,00fc,fefa,fafa,fafa,fe00,f8fc,f4fc,0600,f802,fe00,fcfa,f6f6,f8fa,fafc,fe02,fc00,fcfa,fe02,fefc,faf8,f6f8,fefe,fc00,fefe,00fe,fafe,0406,fefc,fcfc,f6fa,fefe,fcfa,0000,fcfc,0202,0400,fcfa,fcf6,fefc,fcfa,f6f6,fefc,0202,0606,0202,fcfa,fcfe,fe00,f4f2,f6fa,fa00,0408,0a0a,0200,fafa,fafe,fef6,f0f2,00f8,fcfc,0604,0a08,0000,0000,02fe,f4f2,fcf8,f6fa,0000,0604,0202,0000,fc00,f8f6,f8f6,fafc,fafa,fe00,f8fa,fe00,02fe,fcf8,f6f6,f4f8,f2f4,fc00,fcf6,f8fc,0002,fafa,f6f8,f6f2,fafc,fcfa,fcfe,f2f4,0000,fefc,fafa,fafc,f4fa,00fe,fcfa,fcf4,fafc,0402,fcfc,faf6,f8f6,02fa,fa00,fe00,f2f4,0408,fcfa,0000,fafc,f4fc,0604,fefe,faf6,fc04,06fe,fcfe,fcfa,fcf6,0200,00fc,f6fc,f8fc,0c08,f6f8,fcfa,fafe,f6fc,fefc,f6f4,f6f6,0208,02f6,f2f6,f6f8,fef8,0200,0000,02fa,fafe,0602,f0ee,f6fa,f8fa,fafc,fe00,0004,fcfc,0200,fef6,f0f0,f6f4,fcfc,0402,0202,0000,fc00,0000,f2ee,f6f8,f8f8,f8f8,0200,0402,fcfe,fcfc,faf8,fafa,fcfa,f6f8,0400,0206,0000,fcfa,fcfc,f8fa,fafa,fcf6,fc02,0402,0200,fcfa,f6f8,fcfe,00fe,fe04,f8fc,0402,0000,fefc,f8f6,fafa,0002,fe00,0200,fcfc,fefe,0002,faf8,f8f6,fc00,0202,0404,fe00,fcfc,00fe,0400,fef8,fcfe,0404,0202,0402,fafc,fefc,fe00,0002,fe00,0400,0402,0406,00fc,fe00,fcfe,fcfe,0604,0202,0204,0402,0404,fafe,0000,fe00,0208,0404,0202,0804,fe00,fefe,fcfa,fefa,fefe,0808,0408,060a,0400,02fc,0200,0002,fefc,0406,0204,0804,0000,fe02,fc02,0a12,0806,0806,0c08,0806,0806,0a06,0e0c,0e04,040e,040a,0a06,0602,0608,0804,040a,0e08,0806,0c08,0404,0a08,0604,0608,0406,0c0a,080c,0408,0000,0606,0606,0606,fe04,020a,080a,0c0c,0602,0606,0804,0602,0406,0002,0404,0a12,0c02,0000,0a04,0402,0002,0000,0404,0806,0408,fa00,0206,0608,0202,0404,0806,0e0e,0610,fc00,0200,0406,0606,0002,0604,0608,060c,0e00,f600,fcfc,0202,00fc,00fe,0806,0c0e,020a,fcfc,fefe,f8f8,fe00,fcfc,0002,080a,1410,0602,0402,f8f6,f6fc,0000,fe00,0402,0c0e,060a,080a,0602,f4f8,fe00,fcf8,fe02,0608,0c0c,0a08,0a06,fcf6,fc00,0400,fefe,060c,0c0a,0a10,0608,0402,fafc,0002,fcfa,060a,0c10,0c0e,0606,0402,fcfa,fc00,0400,fe04,100e,0a08,0610,0600,02fe,fcfa,0606,fafe,0e0e,0e0a,120a,0400,fc00,fafc,fe04,0400,fe08,0a08,0810,080c,fefe,fcfe,fcfe,0608,fafc,0a08,0808,0a06,0000,fc00,fcfe,0004,06fc,fc02,0006,0806,0a08,02fc,02fe,0002,0806,f8f6,0406,0806,0a0a,0000,0206,0202,0608,02fc,fa02,0606,0402,060a,0202,0606,0402,0602,f2f4,0402,0608,0a0a,0600,0402,0406,0004,fefa,0404,060a,0a04,0a0a,0402,0402,0200,0000,fc02,0a0a,0806,0808,0404,fefe,fcfe,fe00,0004,0c0a,0a08,0808,0c06,fcfa,fcf6,fafc,0204,0808,0a0a,0606,0c0c,0404,f8fc,fafc,0004,0608,0c0a,0806,0204,1008,0602,fafe,0002,0408,0808,060a,0402,0c02,0a06,0402,0000,0602,0804,0606,0204,040a,0004,060a,0204,0804,0404,0000,0204,0204,1606,0608,0608,0602,0402,fefe,02fe,fafc,0400,0810,0a06,0806,0002,fafc,fefa,f8f6,0202,0e06,0204,0604,02fe,fcfa,fcfc,f6fa,f8fe,0c00,000e,fc0a,080a,fe00,fcfc,f8fa,f0f8,0204,0200,0000,0000,0000,0000,0000,0000,0000,0000,0000,0000,0000,0000,0000,0000,0000,0000,0000,0000,0000,0000,0000,0000,0000,0000,0000,0000,0000,0000,0000,0000,0000,0000,0000,0000,0000,0000,0000,0000,0000,0000,0000,0000,0000,0000,0000,0000,0000,0000,0000,0000,0000,0000,0000,0000,0000,0000,0000,0000,0000,0000,0000,0000,0000,0000,0000,0000,0000,0000,0000,0000,0000,0000,0000,0000,0000,0000,0000,0000,0000,0000,0000,0000,0000,0000,0000,0000,0000,0000,0000,0000,0000,0000,0000,0000,0000,0000,0000,0000,0000,0000,0000,0000,0000,0000,0000,0000,0000,0000,0000,0000,0000,0000,0000,0000,0000,0000,0000,0000,0000,0000,0000,0000,0000,0000,0000,0000,0000,0000,0000,0000,0000,0000,0000,0000,0000,0000,0000,0000,0000,0000,0000,0000,0000,0000,0000,0000,0000,0000,0000,0000,0000,0000,0000,0000,0000,0000,0000,0000,0000,0000,0000,0000,0000,0000,0000,0000,0000,0000,0000,0000,0000,0000,0000,0000,0000,0000,0000,0000,0000,0000,0000,0000,0000,0000,0000,0000,0000,0000,0000,0000,0000,0000,0000,0000,0000,0000,0000,0000,0000,0000,0000,0000,0000,0000,0000,0000,0000,0000,0000,0000,0000,0000,0000,0000,0000,0000,0000,0000,0000,0000,0000,0000,0000,0000,0000,0000,0000,0000,0000,0000,0000,0000,0000,0000,0000,0000,0000,0000,0000,0000,0000,0000,0000,0000,0000,0000,0000,0000,0000,0000,0000,0000,0000,0000,0000,0000,0000,0000,0000,0000,0000,0000,0000,0000,0000,0000,0000,0000,0000,0000,0000,0000,0000,0000,0000,0000,0000,0000,0000,0000,0000,0000,0000,0000,0000,0000,0000,0000,0000,0000,0000,0000,0000,0000,0000,0000,0000,0000,0000,0000,0000,0000,0000,0000,0000,0000,0000,0000,0000,0000,0000,0000,0000,0000,0000,0000,0000,0000,0000,0000,0000,0000,0000,0000,0000,0000,0000,0000,0000,0000,0000,0000,0000,0000,0000,0000,0000,0000,0000,0000,0000,0000,0000,0000,0000,0000,0000,0000,0000,0000,0000,0000,0000,0000,0000,0000,0000,0000,0000,0000,0000,0000,0000,0000,0000,0000,0000,0000,0000,0000,0000,0000,0000,0000,0000,0000,0000,0000,0000,0000,0000,0000,0000,0000,0000,0000,0000,0000,0000,0000,0000,0000,0000,0000,0000,0000,0000,0000,0000,0000,0000,0000,0000,0000,0000,0000,0000,0000,0000,0000,0000,0000,0000,0000,0000,0000,0000,0000,0000,0000,0000,0000,0000,0000,0000,0000,0000,0000,0000,0000,0000,0000,0000,0000,0000,0000,0000,0000,0000,0000,0000,0000,0000,0000,0000,0000,fefa,fe00,00fe,fcfc,fe06,fe00,0600,0200,08fa,f60a,0206,faf6,fe00,04fc,fafe,fe00,f400,fe02,fa02,00fe,fe00,0402,0002,0002,fafc,0204,0802,f4f8,fcf8,0604,00fc,f8f8,f6fa,fafc,fcfa,f6f8,eef0,f4f6,f4f2,f4f0,f2f2,f6f4,0200,02fc,faf4,e8e8,eeea,ecec,f0ee,f0f4,f6fc,00fe,0200,eeec,eeec,ecee,f0f2,f0f4,f8f8,fefe,0802,00f6,f8f8,f0f0,f2f8,fafa,faf8,fc00,060a,0604,00fe,fe02,fcfc,0002,fefe,0004,fef6,0e0c,1612,0c0e,0806,0606,0202,0204,0a08,0206,1214,1614,140e,0c0c,0806,0606,0608,fefa,040e,141a,1a18,1412,100a,0404,0602,0402,fc00,080c,1014,120e,1010,0402,0002,fe04,fafc,fafc,0002,0806,0608,0804,fcfe,fcfa,fefc,fcfc,f6f4,fafa,f6f6,fafc,fcfa,fcfc,fc00,f8fa,fef6,f4f4,f6f6,f4f2,fcfa,fefe,fefc,00fa,fcfe,fefa,fafa,fafc,fafc,fcfc,fefe,0202,0000,fafa,fcfc,fe00,fefc,fafa,fefe,fe06,0206,fcfe,fefc,fe00,00fe,fafc,fafe,fc00,0608,0404,fc00,fefc,00fe,fafa,fafa,fefe,0606,0404,0604,02fc,fe00,fcfc,fefe,fefc,0000,0402,fcfe,0004,fcfa,fcfe,fc00,fefe,0202,fe02,fafc,0608,fcf8,f0f2,fafe,fe00,fefc,fcfc,fef8,fe00,04fe,f4f2,f8f6,fc00,fcfe,fcfa,fefc,f4f4,0a04,f8f6,f4f8,fcfe,fcfe,fafc,fafc,faf6,fafe,0400,f6f6,fefe,fefe,fcfa,fefc,fe00,f2f6,0e10,0200,fcfc,fafc,fcfe,fcfe,fe00,f8f6,fc02,1412,0402,fefe,fcfa,fefc,fefe,fefc,f4fa,060a,0c0a,04fe,fcfc,fafc,fcfe,0200,f6f6,fcf6,0202,0808,00fe,fafc,fcfc,0000,faf8,fcfa,fc00,fc00,0406,0400,0200,0002,fefe,f8fa,fc04,fefe,fcfc,0000,fefc,0400,fe00,fafa,00fc,0602,00fc,fcfa,fefe,0404,fef8,fefe,fc02,0200,0602,0202,fe00,fe02,0006,fc04,fcfa,0000,08fe,f6f6,f0ee,faf0,fafc,fefe,0002,0212,f802,0004,f8f4,f4f0,f4f8,f8fe,f2fa,0408,00fc,0000,fefc,eef0,eeee,f4f2,f6f4,f6fc,fefc,00fe,f6fa,f4f2,eae6,e8f0,f0f0,f4f4,fa04,0000,0604,f6f6,f0ea,e8e6,f2f4,fafa,fefe,0402,0402,00fe,faf6,f4f4,f2f6,f8fc,0404,0402,0002,fe02,0204,00fa,fafc,fcfe,0404,0a0a,0c04,0002,0204,0a06,0404,0604,0608,0608,0604,fcfe,06f8,0c0a,0c0a,0e0e,0c0c,0c08,0606,00fe,0402,fc02,0a0a,0a0c,0c0c,0c0a,0402,0000,fcfc,fafa,0000,0204,0c08,0606,0402,fcf8,0400,fa04,fefc,f6fa,fafa,00fe,fc00,fcfc,fcfc,06fe,f6fa,f8f6,f4f0,f4f4,f8f8,0402,00fe,fcfe,0008,fafc,f4f6,f4f8,f8fc,0604,0604,0002,faf8,00fa,f8fa,f8fe,fefe,0206,0a0a,00fc,fcfa,0000,00fa,00fe,0604,0002,0608,0200,faf8,fcfe,f8fe,0402,0406,0002,0000,0202,fe00,f4fe,04fe,fe02,0002,0402,02fe,fefe,0602,fcfa,0200,fe04,fafa,0400,0000,fcfc,fe02,0000,fe00,fc06,faf8,eef2,fc00,00fc,fcfe,0004,06fe,fe04,fa00,ecea,f4f8,fcfc,fe00,00fe,0008,00fa,080a,f6fc,f2f8,fcfe,0000,00fe,fc00,0604,08fc,0a02,0402,0204,0402,0202,0002,0604,fefc,0604,0e0c,0e0c,0a0a,0204,0202,0000,fcfa,0602,060c,1212,0e0a,0c08,0202,fefe,02fe,fafc,04f6,0c0e,120a,0a0a,0404,fcfc,fe02,f4f8,fe02,fc06,0a0e,0606,0606,0000,fefe,fcfa,fa00,fe02,00fc,0000,0200,0000,00fe,fc02,06f4,fc02,fcf6,f8fc,f8fa,fef8,fefa,0000,00fe,f206,0208,fcfc,fef8,f6fa,f6f8,fefe,0206,00fe,fa00,00fc,f8f4,f6f6,f8fa,fefc,fe00,0000,0004,040c,fef8,fefa,fafc,f8fa,fe00,0604,0002,0404,0402,00f8,f8fe,fafe,04fe,fe00,02fe,0206,0e02,fcfe,06f8,0000,0008,0406,0208,f804,02fe,0000,0000,0000,0000,0000,0000,0000,0000,0000,0000,0000,0000,0000,0000,0000,0000,0000,0000,0000,0000,0000,0000,0000,0000,0000,0000,0000,0000,0000,0000,0000,0000,0000,0000,0000,0000,0000,0000,0000,0000,0000,0000,0000,0000,0000,0000,0000,0000,0000,0000,0000,0000,0000,0000,0000,0000,0000,0000,0000,0000,0000,0000,0000,0000,0000,0000,0000,0000,0000,0000,0000,0000,0000,0000,0000,0000,0000,0000,0000,0000,0000,0000,0000,0000,0000,0000,0000,0000,0000,0000,0000,0000,0000,0000,0000,0000,0000,0000,0000,0000,0000,0000,0000,0000,0000,0000,0000,0000,0000,0000,0000,0000,0000,0000,0000,0000,0000,0000,0000,0000,0000,0000,0000,0000,0000,0000,0000,0000,0000,0000,0000,0000,0000,0000,0000,0000,0000,0000,0000,0000,0000,0000,0000,0000,0000,0000,0000,0000,0000,0000,0000,0000,0000,0000,0000,0000,0000,0000,0000,0000,0000,0000,0000,0000,0000,0000,0000,0000,0000,0000,0000,0000,0000,0000,0000,0000,0000,0000,0000,0000,0000,0000,0000,0000,0000,0000,0000,0000,0000,0000,0000,0000,0000,0000,0000,0000,0000,0000,0000,0000,0000,0000,0000,0000,0000,0000,0000,0000,0000,0000,0000,0000,0000,0000,0000,0000,0000,0000,0000,0000,0000,0000,0000,0000,0000,0000,0000,0000,0000,0000,0000,0000,0000,0000,0000,0000,0000,0000,0000,0000,0000,0000,0000,0000,0000,0000,0000,0000,0000,0000,0000,0000,0000,0000,0000,0000,0000,0000,0000,0000,0000,0000,0000,0000,0000,0000,0000,0000,0000,0000,0000,0000,0000,0000,0000,0000,0000,0000,0000,0000,0000,0000,0000,0000,0000,0000,0000,0000,0000,0000,0000,0000,0000,0000,0000,0000,0000,0000,0000,0000,0000,0000,0000,0000,0000,0000,0000,0000,0000,0000,0000,0000,0000,0000,0000,0000,0000,0000,0000,0000,0000,0000,0000,0000,0000,0000,0000,0000,0000,0000,0000,0000,0000,0000,0000,0000,0000,0000,0000,0000,0000,0000,0000,0000,0000,0000,0000,0000,0000,0000,0000,0000,0000,0000,0000,0000,0000,0000,0000,0000,0000,0000,0000,0000,0000,0000,0000,0000,0000,0000,0000,0000,0000,0000,0000,0000,0000,0000,0000,0000,0000,0000,0000,0000,0000,0000,0000,0000,0000,0000,0000,0000,0000,0000,0000,0000,0000,0000,0000,0000,0000,0000,0000,0000,0000,0000,0000,0000,0000,0000,0000,0000,0000,0000,0000,0000,0000,0000,0000,0000,0000,0000,0000,0000,0000,0000,0000,0000,0000,0000,0000,0000,0000,0000,0000,0000,0000,0000,0000,0000,0000,0000,0000,0000,0000,0000,fe00,0202,fafe,02fa,fcfe,fcfc,0002,fc00,02fa,fa00,00fe,faf8,fefe,fe02,fefe,fcfe,fefe,fe02,fcfe,fefc,fa00,fcfe,fefe,fcfe,fefc,0000,04fe,fe00,0000,fefe,fefe,fc00,fcfe,fefe,fefe,fa00,fcfe,fefe,fcfe,fefe,fefe,fefe,fefe,0200,fefe,fcfc,fe00,fefe,fefe,fcfe,fefe,00fe,0202,fefe,fcfe,fefe,fefe,fefe,fefe,fefe,0406,0402,fefe,fe00,fefe,fefe,fefe,fcfc,0202,0406,00fe,fefe,fefe,fefe,fefe,fefe,fcfa,0204,0606,fefe,fe00,fefe,fefe,fe00,fefc,0000,0804,0000,0000,0000,fefe,fefe,fefe,fefe,fcfe,0000,0200,0000,fefe,fefe,fefe,fefe,fe00,fefe,0000,0000,00fe,fefe,fefe,fefe,fcfc,0000,fefe,0002,0200,fefe,00fe,0000,00fe,00fe,fcfc,fe00,0000,0000,fefe,fe00,00fe,00fe,0000,fefe,0000,00fe,00fe,fefe,0000,00fe,fa00,fe00,0000,fefe,00fe,00fe,fe00,00fe,fe00,fefa,fefe,fefe,fefe,fefe,fefe,0000,fefe,fe00,0200,fefc,fefe,fefe,fefe,fefe,fefe,fefe,fefa,fefe,fefc,fefe,fefc,fefe,fefe,fefe,0000,fcfc,fefc,fcfe,fefc,fefe,fefe,fefe,fe00,fcfc,fefe,fefe,fefe,fefe,fefe,fefe,fefe,00fe,0000,00fe,fefe,fefe,fefe,fefe,fefe,fe00,fe00,0002,00fe,fefe,fefc,fefe,fefe,fefe,fefe,0202,0000,fefe,fefe,fefe,fefe,fefe,fefe,fefe,0002,00fe,fefe,fefe,fefc,fefe,fefe,0002,fefe,fe00,fefe,fefe,fefe,fe00,fefe,fe00,0202,fefe,fefe,00fe,fefe,fe00,00fe,fefe,00fe,fe00,0000,fefe,00fe,fefe,fefe,fefe,00fc,fefe,00fe,fefe,fefe,fefe,fefc,fefe,fe00,00fe,00fe,fefe,fefe,fefe,fefe,fefe,fefe,0002,0000,00fe,fefe,fefe,fefe,fafe,0000,0000,0000,0000,0000,fe00,00fe,fefe,fe00,0000,0000,0000,0002,fe00,0004,fe02,0000,0000,0002,f800,00fc,fefa,fefe,fefa,fcfc,00fe,fc00,fafc,fe04,fcf6,fafc,fafc,f8fa,fcfe,fefe,00fe,02fe,fafe,f8fc,f8fa,faf8,fcf8,fefa,fafe,fe02,fefa,fafe,fafa,fcfc,fafa,fcfe,fefa,00fc,fc02,fafc,fafe,fcfc,fcfc,fefe,fcfc,fe00,00fa,fe00,0000,fefe,fafc,fefe,00fe,fafc,00fc,fcfe,0204,00fc,fcfe,fefe,0000,fefc,fcfe,fe02,fefe,0000,00fe,fcfc,fefe,fe00,00fc,fcfe,00fc,fe00,0000,fefe,00fe,0000,fefc,fafc,fc02,00fe,fefe,0000,0000,00fe,fefe,fefa,f8fe,fefe,fefc,fe00,0000,0000,00fe,00fe,fefc,fc04,fcfe,fefe,0000,00fe,fe00,fe00,fcfc,fc00,fefe,fafe,fefe,0000,fefe,0000,00fe,fafe,fcfc,fe02,fefe,fe00,fe00,0000,0000,fcfc,fc00,fcfe,fefe,fefe,fefe,00fe,00fe,fefe,fcfc,fcfc,fefe,fefe,fcfc,fcfe,fefe,fefe,fcfa,fafe,fefe,fefe,fcfc,fcfe,fefe,fefe,fefe,fefc,0202,00fe,fcfc,fcfc,fefe,fefe,fefe,fafa,00fe,0000,fefe,fefe,fefe,fefe,fefe,fcfe,fcfe,00fe,fefc,fefe,fefe,fefe,fe00,fefe,fefe,fcfc,fefe,fefe,fefe,fefc,fefe,fefe,fefc,fcfc,fe00,fe00,fefe,fefe,fefe,fefe,fefe,fefc,fcfc,fc00,fefe,fefc,fefe,fefe,fefe,fefc,fe00,06fa,00fe,fefe,fefc,fefe,fefe,fe00,fefe,0002,fcfc,fefe,fefe,fefc,fefe,fe00,00fc,fc00,fa00,fefe,fefe,fefe,fefe,fefe,fcfe,fe00,fc00,fcfe,fefe,fcfe,fefe,fefc,fefe,fcfc,0200,00fe,fc00,00fe,fefc,fcfe,fefe,fefe,02fc,0404,fafc,fc00,fefe,fcfc,fcfc,fefc,fcfe,0000,0404,fc00,0000,fefe,fcfe,fcfe,00fc,fefe,fe00,06fa,fcfe,fefc,fefe,fefe,fe00,00fe,fc00,fe06,fafe,fcfe,fe00,fe00,fe00,fefe,02fe,fcfe,0000,fefc,fcfe,fe00,0202,0000,fe02,fe02,00fe,0400,fc02,fefe,0202,0200,fe00,02fe,00fe,0000,0000,0000,0000,0000,0000,0000,0000,0000,0000,0000,0000,0000,0000,0000,0000,0000,0000,0000,0000,0000,0000,0000,0000,0000,0000,0000,0000,0000,0000,0000,0000,0000,0000,0000,0000,0000,0000,0000,0000,0000,0000,0000,0000,0000,0000,0000,0000,0000,0000,0000,0000,0000,0000,0000,0000,0000,0000,0000,0000,0000,0000,0000,0000,0000,0000,0000,0000,0000,0000,0000,0000,0000,0000,0000,0000,0000,0000,0000,0000,0000,0000,0000,0000,0000,0000,0000,0000,0000,0000,0000,0000,0000,0000,0000,0000,0000,0000,0000,0000,0000,0000,0000,0000,0000,0000,0000,0000,0000,0000,0000,0000,0000,0000,0000,0000,0000,0000,0000,0000,0000,0000,0000,0000,0000,0000,0000,0000,0000,0000,0000,0000,0000,0000,0000,0000,0000,0000,0000,0000,0000,0000,0000,0000,0000,0000,0000,0000,0000,0000,0000,0000,0000,0000,0000,0000,0000,0000,0000,0000,0000,0000,0000,0000,0000,0000,0000,0000,0000,0000,0000,0000,0000,0000,0000,0000,0000,0000,0000,0000,0000,0000,0000,0000,0000,0000,0000,0000,0000,0000,0000,0000,0000,0000,0000,0000,0000,0000,0000,0000,0000,0000,0000,0000,0000,0000,0000,0000,0000,0000,0000,0000,0000,0000,0000,0000,0000,0000,0000,0000,0000,0000,0000,0000,0000,0000,0000,0000,0000,0000,0000,0000,0000,0000,0000,0000,0000,0000,0000,0000,0000,0000,0000,0000,0000,0000,0000,0000,0000,0000,0000,0000,0000,0000,0000,0000,0000,0000,0000,0000,0000,0000,0000,0000,0000,0000,0000,0000,0000,0000,0000,0000,0000,0000,0000,0000,0000,0000,0000,0000,0000,0000,0000,0000,0000,0000,0000,0000,0000,0000,0000,0000,0000,0000,0000,0000,0000,0000,0000,0000,0000,0000,0000,0000,0000,0000,0000,0000,0000,0000,0000,0000,0000,0000,0000,0000,0000,0000,0000,0000,0000,0000,0000,0000,0000,0000,0000,0000,0000,0000,0000,0000,0000,0000,0000,0000,0000,0000,0000,0000,0000,0000,0000,0000,0000,0000,0000,0000,0000,0000,0000,0000,0000,0000,0000,0000,0000,0000,0000,0000,0000,0000,0000,0000,0000,0000,0000,0000,0000,0000,0000,0000,0000,0000,0000,0000,0000,0000,0000,0000,0000,0000,0000,0000,0000,0000,0000,0000,0000,0000,0000,0000,0000,0000,0000,0000,0000,0000,0000,0000,0000,0000,0000,0000,0000,0000,0000,0000,0000,0000,0000,0000,0000,0000,0000,0000,0000,0000,0000,0000,0000,0000,0000,0000,0000,0000,0000,0000,0000,0000,0000,0000,0000,0000,0000,0000,0000,0000,0000,0000,0000,0000,0000,0000,0000,0000,0000,0204,fcfe,00fe,00fe,fefc,0000,fe00,04fa,fa00,0000,fefc,0200,0000,fefe,fefe,fefe,0202,f8fe,0200,0002,fefe,00fe,fefe,fefe,0000,04fc,0000,0402,00fe,fefe,fe00,fefe,fefe,02fc,fe02,fe00,fefe,fefe,fefe,fe00,fefe,fefe,0200,fefe,fefe,fefe,fefe,0000,fefe,fefe,00fe,fe00,fe00,fcfe,fefe,fefe,fefe,fefe,fefe,0002,0000,0000,00fe,fefe,fefe,fefe,fcfe,fe00,0000,fefe,00fe,fefe,fefe,fefe,fefe,fcfc,fe00,0202,fefe,00fe,fefc,fefe,fefe,fcfc,0002,0200,fe00,fe00,fefe,fcfe,fefe,fefe,fefe,0000,02fe,00fe,fefe,fefe,fefe,fefe,fefc,fe00,fefe,0200,0000,00fe,fefe,fefe,fefe,fcfc,fe00,0000,fefe,00fe,fefe,fefe,fefe,fefe,00fe,00fe,fe00,fe00,fefe,fefe,fefe,fefe,00fe,fefe,00fe,fefe,fefe,fefe,fefe,fefe,fe00,fafe,0000,fefe,fefe,fefe,fefe,fefe,00fe,fefe,00fa,fefe,fefe,fefe,fefe,fe00,fefe,fefe,fe00,02fe,fefc,fefe,fefe,fefe,fefe,fefe,fe00,00fc,fcfe,fcfc,fefe,fefe,fefe,0000,fefe,0000,fcfc,fcfc,fefe,fefe,fefe,fefe,fe00,fefe,fefe,fefe,fefe,fe00,fefe,fefe,fefe,fefe,00fe,0000,00fe,fefe,00fe,fefe,fefe,fefe,fefe,0000,fe00,00fe,fe00,fefe,fefe,0000,fefe,fefe,0002,0000,00fe,fe00,fefe,fefe,00fe,fefe,fefe,0000,00fe,fefe,fefe,fefe,00fe,fefe,0000,0000,fe00,fefe,fefe,fefe,fe00,fefe,fefe,0200,fefe,00fe,00fe,fefe,fefe,fefe,fefe,00fe,0000,0000,fe00,fefe,00fc,fefe,fefe,00fc,fefe,00fe,fe00,fefe,fefe,fefe,fe00,fe00,00fe,fefe,fefe,fefe,fefe,fefc,fefe,fefe,00fe,fefe,00fe,fefe,fcfc,fefe,fafc,fe00,0000,00fe,fefe,fefe,fe00,fefe,00fc,0000,0000,0200,fe00,fe00,fe00,0000,fe02,fe00,fefe,0002,f8fe,02fe,fefc,fefe,fefc,fa00,0200,fc00,fefc,0000,fafa,fafc,fafc,fafc,fefe,fe00,0202,0002,fafe,fafe,fafc,fafc,00fa,fefa,fe00,fe02,fcfc,fa00,fcfc,fefe,fcfc,fc00,fcfa,00fc,fc00,fafc,fcfe,fefe,fcfe,fe00,fcfc,fe00,04fc,fe00,fefe,fe00,fefc,00fe,00fe,fcfc,fefc,fcfe,fefe,fefe,00fe,fefe,0000,fcfc,fafc,fe02,fcfc,fefe,0000,fefc,fe00,fefe,00fe,fcfc,00fe,fe00,0000,00fe,fefe,fefe,fefc,fefa,fc02,00fe,fefe,0000,fefe,fefe,fefe,fefc,f8fe,fefc,fefc,fefe,fefe,fefe,fefe,00fe,0000,fc06,fefe,fefe,fefe,fefe,fe00,fefe,fcfc,fafc,fefe,fc00,fefe,fefe,fefe,fcfe,00fe,fcfc,fcfc,fe00,fefe,fefe,fcfe,fefe,fcfe,fafc,fc00,fcfc,fefe,fefe,fefe,fefe,fefe,fefc,fefc,fefc,fcfe,fefe,fefc,fefe,fefe,fefe,fcfc,fafe,fefe,fcfe,fefe,fcfe,fefe,fefc,fefe,fcfc,0200,00fe,fefc,fefc,fefe,fefc,fefe,fafa,0000,fe02,fefe,fefe,fefe,fefe,fefc,fcfe,fafc,00fe,fcfe,fefc,fefe,fefe,fefe,fefe,fefe,fcfc,00fe,fefe,fefe,fefe,fefe,fefe,fefc,fcfc,fc00,fe00,fe00,fefe,fefe,fefe,fefe,fefe,fefc,fa02,fefe,fefe,fefe,fefe,fefe,fefe,fc00,04fc,00fc,fefe,fefe,fefe,fefe,fefe,0000,fe04,fafc,fefe,fefc,fefe,fefe,fe00,fefc,fcfe,fcfe,00fe,fefe,fefe,fefe,fefe,fefe,fe00,fe00,fcfe,fefe,fefe,fefe,fefe,fefe,fefc,0202,fe02,fc00,fefe,fefe,fefe,fefc,0000,fefe,0404,fc00,fc00,fefe,fcfe,fefe,00fc,fcfe,0002,0406,fefe,fefe,fefe,fcfe,fefe,fefc,fefc,0000,00f8,fefc,fefc,fefe,fefe,0000,0000,fe00,fe04,f6fa,fcfe,fcfe,fefe,fefe,fefe,02fc,fcfc,fa00,faf8,fafc,fcfe,0000,fefe,fc02,fe02,0200,00fa,fa00,fcfe,0000,0000,fe00,02fc,00fe,0000,0000,0000,0000,0000,0000,0000,0000,0000,0000,0000,0000,0000,0000,0000,0000,0000,0000,0000,0000,0000,0000,0000,0000,0000,0000,0000,0000,0000,0000,0000,0000,0000,0000,0000,0000,0000,0000,0000,0000,0000,0000,0000,0000,0000,0000,0000,0000,0000,0000,0000,0000,0000,0000,0000,0000,0000,0000,0000,0000,0000,0000,0000,0000,0000,0000,0000,0000,0000,0000,0000,0000,0000,0000,0000,0000,0000,0000,0000,0000,0000,0000,0000,0000,0000,0000,0000,0000,0000,0000,0000,0000,0000,0000,0000,0000,0000,0000,0000,0000,0000,0000,0000,0000,0000,0000,0000,0000,0000,0000,0000,0000,0000,0000,0000,0000,0000,0000,0000,0000,0000,0000,0000,0000,0000,0000,0000,0000,0000,0000,0000,0000,0000,0000,0000,0000,0000,0000,0000,0000,0000,0000,0000,0000,0000,0000,0000,0000,0000,0000,0000,0000,0000,0000,0000,0000,0000,0000,0000,0000,0000,0000,0000,0000,0000,0000,0000,0000,0000,0000,0000,0000,0000,0000,0000,0000,0000,0000,0000,0000,0000,0000,0000,0000,0000,0000,0000,0000,0000,0000,0000,0000,0000,0000,0000,0000,0000,0000,0000,0000,0000,0000,0000,0000,0000,0000,0000,0000,0000,0000,0000,0000,0000,0000,0000,0000,0000,0000,0000,0000,0000,0000,0000,0000,0000,0000,0000,0000,0000,0000,0000,0000,0000,0000,0000,0000,0000,0000,0000,0000,0000,0000,0000,0000,0000,0000,0000,0000,0000,0000,0000,0000,0000,0000,0000,0000,0000,0000,0000,0000,0000,0000,0000,0000,0000,0000,0000,0000,0000,0000,0000,0000,0000,0000,0000,0000,0000,0000,0000,0000,0000,0000,0000,0000,0000,0000,0000,0000,0000,0000,0000,0000,0000,0000,0000,0000,0000,0000,0000,0000,0000,0000,0000,0000,0000,0000,0000,0000,0000,0000,0000,0000,0000,0000,0000,0000,0000,0000,0000,0000,0000,0000,0000,0000,0000,0000,0000,0000,0000,0000,0000,0000,0000,0000,0000,0000,0000,0000,0000,0000,0000,0000,0000,0000,0000,0000,0000,0000,0000,0000,0000,0000,0000,0000,0000,0000,0000,0000,0000,0000,0000,0000,0000,0000,0000,0000,0000,0000,0000,0000,0000,0000,0000,0000,0000,0000,0000,0000,0000,0000,0000,0000,0000,0000,0000,0000,0000,0000,0000,0000,0000,0000,0000,0000,0000,0000,0000,0000,0000,0000,0000,0000,0000,0000,0000,0000,0000,0000,0000,0000,0000,0000,0000,0000,0000,0000,0000,0000,0000,0000,0000,0000,0000,0000,0000,0000,0000,0000,0000,0000,0000,0000,0000,0000,0000,0000,0000,0000,0000,0000,0000,0000,0000,0000,0000,0000,fe02,0202,fafe,04fe,fe00,fefc,0002,fe00,04fc,f800,fe00,fefc,00fe,0200,0000,fefe,fcfe,fe02,f6fe,00fe,fefe,0000,fefe,fefe,fefe,0200,fefa,fefc,0200,fe00,fefe,fe00,fefe,fcfe,02fc,fcfe,fc00,fefe,fefe,fefe,0000,fefc,fefe,fefc,fcfc,0000,fefe,00fe,0000,00fe,fefe,fcfe,fcfe,fefe,fefe,0000,fefe,0000,fefe,fefe,fe00,fefe,0200,0000,0000,fefe,00fe,fcfe,fefe,fefe,fefe,0000,0000,fefe,00fe,fefc,fcfa,fefe,0204,0000,0000,0000,fe00,00fe,fefc,0000,0602,0200,0202,0000,fe00,0000,fefe,fefe,fc00,0000,00fe,0000,fefe,0000,fefe,fcfe,fe02,fefe,0000,0000,0000,fefe,fefe,fefe,fefe,0202,00fe,00fe,0000,0000,fefe,fefe,fe00,0000,fefe,fe00,fe00,0000,fefe,fefe,fe00,0000,fe00,fefe,fefe,fefe,fefe,fefe,00fe,00fe,fcfe,00fe,fefe,fefe,fe00,00fe,0000,fefe,00fe,00fc,fcfc,fefe,fefe,fefe,00fe,0000,fefe,0002,02fe,fefc,fefe,fefe,fefe,fefe,00fe,fe00,fefa,fcfe,fcfe,fefe,fefe,fe00,fefe,00fe,0002,fcfa,fcfc,fefe,fefe,fefe,fe00,0000,00fe,fcfc,fc00,fe00,0000,fefe,fefe,0000,fefe,00fe,0002,0200,fe00,0000,fefe,fefe,00fe,00fe,fefe,0002,0000,00fe,fefe,fefe,fe00,fefe,fefc,fe00,0000,0000,00fe,00fe,fe00,00fe,fefe,fefe,fe02,0000,0000,fefe,fefe,0000,fefe,0002,0000,0002,fe00,0000,00fe,0000,fefe,fefe,0202,0200,00fe,0000,0000,00fe,0000,fefe,00fe,0000,0002,fe00,0000,0000,fe00,fefe,00fa,fefe,00fe,0000,fefe,00fe,00fe,fe00,fe00,00fe,fefe,fe00,0000,0000,00fe,fe00,fefe,0004,fefe,00fe,00fe,fefe,fefe,fafe,fe00,0000,00fe,fefe,fefe,0000,0000,fefe,fefe,0000,0000,0000,fe00,fefe,0000,fe02,fefe,fe00,fe02,f804,02fc,00fc,fc00,fefc,fcfe,0000,fc02,00fc,0202,fcfc,00fc,fcfe,fafc,fefe,0002,0400,0202,fc00,fafe,fefc,fcfc,fefa,fefc,0202,0000,02fe,fc00,fcfe,fcfc,fcfc,fcfe,fcfc,fefe,fc04,fcfc,fc00,fefe,fcfe,fefe,fefe,0200,02fc,00fe,fefc,fe00,fefe,0000,0200,fefe,02fe,fcfe,0000,00fc,fefe,0000,0202,00fe,fc00,0006,fe00,fe00,0000,00fe,0202,0000,fefe,0000,0000,0002,0202,0000,0000,0000,fefc,fefe,fe02,00fe,0000,0002,0000,0000,0000,fefc,fa00,02fe,00fe,0000,0000,0000,0000,00fe,02fe,0008,0000,fefe,fe00,0000,0000,0000,fefc,fe00,fefe,fc00,fefe,0000,0000,00fe,fefe,fafe,0000,fe00,fefe,fefe,fefe,fefe,0000,fcfe,fe00,fefe,fcfe,fcfe,fefe,fe00,0000,fefe,fe00,fcfe,fefe,fefe,fefe,00fe,fe00,fefe,fcfc,fe00,0200,fefe,fcfe,fe00,fefe,00fe,0000,fe00,0404,fefe,fefe,fefe,fefe,00fe,fe00,fcfa,0400,0002,fefe,00fe,fefe,00fe,fefe,fefe,0000,fe00,fefe,fefe,00fe,0000,0000,0000,0200,0000,00fc,fefe,0000,fe00,fe00,fe00,00fe,00fa,fc02,fe00,0000,0000,fe00,0000,0000,0002,fefe,fe02,00fe,0000,0000,0000,0000,0000,0002,06f8,0000,fefe,fefe,fe00,0000,0000,0002,fe04,fefe,fefe,00fe,fefe,0000,0000,00fe,fefe,fcfe,0000,0000,fefe,fe00,0000,0000,fe02,0000,0000,fe00,fefe,fe00,fe00,00fe,00fe,0000,0002,fc02,0000,fe00,fefe,0000,0000,00fc,0604,fa02,0000,00fe,fefe,fefe,00fe,fefe,0002,0404,0002,0000,00fe,fefe,0000,02fe,00fe,fe04,04fe,00fe,fefe,0000,00fe,0200,0000,fe00,0006,fafe,0000,fefe,0000,0200,00fe,02fe,0000,0204,00fc,fc00,0000,0202,fe00,0002,fe04,04fe,0000,0002,fe00,0202,0200,0002,04fe,02fe,0000,0000,0000,0000,0000,0000,0000,0000,0000,0000,0000,0000,0000,0000,0000,0000,0000,0000,0000,0000,0000,0000,0000,0000,0000,0000,0000,0000,0000,0000,0000,0000,0000,0000,0000,0000,0000,0000,0000,0000,0000,0000,0000,0000,0000,0000,0000,0000,0000,0000,0000,0000,0000,0000,0000,0000,0000,0000,0000,0000,0000,0000,0000,0000,0000,0000,0000,0000,0000,0000,0000,0000,0000,0000,0000,0000,0000,0000,0000,0000,0000,0000,0000,0000,0000,0000,0000,0000,0000,0000,0000,0000,0000,0000,0000,0000,0000,0000,0000,0000,0000,0000,0000,0000,0000,0000,0000,0000,0000,0000,0000,0000,0000,0000,0000,0000,0000,0000,0000,0000,0000,0000,0000,0000,0000,0000,0000,0000,0000,0000,0000,0000,0000,0000,0000,0000,0000,0000,0000,0000,0000,0000,0000,0000,0000,0000,0000,0000,0000,0000,0000,0000,0000,0000,0000,0000,0000,0000,0000,0000,0000,0000,0000,0000,0000,0000,0000,0000,0000,0000,0000,0000,0000,0000,0000,0000,0000,0000,0000,0000,0000,0000,0000,0000,0000,0000,0000,0000,0000,0000,0000,0000,0000,0000,0000,0000,0000,0000,0000,0000,0000,0000,0000,0000,0000,0000,0000,0000,0000,0000,0000,0000,0000,0000,0000,0000,0000,0000,0000,0000,0000,0000,0000,0000,0000,0000,0000,0000,0000,0000,0000,0000,0000,0000,0000,0000,0000,0000,0000,0000,0000,0000,0000,0000,0000,0000,0000,0000,0000,0000,0000,0000,0000,0000,0000,0000,0000,0000,0000,0000,0000,0000,0000,0000,0000,0000,0000,0000,0000,0000,0000,0000,0000,0000,0000,0000,0000,0000,0000,0000,0000,0000,0000,0000,0000,0000,0000,0000,0000,0000,0000,0000,0000,0000,0000,0000,0000,0000,0000,0000,0000,0000,0000,0000,0000,0000,0000,0000,0000,0000,0000,0000,0000,0000,0000,0000,0000,0000,0000,0000,0000,0000,0000,0000,0000,0000,0000,0000,0000,0000,0000,0000,0000,0000,0000,0000,0000,0000,0000,0000,0000,0000,0000,0000,0000,0000,0000,0000,0000,0000,0000,0000,0000,0000,0000,0000,0000,0000,0000,0000,0000,0000,0000,0000,0000,0000,0000,0000,0000,0000,0000,0000,0000,0000,0000,0000,0000,0000,0000,0000,0000,0000,0000,0000,0000,0000,0000,0000,0000,0000,0000,0000,0000,0000,0000,0000,0000,0000,0000,0000,0000,0000,0000,0000,0000,0000,0000,0000,0000,0000,0000,0000,0000,0000,0000,0000,0000,0000,0000,0000,0000,0000,0000,0000,0000,0000,0000,0000,0000,0000,0000,0000,0000,0000,0000,0000,0000,0000,0000,0000,0000,0000,0000,0000,0000,0000,0206,0002,f602,f8fe,fcf8,f8f8,0402,f802,04fc,f800,fc00,02fa,fc00,fcf8,fe02,00f8,0606,0202,fafe,f6fc,0000,02fe,fefe,0402,fcfa,0000,0200,f8fc,0406,0202,0202,0604,fe02,fefc,0404,0000,02fe,0402,0202,0208,0404,fefc,00fc,00fc,fa06,0402,0002,fe02,0806,0200,fafa,0606,00fc,fefe,0000,fcfa,0004,0406,fe02,fafc,02fe,fafe,faf8,0200,0000,0808,0002,fcfa,0202,0200,02f8,fe00,fc02,0406,0200,00fe,fefc,0204,fefe,f8fe,00fe,0004,02fa,fefe,fefe,faf8,06fe,f8f6,0808,0202,0802,f6fa,fefc,fc00,fcfa,fa00,0206,0604,0402,fcf8,fe02,0000,fc00,fefe,f8fa,0404,0200,0000,f6f8,0400,fcfc,06f6,f6fa,fc02,0204,02fe,f6f8,0208,fefe,0000,00f8,fafe,0604,0400,f6f6,fafe,02fe,fcfe,02fa,f6fa,0002,0002,faf4,fafe,0604,fcfc,0afe,f6f4,fcfe,0402,fcfa,f4f8,0202,fcfa,fcfc,fef6,f2f8,0202,fcfa,f6f6,0000,02fa,fafc,fe02,f8fc,f6fa,fefe,fefc,fe04,0002,f6fa,fefc,0400,fcfa,fafa,fcfc,0000,fefa,f8f6,fafc,fefc,0000,0000,fcfe,0404,02fe,f2f4,fafa,fafe,fcfe,0202,00fe,0404,0404,f2f0,f6fa,fafc,fcf6,fcfe,0406,0204,0404,faf4,f2f4,fefe,fefc,f4f6,0004,0202,0402,fcfa,f2f0,f8fc,fefe,fef8,f8f6,fe00,0404,0200,f4f4,f4f6,fefe,00fe,fafc,fcfe,0002,0200,f6f4,fafa,fefe,fe00,fefa,02fc,fefe,fefe,faf8,fafc,fafc,fcfc,fcfc,fcfe,fefe,fefe,fcfc,fcfe,fafa,fefe,fcfe,f8f6,0002,0000,00fe,fefe,0000,fcfe,fafa,fef4,fe02,00fe,fefe,fe00,0202,fc00,fefa,fc00,f8f8,00fe,fefe,fcfe,0002,00fe,fefe,fcfc,00fe,fe00,00fe,fe00,0000,0200,fcfc,fefc,0000,fef8,0406,00fe,fe00,fc02,fe00,00fe,0000,0000,fc02,0402,fc00,fe00,fefc,fcfc,0002,0002,0002,0806,0000,0802,0400,0604,0008,0202,020a,0c02,fcfe,0a0c,0808,0002,0c0c,04fe,0002,12fc,0202,0604,0608,0202,0808,0800,0006,0608,0600,fe04,0206,0602,0808,080a,0208,000a,060e,fefa,00fe,0204,0204,0c0a,0a08,0a06,0208,fe00,0002,fc00,0000,060c,0606,0408,0608,0808,0400,f6f6,0402,0002,0604,0606,0406,0a02,fe06,f6f8,fe04,0002,0404,f8f4,0002,02fe,0400,fefe,f6fc,0604,0404,00fe,f2f8,0606,0608,0602,f6f8,0606,0806,0000,f6f4,f600,0004,0202,0000,fe02,0206,0202,fc00,f8f8,0008,0202,0200,f6fc,0402,0402,fafa,fefe,f8fa,0e08,0004,fef8,0404,0404,fefa,fefe,0402,fc04,0c0c,0600,f8fc,0406,00fe,faf8,0406,00f8,06fe,0604,fcf8,0406,0400,f8fa,fe00,0000,fe04,0afc,0402,fe00,0200,fcfc,fe00,02fe,00fc,0408,0a02,0404,0000,fefc,fcfc,0002,faf8,fcf4,fc06,0404,0202,fefc,fefe,fe02,00f6,f8fe,fcfa,0004,0608,0200,fe00,0202,fefc,f4f6,fe08,0404,0006,0002,fefe,0404,fef8,f2f0,fcf8,fefe,fefc,0000,0202,0202,0200,f4f2,f800,0202,0404,f8fc,fc00,00fe,0404,faf8,f0f6,04fe,0404,02fe,faf8,0000,0002,0200,f8f8,fefc,04fc,0202,0000,fcfc,fefc,0404,fcf8,fcfe,0200,fefe,00fc,00fa,fcfc,fc00,0000,fcfc,fcfc,0c0a,0808,fc00,fcfe,fafc,fefe,02fc,fafc,0000,0604,04fc,fefe,fefc,0000,fc02,fcfe,0204,0202,0204,fe06,fefe,0000,fe02,0400,fefc,02fe,0400,fe04,0000,fe00,0402,0602,0400,0800,0202,0406,02fe,0200,0404,0606,0404,fefc,0200,0004,0a02,0004,0604,0606,0604,0002,0004,0802,0004,0000,0406,0406,0202,0808,0600,04fe,0402,0002,0202,0602,0202,fc02,000a,0404,000a,0602,0a08,0a08,0406,fe00,0000,0408,fc08,fe02,0000,0000,0000,0000,0000,0000,0000,0000,0000,0000,0000,0000,0000,0000,0000,0000,0000,0000,0000,0000,0000,0000,0000,0000,0000,0000,0000,0000,0000,0000,0000,0000,0000,0000,0000,0000,0000,0000,0000,0000,0000,0000,0000,0000,0000,0000,0000,0000,0000,0000,0000,0000,0000,0000,0000,0000,0000,0000,0000,0000,0000,0000,0000,0000,0000,0000,0000,0000,0000,0000,0000,0000,0000,0000,0000,0000,0000,0000,0000,0000,0000,0000,0000,0000,0000,0000,0000,0000,0000,0000,0000,0000,0000,0000,0000,0000,0000,0000,0000,0000,0000,0000,0000,0000,0000,0000,0000,0000,0000,0000,0000,0000,0000,0000,0000,0000,0000,0000,0000,0000,0000,0000,0000,0000,0000,0000,0000,0000,0000,0000,0000,0000,0000,0000,0000,0000,0000,0000,0000,0000,0000,0000,0000,0000,0000,0000,0000,0000,0000,0000,0000,0000,0000,0000,0000,0000,0000,0000,0000,0000,0000,0000,0000,0000,0000,0000,0000,0000,0000,0000,0000,0000,0000,0000,0000,0000,0000,0000,0000,0000,0000,0000,0000,0000,0000,0000,0000,0000,0000,0000,0000,0000,0000,0000,0000,0000,0000,0000,0000,0000,0000,0000,0000,0000,0000,0000,0000,0000,0000,0000,0000,0000,0000,0000,0000,0000,0000,0000,0000,0000,0000,0000,0000,0000,0000,0000,0000,0000,0000,0000,0000,0000,0000,0000,0000,0000,0000,0000,0000,0000,0000,0000,0000,0000,0000,0000,0000,0000,0000,0000,0000,0000,0000,0000,0000,0000,0000,0000,0000,0000,0000,0000,0000,0000,0000,0000,0000,0000,0000,0000,0000,0000,0000,0000,0000,0000,0000,0000,0000,0000,0000,0000,0000,0000,0000,0000,0000,0000,0000,0000,0000,0000,0000,0000,0000,0000,0000,0000,0000,0000,0000,0000,0000,0000,0000,0000,0000,0000,0000,0000,0000,0000,0000,0000,0000,0000,0000,0000,0000,0000,0000,0000,0000,0000,0000,0000,0000,0000,0000,0000,0000,0000,0000,0000,0000,0000,0000,0000,0000,0000,0000,0000,0000,0000,0000,0000,0000,0000,0000,0000,0000,0000,0000,0000,0000,0000,0000,0000,0000,0000,0000,0000,0000,0000,0000,0000,0000,0000,0000,0000,0000,0000,0000,0000,0000,0000,0000,0000,0000,0000,0000,0000,0000,0000,0000,0000,0000,0000,0000,0000,0000,0000,0000,0000,0000,0000,0000,0000,0000,0000,0000,0000,0000,0000,0000,0000,0000,0000,0000,0000,0000,0000,0000,0000,0000,0000,0000,0000,0000,0000,0000,0000,0000,0000,0000,0000,0000,0000,0000,0000,0000,0000,0000,0000,0000,0000,0000,0000,0000,0000,0000,0000,0000,0000,0000,0000,0004,0202,fcfe,04fe,0000,fefc,0002,fc00,02fa,f8fe,fe00,fcfa,0000,0000,fe00,fefe,fefe,0000,f6fe,00fe,fcfe,fefe,00fe,fcfe,fcfe,0200,00fa,00fe,0000,fefe,fefe,fe00,fefe,fcfc,02fc,fc00,fafe,fcfe,fefe,fefe,fefe,fefc,fcfe,00fe,fcfc,fefe,fefe,fefe,fe00,fefe,fefe,fefc,0000,fefe,fcfc,00fe,fefe,fefe,fefe,fefe,0202,0002,0000,fe00,fefe,fcfe,fefe,fcfc,0000,0000,fcfc,fefe,fefe,fefe,fefe,fefc,fcfa,fe00,0202,fefe,0000,fefc,fefe,fefe,fcfc,fefe,0200,00fe,fe00,fefe,fcfe,fefe,fefc,fefc,fcfe,fefc,fefe,0000,fefe,fefe,fefe,fcfc,fe00,fefc,0000,00fe,fefe,fefe,fefe,fefc,fcfc,fe00,00fe,0000,00fe,fefe,fefe,fefe,fefe,fefe,00fc,fe00,fefe,fefe,fefe,fefe,fefe,0000,fc00,fefe,fefe,fefe,fefe,fefe,fefe,fe00,fcfe,fefe,fefc,fefe,fefe,fefe,fe00,fefe,fe00,00fc,fcfc,fcfc,fefe,fefe,fe00,fefe,fefe,fefe,00fc,fcfa,fefe,fefe,fefe,fefe,fefe,fe00,fefc,fcfc,fcfc,fefe,fefe,fefe,00fe,00fe,0000,fcfc,fcfc,fefe,fefe,fefe,fefe,00fe,fe00,fefe,fcfe,fefe,0000,fefe,fefe,fe00,fefe,fefe,0002,0000,fefe,0000,fefe,fefe,fe00,fefe,0000,0002,0000,fefe,fefe,fefe,0000,fefe,fefe,0000,0002,0000,fefe,fefe,fefe,00fe,fefe,fefe,0002,0000,fe00,fefe,fefe,fe00,fefe,0004,0000,0002,00fe,00fe,fefe,fefe,fefe,fefe,0402,0000,0000,00fe,fefe,fefe,fefe,fe00,02fe,0002,0200,0000,00fe,fefe,fefe,fefe,00fa,fefe,0000,fefe,fefe,fefe,fefc,fefe,0000,00fe,00fe,fefe,fefe,fefe,fefc,fefe,fefe,0002,fefe,00fe,fefe,fefe,fefe,fafc,fe00,0000,00fe,fefe,fefe,fe00,fefe,00fe,00fe,fe00,0002,0000,00fe,fe00,fe00,fe02,fefe,00fe,fe00,f800,02fc,00fa,fefe,00fc,fa00,00fe,fc00,fefc,0002,fcfa,fcfe,fcfc,fafc,fcfe,fefe,0200,0200,fafe,fafc,fcfc,fafc,00fa,fefe,fe00,fe00,fefa,fcfe,fcfe,fcfc,fafc,fcfe,fcfa,fefe,fa02,fcfc,fe00,0000,fcfc,fe00,fcfc,fefe,02fc,fe00,0000,0202,fcfe,fefe,00fe,fcfe,fefc,fc00,0000,00fe,0000,fefe,0000,fefe,fefc,fe00,fefe,fe00,0200,fefc,fe00,fe00,00fe,fcfc,00fe,fe00,0002,00fe,0000,0000,fefc,fefc,fc02,00fc,fefe,0002,fefe,0000,fefe,fefc,f8fe,00fc,fefc,fefe,00fe,00fe,00fe,00fc,00fe,fc04,fefe,fcfe,fe00,fefe,fe00,fefe,fcfc,fcfc,fefe,fcfe,fefe,fefe,fefe,fefe,00fe,fcfc,fef8,fe00,fefe,fefe,fefe,fefe,fefe,fafc,fc00,fcfc,fcfe,fefe,fefe,fefe,fefe,fefc,fefe,fcfc,fcfe,fefe,fcfc,fefe,fefe,fefe,fcfa,f8fe,fefe,fefe,fcfc,fcfc,fefe,fefc,fefc,fefe,0000,0000,fefc,fcfc,fefe,fefc,fefe,fcfa,fe00,fe02,fefe,fefc,fefe,fefe,fcfe,fcfe,fcfc,fcfe,fefc,fefe,fefe,fefe,fefe,fe00,fe00,fefe,00fa,fefe,00fe,fefe,fefe,fefe,fefc,fefa,fa00,fe00,fe00,fefe,fefe,fefe,fefe,fefe,fefc,fc02,fefc,fefc,00fe,fefe,fefe,fefe,fe00,06f8,00fe,fefe,fefe,fefe,fefe,fefe,fefe,fc06,fcfe,fcfc,fcfc,fefe,fefe,fefe,fefa,fcfe,fafc,fefe,fefc,fefe,fefe,fe00,fefe,fe00,0000,fefe,fefe,fefe,fefe,fefe,fefe,fefc,0004,fe00,fc00,fefe,fefe,fefe,fefe,00fe,00fa,0402,fa00,fe00,fefe,fcfe,fcfe,fefc,fafe,0000,0406,fe00,fefe,fefe,fefe,fe00,fefc,fefe,0000,02fa,fefe,fefe,fefc,fefc,0000,00fe,fc00,fe06,fafe,fe00,fcfe,fefe,0000,fcfe,02fe,fefe,0002,fcfc,fcfc,fefe,0000,fefe,fe02,fe02,00fe,02fc,fc00,fcfe,fe00,fefe,0000,02fc,00fe,0000,0000,0000,0000,0000,0000,0000,0000,0000,0000,0000,0000,0000,0000,0000,0000,0000,0000,0000,0000,0000,0000,0000,0000,0000,0000,0000,0000,0000,0000,0000,0000,0000,0000,0000,0000,0000,0000,0000,0000,0000,0000,0000,0000,0000,0000,0000,0000,0000,0000,0000,0000,0000,0000,0000,0000,0000,0000,0000,0000,0000,0000,0000,0000,0000,0000,0000,0000,0000,0000,0000,0000,0000,0000,0000,0000,0000,0000,0000,0000,0000,0000,0000,0000,0000,0000,0000,0000,0000,0000,0000,0000,0000,0000,0000,0000,0000,0000,0000,0000,0000,0000,0000,0000,0000,0000,0000,0000,0000,0000,0000,0000,0000,0000,0000,0000,0000,0000,0000,0000,0000,0000,0000,0000,0000,0000,0000,0000,0000,0000,0000,0000,0000,0000,0000,0000,0000,0000,0000,0000,0000,0000,0000,0000,0000,0000,0000,0000,0000,0000,0000,0000,0000,0000,0000,0000,0000,0000,0000,0000,0000,0000,0000,0000,0000,0000,0000,0000,0000,0000,0000,0000,0000,0000,0000,0000,0000,0000,0000,0000,0000,0000,0000,0000,0000,0000,0000,0000,0000,0000,0000,0000,0000,0000,0000,0000,0000,0000,0000,0000,0000,0000,0000,0000,0000,0000,0000,0000,0000,0000,0000,0000,0000,0000,0000,0000,0000,0000,0000,0000,0000,0000,0000,0000,0000,0000,0000,0000,0000,0000,0000,0000,0000,0000,0000,0000,0000,0000,0000,0000,0000,0000,0000,0000,0000,0000,0000,0000,0000,0000,0000,0000,0000,0000,0000,0000,0000,0000,0000,0000,0000,0000,0000,0000,0000,0000,0000,0000,0000,0000,0000,0000,0000,0000,0000,0000,0000,0000,0000,0000,0000,0000,0000,0000,0000,0000,0000,0000,0000,0000,0000,0000,0000,0000,0000,0000,0000,0000,0000,0000,0000,0000,0000,0000,0000,0000,0000,0000,0000,0000,0000,0000,0000,0000,0000,0000,0000,0000,0000,0000,0000,0000,0000,0000,0000,0000,0000,0000,0000,0000,0000,0000,0000,0000,0000,0000,0000,0000,0000,0000,0000,0000,0000,0000,0000,0000,0000,0000,0000,0000,0000,0000,0000,0000,0000,0000,0000,0000,0000,0000,0000,0000,0000,0000,0000,0000,0000,0000,0000,0000,0000,0000,0000,0000,0000,0000,0000,0000,0000,0000,0000,0000,0000,0000,0000,0000,0000,0000,0000,0000,0000,0000,0000,0000,0000,0000,0000,0000,0000,0000,0000,0000,0000,0000,0000,0000,0000,0000,0000,0000,0000,0000,0000,0000,0000,0000,0000,0000,0000,0000,0000,0000,0000,0000,0000,0000,0000,0000,0000,0000,0000,0000,0000,0000,0000,0000,0000,0000,0000,0000,0000,0000,0000,0000,0000,0000,fe02,0202,fcfe,fef8,fefc,fefe,0004,fc00,04fa,f8fc,00fe,fafa,fefe,0000,fcfe,fcfe,fefe,0202,f8fe,fefe,fe00,00fc,fefe,fcfe,fafc,0200,fefc,fe02,fe00,00fc,fcfe,0000,fcfe,fcfc,0600,fa02,fc00,fafc,fefa,fefe,fe02,fcfe,fefe,fefa,00fe,00fe,fcfe,fefc,0000,fefe,fcfe,0202,fcfc,fc02,fafa,fcfe,fefe,fcfe,fcfc,fefe,0204,fe00,0000,fefe,00fa,fcfc,fefe,fcfc,fefc,fefe,fcfe,00fe,fefe,fcfc,fefc,fefc,fc00,fcfe,fefe,0404,fe00,fafa,fafe,fefe,fcfe,fe00,00fa,fcfc,0606,00fe,fafa,fcfc,fefe,fefe,fc00,faf8,0402,0400,00fc,fefc,fcfe,fefe,fc06,fefc,0200,fe02,0402,fcfc,fcfe,fcfc,fc00,fefc,fc02,fefc,0202,0202,fefc,fefc,fcfe,0000,fefc,0000,fcfe,02fe,0000,fefc,fefe,fefc,02fe,0200,fcfa,fe00,0000,fefc,fefc,00fe,0004,0608,fcfa,fe00,00fe,0000,fefe,00fe,00fe,02fe,02fa,fafc,fe00,fe00,00fe,fefe,fefe,fe02,0204,faf8,fefe,fefe,fefe,fefe,fefe,fe00,00fa,fefc,fafa,fc00,fcfc,fefe,fefc,fefe,0200,f6fc,fcfc,fafa,00fe,fcfc,fefe,fefe,fe00,0000,fefe,fefc,0002,fcfc,fefe,fcfe,fefe,0404,0400,0600,0000,0200,fcfc,fcfc,fefe,fefe,0008,0406,0404,0202,00fe,fe00,fefc,fefe,fcf8,0804,0204,0606,0202,00fc,00fc,fcfc,fefe,fcfe,0202,0204,0200,0602,00fe,fcfc,fcfe,0608,0404,0004,0404,0004,0202,fcfe,fefe,fe00,0a08,0200,fe00,fefe,0204,02fe,fcfc,fefe,0404,0404,0202,fefe,0000,04fe,fcfe,fefe,00fa,fe02,0402,fefe,fe00,0202,02fe,fefe,fe00,00fe,fefe,fefe,fefc,0200,00fe,fefe,fefe,00fe,fefe,00fe,fcfc,00fe,0002,fe00,00fe,0000,0000,fefe,fefe,fefe,00fe,0600,0000,fefe,0000,0000,fefe,fefe,fefa,fc00,0002,00fe,0002,fa02,02f8,fcfe,fefe,fefc,fc00,04fe,02fe,00fa,0006,fcfc,0000,f8fc,fefa,0004,0204,1000,0604,fe04,fa04,00fc,fefc,00fc,00fc,0604,fe04,04fa,0000,fc00,fa02,fafc,fc00,00fa,02fe,f800,00fa,0002,02fe,fafc,fc00,fa00,0002,0afe,fe00,0000,0408,fcfa,fcf8,fe00,fefe,04fe,fefe,0202,fefc,0604,00fc,00fc,fcfc,fc00,000a,fefe,fcfe,060a,02fe,0000,fe00,0600,fefc,02fe,fcfa,0004,0606,0200,fe00,fcfc,0402,fe06,fefc,fcfc,0402,0404,00fe,0000,fafc,fc04,0202,02fa,0000,fe00,0404,0404,02fe,0804,000c,0600,0000,fcfc,fe00,0204,0404,fafc,00fc,fe02,fa00,fefe,fafa,0200,0204,0000,0004,0402,0200,02fc,fcfc,fe00,fe00,0400,fafc,0000,fc02,0002,faf6,fafe,fefa,fe02,0004,02fc,0408,0000,00fc,f8fa,fcfc,fafe,0002,fe00,0000,0400,fc00,faf8,fafc,fafc,fcfc,fe00,fefe,0002,0202,fafa,fafa,fafa,fefa,fe00,00fa,0200,fc0a,fcfa,fcfc,fefa,fcfc,faf8,fa00,fc00,02fe,fefe,fcf8,fcfc,00fe,fefe,fc02,0402,00fe,06f8,fe00,fefe,0000,0000,fcfa,00fe,fefa,0204,fc02,0202,0002,0000,0200,fafa,fe02,fefc,fefe,00fe,0000,0202,0000,00fe,0000,0000,08fc,fafe,00fe,fefe,fefe,0202,fefe,00fe,fe08,00fc,fefc,02fe,fefc,fe00,0000,fefc,fcfc,fefe,00fe,00fe,fcfc,fcfc,fe00,fafc,0200,00fe,fe00,fc02,fcfc,fafc,fc00,fefc,fefc,fc06,fe06,fa04,0000,fcfe,fcfe,fefe,fefe,00fc,0604,f802,06fe,00fe,fcfc,fcfc,fe00,fcfc,fe00,fe04,fe00,0000,fefc,fefe,fe00,04fe,02fc,0802,fc00,02fe,00fe,00fe,fefc,0000,fe00,00fe,0006,fa00,fe04,fafc,0002,0002,fe02,0000,0000,02fe,0002,fc02,00fc,0002,0000,fe04,0406,0200,02f6,0406,fcfe,fa00,0000,0002,02fe,0000,0000,0000,0000,0000,0000,0000,0000,0000,0000,0000,0000,0000,0000,0000,0000,0000,0000,0000,0000,0000,0000,0000,0000,0000,0000,0000,0000,0000,0000,0000,0000,0000,0000,0000,0000,0000,0000,0000,0000,0000,0000,0000,0000,0000,0000,0000,0000,0000,0000,0000,0000,0000,0000,0000,0000,0000,0000,0000,0000,0000,0000,0000,0000,0000,0000,0000,0000,0000,0000,0000,0000,0000,0000,0000,0000,0000,0000,0000,0000,0000,0000,0000,0000,0000,0000,0000,0000,0000,0000,0000,0000,0000,0000,0000,0000,0000,0000,0000,0000,0000,0000,0000,0000,0000,0000,0000,0000,0000,0000,0000,0000,0000,0000,0000,0000,0000,0000,0000,0000,0000,0000,0000,0000,0000,0000,0000,0000,0000,0000,0000,0000,0000,0000,0000,0000,0000,0000,0000,0000,0000,0000,0000,0000,0000,0000,0000,0000,0000,0000,0000,0000,0000,0000,0000,0000,0000,0000,0000,0000,0000,0000,0000,0000,0000,0000,0000,0000,0000,0000,0000,0000,0000,0000,0000,0000,0000,0000,0000,0000,0000,0000,0000,0000,0000,0000,0000,0000,0000,0000,0000,0000,0000,0000,0000,0000,0000,0000,0000,0000,0000,0000,0000,0000,0000,0000,0000,0000,0000,0000,0000,0000,0000,0000,0000,0000,0000,0000,0000,0000,0000,0000,0000,0000,0000,0000,0000,0000,0000,0000,0000,0000,0000,0000,0000,0000,0000,0000,0000,0000,0000,0000,0000,0000,0000,0000,0000,0000,0000,0000,0000,0000,0000,0000,0000,0000,0000,0000,0000,0000,0000,0000,0000,0000,0000,0000,0000,0000,0000,0000,0000,0000,0000,0000,0000,0000,0000,0000,0000,0000,0000,0000,0000,0000,0000,0000,0000,0000,0000,0000,0000,0000,0000,0000,0000,0000,0000,0000,0000,0000,0000,0000,0000,0000,0000,0000,0000,0000,0000,0000,0000,0000,0000,0000,0000,0000,0000,0000,0000,0000,0000,0000,0000,0000,0000,0000,0000,0000,0000,0000,0000,0000,0000,0000,0000,0000,0000,0000,0000,0000,0000,0000,0000,0000,0000,0000,0000,0000,0000,0000,0000,0000,0000,0000,0000,0000,0000,0000,0000,0000,0000,0000,0000,0000,0000,0000,0000,0000,0000,0000,0000,0000,0000,0000,0000,0000,0000,0000,0000,0000,0000,0000,0000,0000,0000,0000,0000,0000,0000,0000,0000,0000,0000,0000,0000,0000,0000,0000,0000,0000,0000,0000,0000,0000,0000,0000,0000,0000,0000,0000,0000,0000,0000,0000,0000,0000,0000,0000,0000,0000,0000,0000,0000,0000,0000,0000,0000,0000,0000,0000,0000,0000,0000,0000,0000,0000,0000,0000,0000,0000,0000,0000,0000,0000,0000,0000,0000,fa06,02fe,06fe,f6fc,02fc,00f8,fe00,0204,00fa,fefe,0002,fafe,fa02,02fa,fcfe,fe00,fcfc,fafa,f4f8,f6fa,fcfa,f4f2,f6f8,f6f4,00fc,0400,f4f8,f4fa,f8fc,fef8,f4f8,f8fc,f6f8,faf8,04f6,fafc,fa00,02fe,f8f6,f4f6,f2f2,f4f4,04fe,fcfa,0004,0004,fefc,f6f4,f4f4,f2f4,f8fa,02fe,fe00,0002,00fe,fcfa,f4f0,f6f2,f8fe,fe00,0002,0404,0200,fefe,fcf4,f8f4,f2f4,0000,0400,0806,0202,fefe,0200,f8f8,f8f8,f6fc,0600,0600,0404,fefc,0202,fcf8,fafa,ecee,0004,fefc,fe00,fafc,0200,0200,fe00,fef4,f2f6,0404,faf8,fcfe,0402,0202,0402,0202,eaec,0208,fcfe,f6fc,0002,0402,0002,0c0c,f2ee,ecf6,0204,f8f8,0002,0604,fafa,0a0e,06f8,e8e8,0002,fc00,fcfe,0202,00fe,fc06,1614,f0ea,ecf6,fe00,fafa,0200,0004,f8f4,1416,04f4,e8ec,fafc,00fc,fafe,fefe,02fc,fc0c,1612,f4ee,f6f8,fe00,fe00,fefc,0202,f6f6,1012,fef8,f6fa,fa02,f8fe,00fe,fe00,00fc,020a,0e08,fafa,fafa,0204,fcfe,fefc,0602,f6fa,0808,faf6,fafe,0004,fef4,fcfe,0206,00fe,fe02,0404,fcfe,fcfe,0000,f8fa,fefe,0202,fcf6,0202,02fa,fe00,0002,fefc,fafe,fe04,fefe,fa00,0402,0002,fcfc,00fe,fcfc,fe00,0202,fafa,0204,fefc,00fe,fcfe,fefc,fcfc,0006,0200,fe00,02fe,fefc,fafc,0202,fcfa,fefe,0200,fcfa,0200,fefc,f6fc,fe00,00fa,f8fa,fefc,f8fa,fc00,fcfa,f4f4,fafa,0202,fafc,00fe,f8f8,f8f8,00fe,faf6,fafe,fcfe,fafa,fcfe,fafa,faf8,f8fa,fafa,f6fa,fef8,00fa,fe00,fefe,fcfc,f8fa,02fc,fafa,f8fa,fa02,faf8,0000,faf8,fefa,fe02,fafe,faf6,faf8,02fc,fefe,fe00,f8fc,f8f8,00fc,fefe,fafa,fe00,fcfa,fe00,faf6,f8fc,fe02,fc02,faf8,fafa,0000,00fc,fefc,f8f4,fcfc,04fe,02fa,f8fc,fe00,0a06,fe04,0200,fc06,fe00,fafe,06fe,0604,0c02,0002,04fe,fcfe,0602,fc00,fe04,0c02,0402,0608,fafc,fafc,0606,0400,fe02,04fc,06fe,0a0c,02fa,fcfa,00fe,0406,0802,fc02,0402,0804,0408,00fa,00fc,0004,0808,0002,fefc,0204,0800,04fa,0002,fefc,0206,0a06,0200,fefa,040a,0808,0204,fefc,fc00,0406,0404,00fe,0204,0008,02fe,0402,fafa,0408,0406,fefc,fe00,0402,04fe,0204,f8f6,fcfe,0202,fefa,f6fa,06fe,0408,0600,fefc,fefe,fefc,0202,faf8,fc02,1210,fe08,0600,fafc,fefc,fefe,0000,f6f8,fc06,0406,0806,fefc,fcfc,f8f8,0402,eef6,0204,1206,0806,0202,fcfc,fcf8,0206,f8ec,f600,0204,0a02,0006,fc00,00fe,fc02,06fe,e8f0,fc04,0c04,000a,0400,0000,fafc,0c0a,e8e2,0000,0a08,0c04,0804,fefe,00fe,060c,02f8,f2fc,0602,060a,0206,0202,0002,fefe,0a0a,e8ec,fefe,080a,0402,0606,00fe,fefe,080e,00f4,f8fc,0806,0806,0402,0000,fefe,fc00,0804,f2f4,fa04,0406,00fe,0200,00fe,00fc,0206,00f8,00fc,0006,0806,02fe,00fe,fefe,fefc,0402,f6fa,040a,000c,0002,fefe,fe00,00fe,0202,fefa,080a,0406,0206,fcfe,fcfe,fe00,fe00,0202,0000,0806,080a,0402,0200,0000,0000,0404,fefa,0406,0602,000a,fefe,00fe,0002,0002,0200,fe00,0004,fc00,fe04,0206,0404,0202,0004,fefc,fefe,00fc,0808,0000,0406,0402,0002,04fe,fc00,fcfc,0204,0602,0004,0000,0602,0200,fafa,00f8,fcfa,0204,fefe,0202,fefe,00fe,00fc,00fc,fefa,04fe,f80e,0202,00fe,00fe,fc00,fefe,fe00,fa02,060c,00fc,0604,00fe,fefe,0000,00fe,fc02,fa02,0202,fe00,0602,0000,fc00,fe00,fe08,0202,0602,02fc,0402,fafc,fcfe,02fe,0004,0a06,00fc,fe0a,06fe,0202,0200,0008,060c,0204,0200,0208,0000,0000,0000,0000,0000,0000,0000,0000,0000,0000,0000,0000,0000,0000,0000,0000,0000,0000,0000,0000,0000,0000,0000,0000,0000,0000,0000,0000,0000,0000,0000,0000,0000,0000,0000,0000,0000,0000,0000,0000,0000,0000,0000,0000,0000,0000,0000,0000,0000,0000,0000,0000,0000,0000,0000,0000,0000,0000,0000,0000,0000,0000,0000,0000,0000,0000,0000,0000,0000,0000,0000,0000,0000,0000,0000,0000,0000,0000,0000,0000,0000,0000,0000,0000,0000,0000,0000,0000,0000,0000,0000,0000,0000,0000,0000,0000,0000,0000,0000,0000,0000,0000,0000,0000,0000,0000,0000,0000,0000,0000,0000,0000,0000,0000,0000,0000,0000,0000,0000,0000,0000,0000,0000,0000,0000,0000,0000,0000,0000,0000,0000,0000,0000,0000,0000,0000,0000,0000,0000,0000,0000,0000,0000,0000,0000,0000,0000,0000,0000,0000,0000,0000,0000,0000,0000,0000,0000,0000,0000,0000,0000,0000,0000,0000,0000,0000,0000,0000,0000,0000,0000,0000,0000,0000,0000,0000,0000,0000,0000,0000,0000,0000,0000,0000,0000,0000,0000,0000,0000,0000,0000,0000,0000,0000,0000,0000,0000,0000,0000,0000,0000,0000,0000,0000,0000,0000,0000,0000,0000,0000,0000,0000,0000,0000,0000,0000,0000,0000,0000,0000,0000,0000,0000,0000,0000,0000,0000,0000,0000,0000,0000,0000,0000,0000,0000,0000,0000,0000,0000,0000,0000,0000,0000,0000,0000,0000,0000,0000,0000,0000,0000,0000,0000,0000,0000,0000,0000,0000,0000,0000,0000,0000,0000,0000,0000,0000,0000,0000,0000,0000,0000,0000,0000,0000,0000,0000,0000,0000,0000,0000,0000,0000,0000,0000,0000,0000,0000,0000,0000,0000,0000,0000,0000,0000,0000,0000,0000,0000,0000,0000,0000,0000,0000,0000,0000,0000,0000,0000,0000,0000,0000,0000,0000,0000,0000,0000,0000,0000,0000,0000,0000,0000,0000,0000,0000,0000,0000,0000,0000,0000,0000,0000,0000,0000,0000,0000,0000,0000,0000,0000,0000,0000,0000,0000,0000,0000,0000,0000,0000,0000,0000,0000,0000,0000,0000,0000,0000,0000,0000,0000,0000,0000,0000,0000,0000,0000,0000,0000,0000,0000,0000,0000,0000,0000,0000,0000,0000,0000,0000,0000,0000,0000,0000,0000,0000,0000,0000,0000,0000,0000,0000,0000,0000,0000,0000,0000,0000,0000,0000,0000,0000,0000,0000,0000,0000,0000,0000,0000,0000,0000,0000,0000,0000,0000,0000,0000,0000,0000,0000,0000,0000,0000,0000,0000,0000,0000,0000,0000,0000,0000,0000,0000,0000,0000,0000,0000,0000,0000,0000,0000,0000,0000,0000,0000,0000,0000,fc02,0200,fafe,f6fa,f4f4,fcfe,f800,f6f2,fc00,02f4,0afe,f4f4,fcfa,fa02,02fa,f8f6,f8fa,fe02,0202,f6ee,f0f6,f800,0602,00fe,f6f6,fafe,00fa,fefa,f4f8,fafa,0404,fa00,0400,fafc,04fe,00fa,02fa,fafa,0208,04fe,0606,fcfa,fefe,faf6,f8f8,f8f8,0002,0606,00fe,0a02,f6f6,f6f6,faf2,eeee,fafc,0002,0002,080a,fefa,fefe,faf8,f0f0,f8fc,fe02,0402,0002,0804,f8fe,faf8,f4f2,f0f4,fc00,0404,0202,0002,00fc,0006,f8f6,eaee,f4fc,0604,0404,fe00,fe02,00fe,fefe,f6f0,f4f6,fcfe,0604,fcfe,fcfe,0000,fcfc,0c06,f6f6,fcfe,0404,0406,fe00,00fe,faf8,06fe,0400,fefe,0002,0402,00fe,0204,0204,f4f6,0604,fe00,0000,0002,0200,0202,04fe,f8f8,f8fe,0402,00fe,fefe,0000,0004,02fe,f4f4,fcfc,0000,0404,fefe,fe02,00fe,fcf8,eaea,f4f8,fcfc,0202,00fc,fefe,0202,faf8,eee8,eaf0,fefa,00fe,0200,fcfe,0004,00fe,eeec,e8e6,f6f8,f6fa,0608,0404,0404,0400,f8f0,f2f0,e8ec,fafc,fe00,0808,0406,0c08,faf8,f2f2,eeec,f6f6,f0f6,0004,0a0a,0e0e,0400,f2f6,f4ee,f0ee,f8fe,fcfc,0204,100e,0c08,fcfa,f8fa,f2f2,f2f4,f2f4,fc02,060a,0e0a,0602,fcfc,f6f8,f6f6,fefc,f6f8,0002,0808,0204,00fe,f8f6,fafa,fafc,f6f6,fcfc,0202,02fe,0200,fefe,fc00,fefe,faf8,fafc,fefe,fcfe,fefc,fcfc,fefc,00fe,fcfc,f6f4,fcfc,fafa,fefe,fefe,0200,fcfe,0400,fefa,fafa,f8fa,fcfc,00fe,fefe,fcfe,0206,02fc,f4fa,00fc,fcfe,fefe,fefe,0202,fe02,02fe,fcfa,fefe,fefc,fcfe,fcfc,0002,fe02,fe02,0000,f0f8,fefe,fcfc,fefe,fcfc,fc00,fefc,fefe,0000,f4f4,f8f4,fefc,fcfc,f6f8,fef8,fc00,0202,eef6,f4f0,f2f4,f4f2,f0ec,f4fc,f8f8,0202,0200,f0f6,ecea,ecec,f0ee,f2f6,f8fc,fafc,0402,0c0c,120c,0404,0806,0808,0002,020c,0406,1010,0a04,0c06,0008,04fe,0200,fe04,0608,0604,0814,0a0a,060c,0402,0000,fefe,0408,0c02,020a,100e,0a08,0806,0402,fe02,0204,0c0a,0004,040c,0a0a,0608,0404,0000,0204,0608,0c0a,0200,0806,0608,0606,0404,fe00,0404,0810,0410,0806,0808,0a0c,0002,0200,0402,0406,0c04,0404,0a06,060a,0402,0000,0000,0204,0804,0c06,0608,0400,0a06,0200,0202,0204,0402,0808,0a0a,0204,080c,0606,0202,0404,0204,0400,0c00,0c0c,0008,100a,0604,0200,0200,0604,040e,08fc,0000,0a0c,0808,0000,0604,0202,f6fa,040c,02fa,0004,0808,0002,0002,0402,00fc,0608,0000,fafa,0404,02fe,0000,0404,0000,f8f4,040a,00f8,fc00,fe00,fe00,0004,00fe,fafa,040c,0608,f6fc,fefe,0000,0606,0600,0000,0404,0400,00f6,fcfc,0402,080a,0806,0406,0a0a,0406,080e,fafc,0002,0608,0c08,0202,0606,0206,04fe,fcfc,fefe,0206,0c0c,0804,0406,0804,0602,080a,00fe,fcfe,0406,0202,0206,0202,fafc,04fe,0200,0002,fe00,fefc,fefe,0402,00fc,0404,fcfe,0400,00fe,fcfc,faf8,fe00,fcfc,fe04,040a,0206,0604,00fe,fafa,fafa,fcfa,faf8,000c,fa04,0202,0200,fafa,fafa,fafa,fefc,f800,06fa,0800,0200,fafe,fcfa,fcfc,f8fe,fcf8,0602,0206,0406,fefe,fcfc,fcf8,fefc,0400,0002,06fe,0404,0200,fcfa,fcfc,fafc,fe00,fe00,0408,0600,0000,fefe,fefc,00fc,0200,faf8,fc06,060a,0602,02fe,0002,0002,0000,faf8,0000,0404,06fc,fe00,0000,0000,0202,02fe,f8f8,0606,0400,0200,fe06,fe00,fcfe,0004,f800,04fa,0a00,fe04,0806,fefa,00fc,0206,0404,02fc,0204,fe02,100a,0406,fefe,00fe,0602,020a,f8fc,0204,0006,060e,fe00,fefe,080a,0406,06fe,0202,0402,0000,0000,0000,0000,0000,0000,0000,0000,0000,0000,0000,0000,0000,0000,0000,0000,0000,0000,0000,0000,0000,0000,0000,0000,0000,0000,0000,0000,0000,0000,0000,0000,0000,0000,0000,0000,0000,0000,0000,0000,0000,0000,0000,0000,0000,0000,0000,0000,0000,0000,0000,0000,0000,0000,0000,0000,0000,0000,0000,0000,0000,0000,0000,0000,0000,0000,0000,0000,0000,0000,0000,0000,0000,0000,0000,0000,0000,0000,0000,0000,0000,0000,0000,0000,0000,0000,0000,0000,0000,0000,0000,0000,0000,0000,0000,0000,0000,0000,0000,0000,0000,0000,0000,0000,0000,0000,0000,0000,0000,0000,0000,0000,0000,0000,0000,0000,0000,0000,0000,0000,0000,0000,0000,0000,0000,0000,0000,0000,0000,0000,0000,0000,0000,0000,0000,0000,0000,0000,0000,0000,0000,0000,0000,0000,0000,0000,0000,0000,0000,0000,0000,0000,0000,0000,0000,0000,0000,0000,0000,0000,0000,0000,0000,0000,0000,0000,0000,0000,0000,0000,0000,0000,0000,0000,0000,0000,0000,0000,0000,0000,0000,0000,0000,0000,0000,0000,0000,0000,0000,0000,0000,0000,0000,0000,0000,0000,0000,0000,0000,0000,0000,0000,0000,0000,0000,0000,0000,0000,0000,0000,0000,0000,0000,0000,0000,0000,0000,0000,0000,0000,0000,0000,0000,0000,0000,0000,0000,0000,0000,0000,0000,0000,0000,0000,0000,0000,0000,0000,0000,0000,0000,0000,0000,0000,0000,0000,0000,0000,0000,0000,0000,0000,0000,0000,0000,0000,0000,0000,0000,0000,0000,0000,0000,0000,0000,0000,0000,0000,0000,0000,0000,0000,0000,0000,0000,0000,0000,0000,0000,0000,0000,0000,0000,0000,0000,0000,0000,0000,0000,0000,0000,0000,0000,0000,0000,0000,0000,0000,0000,0000,0000,0000,0000,0000,0000,0000,0000,0000,0000,0000,0000,0000,0000,0000,0000,0000,0000,0000,0000,0000,0000,0000,0000,0000,0000,0000,0000,0000,0000,0000,0000,0000,0000,0000,0000,0000,0000,0000,0000,0000,0000,0000,0000,0000,0000,0000,0000,0000,0000,0000,0000,0000,0000,0000,0000,0000,0000,0000,0000,0000,0000,0000,0000,0000,0000,0000,0000,0000,0000,0000,0000,0000,0000,0000,0000,0000,0000,0000,0000,0000,0000,0000,0000,0000,0000,0000,0000,0000,0000,0000,0000,0000,0000,0000,0000,0000,0000,0000,0000,0000,0000,0000,0000,0000,0000,0000,0000,0000,0000,0000,0000,0000,0000,0000,0000,0000,0000,0000,0000,0000,0000,0000,0000,0000,0000,0000,0000,0000,0000,0000,0000,0000,0000,0000,0000,0000,0000,0000,0000,0000,0000,0000,0000,0000,0000,0000,fe02,0202,fcfe,02fc,fefe,00fe,0002,fe00,02fa,f8fe,02fe,faf8,fe00,0000,fe00,fefe,fcfe,0002,fafe,fcfe,fc00,00fe,00fe,fefe,fcfe,0000,fefa,fefe,0200,0000,0200,0002,fefe,fefe,04fe,fcfe,fc00,fe00,0000,0000,0000,fefc,fefe,0200,fcfa,0000,fe00,0000,0000,fefe,fefe,00fe,fcfe,fefe,fefe,0000,fefe,0000,fefc,fefe,0000,fcfc,0000,fe00,00fe,fefe,00fe,fcfc,fefe,fefe,fcfe,fefe,fe00,fe00,0000,fefc,fcfc,fcfe,00fe,fefe,00fe,fefe,fe00,00fe,fefc,fe00,0400,fefc,0000,0000,fe00,fefe,fefc,fefe,fefe,fefe,00fe,0000,0000,00fe,fefe,fefc,fc00,fefe,0000,0000,0000,00fe,fefe,fefe,fefc,0200,00fe,0000,0000,0000,00fe,00fe,fe00,02fe,00fe,fe00,fe00,00fe,fefe,fefe,fefe,fefe,fefe,0000,0000,fe00,fefe,fefe,fefe,0000,fcfe,0000,fefe,fe00,fefe,fefe,fefe,00fe,fefe,00fe,fcfe,fefe,fefe,fefe,fefe,fefe,fefe,0000,0200,fefc,fefe,fefe,fefe,fefe,fefe,fefe,fefc,fefe,fcfc,fe00,fefe,fefe,fefe,fefe,0202,fefe,fefc,fe00,00fe,fefe,fefe,fefe,fe00,0000,fe00,fefe,0000,00fe,fefe,fe00,fefe,0000,0402,0200,0000,0000,fefe,fefe,fefe,fefe,0004,0202,0000,0000,fefe,fefe,fefe,fefe,00fe,0202,0000,0000,00fe,fefe,fefe,fefe,fefe,0000,fe00,0000,0000,0000,fefe,fe00,fefe,0204,0000,0000,fe00,0000,fefe,fefe,fefe,fefe,0402,00fe,fefe,fe00,0000,fefe,fefe,fefe,00fe,0000,0002,fe00,0000,0000,fefe,fefe,00fe,fefe,0000,00fe,0000,0000,00fe,fe00,fe00,00fe,00fe,fe00,00fe,00fe,00fc,fefe,00fe,0002,fefe,00fe,fefe,fefe,fefe,fcfe,fefe,0000,00fe,fefe,fe00,fe00,00fe,0200,0000,0000,0200,0000,0000,fefe,00fe,0002,fe00,0000,fc02,fa08,00fe,fefe,0004,fefe,fefe,0200,0000,fcfc,0002,fefc,0000,fe00,00fe,fe02,0200,0400,0200,fcfe,fc02,fefe,00fe,02fe,fefe,0004,fe02,0200,fc00,02fe,0000,fafe,fe00,fcfc,00fe,fc04,fefe,0002,00fe,fcfe,fe00,fefe,0200,02fe,0000,00fe,0202,fefe,fe00,00fe,fcfe,02fe,fe00,fefe,00fe,0002,0000,0000,fefc,fefe,0004,fe00,fe00,0200,fefe,0000,0000,fefc,fcfc,02fe,00fe,0002,0000,0000,0200,fefe,0000,0000,00fe,fefe,0002,0000,0000,fe00,fefe,fc00,00fe,fefc,0000,0202,0000,0000,02fe,0000,fe06,0000,fe00,0000,00fe,fe00,fe00,fcfe,fefe,fefe,fc00,fe00,0000,fe00,fefe,0000,fefe,0000,fe00,fefe,fe00,fefe,fefe,fe00,fe00,fc02,fcfc,fefe,fefe,fefe,fefe,fefe,00fe,00fe,fefe,fefe,fefe,fefe,fefe,fefe,fefe,00fe,fc02,02fe,fe00,fcfe,fcfe,fefe,fefe,fefe,fe00,0204,0000,fefe,fefe,fe00,fefe,fe00,fefc,0200,0000,fefe,fefe,fefe,fefe,fefe,fc00,00fe,00fe,fefe,00fe,00fe,0000,fefe,fe00,0000,fe00,02fa,0000,00fe,fe00,0000,fefe,00fe,fefe,fc02,0000,0000,0000,0000,fefe,fefe,0000,00fe,fc02,fefe,fefe,fe00,0000,fe00,0000,0000,06fa,0000,fefe,fefe,fefe,fe00,0000,0000,0008,fcfe,fefe,fefe,fefe,fefe,fe00,00fe,fefe,fe00,fe00,fefe,fefe,0000,fe00,0000,0002,fe00,00fe,fefe,fefe,fefe,fe00,fefe,0000,fe00,0002,fe00,00fe,fefe,fe00,fe00,02fe,02fe,0602,f8fc,0202,fe00,fe00,fefe,00fe,fe00,0200,0404,0002,00fe,fefe,fefe,fe00,0000,0000,fe02,00fc,0200,00fe,00fe,00fe,0000,0002,fefe,0004,f800,fe00,fefe,0000,0000,fe00,00fe,0000,0002,fefe,fefe,fe00,0202,fe02,0002,0204,0200,02fc,0002,fe00,fe02,0002,0002,02fe,02fe,0000,0000,0000,0000,0000,0000,0000,0000,0000,0000,0000,0000,0000,0000,0000,0000,0000,0000,0000,0000,0000,0000,0000,0000,0000,0000,0000,0000,0000,0000,0000,0000,0000,0000,0000,0000,0000,0000,0000,0000,0000,0000,0000,0000,0000,0000,0000,0000,0000,0000,0000,0000,0000,0000,0000,0000,0000,0000,0000,0000,0000,0000,0000,0000,0000,0000,0000,0000,0000,0000,0000,0000,0000,0000,0000,0000,0000,0000,0000,0000,0000,0000,0000,0000,0000,0000,0000,0000,0000,0000,0000,0000,0000,0000,0000,0000,0000,0000,0000,0000,0000,0000,0000,0000,0000,0000,0000,0000,0000,0000,0000,0000,0000,0000,0000,0000,0000,0000,0000,0000,0000,0000,0000,0000,0000,0000,0000,0000,0000,0000,0000,0000,0000,0000,0000,0000,0000,0000,0000,0000,0000,0000,0000,0000,0000,0000,0000,0000,0000,0000,0000,0000,0000,0000,0000,0000,0000,0000,0000,0000,0000,0000,0000,0000,0000,0000,0000,0000,0000,0000,0000,0000,0000,0000,0000,0000,0000,0000,0000,0000,0000,0000,0000,0000,0000,0000,0000,0000,0000,0000,0000,0000,0000,0000,0000,0000,0000,0000,0000,0000,0000,0000,0000,0000,0000,0000,0000,0000,0000,0000,0000,0000,0000,0000,0000,0000,0000,0000,0000,0000,0000,0000,0000,0000,0000,0000,0000,0000,0000,0000,0000,0000,0000,0000,0000,0000,0000,0000,0000,0000,0000,0000,0000,0000,0000,0000,0000,0000,0000,0000,0000,0000,0000,0000,0000,0000,0000,0000,0000,0000,0000,0000,0000,0000,0000,0000,0000,0000,0000,0000,0000,0000,0000,0000,0000,0000,0000,0000,0000,0000,0000,0000,0000,0000,0000,0000,0000,0000,0000,0000,0000,0000,0000,0000,0000,0000,0000,0000,0000,0000,0000,0000,0000,0000,0000,0000,0000,0000,0000,0000,0000,0000,0000,0000,0000,0000,0000,0000,0000,0000,0000,0000,0000,0000,0000,0000,0000,0000,0000,0000,0000,0000,0000,0000,0000,0000,0000,0000,0000,0000,0000,0000,0000,0000,0000,0000,0000,0000,0000,0000,0000,0000,0000,0000,0000,0000,0000,0000,0000,0000,0000,0000,0000,0000,0000,0000,0000,0000,0000,0000,0000,0000,0000,0000,0000,0000,0000,0000,0000,0000,0000,0000,0000,0000,0000,0000,0000,0000,0000,0000,0000,0000,0000,0000,0000,0000,0000,0000,0000,0000,0000,0000,0000,0000,0000,0000,0000,0000,0000,0000,0000,0000,0000,0000,0000,0000,0000,0000,0000,0000,0000,0000,0000,0000,0000,0000,0000,0000,0000,0000,0000,0000,0000,0000,0000,0000,0000,0000,0000,0000,0000,0000,0000,0000,0000,0000,0202,02fc,0802,02fe,f8fa,fefa,00fa,fc06,0cf6,0008,fc02,0400,fc00,06fa,fcfc,0000,fe06,0000,0000,0808,0200,0000,fcfa,00f8,00fe,0004,0200,0a0a,0802,0400,fefa,fe00,fefa,fa02,fafc,040a,1010,0a00,faf4,fafc,0000,f8f2,fafc,0408,161e,0c04,faf8,f4f6,fafa,f6f8,fe02,060c,0e16,100e,fcf4,faf8,f6f8,faf8,f4f8,fafa,0c10,120e,00fa,f6f8,f8f8,f4f0,f4f8,f2fe,0002,0c06,faf6,f6f8,f8fa,f8f6,f0f2,f4f4,f6f4,f8fc,f4f0,f8fe,fefc,f8fa,f4f2,eef0,f4f6,f8f6,f4f0,f800,0c06,fcfa,f8f2,f4f0,f2f4,fcfa,f0ee,fcfe,1010,0402,faf8,f4f6,f6f6,f2f4,00fe,fc00,0e10,0a06,fefe,fefa,0000,f6f2,f8f8,0404,0c10,1412,0806,00fe,0002,fefe,faf4,0202,0c0e,1216,0c08,0606,0404,0202,0404,02fe,0804,0c10,0c06,0004,0a06,0404,0402,fcfe,0600,0404,fef8,eef2,0208,0606,0404,0402,fe02,0000,f6ee,e6e8,f8fc,0404,0202,0204,0402,fcfa,f8f4,e2e4,f4fa,fcfe,fe00,fcfe,fe04,02fe,eeec,e2e4,f4f8,fcfe,fefc,fcfa,fe00,0a08,f0ea,e6e8,eef4,fe00,fcfc,faf8,0002,0208,0000,ecee,f6fe,0200,00fe,f8f8,0002,0004,0806,02fe,fafa,0404,fcfc,f6f8,fcfe,0202,0608,0200,0202,fc00,fefa,f6f6,fefc,0400,0206,0202,0a0e,0802,0002,fcfa,fc00,0202,0202,0604,0000,0e06,0200,0000,fe00,0000,0406,0204,0202,0c0a,0602,0202,0202,0204,0202,0000,0202,0608,0808,0400,0406,0204,0202,fcfe,fcfc,f8fe,0400,0000,0004,0608,0604,fefe,fefc,fcf6,00fa,fefe,fefe,0604,0808,00fc,f6fa,f8fa,fcfc,02fe,fafc,0204,0202,0002,fcfa,f6f8,f8f8,fe02,0002,0002,00fc,fafa,00fa,f8fe,f8f8,fafa,02fe,0204,0200,fcfc,fefc,faf4,f8f8,faf8,0000,fe00,0806,fcfa,f6fa,f4fa,f4f6,f4f8,f8fe,faf6,f6f8,f8f6,f4f6,f2f6,fefc,fcf6,fe08,f4fc,fcfc,fafe,fcfe,fe00,eef8,f4f8,fc00,0400,04fc,fc00,0202,08fc,f4f6,f0ee,faf8,fc02,06fe,fa02,0200,02fe,f8fa,eeea,f2fe,fcfe,fe00,0800,fefc,fe00,fef8,fafe,fcf6,f602,08fa,0402,fcfe,f2fa,fefe,fefe,0000,0604,fafa,0204,fe08,f2f2,f6fa,00fe,0206,0806,00fe,0006,0210,f4f8,ecee,fcfe,0204,0608,0806,fe08,fefe,fcfe,f0ee,f6f8,fe02,0608,0606,0000,0200,0000,faf4,f4fa,fc00,0206,0604,0200,fc02,fc06,fef8,fcf8,fcfe,fefe,0604,00fe,fefc,fcfe,fef8,0002,0200,00fe,0002,fafa,fcfe,f600,04fe,0002,0202,0200,faf8,f6f4,faf8,f8f8,fa02,0404,0406,fe00,f8f4,f4f4,f8f8,fcfc,f8fc,00fa,00fe,fcfe,faf6,f8fe,fefc,fafc,f8f8,fcfa,fcfe,fefe,fafa,fe02,0808,0002,fefa,faf8,fe06,fcfc,fefe,0404,0e10,0a06,0002,00fc,00fc,fafc,fc00,0006,0e10,0c0a,0602,0404,f8fe,0002,00f8,fc06,0808,0c0a,0402,0204,0400,fe00,04fc,fcfc,0204,0604,fafc,0200,0404,0606,00fe,fa02,fc00,fe00,f8f4,f6fc,fe00,0804,02fa,0604,fcfe,fc00,f8f6,f2f6,0002,0404,fefc,0202,0002,fcfc,fcfc,fcfa,0000,0408,0802,00fc,0402,00f8,fe00,00fe,0202,0606,0a06,fe02,0002,0802,fcfa,0000,0000,0204,0408,00fe,0400,fef8,fef8,f8fc,fe00,0200,0604,0602,fc02,0202,0200,faf8,fcfc,fe00,0406,0200,0000,040c,fe02,fefe,fefe,fcfe,0202,0200,fe00,0400,04fe,0404,0200,0200,fefe,fefc,0000,fe02,fe02,0608,0406,0406,02fc,fafc,fcfc,0000,06fe,0008,0c06,0808,0802,fefe,fcfc,0000,fa00,fe06,0400,0606,0606,0202,0002,04fe,0004,04fc,0200,0c08,0608,0602,0004,0204,00fe,02fc,020a,040a,0806,1004,0404,0408,fe04,fefe,0e06,0608,0000,0000,0000,0000,0000,0000,0000,0000,0000,0000,0000,0000,0000,0000,0000,0000,0000,0000,0000,0000,0000,0000,0000,0000,0000,0000,0000,0000,0000,0000,0000,0000,0000,0000,0000,0000,0000,0000,0000,0000,0000,0000,0000,0000,0000,0000,0000,0000,0000,0000,0000,0000,0000,0000,0000,0000,0000,0000,0000,0000,0000,0000,0000,0000,0000,0000,0000,0000,0000,0000,0000,0000,0000,0000,0000,0000,0000,0000,0000,0000,0000,0000,0000,0000,0000,0000,0000,0000,0000,0000,0000,0000,0000,0000,0000,0000,0000,0000,0000,0000,0000,0000,0000,0000,0000,0000,0000,0000,0000,0000,0000,0000,0000,0000,0000,0000,0000,0000,0000,0000,0000,0000,0000,0000,0000,0000,0000,0000,0000,0000,0000,0000,0000,0000,0000,0000,0000,0000,0000,0000,0000,0000,0000,0000,0000,0000,0000,0000,0000,0000,0000,0000,0000,0000,0000,0000,0000,0000,0000,0000,0000,0000,0000,0000,0000,0000,0000,0000,0000,0000,0000,0000,0000,0000,0000,0000,0000,0000,0000,0000,0000,0000,0000,0000,0000,0000,0000,0000,0000,0000,0000,0000,0000,0000,0000,0000,0000,0000,0000,0000,0000,0000,0000,0000,0000,0000,0000,0000,0000,0000,0000,0000,0000,0000,0000,0000,0000,0000,0000,0000,0000,0000,0000,0000,0000,0000,0000,0000,0000,0000,0000,0000,0000,0000,0000,0000,0000,0000,0000,0000,0000,0000,0000,0000,0000,0000,0000,0000,0000,0000,0000,0000,0000,0000,0000,0000,0000,0000,0000,0000,0000,0000,0000,0000,0000,0000,0000,0000,0000,0000,0000,0000,0000,0000,0000,0000,0000,0000,0000,0000,0000,0000,0000,0000,0000,0000,0000,0000,0000,0000,0000,0000,0000,0000,0000,0000,0000,0000,0000,0000,0000,0000,0000,0000,0000,0000,0000,0000,0000,0000,0000,0000,0000,0000,0000,0000,0000,0000,0000,0000,0000,0000,0000,0000,0000,0000,0000,0000,0000,0000,0000,0000,0000,0000,0000,0000,0000,0000,0000,0000,0000,0000,0000,0000,0000,0000,0000,0000,0000,0000,0000,0000,0000,0000,0000,0000,0000,0000,0000,0000,0000,0000,0000,0000,0000,0000,0000,0000,0000,0000,0000,0000,0000,0000,0000,0000,0000,0000,0000,0000,0000,0000,0000,0000,0000,0000,0000,0000,0000,0000,0000,0000,0000,0000,0000,0000,0000,0000,0000,0000,0000,0000,0000,0000,0000,0000,0000,0000,0000,0000,0000,0000,0000,0000,0000,0000,0000,0000,0000,0000,0000,0000,0000,0000,0000,0000,0000,0000,0000,0000,0000,0000,0000,0000,0000,0000,0000,0000,0000,0000,0000,0000,0000,0000,0000,0000,fa02,0400,fafe,faf8,faf6,fefe,0400,f8fc,0200,fc04,0804,04f8,f6f8,fcfc,0002,fefc,fefc,0204,f602,f6fc,f8f8,fafa,fefa,0000,f4f8,02fe,02fc,fefa,fefa,fcfa,faf8,fafc,fefc,fafc,0402,fa02,0200,f6f8,fefe,f4fa,fcfe,fcfc,fe00,00fc,fe04,f2f2,fa02,f6f2,f6fa,fafa,fe00,0006,fefa,fefc,faf8,fefe,eef2,fefc,fcfe,fcfe,02fc,0006,fcf8,00fe,f8f0,fc02,fe00,00fc,fefe,fe00,00fc,fc00,00fe,f400,0400,0000,f8fe,fe00,fc00,fc00,0004,f8f4,fe04,00fe,fcf6,fcf8,f2f8,fcfe,fefe,04fa,f8fc,0200,fcfa,fafc,00fc,fc00,00fe,0202,f6f6,0204,fef6,fefa,fafc,fcfc,0000,fafe,faf4,fc00,0200,f6fc,f8fc,02f8,0000,00fa,00fc,f8fc,0404,faf8,fafe,fa02,fafa,0200,fafe,f8f6,0204,0400,f8f8,fafe,fcfc,fe00,fcf8,02fe,fe02,0404,fcf8,fcfc,fef4,0202,00fe,fe00,fcfe,0404,0000,fcfa,fefa,f8f8,00fc,fafc,0400,fafe,0000,fefc,fcf8,f8f8,00fc,fafe,fe04,00fc,fefa,fcfe,faf8,fcfe,f2ee,f6fa,fafc,0402,f8fa,f8f6,f4f6,f8fa,fefc,f2f4,fcfa,0206,fefc,f6f6,f2f2,f6f6,fafe,fcf8,f6fa,fafe,0400,f8f8,f6f4,f4f6,f8f8,fe00,faf8,f8fc,0406,00fc,f6f6,f8f8,f6f8,fafc,00fe,f8fc,fe00,0604,fcfa,f8f8,faf8,f8f8,fefa,0204,0000,0204,0404,f6f6,fafe,f8f6,fcfc,0000,0402,fefe,0204,0602,f8f8,fcfa,f8fc,fefe,0202,00fe,0002,0406,faf6,f8fc,f8fa,0000,fcfe,0202,fe00,0002,0602,f6f6,faf8,fefe,fcfc,0200,0402,0000,0202,f8f6,f8f8,fcfe,00fc,fe00,0200,fefc,fe00,02fe,fefc,fafc,fc00,fcfe,0002,0000,fafe,0000,faf8,fcfc,0200,00fe,fefc,0000,fafc,fa00,00fa,fcfa,fe02,fe00,fcfa,fcfc,fefa,fcfa,0000,0002,fcfe,0200,0200,fefe,f8fa,fafc,f8fc,00fa,fe02,0202,fc02,fc0c,0806,f806,0a02,06fa,f604,0408,0608,0802,0a00,fe02,0200,0200,fef4,0802,0a06,0606,0408,020a,fc02,04fe,0002,fa02,0604,0806,0610,06fe,0402,fe00,0004,fefa,0406,040a,fc02,0206,0000,0602,0202,02fe,fe04,0a06,0810,fc0e,08fc,fe04,0406,0002,f8f8,0c0a,0806,040c,0806,fefe,fe00,0400,02fc,040a,0a06,0808,08fe,fefe,fc00,0402,0402,f8fc,0808,0608,0808,0600,fefa,fc02,0406,fcf8,0206,0a08,0606,0208,fcfa,f4fa,0202,00fc,fc02,0606,0200,0400,0a04,f8f8,fc00,0000,f4fa,0204,06fe,0a0c,080c,02f8,fafe,0202,fcf4,fe02,0206,f802,0a06,04fa,faf8,fc00,00fc,f6fa,0604,fe00,0a08,0206,fefe,fefe,fe02,fafa,0206,0002,f6fe,080a,0202,00f8,fafc,04fe,0000,02fe,0202,0402,0608,02fa,fcfe,0004,0202,0404,0406,fe02,0404,0802,0204,f8fe,0606,0406,fc02,04fe,0400,0602,0402,fefc,0204,04fe,0000,0200,0206,0402,080c,0406,f8fe,0402,0000,00fe,00fe,fe02,0806,0206,00fa,0004,fefe,00fe,0404,fe04,0804,0604,0004,fafe,0000,fefe,fcfe,0206,0204,0404,0200,fcfc,0000,02fa,fcfc,fe00,0200,0408,0606,0400,0200,0400,fafe,0000,0200,06fe,0608,0804,0200,0606,00fe,fcfc,fefe,0802,0602,0404,0402,0406,0604,fefc,fc00,0000,0a06,fe06,0406,0604,0806,fefe,fcfa,fe02,0206,080a,0804,0606,0806,0602,fcfc,f600,0000,fe04,0602,0204,0402,0402,fcfe,fafe,0000,0606,0406,080c,0804,0402,fcfa,fefe,fc04,0204,0c02,080e,0604,0404,00fe,fc00,fefa,0cfe,fe08,0802,0802,0608,0000,fefe,0000,f800,060a,0a02,040a,0002,0606,0002,fe02,0000,0004,0604,0806,08fe,0402,0404,02fa,0402,0202,fe08,0a00,fc0a,0002,0004,0606,0200,0806,000a,0206,0006,0000,0000,0000,0000,0000,0000,0000,0000,0000,0000,0000,0000,0000,0000,0000,0000,0000,0000,0000,0000,0000,0000,0000,0000,0000,0000,0000,0000,0000,0000,0000,0000,0000,0000,0000,0000,0000,0000,0000,0000,0000,0000,0000,0000,0000,0000,0000,0000,0000,0000,0000,0000,0000,0000,0000,0000,0000,0000,0000,0000,0000,0000,0000,0000,0000,0000,0000,0000,0000,0000,0000,0000,0000,0000,0000,0000,0000,0000,0000,0000,0000,0000,0000,0000,0000,0000,0000,0000,0000,0000,0000,0000,0000,0000,0000,0000,0000,0000,0000,0000,0000,0000,0000,0000,0000,0000,0000,0000,0000,0000,0000,0000,0000,0000,0000,0000,0000,0000,0000,0000,0000,0000,0000,0000,0000,0000,0000,0000,0000,0000,0000,0000,0000,0000,0000,0000,0000,0000,0000,0000,0000,0000,0000,0000,0000,0000,0000,0000,0000,0000,0000,0000,0000,0000,0000,0000,0000,0000,0000,0000,0000,0000,0000,0000,0000,0000,0000,0000,0000,0000,0000,0000,0000,0000,0000,0000,0000,0000,0000,0000,0000,0000,0000,0000,0000,0000,0000,0000,0000,0000,0000,0000,0000,0000,0000,0000,0000,0000,0000,0000,0000,0000,0000,0000,0000,0000,0000,0000,0000,0000,0000,0000,0000,0000,0000,0000,0000,0000,0000,0000,0000,0000,0000,0000,0000,0000,0000,0000,0000,0000,0000,0000,0000,0000,0000,0000,0000,0000,0000,0000,0000,0000,0000,0000,0000,0000,0000,0000,0000,0000,0000,0000,0000,0000,0000,0000,0000,0000,0000,0000,0000,0000,0000,0000,0000,0000,0000,0000,0000,0000,0000,0000,0000,0000,0000,0000,0000,0000,0000,0000,0000,0000,0000,0000,0000,0000,0000,0000,0000,0000,0000,0000,0000,0000,0000,0000,0000,0000,0000,0000,0000,0000,0000,0000,0000,0000,0000,0000,0000,0000,0000,0000,0000,0000,0000,0000,0000,0000,0000,0000,0000,0000,0000,0000,0000,0000,0000,0000,0000,0000,0000,0000,0000,0000,0000,0000,0000,0000,0000,0000,0000,0000,0000,0000,0000,0000,0000,0000,0000,0000,0000,0000,0000,0000,0000,0000,0000,0000,0000,0000,0000,0000,0000,0000,0000,0000,0000,0000,0000,0000,0000,0000,0000,0000,0000,0000,0000,0000,0000,0000,0000,0000,0000,0000,0000,0000,0000,0000,0000,0000,0000,0000,0000,0000,0000,0000,0000,0000,0000,0000,0000,0000,0000,0000,0000,0000,0000,0000,0000,0000,0000,0000,0000,0000,0000,0000,0000,0000,0000,0000,0000,0000,0000,0000,0000,0000,0000,0000,0000,0000,0000,0000,0000,0000,0000,0000,0000,0000,0000,0000,0000,0000,0000,0000,0000,0000,fa00,0204,fafe,00fa,fefe,fefe,0002,0002,04fc,fa00,02fe,fafa,0000,0202,0000,fefe,fefc,0002,0000,fefe,fc02,fefe,00fe,fefe,fefc,0200,04fe,fe00,0400,fefe,fefe,fefe,fefe,fefe,fe00,fc00,fe00,fe00,fefe,fefe,fefe,fefc,fefe,0400,fefe,fcfe,fefe,fefe,0000,fefe,fefc,00fe,0002,00fe,fcfe,fefe,fefe,fefe,fefe,fefe,0204,0200,0000,0000,00fe,fefe,fefe,fcfc,0200,0204,00fe,fefe,0000,fefe,00fe,fcfc,fcfa,0002,0404,0000,0000,fe00,fe00,fefe,fcfe,fc00,0602,0202,0202,0200,fefe,fefe,fefe,fe00,fefc,0000,0000,0000,fefe,fefe,fefe,fefc,fefe,fcfe,0000,fe00,fefe,fefe,fefe,fefe,00fe,fefe,fe00,0000,00fe,fefe,00fe,fe00,fe00,00fe,fefc,fe00,fefe,fefe,fefe,fefe,fefe,0000,fefe,fefe,fefe,00fe,00fe,fefe,fefe,00fe,fcfe,fefe,fefe,fefe,fefe,00fe,fefe,fefe,00fe,fef8,fefe,fcfe,fefe,fe00,fefe,fefe,fefe,fcfe,00fe,fcfa,fcfe,00fe,fefe,fefe,fefe,fefe,fcfa,fcfe,fefc,fefe,fefe,fefe,fefe,0000,0000,fcfa,fefe,fefe,fefe,fcfe,fcfe,fefe,fe00,fcfc,fcfe,fefe,fefe,fefe,fefe,fefe,fefe,fefe,fefe,fefe,fefe,fefe,fefc,fefe,fefe,00fe,fefe,fe00,fefe,fefe,fcfc,fefc,fe00,fefe,fefc,fe00,0000,fefe,fefc,fefc,fefe,00fe,fefe,fefc,0000,fefe,fefe,fefe,fefe,fefe,fefe,fe00,fefe,fefe,fefe,fefe,fefe,fefe,fefe,fe00,0000,00fe,fefe,00fe,fefe,fefe,fefe,fe00,fefe,fe00,0000,fefe,fefe,fefe,fefe,fefe,00fc,fe00,00fe,00fe,fefe,fefe,fefe,fe00,0000,00fe,00fe,fe00,00fe,fefe,fefc,fefe,00fe,0000,fe00,0000,0000,fefe,fefe,fcfc,fe00,0000,0000,00fe,fe00,0000,0000,00fc,0000,0000,0202,0000,0000,0000,0002,fe00,fe00,fe00,fe00,fa00,00fc,fafa,fe00,00fa,fefc,00fe,fc00,fafc,fe04,fafa,fefc,fcfa,fcfc,fcfe,0000,02fe,0600,fcfc,fafc,f8f8,fafa,fcfa,faf8,fc02,fc04,fefc,fafe,fcfc,fcfc,fafa,fcfe,fcfa,fefc,0000,fafc,fcfc,fcfc,fafc,fefe,fcfe,fe00,00fa,fcfe,fefe,fefe,fcfc,fe00,00fc,fafe,fe00,fefc,fe00,fefa,fcfe,fcfe,0000,fefc,fefe,fe02,fefc,fe00,0000,fefe,0000,fe00,fefe,fcfa,00fa,fcfe,0002,0200,0200,0000,fefc,fefe,fc02,fcfe,fefe,0000,0000,0000,fefe,fefc,fc00,fefe,fefe,00fe,0000,fe00,fefe,fefe,00fc,fc04,fcfc,fefe,00fe,00fe,fefe,fefe,fcfc,fc00,fefe,fcfe,fefe,fefe,fefe,fefe,fefc,fcfe,00fc,00fe,fefe,fe00,fefe,00fe,fefe,fcfc,fcfe,fefc,fcfe,fefe,fefe,fefe,fefe,fefc,fcfc,fefc,fefc,fefe,fcfe,fefe,fefe,00fe,fcfe,fafe,fe02,fefe,fefe,fefe,fefe,fefe,fefe,fcfe,0202,fefe,fefe,fefe,fefe,fefe,fe00,fafa,02fe,0000,fefe,fefe,fefe,fefe,fefc,fcfe,fcfc,0002,fcfc,fefe,00fe,fefe,00fe,fefe,00fe,fcfc,fefe,fefe,00fe,fefe,fefe,fefe,fefe,fefc,fc00,fe00,fe00,fefe,fefe,fefe,00fe,fefe,00fe,fc00,fefe,fefe,fefe,fefe,fefe,fefe,fe00,04fe,0000,fefe,fefe,fefe,fefe,fe00,fe00,fe02,fcfc,fefe,fefe,fefc,fefe,fe00,fefc,00fc,fa00,fefe,fefe,fefe,fefe,fefe,fefe,fe02,fc04,00fe,fefe,fefc,fefe,fefe,fefe,fcfe,00fc,0200,fcfe,00fe,fefe,fefe,fefe,00fe,fefe,0402,fafa,fe00,fefe,fcfe,