memory_initialization_radix=16;
memory_initialization_vector=
0200,0400,0600,0a0c,0e06,0808,00fa,f204,080a,fc04,1012,0e10,0c06,0c08,0c0e,fcf4,06fc,0600,080e,0e12,120e,080a,0c10,0a04,fafa,0208,0e0a,1216,0e12,0c0c,080c,1416,0600,fef6,0a08,1014,1814,100c,0a08,0a0c,140e,00fe,0600,0e12,1c1a,1818,0e08,0404,0a10,0802,06fe,fc04,1614,1c1c,1612,0c06,0204,100c,fe02,0204,080c,1218,1a16,100e,0404,0608,0a06,fcf6,00fe,0a06,0e14,1010,0c08,0608,0c0c,0808,0206,f6f0,f600,0c0c,0e10,0a0c,0a0c,0808,04fa,f6fa,e4e6,fafc,0808,0608,0606,0a0c,0a0e,fefe,faec,f6fa,0002,fe04,0a08,0c0c,0c0a,04fa,fcf6,eef8,fcfa,00fe,0404,0608,0a08,0604,02f2,f4f4,fafa,fcfa,0200,0002,0a0a,0806,faf8,f0ec,f6f6,fafc,fefe,fefe,0004,0608,06fc,f8f8,f6f8,f6f8,fcfc,f8fc,fafc,0604,080a,fc04,faf2,fafa,fe00,fcfa,f8fa,fafc,0404,0c04,0000,fcfa,fcfe,fefe,faf6,f8f8,f8fa,0206,0000,fefe,fcfc,fcfe,fefa,f8fa,f8f8,f8fc,fe00,02fe,02fc,00fe,fefe,fafa,f8fa,f6f6,f8fe,00fe,fafe,fefe,fcfc,fcfa,fcfa,f8f8,f6f8,fefe,04fc,fafc,00fe,fefa,f8f6,f6f8,f8f6,f8fa,fefc,fafa,fefa,fcfa,fcfc,f8f8,f8f6,f8f8,fafa,04fe,fefe,00fc,fcfe,fcfa,f8f8,f8fa,fafc,f800,fcfc,0200,fefe,fefc,f8f8,f6f6,fafa,f8fa,0400,fafc,fcfc,fefe,fcfc,f8f8,f4f6,f4f6,fa00,fcf6,f8fa,fefc,fcfc,fcfc,f4f8,f8f8,f6f2,0c04,f8f8,f8f6,fcfe,fefc,f8fa,f6f8,f6f8,fafc,02fc,fafc,f8f8,fafe,fafa,fefe,fef8,fcfa,0404,fcfa,f8f8,faf8,fcf8,fefa,fefc,fafc,00f6,0200,fcfa,fafc,fcfa,fafe,fe00,fafc,fa00,0202,02fe,0000,fafc,00fa,0002,fcfc,fefe,fe00,fe02,0202,fefe,0000,0006,fc04,00fc,f200,fe00,0606,0002,fe00,0606,0604,02fe,fe02,0000,080a,080c,0000,00fa,fcf8,f4f8,fe06,0a04,0a10,0a06,0800,f6f6,f6fc,f8f4,f0fc,0406,fefa,0a10,06fe,f6f6,fafc,0002,fafa,f8fe,0208,140a,0406,fafa,f8f8,0004,fefe,f8f6,f806,00fe,0408,fef8,fcf8,fafc,0204,0200,f2f8,0604,0610,fefa,f2f8,f4f6,fcfe,0604,faf4,02fe,0204,0cf8,f4f6,f0f0,f6f4,fe02,fefc,f0f8,0006,060a,fafa,eeec,f0f4,f8fe,0000,f8f6,f8fc,0008,fcfe,ecee,f4f4,f6f6,fe00,f8f4,f2f2,0004,0804,f8f0,f6f8,fcfa,fafe,fefc,f4f0,f4fe,0604,06fe,f8fe,fafa,fe02,0404,00fa,f4f6,0400,0804,02fa,fcf8,fe00,0608,0404,fcf6,fa02,fe06,0404,00fe,fcfe,0608,0606,04fe,f8f8,00fc,0c04,0202,fcfa,0206,0406,080a,0200,faf4,0606,0806,0202,fe00,0202,0a0c,0c06,00fe,f402,0a08,fe00,02fc,0200,0004,0a0a,0600,eef0,fe00,0006,0204,0202,0404,0406,0806,faf4,f4fc,06fe,0404,0204,0404,0406,0806,0408,f6f6,0c0a,fe04,0804,0604,0402,0404,0a06,0402,0004,080e,0a04,0404,0000,0404,060a,080c,0808,0606,0002,00fe,0000,0204,0606,060c,0e10,060a,0204,0604,0000,0000,0406,0606,080a,0206,0e02,0a0e,0404,0002,0204,0806,0604,0a08,080a,0406,0204,0000,0002,0406,0606,0604,0202,12f8,0c02,0002,0204,0202,0406,0406,0206,0208,fa08,0602,fe02,0204,0404,0606,0608,0404,fa06,0602,0600,0602,0402,0004,0406,0408,040e,fc06,0402,0204,0202,0200,0406,0006,0208,0400,0404,0202,0200,00fe,0000,0404,fef8,0408,0606,0404,0204,0000,02fe,0000,fcfa,0008,0e0e,0206,00fe,fcfc,0200,fefe,fefe,fafc,0800,040a,0808,00fe,0002,0600,0202,0002,0204,0404,0808,0a02,0204,fe00,0602,0004,0402,0202,0202,040c,0204,0204,0808,0a04,0408,0406,fc12,0000,0000,0000,0000,0000,0000,0000,0000,0000,0000,0000,0000,0000,0000,0000,0000,0000,0000,0000,0000,0000,0000,0000,0000,0000,0000,0000,0000,0000,0000,0000,0000,0000,0000,0000,0000,0000,0000,0000,0000,0000,0000,0000,0000,0000,0000,0000,0000,0000,0000,0000,0000,0000,0000,0000,0000,0000,0000,0000,0000,0000,0000,0000,0000,0000,0000,0000,0000,0000,0000,0000,0000,0000,0000,0000,0000,0000,0000,0000,0000,0000,0000,0000,0000,0000,0000,0000,0000,0000,0000,0000,0000,0000,0000,0000,0000,0000,0000,0000,0000,0000,0000,0000,0000,0000,0000,0000,0000,0000,0000,0000,0000,0000,0000,0000,0000,0000,0000,0000,0000,0000,0000,0000,0000,0000,0000,0000,0000,0000,0000,0000,0000,0000,0000,0000,0000,0000,0000,0000,0000,0000,0000,0000,0000,0000,0000,0000,0000,0000,0000,0000,0000,0000,0000,0000,0000,0000,0000,0000,0000,0000,0000,0000,0000,0000,0000,0000,0000,0000,0000,0000,0000,0000,0000,0000,0000,0000,0000,0000,0000,0000,0000,0000,0000,0000,0000,0000,0000,0000,0000,0000,0000,0000,0000,0000,0000,0000,0000,0000,0000,0000,0000,0000,0000,0000,0000,0000,0000,0000,0000,0000,0000,0000,0000,0000,0000,0000,0000,0000,0000,0000,0000,0000,0000,0000,0000,0000,0000,0000,0000,0000,0000,0000,0000,0000,0000,0000,0000,0000,0000,0000,0000,0000,0000,0000,0000,0000,0000,0000,0000,0000,0000,0000,0000,0000,0000,0000,0000,0000,0000,0000,0000,0000,0000,0000,0000,0000,0000,0000,0000,0000,0000,0000,0000,0000,0000,0000,0000,0000,0000,0000,0000,0000,0000,0000,0000,0000,0000,0000,0000,0000,0000,0000,0000,0000,0000,0000,0000,0000,0000,0000,0000,0000,0000,0000,0000,0000,0000,0000,0000,0000,0000,0000,0000,0000,0000,0000,0000,0000,0000,0000,0000,0000,0000,0000,0000,0000,0000,0000,0000,0000,0000,0000,0000,0000,0000,0000,0000,0000,0000,0000,0000,0000,0000,0000,0000,0000,0000,0000,0000,0000,0000,0000,0000,0000,0000,0000,0000,0000,0000,0000,0000,0000,0000,0000,0000,0000,0000,0000,0000,0000,0000,0000,0000,0000,0000,0000,0000,0000,0000,0000,0000,0000,0000,0000,0000,0000,0000,0000,0000,0000,0000,0000,0000,0000,0000,0000,0000,0000,0000,0000,0000,0000,0000,0000,0000,0000,0000,0000,0000,0000,0000,0000,0000,0000,0000,0000,0000,0000,0000,0000,0000,0000,0000,0000,0000,0000,0000,0000,0000,0000,0000,0000,0000,0000,0000,0000,0000,0000,0000,0000,0000,0000,0000,0000,0000,fa00,0606,0608,1610,1410,120e,1408,02fe,0400,040a,0a04,080a,0c12,0c08,1216,0e0a,0206,fef8,0408,0200,0406,0a06,0a0e,0c0c,080a,fefc,f4fe,0206,0608,0804,0604,1008,0604,0408,f4f6,0002,0406,0a08,0406,0808,0802,0404,f2f2,fe00,0204,0406,0402,080a,0a04,fafc,080c,f2f6,fefe,0404,0404,060a,0608,00fa,fa00,faf8,fefe,fe02,0404,0606,0808,0602,f4f4,0606,f4f2,fefa,0402,0608,080a,0406,fefe,fa00,0afe,f8fe,fcfe,0406,0a08,0a06,0402,fefa,060a,f6fc,fcfa,0000,0206,0608,0608,00fe,fafc,02f8,00fc,f8fa,fcfc,fefc,0202,fefa,faf8,fa06,fefe,faf8,fafa,fafa,fcfa,fcf8,f8f6,f6f4,00fa,fefe,fcfc,fafa,f8f6,f8f8,f4f2,f0ee,f806,0202,fcfc,fc00,fcfa,fafa,f6f6,f4f0,eefa,fe04,0202,0000,00fe,fcfc,fefc,f8f6,ecec,0604,0808,00fc,0000,fcfc,0000,fcfe,f6f4,fa04,f800,0604,0200,00fc,fc00,0202,fcfc,f6f6,0608,0604,0404,0404,fe00,0204,0400,00fc,040a,040a,0606,0200,0200,0202,0602,0402,0202,080e,0a08,0404,fe00,0000,0404,0602,0404,0606,0404,0402,0000,00fe,0200,0204,0000,0406,0c0c,0202,0200,fefe,fe00,fefe,0202,fe00,0406,0200,fe02,0202,0000,fcfe,fefe,fef8,0002,0600,fefe,0000,0202,02fe,fefc,fafa,f6fc,fe04,02fa,f8fc,0200,0202,fefe,fefa,f8f8,f8fa,fef8,fafc,0002,0000,fefe,fe00,fcf8,f4fa,fafc,00fe,fcfe,00fc,fcfe,fcfe,0002,f8f4,f4f6,fcfa,f8fa,faf8,f8fa,fefc,00fe,fef6,ecf2,fafe,fcf4,f8fa,faf8,fcfa,fcfc,faf8,f0ec,f2f4,fefc,eeee,f2f0,f6f8,f8fe,f2f0,f6f0,eeea,fcfc,faf2,e8ea,e8ec,ecec,f0f0,eaec,eeee,eef6,fefe,eee8,e4e4,dee4,e6ea,e4e2,e8ea,f0f0,f602,fcf6,ece8,e2dc,dad4,d8dc,dce0,e8f0,faf6,0000,0a06,0600,f6f0,f2f2,f2f0,f6f4,0a00,0002,0408,0810,00fc,f4f0,eef0,f4f6,fe00,040a,faf8,0204,0402,f4f8,f8f6,f2f6,f4f2,fafe,0402,0206,0202,fefc,fafc,f8f8,fefc,fcfa,0202,000a,0602,0004,00fe,faf8,fafc,f8fa,0202,0602,0600,0004,fefe,fcfc,f8fa,fc00,0000,0406,02fe,0002,fefe,f8f8,00fe,fefc,0404,060c,0806,0a06,00fa,fcfc,fefe,fcfc,fc00,0000,1208,00fe,0402,00fe,fcfe,fcfc,fafa,fcfe,000c,0800,0604,0000,00fe,f8fa,f8f8,faf8,fe00,0804,0404,fcfe,00fe,fefa,f8f8,f4f4,f2f2,fafa,080c,fefe,0200,0002,faf8,f8f8,f6f2,f8fe,0c12,04fe,fe02,0606,0000,fcfa,fcfa,fcfe,0a14,120e,0afe,0006,0606,0404,0200,0206,080c,1a12,0804,0200,0a0a,0808,0808,0608,0c0e,1216,0a04,0002,0806,0a0a,0a0a,0e0c,0c0e,0e0a,100c,0406,0000,0604,080a,0a0a,0a0c,0c0c,0a0c,0afe,0404,0004,0404,0a0a,0a0a,080a,0c0c,0a06,00fe,fcfa,0200,0606,0a0a,0a08,0a0a,0e0e,0600,06fc,fe00,0204,0608,0a08,080a,0c10,0c0e,02f8,fefc,fcfc,0202,0808,0206,0a08,0e0e,0800,00fe,f8fc,fefe,0202,0406,0004,0604,0c0e,0006,fefc,fefc,fcfc,0000,0000,0402,020a,0802,08fe,fefc,fefc,00fe,0002,fe00,0202,0a0a,0008,02fe,0200,fefe,fcfc,00fe,0200,04fe,0408,0604,0202,0000,fefe,fefc,fe00,02fe,0802,0206,0002,02fe,0200,fefc,00fc,0000,fefa,0202,0a02,fcfc,fefe,fe02,0000,0002,00fe,fc00,0a04,fcfc,f6f8,02fc,0000,0402,04fe,0002,000a,0602,f6f4,f6fc,fe02,0004,0400,0806,0002,0404,0000,f8f8,fcfe,fefe,0002,0804,0606,040a,0600,f6fa,f4f6,fafa,fe00,0006,0c06,0404,00fe,02f6,f6fe,f0f6,fafe,f804,0402,0206,fe04,04fc,00f8,f8f0,eeee,f4ee,f2f2,0000,fefe,02fc,0000,0000,0000,0000,0000,0000,0000,0000,0000,0000,0000,0000,0000,0000,0000,0000,0000,0000,0000,0000,0000,0000,0000,0000,0000,0000,0000,0000,0000,0000,0000,0000,0000,0000,0000,0000,0000,0000,0000,0000,0000,0000,0000,0000,0000,0000,0000,0000,0000,0000,0000,0000,0000,0000,0000,0000,0000,0000,0000,0000,0000,0000,0000,0000,0000,0000,0000,0000,0000,0000,0000,0000,0000,0000,0000,0000,0000,0000,0000,0000,0000,0000,0000,0000,0000,0000,0000,0000,0000,0000,0000,0000,0000,0000,0000,0000,0000,0000,0000,0000,0000,0000,0000,0000,0000,0000,0000,0000,0000,0000,0000,0000,0000,0000,0000,0000,0000,0000,0000,0000,0000,0000,0000,0000,0000,0000,0000,0000,0000,0000,0000,0000,0000,0000,0000,0000,0000,0000,0000,0000,0000,0000,0000,0000,0000,0000,0000,0000,0000,0000,0000,0000,0000,0000,0000,0000,0000,0000,0000,0000,0000,0000,0000,0000,0000,0000,0000,0000,0000,0000,0000,0000,0000,0000,0000,0000,0000,0000,0000,0000,0000,0000,0000,0000,0000,0000,0000,0000,0000,0000,0000,0000,0000,0000,0000,0000,0000,0000,0000,0000,0000,0000,0000,0000,0000,0000,0000,0000,0000,0000,0000,0000,0000,0000,0000,0000,0000,0000,0000,0000,0000,0000,0000,0000,0000,0000,0000,0000,0000,0000,0000,0000,0000,0000,0000,0000,0000,0000,0000,0000,0000,0000,0000,0000,0000,0000,0000,0000,0000,0000,0000,0000,0000,0000,0000,0000,0000,0000,0000,0000,0000,0000,0000,0000,0000,0000,0000,0000,0000,0000,0000,0000,0000,0000,0000,0000,0000,0000,0000,0000,0000,0000,0000,0000,0000,0000,0000,0000,0000,0000,0000,0000,0000,0000,0000,0000,0000,0000,0000,0000,0000,0000,0000,0000,0000,0000,0000,0000,0000,0000,0000,0000,0000,0000,0000,0000,0000,0000,0000,0000,0000,0000,0000,0000,0000,0000,0000,0000,0000,0000,0000,0000,0000,0000,0000,0000,0000,0000,0000,0000,0000,0000,0000,0000,0000,0000,0000,0000,0000,0000,0000,0000,0000,0000,0000,0000,0000,0000,0000,0000,0000,0000,0000,0000,0000,0000,0000,0000,0000,0000,0000,0000,0000,0000,0000,0000,0000,0000,0000,0000,0000,0000,0000,0000,0000,0000,0000,0000,0000,0000,0000,0000,0000,0000,0000,0000,0000,0000,0000,0000,0000,0000,0000,0000,0000,0000,0000,0000,0000,0000,0000,0000,0000,0000,0000,0000,0000,0000,0000,0000,0000,0000,0000,0000,0000,0000,0000,0000,0000,0000,0000,0000,0000,0000,0000,0000,0000,0000,0000,0000,0000,0000,0000,0000,0000,0000,fe00,fefe,fcfe,0000,fe00,fcfe,fefe,0002,0206,fcfe,fefe,fcfc,fefc,fefe,fcfe,fafe,fe00,00fc,fcfe,fafc,00fe,fe00,fefe,fefe,fefe,0202,fefe,fcfa,fefc,fefe,fefe,fefe,fefc,fcfe,00fe,fcfc,fefc,fe00,0000,0000,fefe,fefe,fafe,00fe,fafc,0000,fe00,fefe,fefe,fefc,fefe,00fe,fcfc,fefe,0000,fefe,fefe,fefe,fcfe,0000,0200,fe00,0000,0200,fefe,fefe,fefc,fe00,00fe,0000,00fe,fe00,00fe,fefe,fefe,fcfe,02fe,fefe,00fe,0000,00fe,fefe,00fe,fefc,fcfc,00fc,0200,fefe,0000,0000,fefe,fefe,fefc,fefe,0000,fefe,fe00,00fe,fe00,fefe,fefe,fcfa,0200,fe00,00fe,0000,fe00,fefe,fefe,fefc,04fe,fefc,fe00,fefe,fe00,fefe,fefe,fefe,fcfe,fe00,0000,fefe,fefe,fefe,fefe,fefe,fefe,fefe,fcfe,0000,fe00,fe00,fefe,fefe,fefe,fefe,fefe,fcfe,fefe,fefe,fe00,fefe,0000,fe00,00fc,fcfe,fefc,fefe,fefe,fefe,fefe,fefe,fefe,00fc,00fe,fefc,00fe,fefe,fefe,fe00,fefe,0000,fcfc,fcfc,fefe,00fe,fefe,fefe,fefe,fe00,00fe,fefe,fcfe,fefe,fefe,fefe,fefe,fefe,fefe,fefc,fe00,fe00,fefe,fefe,fefe,fefe,00fe,fefe,0202,0000,0000,00fe,fefe,fe00,fefe,fefe,0000,0200,0000,fefe,fefe,fefe,00fe,00fe,fcfe,0000,0000,00fe,fefe,fefe,fefe,fefe,0000,0000,0000,00fe,00fe,fefe,fefe,fefe,fefe,0000,fefe,00fe,00fe,fefe,fefe,fefe,fefe,0000,0000,0000,fefe,fe00,fefe,fefe,fefe,0000,0000,0000,00fe,fefe,0000,fefe,fefe,fe00,fefe,fe00,0000,fe00,fefe,fefe,fe00,fe00,00fe,fefe,fefe,fefe,fefe,fefe,fefe,fe00,0000,fefe,fe00,fefe,fefe,fefe,fefe,fefe,fe00,0202,00fe,0000,fefe,fefe,00fe,fefe,0000,fa00,0200,0002,00fe,00fe,0200,00fe,0000,0000,0200,00f8,02fa,fe00,fefe,f8fc,fafa,fa00,0200,fc00,00fe,fefe,fcf8,fcf8,fafa,fefc,0202,fefa,fcfc,fcfe,fe00,fcfe,fcfe,fcfc,fefe,fcfe,02fe,fcfe,00fe,fefe,fefe,fefe,fcfe,fe00,fe00,00fc,fcfe,02fe,fefe,fcfc,00fc,fefe,fcfe,fcfc,fe00,0000,0000,0000,00fe,fcfe,00fa,0002,0002,fe00,fe00,fe00,00fe,fe00,fcfc,fafe,fcfe,fefe,fefe,00fe,fefe,0000,fefc,fcfe,fcfc,00fc,fefe,0000,0000,0000,fe00,fefe,fcfc,0000,fcfe,fefe,0000,0000,0000,00fe,fefe,fafe,fefc,fcfe,fe00,0000,0000,0000,fc00,fcfc,fefe,fcfe,fe00,0000,0000,0000,fefc,fefa,fe02,00fc,fe00,fe00,fefe,00fe,00fe,fcfc,fefc,fefc,fcfc,fefe,fe00,00fe,fefe,fefe,fafc,fcfe,fefe,fefe,fefe,fe00,fefe,fefe,fefe,fe00,00fe,fcfc,fefe,fefe,fefe,fefe,fefc,fefa,0000,fcfe,fefe,fcfc,fefe,fefe,fefe,fefe,00fa,fcfe,fcfe,fefe,fefe,fefe,fefe,fefe,fefe,0202,fefe,fefe,fefe,fefe,fefe,fefe,00fe,fe02,00fe,fefe,0000,fefe,00fe,fefe,fe00,fe00,fefc,0000,fefe,fefe,fefe,fefe,00fe,fefe,fe00,fe00,00fe,fefe,fe00,fefe,fefe,fefe,00fc,0200,fefe,fefe,fefe,00fe,fefe,fefe,fc00,fefc,fefc,fefe,fefe,00fe,fefe,fe00,fe00,fefe,0200,fefe,fefe,00fe,fefe,fe00,fefe,fcfe,fefc,0000,fefe,fefe,fefe,fefe,00fe,fe00,fe02,0000,00fe,fefe,fefe,fefe,fefe,fefe,fefe,0002,00fe,fcfe,fefe,fefe,fefe,fefe,fe00,0000,0204,fcfe,0000,fefe,fefe,fe00,fe00,fe04,0000,fc02,00fe,fefe,fefe,fefe,fe00,0000,0002,0402,fc00,00fe,fefe,fefe,fe00,fe00,0000,fe02,0402,fe02,0000,0000,fefe,fefe,fe00,04fe,0202,02fe,0002,0000,0200,02fe,fefc,00fe,0404,00fe,08fa,0000,0000,0404,0200,fe00,fc02,0200,0000,0000,0000,0000,0000,0000,0000,0000,0000,0000,0000,0000,0000,0000,0000,0000,0000,0000,0000,0000,0000,0000,0000,0000,0000,0000,0000,0000,0000,0000,0000,0000,0000,0000,0000,0000,0000,0000,0000,0000,0000,0000,0000,0000,0000,0000,0000,0000,0000,0000,0000,0000,0000,0000,0000,0000,0000,0000,0000,0000,0000,0000,0000,0000,0000,0000,0000,0000,0000,0000,0000,0000,0000,0000,0000,0000,0000,0000,0000,0000,0000,0000,0000,0000,0000,0000,0000,0000,0000,0000,0000,0000,0000,0000,0000,0000,0000,0000,0000,0000,0000,0000,0000,0000,0000,0000,0000,0000,0000,0000,0000,0000,0000,0000,0000,0000,0000,0000,0000,0000,0000,0000,0000,0000,0000,0000,0000,0000,0000,0000,0000,0000,0000,0000,0000,0000,0000,0000,0000,0000,0000,0000,0000,0000,0000,0000,0000,0000,0000,0000,0000,0000,0000,0000,0000,0000,0000,0000,0000,0000,0000,0000,0000,0000,0000,0000,0000,0000,0000,0000,0000,0000,0000,0000,0000,0000,0000,0000,0000,0000,0000,0000,0000,0000,0000,0000,0000,0000,0000,0000,0000,0000,0000,0000,0000,0000,0000,0000,0000,0000,0000,0000,0000,0000,0000,0000,0000,0000,0000,0000,0000,0000,0000,0000,0000,0000,0000,0000,0000,0000,0000,0000,0000,0000,0000,0000,0000,0000,0000,0000,0000,0000,0000,0000,0000,0000,0000,0000,0000,0000,0000,0000,0000,0000,0000,0000,0000,0000,0000,0000,0000,0000,0000,0000,0000,0000,0000,0000,0000,0000,0000,0000,0000,0000,0000,0000,0000,0000,0000,0000,0000,0000,0000,0000,0000,0000,0000,0000,0000,0000,0000,0000,0000,0000,0000,0000,0000,0000,0000,0000,0000,0000,0000,0000,0000,0000,0000,0000,0000,0000,0000,0000,0000,0000,0000,0000,0000,0000,0000,0000,0000,0000,0000,0000,0000,0000,0000,0000,0000,0000,0000,0000,0000,0000,0000,0000,0000,0000,0000,0000,0000,0000,0000,0000,0000,0000,0000,0000,0000,0000,0000,0000,0000,0000,0000,0000,0000,0000,0000,0000,0000,0000,0000,0000,0000,0000,0000,0000,0000,0000,0000,0000,0000,0000,0000,0000,0000,0000,0000,0000,0000,0000,0000,0000,0000,0000,0000,0000,0000,0000,0000,0000,0000,0000,0000,0000,0000,0000,0000,0000,0000,0000,0000,0000,0000,0000,0000,0000,0000,0000,0000,0000,0000,0000,0000,0000,0000,0000,0000,0000,0000,0000,0000,0000,0000,0000,0000,0000,0000,0000,0000,0000,0000,0000,0000,0000,0000,0000,0000,0000,0000,0000,0000,0000,0000,0000,0000,0000,0000,0000,0000,0000,0000,0000,0000,0000,0000,0404,f6fe,faf8,0404,0004,eef0,f4fc,00fc,0402,f6fe,fcfc,fe00,0002,f8f6,ecee,faf6,f6ee,fcf2,f0f6,faf6,0002,0200,f0ee,f4f8,08fe,f8f4,f6fa,f8f6,fafe,0004,fafa,f0ee,02f0,fcf8,f4f6,f8f6,f8f6,0200,0000,f6f4,f4f6,fef8,00fc,f6f4,fafc,0000,00fc,fafa,f0f8,fcf8,fcfc,f6f8,f4f6,fcfc,00fe,fafc,f6f6,f4f6,fcfc,fcfe,faf6,fafc,fcfe,0000,fafc,f4f4,f6f4,fafc,fafc,fafc,fcfc,00fa,fe00,f8f6,f0f6,02fe,04fe,fafc,fcfa,fcfe,fefc,fcf8,f6f8,ecec,0000,00fe,fe02,fafa,fefe,fafa,f6f6,f8f4,f8fa,0600,0000,0002,fefe,00fe,f8f8,0002,eeea,0402,fc02,0202,fafe,0002,fcfa,fcfe,f6f0,02fa,fefc,0206,fefc,0000,00fe,fcfa,00fe,eef6,f8f6,fefe,00fe,0202,00fc,fefe,0002,f8f2,0200,fafc,02fe,fafc,00fe,fafe,00fe,04fe,fcf6,02fc,0004,fefc,0202,fafa,0202,fe00,faf8,fafc,00fe,02fc,fc06,06fc,fe02,02fe,02fe,f8f8,0402,0402,fafc,0808,f2f8,0404,fcfc,f6f6,fc00,0402,00f8,0608,f8f0,0006,02fc,fef8,f6fa,0406,00fc,fe04,06fc,f0fa,0404,0000,f4f6,0004,0000,fafa,0206,eeea,0402,fefa,faf4,f8f8,00fe,f4f6,0000,fef0,f600,0200,fcfa,f4ee,00fe,f4f4,fafe,0404,eef0,0402,f8fa,f8f6,f4f4,f8f8,fafc,0202,f8f2,fa02,fefe,f8f6,f4f4,fefa,fafc,0202,00fe,f6f8,0400,faf8,00fe,f800,fafa,00fe,fe00,faf8,fc00,fe00,f8fc,f6f6,fcfc,fefe,fefa,fefe,f8f8,00fc,faf8,fefc,f8fa,0000,fafa,fefa,faf8,fafe,00fe,f6fc,f6f6,00fe,02fa,fcfc,f8fe,fafa,fafe,f8f4,faf6,fcf8,fe02,fafc,fafa,fafc,fafa,00fe,f6fa,f800,0004,fefc,fefc,fc00,fefa,fcfe,faf8,fcfa,fefe,fefa,f8fa,fe00,fcfc,fefc,0202,fafc,f2fe,fafa,faf8,f8fc,00fe,fcfc,fefe,fcf8,02fc,0000,0a08,0a0c,0606,0c06,02fe,0002,0810,060c,0606,0e0a,0a0a,fe00,0202,fcfe,000a,120e,0806,0608,0a04,0400,0002,04fc,fefe,0604,0a12,0c06,0808,0808,0202,0804,0002,0608,0614,0c0c,0a02,0200,0004,0406,0200,0206,0608,060a,0e06,06fe,0402,0404,0402,0206,0808,0c0c,0c12,020a,0202,0204,0206,0402,0406,0204,1008,0802,0404,0606,0400,0404,0204,0606,060a,060a,0406,0002,0202,fe02,0202,0606,0808,040a,0606,0002,0204,02fe,0202,0204,0208,0c0a,0a12,0004,fefc,0202,fe02,0002,00fe,080a,060a,0402,0600,0202,fefe,0204,00fe,0202,0c06,080e,0406,0000,fcfc,fefe,fefc,00fe,040a,0c12,0604,0200,fcfa,fe00,fefc,fefc,fe02,0a04,0e08,fcfe,02fe,f8fc,00fe,fcfe,fcfe,0604,0a0e,08fe,0204,f6fa,0404,fcfc,0202,0404,0002,0e0a,00fe,00f8,0006,04fc,0406,0204,0602,0806,0604,0200,fc02,080c,fa00,0804,0408,0404,080a,fe02,fefc,0808,00f8,060e,00fe,02fe,0a0c,060a,00fa,0006,0e06,f600,0a06,0200,060c,0c0a,fafc,fafe,080e,f6f4,060a,0200,0608,040e,0200,fefe,0408,04fa,f600,0806,fc02,0808,0c10,fcfe,0206,0404,f0f2,0808,0000,0804,0c08,0406,0204,0606,faf4,fc04,0608,0208,060c,0a08,0804,0806,02fe,f8fa,0806,fcfe,0408,0810,0c06,0a08,0404,f8fa,0606,0200,0404,0e08,100e,0608,0402,fef8,fe02,0400,fe02,0602,0808,0808,0400,00fe,f8fa,0604,02f8,fc02,080c,0810,0806,fcfe,fe00,0004,0002,fe08,0406,080a,0e0e,0200,0204,0006,0202,0002,04fe,0c10,0c06,0006,fc00,0604,0202,0402,0a06,0406,0e0a,0a0a,0404,0608,0408,0002,0606,0602,0208,fe0e,0c00,0604,0808,0202,0808,0c0a,1010,0404,080a,0808,0a0a,0804,0204,0e0e,0c10,0602,040e,0000,0000,0000,0000,0000,0000,0000,0000,0000,0000,0000,0000,0000,0000,0000,0000,0000,0000,0000,0000,0000,0000,0000,0000,0000,0000,0000,0000,0000,0000,0000,0000,0000,0000,0000,0000,0000,0000,0000,0000,0000,0000,0000,0000,0000,0000,0000,0000,0000,0000,0000,0000,0000,0000,0000,0000,0000,0000,0000,0000,0000,0000,0000,0000,0000,0000,0000,0000,0000,0000,0000,0000,0000,0000,0000,0000,0000,0000,0000,0000,0000,0000,0000,0000,0000,0000,0000,0000,0000,0000,0000,0000,0000,0000,0000,0000,0000,0000,0000,0000,0000,0000,0000,0000,0000,0000,0000,0000,0000,0000,0000,0000,0000,0000,0000,0000,0000,0000,0000,0000,0000,0000,0000,0000,0000,0000,0000,0000,0000,0000,0000,0000,0000,0000,0000,0000,0000,0000,0000,0000,0000,0000,0000,0000,0000,0000,0000,0000,0000,0000,0000,0000,0000,0000,0000,0000,0000,0000,0000,0000,0000,0000,0000,0000,0000,0000,0000,0000,0000,0000,0000,0000,0000,0000,0000,0000,0000,0000,0000,0000,0000,0000,0000,0000,0000,0000,0000,0000,0000,0000,0000,0000,0000,0000,0000,0000,0000,0000,0000,0000,0000,0000,0000,0000,0000,0000,0000,0000,0000,0000,0000,0000,0000,0000,0000,0000,0000,0000,0000,0000,0000,0000,0000,0000,0000,0000,0000,0000,0000,0000,0000,0000,0000,0000,0000,0000,0000,0000,0000,0000,0000,0000,0000,0000,0000,0000,0000,0000,0000,0000,0000,0000,0000,0000,0000,0000,0000,0000,0000,0000,0000,0000,0000,0000,0000,0000,0000,0000,0000,0000,0000,0000,0000,0000,0000,0000,0000,0000,0000,0000,0000,0000,0000,0000,0000,0000,0000,0000,0000,0000,0000,0000,0000,0000,0000,0000,0000,0000,0000,0000,0000,0000,0000,0000,0000,0000,0000,0000,0000,0000,0000,0000,0000,0000,0000,0000,0000,0000,0000,0000,0000,0000,0000,0000,0000,0000,0000,0000,0000,0000,0000,0000,0000,0000,0000,0000,0000,0000,0000,0000,0000,0000,0000,0000,0000,0000,0000,0000,0000,0000,0000,0000,0000,0000,0000,0000,0000,0000,0000,0000,0000,0000,0000,0000,0000,0000,0000,0000,0000,0000,0000,0000,0000,0000,0000,0000,0000,0000,0000,0000,0000,0000,0000,0000,0000,0000,0000,0000,0000,0000,0000,0000,0000,0000,0000,0000,0000,0000,0000,0000,0000,0000,0000,0000,0000,0000,0000,0000,0000,0000,0000,0000,0000,0000,0000,0000,0000,0000,0000,0000,0000,0000,0000,0000,0000,0000,0000,0000,0000,0000,0000,0000,0000,0000,0000,0000,0000,0000,0000,0000,0000,0000,0000,0000,0000,0000,fe02,0600,fefa,f2fc,fcfe,fcf8,fefa,0af6,fefe,04f4,fafa,f6f0,02fa,fa00,fefa,faf6,f8fe,0000,fcf8,fcfa,f4f8,f6f8,fe00,fafc,f8fe,0400,fafe,fefa,f2f8,fefa,fefe,fcfa,f8f8,fcfa,fcfa,00fa,f2f4,0000,f8fc,02fc,f8f6,fcf8,0200,fcfc,f4ee,f4fe,faf8,0002,00fe,f6fc,fcfa,fefc,fafc,eef4,0400,fe02,0404,02fc,fefc,fcfe,00fc,f4ec,f800,f8fc,0608,0a08,fafc,fcfc,00fc,f6fa,f0f4,00fa,0404,0806,0000,00fc,fe00,f8f8,f4f0,fa00,fc02,0608,0200,fcfe,f6f8,00f8,fafa,f2f8,f8fa,0204,0404,00fc,fcfc,0400,f6f6,fef6,00fc,0200,0602,0200,fefc,fc00,fcfc,fafe,0402,fefe,0404,fcfa,fafa,fcfc,fcfc,faf8,0000,0002,0002,fefc,fcfa,fc00,00f8,f8fa,f4fa,0200,fe02,0402,fcfc,f8f8,0002,08f6,f2ee,fc02,0202,0a0a,0200,fefc,fafa,0004,f6f2,eaf2,0202,0206,0604,fefc,f6f4,fafe,0204,f8f6,f4fc,0602,0a08,0402,faf8,fafc,0202,02fc,f4f4,fc02,0002,0402,00fe,fcfc,fe04,0402,0006,f8f8,fefe,0200,00fe,0202,0000,fafe,0608,04fe,fcfa,00fe,00fe,0202,0406,fcfa,0202,0608,fefe,fafe,0202,0202,0404,02fc,fcfc,0402,0604,fcfc,fe00,0202,0606,0808,f6fa,fefc,fefe,0002,fefe,0202,0406,080a,02f6,fcfa,fcfe,fafe,0002,0204,0404,060a,0600,f4f6,fefa,fcf6,fcfc,0404,0402,0404,0c04,f8f8,fe00,fafc,f4f8,fe02,0200,0000,060a,fcf8,f8fe,fcfc,fafa,f8fc,0204,0400,fe00,0200,fcfc,02fc,0200,faf8,fafc,fe00,fefa,fcfc,fcfe,fcfe,0200,0402,faf8,f8f6,f4f8,fafa,fcfa,0000,0000,0002,00fe,f8f8,f2f4,f4f2,fcfc,fe04,0202,fefe,0404,fcfa,f6f4,f2f8,f6fa,fcfe,0402,0802,0002,0000,f8f4,f4f2,f2ee,fefe,0206,fe02,fefc,0004,fefc,f6f6,f6f4,f4f4,fefe,0604,0002,f802,fcfc,06fa,0000,0004,0400,0404,00fc,fa04,0004,fefc,060a,00fa,060a,0402,00fa,0a04,fefe,02fa,fe02,0600,0006,0c0a,0000,fe00,00fc,fafa,fefc,060a,fefe,0c0e,0e08,0c00,08f6,fefa,0004,fc04,0c04,080e,1010,0408,f806,02fa,fafe,faf6,0e0e,060a,1010,140c,08fe,0208,fefa,00fe,0208,0004,0e10,1210,0a02,fc06,fc06,faf8,fafa,0600,0a08,0a0c,0806,fa04,0c02,f6fc,f6f6,0406,0208,0a08,0806,04fc,0004,fefe,f8f8,fa00,fcfe,0808,0202,0000,fafa,0806,fcfa,f2f4,00fa,0606,0600,fefe,fcf8,f402,fc02,fcf2,fcfe,fc00,0406,0002,fcfc,faf8,06fc,fefc,eef4,f8f6,0204,0608,0404,02fa,f8fe,00fe,faf4,f6f6,f8fe,0808,0a08,0604,fe00,0006,06fe,f2f4,f8f6,0002,0a0c,080a,0000,fefc,0004,fefa,f2f4,f8fe,0208,0a0a,0404,fc02,fa08,0a02,02fa,f2f2,f8fa,0406,0602,02fc,fe00,0202,060a,fef8,f8f8,f6fa,0200,fef8,f4f6,faf6,0c08,0608,f8f8,f8f8,fafa,faf8,faf8,0202,00fa,0606,04fe,fcfc,fafa,faf8,fcfc,f8fa,04fe,0202,0606,fafa,fcf8,fafa,fafa,f4f8,0806,fafc,fc02,0404,fe02,fcfc,fcfc,f8fa,fafc,fcfe,f8fa,f8fc,0200,02fe,0202,fcf8,eef0,fefe,f6fe,fef4,f8fe,0200,00fe,fcfe,f4f4,fafa,f404,f200,f6f4,fc00,0002,fcfe,fafa,f6f2,f6fc,fef8,fafc,f4f4,fcfe,fcfa,f8f8,f8f6,f8fc,02fe,f8fa,f8fa,f2f4,f8f8,f4f6,f8fe,f6f6,fc00,f6fe,fafa,f6f2,f0f2,f4f0,f8f8,02fc,f4fa,fe02,00f8,f8fe,f4f4,f2f4,f6f6,0200,fcfa,000a,fafa,02fe,fafa,f2f6,f8f8,fe02,00fe,fafc,f002,fa02,fcfa,00fc,f4fa,fcf8,0a02,f6fe,fa00,00fa,fcfe,fcfc,fcfa,fe02,fe04,f8f6,fc04,0002,f8f8,f800,00fc,00fe,fafc,0202,f804,0000,f800,f0f8,f800,fcf4,fefc,f8f6,f804,f8f6,00f6,0000,0000,0000,0000,0000,0000,0000,0000,0000,0000,0000,0000,0000,0000,0000,0000,0000,0000,0000,0000,0000,0000,0000,0000,0000,0000,0000,0000,0000,0000,0000,0000,0000,0000,0000,0000,0000,0000,0000,0000,0000,0000,0000,0000,0000,0000,0000,0000,0000,0000,0000,0000,0000,0000,0000,0000,0000,0000,0000,0000,0000,0000,0000,0000,0000,0000,0000,0000,0000,0000,0000,0000,0000,0000,0000,0000,0000,0000,0000,0000,0000,0000,0000,0000,0000,0000,0000,0000,0000,0000,0000,0000,0000,0000,0000,0000,0000,0000,0000,0000,0000,0000,0000,0000,0000,0000,0000,0000,0000,0000,0000,0000,0000,0000,0000,0000,0000,0000,0000,0000,0000,0000,0000,0000,0000,0000,0000,0000,0000,0000,0000,0000,0000,0000,0000,0000,0000,0000,0000,0000,0000,0000,0000,0000,0000,0000,0000,0000,0000,0000,0000,0000,0000,0000,0000,0000,0000,0000,0000,0000,0000,0000,0000,0000,0000,0000,0000,0000,0000,0000,0000,0000,0000,0000,0000,0000,0000,0000,0000,0000,0000,0000,0000,0000,0000,0000,0000,0000,0000,0000,0000,0000,0000,0000,0000,0000,0000,0000,0000,0000,0000,0000,0000,0000,0000,0000,0000,0000,0000,0000,0000,0000,0000,0000,0000,0000,0000,0000,0000,0000,0000,0000,0000,0000,0000,0000,0000,0000,0000,0000,0000,0000,0000,0000,0000,0000,0000,0000,0000,0000,0000,0000,0000,0000,0000,0000,0000,0000,0000,0000,0000,0000,0000,0000,0000,0000,0000,0000,0000,0000,0000,0000,0000,0000,0000,0000,0000,0000,0000,0000,0000,0000,0000,0000,0000,0000,0000,0000,0000,0000,0000,0000,0000,0000,0000,0000,0000,0000,0000,0000,0000,0000,0000,0000,0000,0000,0000,0000,0000,0000,0000,0000,0000,0000,0000,0000,0000,0000,0000,0000,0000,0000,0000,0000,0000,0000,0000,0000,0000,0000,0000,0000,0000,0000,0000,0000,0000,0000,0000,0000,0000,0000,0000,0000,0000,0000,0000,0000,0000,0000,0000,0000,0000,0000,0000,0000,0000,0000,0000,0000,0000,0000,0000,0000,0000,0000,0000,0000,0000,0000,0000,0000,0000,0000,0000,0000,0000,0000,0000,0000,0000,0000,0000,0000,0000,0000,0000,0000,0000,0000,0000,0000,0000,0000,0000,0000,0000,0000,0000,0000,0000,0000,0000,0000,0000,0000,0000,0000,0000,0000,0000,0000,0000,0000,0000,0000,0000,0000,0000,0000,0000,0000,0000,0000,0000,0000,0000,0000,0000,0000,0000,0000,0000,0000,0000,0000,0000,0000,0000,0000,0000,0000,0000,0000,0000,0000,0000,0000,0000,0000,0000,0000,0000,0000,0000,0000,fe00,00fc,fcfe,00fe,fefe,fcfc,00fe,0002,0202,00fc,00fe,fefc,fefe,00fe,fefe,fafe,0000,fefc,fcfc,fafc,00fe,fefe,fefe,fefe,fefe,0204,fcfe,fafc,fefc,fefe,fefe,fefe,fefc,fcfc,fafc,fcfc,fefc,fe00,00fe,fefe,fefe,fefc,f8fc,00fc,fafe,00fe,fefe,fefe,00fe,fefe,fefe,fefc,fcfc,fe00,fe00,00fe,fefe,fefe,fefe,fefe,fefe,fafe,0000,0000,fefe,0000,fefe,fefc,00fc,fcfc,fcfe,00fe,00fe,fefe,fefe,fefe,02fe,fcfc,fefe,00fe,fefe,fefe,00fe,fefe,fefc,fefe,0000,00fe,0200,fefe,fe00,fefe,fefe,00fe,0000,fe00,fe00,fefe,00fe,fefe,fefe,fcfa,0000,0002,fe00,0000,fefe,fefe,fefe,fefe,02fe,fefe,fe00,fe00,0000,fefe,fefe,fefe,fcfe,fefe,00fe,00fe,00fe,fe00,fefe,fe00,fefe,00fe,fcfc,0000,0000,fe00,fe00,fefe,fefe,fefe,fcfe,fcfe,00fe,fefe,fefe,0000,00fe,fefe,00fc,fc00,00fe,fe00,fefe,fefe,00fe,0000,fefe,00fc,0000,fefe,fefe,fefe,0000,fefe,fefe,fe00,fcfc,fefe,fefe,fefe,fefe,fefe,00fe,fe00,00fe,fcfc,fcfe,00fe,00fe,00fe,fefe,fefe,fe00,00fe,fe00,0000,00fe,fefe,fefe,fefe,fefe,00fe,0202,0002,0000,fefe,fefe,fe00,fefe,fcfc,0002,0402,0000,00fe,fefe,fefe,fefe,fefe,fefc,0204,0200,fe00,00fe,fefe,fefe,fefe,00fe,fe02,0202,00fe,fe00,fefe,fefe,fefe,fe00,00fe,00fe,0000,fefe,0000,fe00,00fe,fefe,00fe,00fe,0000,fe00,00fe,fe00,00fe,fefe,0000,0000,0000,00fe,0000,fefe,fefe,fefe,fe00,fefe,fefe,fefe,fe00,fe00,00fc,fefe,fefe,00fc,fefe,fefe,fefe,00fe,fefe,fcfe,fefe,0000,fefe,fe00,fefe,fefe,fefc,fefe,fefe,00fe,0400,fefe,00fe,fefe,fefe,0000,fefe,0000,fa02,0000,fe00,00fe,fefe,0200,00fe,0000,00fe,0202,06f8,02f8,0000,fe00,fafe,fcfc,fa02,0402,00fe,00fe,fefe,fcfa,fcfa,fcfa,fefe,0400,fc00,fefe,fe00,fcfe,fcfe,fefe,fefc,fcfc,fe00,fe00,fefe,00fe,0000,fefe,fefe,fefa,0002,fe02,02fa,fcfe,0200,fefe,00fe,00fe,0000,fc00,fefe,fe00,00fe,0000,0000,0000,0000,00fe,0002,fc00,fefe,fe00,fefe,0000,0000,00fe,fc00,fefe,fcfc,fcfe,fefe,fefe,00fe,00fc,fefc,fe00,00fe,fefe,0000,fefe,00fe,fefe,0000,fe00,00fe,fefe,fefe,0000,0000,0000,00fe,00fe,fcfe,fcfc,fefe,fefe,fefe,00fe,0000,fefe,02fe,fefe,fcfe,fcfe,fefe,fe00,00fe,fefe,fefc,0004,00fc,fefe,fefe,fe00,0000,00fe,fefe,fefc,fcfc,fcfc,fefe,fefe,fe00,fefe,0000,fafe,00fe,00fe,fefe,fefe,fefe,fe00,00fe,fefe,fe00,0002,fefe,fefe,fefe,0000,fefe,fefe,fefa,fe00,fcfe,fefc,fefe,fe00,fe00,fe00,fefe,00fe,fafe,fefe,fefe,fefe,fefe,fefe,fefe,0000,0402,fefe,00fe,fefe,fefe,fefe,fe00,00fe,00fe,0200,fe00,fefe,fefe,fefe,fefe,0000,fefe,0002,0200,0000,fefe,fefe,fefe,fe00,fefe,fefe,0002,00fe,00fe,0000,00fe,fe00,00fe,00fa,0202,fe00,0000,fe00,fefe,00fe,fefe,fe00,fe00,fefe,fefe,fefe,00fe,fefe,fe00,fefe,0000,0402,fc00,fcfe,fefe,fefe,00fe,fe00,fc00,fcfc,0200,fe00,fefe,fefe,fefe,00fe,fe00,0002,0200,00fe,fefe,fefe,fefe,fefe,fefc,fe00,fe00,0200,fcfe,fefe,fefe,fefe,fefe,fefe,0000,0406,fefe,00fe,fefe,fefe,fe00,fefe,0006,02fe,fe04,02fe,fefe,fefe,fe00,fefe,00fe,0206,0202,fc02,00fe,fefe,fefe,fefe,fe00,0002,fe04,0202,fc00,00fe,fefe,fefc,fc02,fe00,04fe,02fe,00fe,fe00,fefe,02fe,04fe,fefc,fe00,0202,0000,08fc,00fe,fe00,0404,0202,0000,fe00,0000,0000,0000,0000,0000,0000,0000,0000,0000,0000,0000,0000,0000,0000,0000,0000,0000,0000,0000,0000,0000,0000,0000,0000,0000,0000,0000,0000,0000,0000,0000,0000,0000,0000,0000,0000,0000,0000,0000,0000,0000,0000,0000,0000,0000,0000,0000,0000,0000,0000,0000,0000,0000,0000,0000,0000,0000,0000,0000,0000,0000,0000,0000,0000,0000,0000,0000,0000,0000,0000,0000,0000,0000,0000,0000,0000,0000,0000,0000,0000,0000,0000,0000,0000,0000,0000,0000,0000,0000,0000,0000,0000,0000,0000,0000,0000,0000,0000,0000,0000,0000,0000,0000,0000,0000,0000,0000,0000,0000,0000,0000,0000,0000,0000,0000,0000,0000,0000,0000,0000,0000,0000,0000,0000,0000,0000,0000,0000,0000,0000,0000,0000,0000,0000,0000,0000,0000,0000,0000,0000,0000,0000,0000,0000,0000,0000,0000,0000,0000,0000,0000,0000,0000,0000,0000,0000,0000,0000,0000,0000,0000,0000,0000,0000,0000,0000,0000,0000,0000,0000,0000,0000,0000,0000,0000,0000,0000,0000,0000,0000,0000,0000,0000,0000,0000,0000,0000,0000,0000,0000,0000,0000,0000,0000,0000,0000,0000,0000,0000,0000,0000,0000,0000,0000,0000,0000,0000,0000,0000,0000,0000,0000,0000,0000,0000,0000,0000,0000,0000,0000,0000,0000,0000,0000,0000,0000,0000,0000,0000,0000,0000,0000,0000,0000,0000,0000,0000,0000,0000,0000,0000,0000,0000,0000,0000,0000,0000,0000,0000,0000,0000,0000,0000,0000,0000,0000,0000,0000,0000,0000,0000,0000,0000,0000,0000,0000,0000,0000,0000,0000,0000,0000,0000,0000,0000,0000,0000,0000,0000,0000,0000,0000,0000,0000,0000,0000,0000,0000,0000,0000,0000,0000,0000,0000,0000,0000,0000,0000,0000,0000,0000,0000,0000,0000,0000,0000,0000,0000,0000,0000,0000,0000,0000,0000,0000,0000,0000,0000,0000,0000,0000,0000,0000,0000,0000,0000,0000,0000,0000,0000,0000,0000,0000,0000,0000,0000,0000,0000,0000,0000,0000,0000,0000,0000,0000,0000,0000,0000,0000,0000,0000,0000,0000,0000,0000,0000,0000,0000,0000,0000,0000,0000,0000,0000,0000,0000,0000,0000,0000,0000,0000,0000,0000,0000,0000,0000,0000,0000,0000,0000,0000,0000,0000,0000,0000,0000,0000,0000,0000,0000,0000,0000,0000,0000,0000,0000,0000,0000,0000,0000,0000,0000,0000,0000,0000,0000,0000,0000,0000,0000,0000,0000,0000,0000,0000,0000,0000,0000,0000,0000,0000,0000,0000,0000,0000,0000,0000,0000,0000,0000,0000,0000,0000,0000,0000,0000,0000,0000,0000,0000,0000,0000,0000,0000,0000,0000,0000,0000,fe04,fe06,0206,0000,0006,fcfc,fc04,0600,0002,f80a,06fc,0002,00fe,fc00,faf6,f6fe,f8f8,02fc,fcfe,fcfc,fcfe,00fc,fafa,fafa,0602,00fc,fe00,fefc,f8fa,fafe,0000,fafc,fcfa,00fa,00fe,02fc,faf4,f8f8,fa02,f8fa,00fe,0800,fafc,0402,fcfa,fafc,f6f6,fcfc,fcfe,0202,fcfe,0202,04fe,fefa,faf8,fefe,fcfc,faf8,0000,0000,0a08,02fe,fcfc,fafc,fe00,f8f6,f6fc,0000,0806,0804,00fe,faf8,0000,fef8,f2f4,0402,0000,060a,0604,fefc,fefe,0000,f2f2,f8f8,f8f6,0202,0608,0602,fefe,f800,faf8,f2f8,faf4,00fe,0204,0604,0000,04fe,fefa,f8f6,faf6,faf6,fafe,fefe,fcfc,0202,fefc,f4f4,f4f8,fef8,f8fc,fc00,f2f4,fe00,00fa,faf8,fafa,f0f8,f4fc,fcfa,f6f2,fafa,0200,faf8,faf8,f6f0,fefe,02fe,fefc,f4f6,0204,fefc,fefe,fafa,f6fa,0200,fc00,fcf6,fafe,0400,fcfc,fcfc,faf6,fe00,02fc,fefe,f6f8,0a08,fafc,0000,fefc,f6f8,fe02,fafc,f6f6,0208,04fc,f6fa,f6f8,00fa,0002,faf6,faf6,f8fe,0a06,f2f0,f8f8,fafa,f8fc,fefe,fefe,f8f8,0004,fcf8,eef4,f8f8,fefa,fe02,0202,0200,fc00,0400,f0ec,f6f8,f6fa,faf6,fe00,0202,fefc,00fe,fcf8,f2f4,f6f8,f8fa,0400,0404,0000,fc00,00fe,f4f4,f8fa,f8f8,f8fc,0204,0200,fef8,fafa,f8fa,fcfc,fefe,f6fa,0a04,0204,00fe,f8f8,fcfc,fe00,fefe,fefa,fe02,0000,0400,fcf8,f4f8,fafc,00fe,0004,fcfc,fcfe,fe02,00fe,f8f8,fafc,0202,fefe,0602,fc00,fefc,0000,00fe,fafc,0002,0404,0406,0000,fefe,fefe,0200,02fe,fe00,0204,0404,0404,fef8,fefc,fefe,0204,0000,0202,0404,0602,fefa,fcfe,00fc,fe00,0808,0404,0206,0200,0800,fefe,fe00,fa00,0206,0602,0806,0c0a,fa04,fa00,0c02,fe00,0204,0804,0804,080a,fef8,04fe,0000,040c,080c,0a08,0a02,0c0a,0606,0410,040e,040e,100a,0a06,0608,0606,0602,000a,100c,0608,060a,0c04,0406,0806,0804,0400,0202,060c,0a0a,0402,020a,0a08,0804,0806,0402,0408,0a0a,0a02,fe02,0808,0402,0202,0406,0804,060a,0a06,0200,0608,0804,0200,0606,0202,0c08,0a0c,0400,0200,0604,0804,0002,0402,fe06,0c02,0804,fcfe,0002,0408,0202,0004,0606,0c06,0a0a,fcfa,0200,00fe,0204,fefc,0206,080e,0c0a,080e,fc02,f6fa,f8fc,00fe,fe00,0004,1608,0a0c,00fc,00fe,f4f2,fe00,fcfa,0002,060a,0a08,0a06,0606,fef8,f8fc,0000,fc00,0408,0a0e,0012,0a0c,0404,f8fa,0000,fcfa,0202,0c10,0e0c,080c,0806,f8fa,fc00,0200,fcfe,0c0c,0a04,0c06,0604,0400,fcfa,0404,fcfc,080e,0e06,0a0e,0802,0200,fafc,fc00,04fe,0008,0c10,0a04,0c10,06fe,00fe,fcfe,0606,f8fa,0c0c,080c,0a06,04fc,fcfa,fcfe,0004,06fe,0204,080a,06fc,0a0c,fcfe,0000,fefc,0808,f8fa,0204,0604,0208,fe00,0000,fc02,0406,04fa,fa02,0204,020c,0c04,0204,0404,0402,0606,f6f6,0204,0a0a,fe0c,0204,0404,0608,0404,00fc,fa02,0606,0606,060a,0602,0606,0200,0202,f6fa,0606,0408,0a04,0204,0404,0404,0002,fe00,0606,0808,080e,0a06,02fe,fefc,fefc,0002,0404,080a,0404,0a08,0200,fafe,f8fc,0002,0406,0c10,0a06,0406,080e,fe02,fafa,fcfe,0606,080a,0a04,0804,0602,0808,00fe,fc00,0206,0a08,0808,0206,000c,060c,080a,0200,0802,0408,0404,0602,0404,0608,060a,0606,0206,0604,0400,0404,00fe,0006,140a,0c0c,0606,0202,0000,fefe,02fe,0402,0802,0606,0406,0602,0002,fcfa,fafc,fc00,fe0c,020a,0400,0204,fefe,fafc,faf8,faf8,0400,0802,0408,0604,0402,fcfe,f6f8,f8fe,fe00,0006,0004,0000,0000,0000,0000,0000,0000,0000,0000,0000,0000,0000,0000,0000,0000,0000,0000,0000,0000,0000,0000,0000,0000,0000,0000,0000,0000,0000,0000,0000,0000,0000,0000,0000,0000,0000,0000,0000,0000,0000,0000,0000,0000,0000,0000,0000,0000,0000,0000,0000,0000,0000,0000,0000,0000,0000,0000,0000,0000,0000,0000,0000,0000,0000,0000,0000,0000,0000,0000,0000,0000,0000,0000,0000,0000,0000,0000,0000,0000,0000,0000,0000,0000,0000,0000,0000,0000,0000,0000,0000,0000,0000,0000,0000,0000,0000,0000,0000,0000,0000,0000,0000,0000,0000,0000,0000,0000,0000,0000,0000,0000,0000,0000,0000,0000,0000,0000,0000,0000,0000,0000,0000,0000,0000,0000,0000,0000,0000,0000,0000,0000,0000,0000,0000,0000,0000,0000,0000,0000,0000,0000,0000,0000,0000,0000,0000,0000,0000,0000,0000,0000,0000,0000,0000,0000,0000,0000,0000,0000,0000,0000,0000,0000,0000,0000,0000,0000,0000,0000,0000,0000,0000,0000,0000,0000,0000,0000,0000,0000,0000,0000,0000,0000,0000,0000,0000,0000,0000,0000,0000,0000,0000,0000,0000,0000,0000,0000,0000,0000,0000,0000,0000,0000,0000,0000,0000,0000,0000,0000,0000,0000,0000,0000,0000,0000,0000,0000,0000,0000,0000,0000,0000,0000,0000,0000,0000,0000,0000,0000,0000,0000,0000,0000,0000,0000,0000,0000,0000,0000,0000,0000,0000,0000,0000,0000,0000,0000,0000,0000,0000,0000,0000,0000,0000,0000,0000,0000,0000,0000,0000,0000,0000,0000,0000,0000,0000,0000,0000,0000,0000,0000,0000,0000,0000,0000,0000,0000,0000,0000,0000,0000,0000,0000,0000,0000,0000,0000,0000,0000,0000,0000,0000,0000,0000,0000,0000,0000,0000,0000,0000,0000,0000,0000,0000,0000,0000,0000,0000,0000,0000,0000,0000,0000,0000,0000,0000,0000,0000,0000,0000,0000,0000,0000,0000,0000,0000,0000,0000,0000,0000,0000,0000,0000,0000,0000,0000,0000,0000,0000,0000,0000,0000,0000,0000,0000,0000,0000,0000,0000,0000,0000,0000,0000,0000,0000,0000,0000,0000,0000,0000,0000,0000,0000,0000,0000,0000,0000,0000,0000,0000,0000,0000,0000,0000,0000,0000,0000,0000,0000,0000,0000,0000,0000,0000,0000,0000,0000,0000,0000,0000,0000,0000,0000,0000,0000,0000,0000,0000,0000,0000,0000,0000,0000,0000,0000,0000,0000,0000,0000,0000,0000,0000,0000,0000,0000,0000,0000,0000,0000,0000,0000,0000,0000,0000,0000,0000,0000,0000,0000,0000,0000,0000,0000,0000,0000,0000,0000,0000,0000,0000,0000,0000,0000,0000,0000,0000,0000,fe04,00fe,fe00,fafe,0600,0008,06fe,f600,0206,fafc,fafe,f8f8,0002,fefc,fafe,f8fa,fe00,02fc,fafc,fa02,0606,0204,02fe,00fe,0000,fefa,f8fc,fcf4,fe02,0a06,00fe,f2fa,faf8,0602,00fc,f2f0,f2f4,f6f6,f4f6,ecf2,f2f2,fa00,fefc,02f8,f0e8,ecec,ecea,f0f0,ecee,f6f8,0002,0400,fef6,ecec,ecea,eef2,f2f2,f0f4,f8fc,0606,0600,f4f8,f8f4,f2f4,fcfa,fcf8,fe00,0000,0e0a,0e06,0000,fefe,0000,fefc,fefe,0600,060a,0c0a,0e0c,0c0a,0606,0404,0204,0406,fef8,0c12,1818,1614,0e0c,0a06,0604,0804,0a04,fefe,120e,1a1a,1214,1212,0806,0408,0406,faf4,0406,0c0c,1412,1210,0e0a,fe02,0200,00fe,fcfc,00fe,0406,0406,0a08,00fc,fc00,fcfe,f8fc,fef8,f4f8,faf8,faf8,fafc,fafa,fefc,fcf8,fa00,f8f8,f6f4,f6f2,f4f8,fafc,fcfc,fcfe,fa04,fafa,fafc,fafc,f8f8,fafa,fefe,fe00,00fc,fcf8,fefe,fcfe,02fe,fcfa,fafe,fefe,0404,04fe,f8fe,fefc,0202,fcfc,fafa,fcfa,0206,0604,0002,fefc,0000,fafa,faf8,fcfe,fe00,0806,0002,0004,fe00,00fc,fcfe,fcfc,0000,0204,0002,0204,04fe,f8fa,fcfc,fe00,fe00,fefc,00fe,00fe,0202,f4f0,f6f6,fefe,00fe,00fe,fcfc,f6f6,0c0a,faf4,f0f2,f8fc,00fe,00fc,fcfe,fcf6,fafe,0400,f2f4,f8fc,fcfe,fcfc,fcfc,fefe,f2f2,0c08,faf8,f8fc,fefc,fafc,fafe,fcfe,f8f4,fc02,0e0a,fefc,fcfa,fcfa,fcfc,fefc,fe00,f4f4,0e12,0a08,fefe,fafa,fcfa,fcfc,fe02,f8f6,fa02,0e10,0804,fefc,fafc,fcfa,0004,00f6,fafc,0000,0206,0600,fcfe,fe00,fefe,0202,f6f6,fcfc,02fc,0404,02fe,fcfe,0200,00fe,fefa,fcfe,00fe,faf8,fa00,fefa,fa04,0206,fcfc,fafc,02fe,0004,fcfa,fcfa,fefe,0002,fefc,fafa,f602,040a,0602,02fe,00fe,fe02,0200,00fc,0002,0000,fafa,fcf6,eef0,00fc,0000,0602,020e,0404,fe0a,00f4,ecf6,ecf4,faf8,fcf6,fa02,0404,0406,00fa,f6f0,eeea,f0f0,f4f4,f2f6,fe02,00fc,0a04,faf8,f2ea,e4e6,ecf2,f6f4,fafc,fe02,0802,00fe,faf2,eeea,e8ee,f4f4,fefe,0008,fcfe,0208,0400,f6f4,f2f0,f6f8,fc00,0604,0a02,08fa,fc02,0402,fafc,fcfc,fe00,080a,0606,fe02,0200,060a,0602,0406,0206,0806,0804,0400,0404,0408,0e0a,0c0c,0c0c,0c0e,0608,0400,fcf8,00fc,0608,060c,100e,0e0e,0804,02fe,f602,fa02,fc00,0202,0408,0a0a,0204,fefe,fafc,fe02,f6fe,fefa,fcf8,fefe,fefc,02fe,fefc,fc04,fc06,fafc,f2f4,f0ee,f4f4,fc02,0000,fefe,04fa,fef4,faf8,f2f4,f6f6,fe02,0408,0002,fa00,08fa,fefa,fafa,0000,0002,0406,0600,fefc,f606,fcfe,fc02,0200,0200,0404,080a,fcfc,f6fa,f804,fc00,0406,0404,0000,0204,02fe,00fa,fafc,fa02,fe00,0606,02fe,fefc,0202,fe00,f6f6,00fc,fafc,f8fc,0000,00fc,fa00,0002,00fe,f800,fcfe,f4f0,fafc,0002,fcfc,fefe,0402,fcfe,fc00,f6f2,eef4,fafc,00fe,fe00,fc02,0800,0006,0200,f8f4,fafc,fefe,fe00,fc00,0206,02fc,0000,0408,0402,0604,0002,0400,fe00,0400,0004,0606,0e0e,0a0c,0806,0202,02fe,0002,0004,00fe,1210,1210,0c0e,0402,0000,fefe,f8f6,fcfc,fc06,1210,0a0c,0a06,0000,fefe,fafa,f8f4,fe0a,0608,0a04,0806,0202,fcfe,fefc,f4f6,0206,fef8,fe02,0202,0000,02fc,fc00,fafe,fef8,fc02,fafa,fcfa,fcfc,fafc,00fc,fc04,0200,fe06,fefa,f4fa,f4f2,fafa,fcfe,fe00,0002,02fe,08fe,fcfa,f8fa,f4f6,faf8,fefc,0004,fa02,0402,00f8,fc02,fcfa,faf8,fa00,0202,0400,0008,00fe,04fa,00fc,02fe,fefe,0000,0002,0002,0a04,0200,fa02,fe02,fafc,0002,0608,fefe,fe0a,0c02,0000,0000,0000,0000,0000,0000,0000,0000,0000,0000,0000,0000,0000,0000,0000,0000,0000,0000,0000,0000,0000,0000,0000,0000,0000,0000,0000,0000,0000,0000,0000,0000,0000,0000,0000,0000,0000,0000,0000,0000,0000,0000,0000,0000,0000,0000,0000,0000,0000,0000,0000,0000,0000,0000,0000,0000,0000,0000,0000,0000,0000,0000,0000,0000,0000,0000,0000,0000,0000,0000,0000,0000,0000,0000,0000,0000,0000,0000,0000,0000,0000,0000,0000,0000,0000,0000,0000,0000,0000,0000,0000,0000,0000,0000,0000,0000,0000,0000,0000,0000,0000,0000,0000,0000,0000,0000,0000,0000,0000,0000,0000,0000,0000,0000,0000,0000,0000,0000,0000,0000,0000,0000,0000,0000,0000,0000,0000,0000,0000,0000,0000,0000,0000,0000,0000,0000,0000,0000,0000,0000,0000,0000,0000,0000,0000,0000,0000,0000,0000,0000,0000,0000,0000,0000,0000,0000,0000,0000,0000,0000,0000,0000,0000,0000,0000,0000,0000,0000,0000,0000,0000,0000,0000,0000,0000,0000,0000,0000,0000,0000,0000,0000,0000,0000,0000,0000,0000,0000,0000,0000,0000,0000,0000,0000,0000,0000,0000,0000,0000,0000,0000,0000,0000,0000,0000,0000,0000,0000,0000,0000,0000,0000,0000,0000,0000,0000,0000,0000,0000,0000,0000,0000,0000,0000,0000,0000,0000,0000,0000,0000,0000,0000,0000,0000,0000,0000,0000,0000,0000,0000,0000,0000,0000,0000,0000,0000,0000,0000,0000,0000,0000,0000,0000,0000,0000,0000,0000,0000,0000,0000,0000,0000,0000,0000,0000,0000,0000,0000,0000,0000,0000,0000,0000,0000,0000,0000,0000,0000,0000,0000,0000,0000,0000,0000,0000,0000,0000,0000,0000,0000,0000,0000,0000,0000,0000,0000,0000,0000,0000,0000,0000,0000,0000,0000,0000,0000,0000,0000,0000,0000,0000,0000,0000,0000,0000,0000,0000,0000,0000,0000,0000,0000,0000,0000,0000,0000,0000,0000,0000,0000,0000,0000,0000,0000,0000,0000,0000,0000,0000,0000,0000,0000,0000,0000,0000,0000,0000,0000,0000,0000,0000,0000,0000,0000,0000,0000,0000,0000,0000,0000,0000,0000,0000,0000,0000,0000,0000,0000,0000,0000,0000,0000,0000,0000,0000,0000,0000,0000,0000,0000,0000,0000,0000,0000,0000,0000,0000,0000,0000,0000,0000,0000,0000,0000,0000,0000,0000,0000,0000,0000,0000,0000,0000,0000,0000,0000,0000,0000,0000,0000,0000,0000,0000,0000,0000,0000,0000,0000,0000,0000,0000,0000,0000,0000,0000,0000,0000,0000,0000,0000,0000,0000,0000,0000,0000,0000,0000,0000,0000,0000,0000,0000,0000,0000,0000,0000,00fe,fefe,fafa,fefe,fefe,fcfc,fefe,0002,0402,fefe,fcfc,fcfa,fcfe,fefe,fafe,fafe,fe00,02fc,fefe,fafc,00fe,fe00,fefe,fefe,fefe,0202,fafe,fcfa,00fe,fefe,fefe,fefe,fefc,fefc,04fe,fefe,fefc,fefe,0000,fefe,fefe,00fc,f8fc,0200,fcfc,fcfe,fefe,fefc,fefe,fefc,fefe,0200,00fc,fefc,fefe,fefe,fefe,fefe,fefc,0202,0a04,0000,fefe,fefe,fcfc,fefe,fefe,fe00,0406,0604,fefc,fefe,fefe,fcfc,00fe,fcfe,0402,0406,0200,fefe,fe00,fefc,fefe,fefe,fcfc,0000,0404,0000,0200,00fe,fcfe,fefe,fefe,fcfc,0000,fe00,0000,00fe,fefe,fefe,fefe,fcfa,0000,fe00,0002,0000,00fe,fe00,fefe,fefe,04fe,fefc,fe00,0000,0000,fefe,fe00,0000,fafe,0000,fe00,fe00,0000,fefe,00fe,0000,fefe,fe00,fafc,00fe,0000,fefe,fefe,fe00,00fe,fefe,fefe,fefe,fefe,fefe,fefe,fefe,0000,fefe,00fc,fc00,00fe,fefc,fefe,fefe,fefe,00fe,fefe,00fc,02fe,fefe,fefe,fefe,fefe,fe00,fefe,fefc,fcfc,fefc,fcfe,fefe,fefe,fefe,fefe,fefe,fefc,fcfc,fefc,fefe,fcfe,fefe,fefe,fefe,fe00,fcfc,fefe,fefe,fefe,fcfe,fefe,fefe,fefe,fefe,0000,0000,fefe,fefe,fcfe,fefe,fefe,fcfe,0002,0000,fefe,fefe,fefe,fefe,fefe,00fe,fcfe,0000,00fe,fefc,fefc,fefe,fefe,fefe,fefe,fe02,0000,fefc,fefe,fcfe,fefe,fefe,fefe,00fe,00fe,00fe,fefe,fefe,fefe,fefe,fefe,00fe,0000,fe00,fefe,fe00,fefe,fefe,fefe,0000,0000,0000,00fe,fe00,00fe,fefe,fefe,fe00,00fe,fe00,fe00,fefe,00fe,fefc,fefe,fefe,00fe,0000,fefe,fefe,00fe,fcfe,fcfe,fefe,0000,00fe,0000,00fe,fefe,fefe,fefc,fefe,fefe,0400,0000,0000,fe00,fe00,0000,fcfe,0000,f602,0200,0000,0200,00fe,0200,02fe,00fe,00fe,0200,02f4,fef6,fcfe,fafc,f6f8,f8fa,f800,00fe,fe00,fcfe,fcfc,f8f8,faf4,faf8,fefa,fc00,fcfa,fafa,fcfe,fafc,fafc,fcfc,fafc,fcfc,fcfe,00fa,f8fa,fcf8,fafc,fcfc,fcfc,fcfc,00fe,fc00,00fa,fcfc,fcfa,fcfa,fcfc,fefe,00fc,fafa,fafc,0002,02fe,fcfc,fcfc,fefe,fefe,fefc,fe04,0000,0200,fcfc,fcfc,fefe,fefe,fefe,f8fc,fcfc,fe00,fefe,fefe,fefe,fe00,fefe,fcfe,fcfc,00fe,0000,0000,fefe,fe00,00fe,fe00,fafc,00fc,fe00,00fe,0000,00fe,0000,00fc,0000,f8fc,fcfc,fe00,0000,fefe,fefe,0000,fafe,00fc,fcfe,fcfe,fefe,0000,fe00,fefe,fefe,00fa,fe04,fefa,fefe,fe00,fe00,0000,00fe,fcfc,fef6,fefa,fcfc,fefe,fefe,fefe,0000,fefe,f6fa,fafc,fefe,fefe,fefe,fefe,fe00,0000,fcfc,fefe,fefe,fcfe,fefe,fefc,fefe,fe00,fefc,fefc,02fc,fafe,fcfc,fcfc,fefe,fefe,fe00,fefc,fefc,fafe,fcfe,fcfc,fefc,fefe,fefe,fcfc,fefa,0402,fefc,00fe,fefc,fcfc,fefe,fefe,fefe,fc00,0000,fefe,fefe,fcfc,fefe,fefe,fcfe,fcfc,00fa,00fc,fe00,fefc,fefe,fefe,fefe,fefe,fcfe,fefe,00fe,fefe,fefe,fefe,fefe,fcfc,fef8,fefe,fefe,fefc,fefe,fefe,fefe,fefe,fcfc,fcfc,fcfc,fefe,fefe,fefe,fefe,fefe,fafc,fefe,02fe,fefc,fcfe,fefe,fefe,fefe,fcfe,fefe,fefa,00fe,fcfc,fefe,fefe,fefe,fefe,fefe,0000,02fe,fefe,fefe,fefe,fefe,fcfe,fefc,fefe,0002,00fe,fcfc,fefe,fefc,fcfc,fcfe,fc00,0004,0002,fafc,fefe,fefe,fcfe,fefe,fcfe,0004,00fe,0202,fefc,fefc,fefe,fefe,fe00,fefe,0202,0002,fcfe,fefc,fcfc,fefe,fefe,fefe,02fe,0002,fe00,fc00,fe00,fefe,00fe,0002,fc00,02fe,0400,00fc,00fc,fe00,0200,06fe,fcfc,00fe,0202,0000,0afe,00fe,0002,0404,0400,fefe,fe00,0000,0000,0000,0000,0000,0000,0000,0000,0000,0000,0000,0000,0000,0000,0000,0000,0000,0000,0000,0000,0000,0000,0000,0000,0000,0000,0000,0000,0000,0000,0000,0000,0000,0000,0000,0000,0000,0000,0000,0000,0000,0000,0000,0000,0000,0000,0000,0000,0000,0000,0000,0000,0000,0000,0000,0000,0000,0000,0000,0000,0000,0000,0000,0000,0000,0000,0000,0000,0000,0000,0000,0000,0000,0000,0000,0000,0000,0000,0000,0000,0000,0000,0000,0000,0000,0000,0000,0000,0000,0000,0000,0000,0000,0000,0000,0000,0000,0000,0000,0000,0000,0000,0000,0000,0000,0000,0000,0000,0000,0000,0000,0000,0000,0000,0000,0000,0000,0000,0000,0000,0000,0000,0000,0000,0000,0000,0000,0000,0000,0000,0000,0000,0000,0000,0000,0000,0000,0000,0000,0000,0000,0000,0000,0000,0000,0000,0000,0000,0000,0000,0000,0000,0000,0000,0000,0000,0000,0000,0000,0000,0000,0000,0000,0000,0000,0000,0000,0000,0000,0000,0000,0000,0000,0000,0000,0000,0000,0000,0000,0000,0000,0000,0000,0000,0000,0000,0000,0000,0000,0000,0000,0000,0000,0000,0000,0000,0000,0000,0000,0000,0000,0000,0000,0000,0000,0000,0000,0000,0000,0000,0000,0000,0000,0000,0000,0000,0000,0000,0000,0000,0000,0000,0000,0000,0000,0000,0000,0000,0000,0000,0000,0000,0000,0000,0000,0000,0000,0000,0000,0000,0000,0000,0000,0000,0000,0000,0000,0000,0000,0000,0000,0000,0000,0000,0000,0000,0000,0000,0000,0000,0000,0000,0000,0000,0000,0000,0000,0000,0000,0000,0000,0000,0000,0000,0000,0000,0000,0000,0000,0000,0000,0000,0000,0000,0000,0000,0000,0000,0000,0000,0000,0000,0000,0000,0000,0000,0000,0000,0000,0000,0000,0000,0000,0000,0000,0000,0000,0000,0000,0000,0000,0000,0000,0000,0000,0000,0000,0000,0000,0000,0000,0000,0000,0000,0000,0000,0000,0000,0000,0000,0000,0000,0000,0000,0000,0000,0000,0000,0000,0000,0000,0000,0000,0000,0000,0000,0000,0000,0000,0000,0000,0000,0000,0000,0000,0000,0000,0000,0000,0000,0000,0000,0000,0000,0000,0000,0000,0000,0000,0000,0000,0000,0000,0000,0000,0000,0000,0000,0000,0000,0000,0000,0000,0000,0000,0000,0000,0000,0000,0000,0000,0000,0000,0000,0000,0000,0000,0000,0000,0000,0000,0000,0000,0000,0000,0000,0000,0000,0000,0000,0000,0000,0000,0000,0000,0000,0000,0000,0000,0000,0000,0000,0000,0000,0000,0000,0000,0000,0000,0000,0000,0000,0000,0000,0000,0000,0000,0000,0000,0000,0000,0000,0000,0000,0000,0000,0000,fefe,fefc,00fe,fe00,fefe,fefc,00fe,0000,0202,00fe,0200,00fe,00fe,00fe,fcfe,fcfe,0000,00fa,fc00,fefe,0200,fefe,fefe,fefe,fcfe,fc00,00fe,fefe,0200,0000,fefe,fe00,fefc,fcfe,00fe,0000,fefe,fcfe,00fe,fe00,fefe,fefc,fafe,02fe,fefc,fefe,fefe,fefe,fefe,fefe,fefe,00fe,fefe,fefc,fe00,fefe,fefe,fefe,fefe,0000,0200,fe00,fefe,00fe,fefe,fefe,fefe,fe00,0000,0000,fefe,00fe,fefe,fefe,fefe,fcfe,0200,0000,00fe,fefe,fefe,fefe,fefe,fefc,fcfc,fe00,0200,fe00,00fe,fefe,fefe,fefe,fefc,fefe,0000,fefe,fe00,00fe,fefe,fefe,fefc,fcfa,0000,0000,fefe,0000,fefe,fefe,fefe,fefe,02fe,00fc,fefe,fe00,fefe,fefe,fefe,fefe,fa00,0002,fefe,fefe,fefe,fefe,fefe,fefe,fefe,fefe,fcfe,fefe,fefe,fefe,fe00,fefe,fefe,fefe,fefc,fefe,fefe,fefe,fefe,fefe,fefe,fe00,00fe,fcfe,fefe,fefe,fefe,fe00,fefe,00fe,fefe,00fc,00fe,fefe,fefe,fefe,fefe,fefe,fefe,00fe,fcfc,fcfc,fcfe,fefe,fefe,fefe,fe00,0000,fefe,fcfc,fcfc,fefe,fefe,fefe,fefe,fefe,fe00,fefc,fefe,fefe,fefe,fefe,fefe,00fe,fefe,0000,0000,fefe,fe00,fefe,fefe,00fe,fefe,fefe,0000,0000,00fe,fe00,fefe,fefe,0000,00fe,fefc,0000,0000,fefe,fefe,fefe,fefe,fefe,00fe,0000,0000,fefe,fefe,fefe,fefe,fefe,00fe,00fe,00fe,fefe,fefe,fefe,fefe,fefe,fefe,00fe,00fe,0000,fefe,fe00,fe00,fefe,fefe,fe00,0000,0000,00fe,fefe,fefe,fcfe,fefe,fe00,00fe,0000,fefe,0000,fefe,fefc,fefe,fefe,00fe,fe00,fefe,fefe,00fe,fcfe,fcfc,fefe,0000,00fe,fefe,fefe,fcfe,fefe,fefe,fefe,0000,fe02,fefe,fe00,fefe,fefe,00fe,fefe,0000,fa04,0000,fe00,fefe,fefc,00fe,02fc,fe00,00fe,0200,02f8,00f8,0000,fafe,f8f8,f8fc,fc02,02fe,fefe,fcfe,fcfc,faf8,fcf8,fcfa,fefe,0000,fcfa,fafc,fc02,fcfe,fafc,fafe,fefc,fafa,fcfe,00fc,fcfc,fefa,fafc,fcfc,fefe,fcfc,fc00,fefe,fefa,fefc,fefe,fcfa,fefe,00fe,fefe,fafe,fcfc,fefe,0200,fefe,fefe,00fe,fcfe,fefc,fe02,fe00,0000,00fe,00fe,fefe,fefe,fefc,f8fe,fcfc,fafc,fcfe,fefe,fefe,fefe,fefc,fafc,fcfc,fefe,00fe,fe00,fefe,fefe,fefe,0000,fcfc,00fc,fefe,00fe,00fe,fe00,fe00,00fe,00fe,fafc,fcfc,fefe,fefe,fefe,fe00,0000,fa00,00fc,fc00,fcfe,fefe,fefe,fe00,fefe,fcfc,00fc,fe04,fefa,fcfe,fcfe,fefe,fefe,fefe,fcfc,fef8,fcfa,fafc,fcfe,fcfe,fefe,fefe,fcfe,f8fe,fafc,fefe,00fc,fcfc,fefe,fefe,fefe,fcfc,fcfc,fefc,fcfe,fefe,fefe,fefe,fefe,fefc,fefa,fefe,fafc,fefe,fcfc,fefe,fefe,fe00,fcfe,fefa,fcfc,fcfe,fcfc,fefc,fefe,fefc,fcfe,fefa,0200,fefc,fefe,fcfc,fcfe,fefe,fefe,fefe,fc00,00fe,fefe,fefc,fefe,fefe,fcfe,fefe,fcfe,fefe,00fe,fefe,fefe,fefe,fefe,fefe,fcfe,fcfc,fefe,fefe,fefe,fefe,fefe,fefe,fefc,fcf8,fcfe,00fe,fefe,fefe,fefe,fefe,fefc,fcfc,fcfe,fcfc,fefe,fefc,fefe,fefe,fefe,fcfe,fcfc,02fc,fcfe,fefe,fefe,fefe,fefe,fefe,fe00,fefa,00fe,fcfe,fefe,fefe,fefe,fefe,fefe,fefe,04fe,fefc,fefe,fefe,fefe,fefe,00fc,fefe,fefe,04fe,fcfe,fefe,fefe,fefe,fefe,fc00,0002,0000,fcfc,fefe,fefe,fcfe,fefe,fefe,fe06,00fc,fe00,fefc,fcfc,fcfc,fefe,fe00,fcfe,0204,0402,f8fc,fefc,fcfe,fefe,fefe,fefe,02fc,0000,fe00,fcfc,fefe,fefe,fefc,fe00,fc00,0000,0200,fcfc,fcfa,fefe,00fe,04fc,fafa,fefe,0004,00fa,06fa,fefe,fefe,0204,0000,fefe,fcfe,fe00,0000,0000,0000,0000,0000,0000,0000,0000,0000,0000,0000,0000,0000,0000,0000,0000,0000,0000,0000,0000,0000,0000,0000,0000,0000,0000,0000,0000,0000,0000,0000,0000,0000,0000,0000,0000,0000,0000,0000,0000,0000,0000,0000,0000,0000,0000,0000,0000,0000,0000,0000,0000,0000,0000,0000,0000,0000,0000,0000,0000,0000,0000,0000,0000,0000,0000,0000,0000,0000,0000,0000,0000,0000,0000,0000,0000,0000,0000,0000,0000,0000,0000,0000,0000,0000,0000,0000,0000,0000,0000,0000,0000,0000,0000,0000,0000,0000,0000,0000,0000,0000,0000,0000,0000,0000,0000,0000,0000,0000,0000,0000,0000,0000,0000,0000,0000,0000,0000,0000,0000,0000,0000,0000,0000,0000,0000,0000,0000,0000,0000,0000,0000,0000,0000,0000,0000,0000,0000,0000,0000,0000,0000,0000,0000,0000,0000,0000,0000,0000,0000,0000,0000,0000,0000,0000,0000,0000,0000,0000,0000,0000,0000,0000,0000,0000,0000,0000,0000,0000,0000,0000,0000,0000,0000,0000,0000,0000,0000,0000,0000,0000,0000,0000,0000,0000,0000,0000,0000,0000,0000,0000,0000,0000,0000,0000,0000,0000,0000,0000,0000,0000,0000,0000,0000,0000,0000,0000,0000,0000,0000,0000,0000,0000,0000,0000,0000,0000,0000,0000,0000,0000,0000,0000,0000,0000,0000,0000,0000,0000,0000,0000,0000,0000,0000,0000,0000,0000,0000,0000,0000,0000,0000,0000,0000,0000,0000,0000,0000,0000,0000,0000,0000,0000,0000,0000,0000,0000,0000,0000,0000,0000,0000,0000,0000,0000,0000,0000,0000,0000,0000,0000,0000,0000,0000,0000,0000,0000,0000,0000,0000,0000,0000,0000,0000,0000,0000,0000,0000,0000,0000,0000,0000,0000,0000,0000,0000,0000,0000,0000,0000,0000,0000,0000,0000,0000,0000,0000,0000,0000,0000,0000,0000,0000,0000,0000,0000,0000,0000,0000,0000,0000,0000,0000,0000,0000,0000,0000,0000,0000,0000,0000,0000,0000,0000,0000,0000,0000,0000,0000,0000,0000,0000,0000,0000,0000,0000,0000,0000,0000,0000,0000,0000,0000,0000,0000,0000,0000,0000,0000,0000,0000,0000,0000,0000,0000,0000,0000,0000,0000,0000,0000,0000,0000,0000,0000,0000,0000,0000,0000,0000,0000,0000,0000,0000,0000,0000,0000,0000,0000,0000,0000,0000,0000,0000,0000,0000,0000,0000,0000,0000,0000,0000,0000,0000,0000,0000,0000,0000,0000,0000,0000,0000,0000,0000,0000,0000,0000,0000,0000,0000,0000,0000,0000,0000,0000,0000,0000,0000,0000,0000,0000,0000,0000,0000,0000,0000,0000,0000,0000,0000,0000,0000,0000,0000,0000,0000,0000,00fc,fcfe,0002,fefe,fcfc,fefe,0002,0406,00fe,0000,00fc,fefe,00fe,fe00,fafe,0000,00fa,fcfe,fcfe,02fe,0000,fefe,fefe,00fe,0200,fafc,fcfa,00fe,00fe,00fe,0000,fefc,fefe,fefe,fcfe,00fe,fe00,00fe,0000,fefe,fefe,f8fc,02fe,fcfe,0000,fe00,fefe,0000,fefe,fefe,fefe,fcfe,fe00,fe00,00fe,fefe,0000,fefe,fe00,02fe,fc00,0000,0200,fefe,0000,00fe,fe00,00fe,fe00,fefe,0000,00fe,fefe,00fe,fcfe,0400,0002,0200,0000,0000,fefe,00fe,fefc,fcfa,0000,0404,0200,0200,00fe,0000,fefe,fefe,fefc,0402,fe00,fe00,0000,00fe,fefe,fefe,fcfa,0202,fe00,fefe,0000,0000,fefe,fefe,fefe,0400,00fe,fe00,fe00,0000,00fe,fefe,fefe,fcfe,0202,0000,fefe,0000,fe00,fe00,fe00,fefe,fe00,fcfc,00fe,fefe,0000,fe00,fefe,fefe,00fe,fcfe,fcfe,fefc,fcfe,0000,0000,fefe,fe00,02fc,fcfe,fcfc,fefe,0000,fefe,fefe,00fe,0000,00fc,00fc,fcfe,fefe,0000,fefe,0000,fe00,00fe,fcfa,fcfc,fefe,00fe,fefe,fefe,fefe,0000,00fe,fcfc,fefc,00fe,fefe,fe00,fefe,fefe,fefe,fcfc,fefe,0000,00fe,fefe,fefe,fefe,fe00,fcfe,0000,0000,0000,fefe,fefe,fefe,fefe,fcfe,fe00,0202,fe00,0000,fefe,fefe,00fe,00fe,fcfc,0000,00fe,0000,fefe,fefe,00fe,fefe,00fe,fe00,0202,0000,0000,fe00,fe00,fefe,fe00,00fe,0000,0000,fefe,0000,fe00,fe00,fefe,0000,0002,0002,fefe,0000,fe00,fefe,fefe,0000,0000,0200,0200,0000,0000,00fe,fefe,fe00,00fe,fe00,0000,0000,fe00,00fe,fefe,fefe,00fe,fe00,fefe,fefe,fefe,fefe,fcfe,fefe,0000,fefe,fe00,fefe,fe00,fefe,fefe,fefe,fefe,0400,0000,fe00,fe00,0000,00fe,fefe,0000,f804,0000,fe00,00fe,00fe,02fe,0200,fe00,00fe,0000,02f8,04fa,0000,fefe,f6fc,fafa,fa02,0402,fe02,00fe,00fc,fcf8,fcfa,fafa,fefc,0000,fcfe,fefc,fe00,fe00,fcfc,fafc,fcfc,fcfc,fe00,0400,fefe,00fe,fefe,fefc,fefe,fc00,0000,0002,02fa,fefc,00fe,fcfc,fefc,00fe,fe02,fcfe,fcfc,0000,0000,00fe,00fe,0200,0000,02fc,0004,0002,0000,fe00,0000,0002,0000,0000,f8fe,fcfc,fefe,0000,0000,fe00,0000,00fc,fefe,fefe,0200,0202,0002,0000,0200,0000,0000,fcfe,02fe,0002,0200,0202,0002,0000,0000,fe00,fafc,fcfe,fe00,0000,0000,0000,0000,fc00,02fc,fe00,fcfe,fefe,0000,0000,00fe,fefe,fcfe,0006,fefc,fe00,fe00,fefe,0000,fefe,fafe,02fc,fefc,fcfc,fefe,fefe,fefe,0000,0000,fa00,fefe,fefe,fefc,fefe,fefe,fe00,00fe,fcfc,0002,00fe,fcfe,fefe,fefe,0000,00fe,fefe,02fa,0002,fefe,fefc,fefe,0000,fefe,fe00,fefe,fefc,fafe,fefc,fcfe,fefe,fefe,fefe,fefe,fefe,0404,00fc,00fe,fefe,fefe,fefe,fe00,00fe,fe00,0000,fe00,0000,fefe,0000,fe00,fe00,fe00,fe00,02fe,0000,0000,0000,00fe,00fe,00fe,fcfe,fe00,0000,0000,fefe,0000,fefe,0000,00fa,0000,0000,00fe,fe00,0000,00fe,0000,fcfe,00fe,fefc,fe00,fefe,fe00,0000,0000,0000,fe00,04fc,fefe,fefe,fefe,0000,0000,fe00,fefe,00fc,fe00,fe00,fefe,fefe,0000,00fe,0000,0000,0200,0000,00fe,fefe,fefe,fefe,00fe,fefe,0000,0000,fe00,00fe,fe00,00fe,fe00,fe02,0204,0202,fefc,00fe,0000,fe00,00fe,00fe,fe06,0000,fe04,0200,00fe,fefe,fe00,fe00,fe00,0204,0404,fc00,00fe,fefe,0000,0000,fe02,0202,fe02,0402,fe02,0000,fe00,00fe,0002,fe02,02fe,04fe,04fe,00fe,0000,0200,06fe,fcfc,0000,0404,0002,0afe,0000,0000,0402,0202,0000,fe00,0200,0000,0000,0000,0000,0000,0000,0000,0000,0000,0000,0000,0000,0000,0000,0000,0000,0000,0000,0000,0000,0000,0000,0000,0000,0000,0000,0000,0000,0000,0000,0000,0000,0000,0000,0000,0000,0000,0000,0000,0000,0000,0000,0000,0000,0000,0000,0000,0000,0000,0000,0000,0000,0000,0000,0000,0000,0000,0000,0000,0000,0000,0000,0000,0000,0000,0000,0000,0000,0000,0000,0000,0000,0000,0000,0000,0000,0000,0000,0000,0000,0000,0000,0000,0000,0000,0000,0000,0000,0000,0000,0000,0000,0000,0000,0000,0000,0000,0000,0000,0000,0000,0000,0000,0000,0000,0000,0000,0000,0000,0000,0000,0000,0000,0000,0000,0000,0000,0000,0000,0000,0000,0000,0000,0000,0000,0000,0000,0000,0000,0000,0000,0000,0000,0000,0000,0000,0000,0000,0000,0000,0000,0000,0000,0000,0000,0000,0000,0000,0000,0000,0000,0000,0000,0000,0000,0000,0000,0000,0000,0000,0000,0000,0000,0000,0000,0000,0000,0000,0000,0000,0000,0000,0000,0000,0000,0000,0000,0000,0000,0000,0000,0000,0000,0000,0000,0000,0000,0000,0000,0000,0000,0000,0000,0000,0000,0000,0000,0000,0000,0000,0000,0000,0000,0000,0000,0000,0000,0000,0000,0000,0000,0000,0000,0000,0000,0000,0000,0000,0000,0000,0000,0000,0000,0000,0000,0000,0000,0000,0000,0000,0000,0000,0000,0000,0000,0000,0000,0000,0000,0000,0000,0000,0000,0000,0000,0000,0000,0000,0000,0000,0000,0000,0000,0000,0000,0000,0000,0000,0000,0000,0000,0000,0000,0000,0000,0000,0000,0000,0000,0000,0000,0000,0000,0000,0000,0000,0000,0000,0000,0000,0000,0000,0000,0000,0000,0000,0000,0000,0000,0000,0000,0000,0000,0000,0000,0000,0000,0000,0000,0000,0000,0000,0000,0000,0000,0000,0000,0000,0000,0000,0000,0000,0000,0000,0000,0000,0000,0000,0000,0000,0000,0000,0000,0000,0000,0000,0000,0000,0000,0000,0000,0000,0000,0000,0000,0000,0000,0000,0000,0000,0000,0000,0000,0000,0000,0000,0000,0000,0000,0000,0000,0000,0000,0000,0000,0000,0000,0000,0000,0000,0000,0000,0000,0000,0000,0000,0000,0000,0000,0000,0000,0000,0000,0000,0000,0000,0000,0000,0000,0000,0000,0000,0000,0000,0000,0000,0000,0000,0000,0000,0000,0000,0000,0000,0000,0000,0000,0000,0000,0000,0000,0000,0000,0000,0000,0000,0000,0000,0000,0000,0000,0000,0000,0000,0000,0000,0000,0000,0000,0000,0000,0000,0000,0000,0000,0000,0000,0000,0000,0000,0000,0000,0000,0000,0000,0000,0000,0000,0000,0000,0000,0000,0000,0000,0000,0000,00fe,0002,faf8,fa00,fafc,fa00,00fc,0400,0404,fafc,f6fc,fcfe,fafc,fa00,0000,00fe,f8fe,0000,fcf8,0006,00fa,fcfe,0006,0000,fe02,0202,00fc,0000,0202,04fe,0402,0200,fcfe,02fe,0604,fcfe,0208,0804,fe04,0808,0202,fafe,0600,fefe,0002,0000,00fe,0202,0202,fefe,fcfc,fefe,fe00,fefe,0200,fe00,0606,00fe,fcfc,0406,00fa,02fc,fc00,fafe,0206,0604,00fe,fafe,0402,fe00,f6f8,02fc,0202,0600,0000,fefe,0006,0404,faf4,0202,fe00,0606,f8fa,fefe,fcf8,0000,fcfc,fe04,0204,0206,fef6,fefe,fefe,fefe,fafc,fcf8,0806,0604,0402,f8fc,0200,fcfc,fe00,fafa,0002,0404,0204,f8f6,0006,fefe,fcf8,fafa,f6f8,0406,0404,fefa,f8fc,0600,f8f8,0200,f6f8,0004,0204,fef8,f8fc,0406,00fe,fcfc,fef6,fefc,0602,00fe,f4f8,fe02,fefc,fcfe,0400,f2fc,0204,00fc,f8f2,fc00,02fe,faf8,0202,f4f2,fcfe,0200,fafa,f8fc,0202,f6f6,fcfc,06fa,f8fa,fafc,fcfc,fafa,0000,fef8,fafc,fefc,fefe,f8fa,fcfc,fefe,0000,fcfa,fafa,fcfc,0004,00fe,fefc,0000,0604,f8f6,f8fa,fcfa,fcfc,0202,0404,fe00,0404,00f8,f0f2,fafc,fcfc,fafe,0204,0402,0204,0200,f0ee,f8fc,fcfc,faf6,f8fc,0202,0204,0202,f4f2,f2f4,fefe,00fc,f4f8,fc02,0202,0202,faf8,f4f4,fafc,fe00,fafa,fefa,0002,0402,fefa,f6f8,f6fa,fefe,fefe,fcfe,fafc,fe00,fefc,f8f8,f8fc,00fe,fefe,faf6,fe00,00fe,fcfe,fcfc,fefe,fcfc,fcfa,fcfa,fc00,00fe,0000,fefe,fe00,fefe,fefc,fcfe,faf8,0200,fcfe,fefa,0000,00fe,fefe,fafc,00fa,fe02,0000,fefe,fe00,0202,fefc,fcfc,fe00,faf8,0204,00fe,0002,0200,0000,0200,fefe,fc00,fe04,06fe,fcfe,fefe,0200,fefc,fe00,f602,fefe,0406,fefc,0404,0404,fe04,fefe,0002,0202,fe02,fa00,0606,0604,0004,0c0c,0a06,0a04,040c,0004,0002,0606,0400,0c0a,06fe,08fc,0c0c,0602,fa02,0408,0806,0608,0a0c,0002,0204,0202,0000,0204,0406,0002,0e08,0a08,0400,0e00,04fa,0000,fcfe,0400,080a,0a0c,060a,fc0a,1408,0000,fcfc,0606,0006,0a06,0c0c,0afe,0c06,0802,00fc,fc02,fcfe,040a,00fc,0808,f808,fe06,0200,f8fa,0602,0000,fe02,f6fc,fe06,0808,0200,f8f8,0608,0806,0200,f6f2,fc04,0a02,fe00,fcfc,fc00,0406,0400,fefe,f0f6,0406,0408,02fa,f6f8,0400,0604,fcf8,fcfa,f600,0006,0400,00f8,0202,0406,fefc,fe00,fefe,0cfc,0800,0204,f6fc,0604,0400,f8fc,0202,0002,0402,0406,fef8,0606,0404,fafa,fe02,0602,fe04,0808,0200,f8fe,0604,fefc,fafc,0200,fcfc,0402,0a04,fefa,0202,00fe,fefc,0004,fefe,04fe,0a00,0606,0202,fefe,fefe,fc00,00fc,fcfc,fefc,0002,0806,02fe,fe00,fefe,0000,f6f6,0204,00fc,0806,0404,fefe,0002,00fe,fcf4,f6fe,0006,02fe,0404,0402,0202,0000,f8f4,fa00,02fe,0206,fc00,fefe,fefe,0402,fef4,f2fa,fc00,0606,06fe,fcfa,0002,fe04,02fe,f2f4,fc02,0208,0600,fcfc,fafe,fe00,0204,fcf8,f8fa,fefc,0206,0202,fefa,fcfe,fc00,00fe,f8f8,fafe,00fe,0404,0200,fcfe,fcfa,0000,fefa,fe00,0200,0000,f8fe,fefc,00fe,fefe,00fe,fcfa,fc00,f800,0608,fa00,fc00,fe00,02fe,00fe,fcfa,0000,0e02,fcfe,fefe,fe00,0202,0404,00fa,fe00,fa00,02fe,fe00,fefe,0004,0402,0600,fefa,0400,0406,fefc,0004,0404,0402,0608,0000,0406,0202,0608,0206,0202,0804,0406,0804,0202,00fc,0008,0406,0604,0804,0806,0406,0002,0208,08fe,0006,0006,0604,0002,0200,0400,0408,0006,0602,0602,0408,0806,0608,0404,0206,0008,fa02,0804,0000,0000,0000,0000,0000,0000,0000,0000,0000,0000,0000,0000,0000,0000,0000,0000,0000,0000,0000,0000,0000,0000,0000,0000,0000,0000,0000,0000,0000,0000,0000,0000,0000,0000,0000,0000,0000,0000,0000,0000,0000,0000,0000,0000,0000,0000,0000,0000,0000,0000,0000,0000,0000,0000,0000,0000,0000,0000,0000,0000,0000,0000,0000,0000,0000,0000,0000,0000,0000,0000,0000,0000,0000,0000,0000,0000,0000,0000,0000,0000,0000,0000,0000,0000,0000,0000,0000,0000,0000,0000,0000,0000,0000,0000,0000,0000,0000,0000,0000,0000,0000,0000,0000,0000,0000,0000,0000,0000,0000,0000,0000,0000,0000,0000,0000,0000,0000,0000,0000,0000,0000,0000,0000,0000,0000,0000,0000,0000,0000,0000,0000,0000,0000,0000,0000,0000,0000,0000,0000,0000,0000,0000,0000,0000,0000,0000,0000,0000,0000,0000,0000,0000,0000,0000,0000,0000,0000,0000,0000,0000,0000,0000,0000,0000,0000,0000,0000,0000,0000,0000,0000,0000,0000,0000,0000,0000,0000,0000,0000,0000,0000,0000,0000,0000,0000,0000,0000,0000,0000,0000,0000,0000,0000,0000,0000,0000,0000,0000,0000,0000,0000,0000,0000,0000,0000,0000,0000,0000,0000,0000,0000,0000,0000,0000,0000,0000,0000,0000,0000,0000,0000,0000,0000,0000,0000,0000,0000,0000,0000,0000,0000,0000,0000,0000,0000,0000,0000,0000,0000,0000,0000,0000,0000,0000,0000,0000,0000,0000,0000,0000,0000,0000,0000,0000,0000,0000,0000,0000,0000,0000,0000,0000,0000,0000,0000,0000,0000,0000,0000,0000,0000,0000,0000,0000,0000,0000,0000,0000,0000,0000,0000,0000,0000,0000,0000,0000,0000,0000,0000,0000,0000,0000,0000,0000,0000,0000,0000,0000,0000,0000,0000,0000,0000,0000,0000,0000,0000,0000,0000,0000,0000,0000,0000,0000,0000,0000,0000,0000,0000,0000,0000,0000,0000,0000,0000,0000,0000,0000,0000,0000,0000,0000,0000,0000,0000,0000,0000,0000,0000,0000,0000,0000,0000,0000,0000,0000,0000,0000,0000,0000,0000,0000,0000,0000,0000,0000,0000,0000,0000,0000,0000,0000,0000,0000,0000,0000,0000,0000,0000,0000,0000,0000,0000,0000,0000,0000,0000,0000,0000,0000,0000,0000,0000,0000,0000,0000,0000,0000,0000,0000,0000,0000,0000,0000,0000,0000,0000,0000,0000,0000,0000,0000,0000,0000,0000,0000,0000,0000,0000,0000,0000,0000,0000,0000,0000,0000,0000,0000,0000,0000,0000,0000,0000,0000,0000,0000,0000,0000,0000,0000,0000,0000,0000,0000,0000,0000,0000,0000,0000,0000,0000,0000,0000,0000,0000,0000,fe00,fefc,fcfe,0000,fe00,fefc,00fe,0000,04fe,fc02,0000,00fc,00fe,00fe,fc00,fafe,fe00,00fa,fcfc,fcfc,00fe,00fe,fefe,fefe,fefe,0200,fefe,fcfc,00fc,00fe,fe00,fefe,fefa,fcfe,0200,fefe,fefc,fcfe,00fe,fefe,fefe,fefc,f8fa,02fe,fafc,fefc,fe00,fefe,fefe,fefc,fe00,0000,fefc,fcfc,fe00,fefe,fefe,fefe,fefe,0200,0202,0000,fefe,0000,fefc,fefe,fefe,fe00,0000,0200,fefc,fefe,fefc,fefe,fefe,fcfe,0200,0000,00fe,0000,00fe,fefc,fefe,fefc,fcfa,00fe,0002,fe00,02fe,fefc,fefe,fefe,fcfe,fefc,fefe,fcfe,fe00,00fe,fefe,fefe,fefe,fcfa,0000,fe00,fefe,0000,fefe,fefe,fefe,fefe,04fe,fefe,0000,0000,fefe,fefe,fcfe,fefe,fcfe,0200,fefe,fefe,0000,fefe,00fe,fefe,fefe,fefe,fcfc,fefe,fefe,fefe,fe00,fefe,fefe,fefe,fefe,fcfe,fcfe,fcfe,fe00,fe00,fefe,fefe,00fc,fcfc,fcfc,fefe,fefe,fefe,fefe,fe00,00fe,fefc,fefe,fcfc,fefe,fefe,fefe,fe00,00fe,00fe,fafa,fcfa,fcfc,fefe,fefe,fefe,fefe,00fe,fefe,fcfc,fcfc,fefe,fefe,fefe,fefe,fefe,fe00,fcfc,fefe,fefe,fefe,fefe,fefe,fefe,00fe,fefe,0000,fe00,0000,00fe,fefe,fe00,fefe,fefc,0200,0000,00fe,fe00,fefe,fefe,00fe,00fe,fcfe,0000,0000,0000,fefe,fefe,fefe,fefe,0000,0002,0200,0000,00fe,fefe,fe00,fefe,fefe,0000,0200,0000,00fe,fefe,fefe,fefe,fefe,0202,0202,0002,00fe,0000,fe00,fefe,fefe,0000,0202,0202,0000,00fe,fe00,fefc,fefe,fefe,fefe,0000,0000,fefe,fefe,fefc,fefe,fefe,00fc,fe00,fefe,fcfe,00fe,fcfe,fcfc,fefe,0000,00fe,00fe,fefe,fefe,fefc,fcfc,fefe,fefe,0200,fefe,fe00,fe00,fefe,fefe,fcfe,00fe,fa02,0000,0000,00fe,00fe,00fc,00fe,00fe,00fc,0200,02f8,00f8,fe00,fcfe,f8fa,fafa,fa00,0200,fe02,00fe,00fe,fcf8,fcf8,faf8,fefc,0000,fcfc,fafc,fc00,fe00,fcfc,fcfc,fafc,fcfc,fafe,02fc,fcfe,00fe,fcfc,fcfa,fcfc,fc00,fefe,fe00,00fa,fcfe,02fe,fefc,fcfa,00fe,fcfe,fcfc,fcfc,fe00,0402,00fe,fefe,fefe,fe00,00fa,fe02,0002,0002,0000,fefe,fefe,00fe,fefc,f8fa,fafc,fcfc,fe00,0000,fefe,0000,fefc,fcfe,fcfc,02fe,fefe,0200,fefe,fe00,0000,fefe,fafc,00fe,fefe,0000,00fe,00fe,0000,00fe,fefe,f8fc,fcfc,fe00,0000,fefe,0000,0000,fc00,00fa,fe00,fcfe,fefe,00fe,fe00,fefe,fefc,fefc,fc02,fefa,fefe,fe00,fefe,fefe,00fe,fafc,fef8,fefa,fafc,fcfe,fefc,fefe,fefe,fefe,f8fc,f8fc,fcfc,fefe,fefe,fefe,fefe,fefe,fcfc,fefe,fefe,fcfe,fcfe,fefe,fefe,fcfe,fefc,fefa,fefe,fafe,fefc,fcfc,fefe,fefe,fcfe,fcfc,fefc,fcfe,fcfe,fcfc,fefe,fefe,fefc,fcfe,fcfa,02fe,fefe,fefe,fefe,fcfe,fefe,fefe,00fc,fc00,00fe,fe00,fefe,fefe,00fe,fcfe,fcfe,fcfe,fcfa,00fc,fefe,fefe,fefe,fefe,fefe,fefe,fcfc,00fe,fefe,fefe,fefe,00fe,fefe,fefe,fef8,fcfe,fefe,fefe,fefe,fefe,fefe,fefc,fcfe,fcfa,fefc,fefe,fefe,fefe,fefe,fe00,fafe,fefe,00fe,fefc,fcfe,fefe,fefe,fefe,fefe,fcfe,fcfc,0000,fcfe,fefc,fefe,fefe,fefe,fefe,0000,0400,00fc,fcfe,fcfe,fefe,fefe,fefc,fefe,0200,04fe,fcfe,fefe,fefe,fcfe,fcfe,fc00,0200,0202,fcfc,fefe,fefe,fefc,fefe,fefe,fe04,fefc,0004,00fe,fcfe,fefe,fefe,fefe,fefe,0200,0404,fafe,00fc,fcfe,fefe,fe00,fcfe,0200,0002,0202,fcfe,fefe,fefe,00fc,fefe,fc02,02fe,0200,00fe,fefc,fefe,00fe,04fc,fafa,00fe,0204,fefc,08fc,fefe,0000,0002,02fe,fefe,fc02,fe00,0000,0000,0000,0000,0000,0000,0000,0000,0000,0000,0000,0000,0000,0000,0000,0000,0000,0000,0000,0000,0000,0000,0000,0000,0000,0000,0000,0000,0000,0000,0000,0000,0000,0000,0000,0000,0000,0000,0000,0000,0000,0000,0000,0000,0000,0000,0000,0000,0000,0000,0000,0000,0000,0000,0000,0000,0000,0000,0000,0000,0000,0000,0000,0000,0000,0000,0000,0000,0000,0000,0000,0000,0000,0000,0000,0000,0000,0000,0000,0000,0000,0000,0000,0000,0000,0000,0000,0000,0000,0000,0000,0000,0000,0000,0000,0000,0000,0000,0000,0000,0000,0000,0000,0000,0000,0000,0000,0000,0000,0000,0000,0000,0000,0000,0000,0000,0000,0000,0000,0000,0000,0000,0000,0000,0000,0000,0000,0000,0000,0000,0000,0000,0000,0000,0000,0000,0000,0000,0000,0000,0000,0000,0000,0000,0000,0000,0000,0000,0000,0000,0000,0000,0000,0000,0000,0000,0000,0000,0000,0000,0000,0000,0000,0000,0000,0000,0000,0000,0000,0000,0000,0000,0000,0000,0000,0000,0000,0000,0000,0000,0000,0000,0000,0000,0000,0000,0000,0000,0000,0000,0000,0000,0000,0000,0000,0000,0000,0000,0000,0000,0000,0000,0000,0000,0000,0000,0000,0000,0000,0000,0000,0000,0000,0000,0000,0000,0000,0000,0000,0000,0000,0000,0000,0000,0000,0000,0000,0000,0000,0000,0000,0000,0000,0000,0000,0000,0000,0000,0000,0000,0000,0000,0000,0000,0000,0000,0000,0000,0000,0000,0000,0000,0000,0000,0000,0000,0000,0000,0000,0000,0000,0000,0000,0000,0000,0000,0000,0000,0000,0000,0000,0000,0000,0000,0000,0000,0000,0000,0000,0000,0000,0000,0000,0000,0000,0000,0000,0000,0000,0000,0000,0000,0000,0000,0000,0000,0000,0000,0000,0000,0000,0000,0000,0000,0000,0000,0000,0000,0000,0000,0000,0000,0000,0000,0000,0000,0000,0000,0000,0000,0000,0000,0000,0000,0000,0000,0000,0000,0000,0000,0000,0000,0000,0000,0000,0000,0000,0000,0000,0000,0000,0000,0000,0000,0000,0000,0000,0000,0000,0000,0000,0000,0000,0000,0000,0000,0000,0000,0000,0000,0000,0000,0000,0000,0000,0000,0000,0000,0000,0000,0000,0000,0000,0000,0000,0000,0000,0000,0000,0000,0000,0000,0000,0000,0000,0000,0000,0000,0000,0000,0000,0000,0000,0000,0000,0000,0000,0000,0000,0000,0000,0000,0000,0000,0000,0000,0000,0000,0000,0000,0000,0000,0000,0000,0000,0000,0000,0000,0000,0000,0000,0000,0000,0000,0000,0000,0000,0000,0000,0000,0000,0000,0000,0000,0000,0000,0000,0000,0000,0000,0000,0000,0000,0000,0000,0000,0000,f8fe,fe02,00fe,fefe,fcfc,0000,0208,0404,fc00,fe00,fcf8,00fa,0200,fafc,fcfc,0000,00fa,fcfe,fafc,02fe,fc00,fefc,fafa,fcfe,0604,fefe,fcfc,00fe,fcfe,fe00,fe00,02fa,fcfc,00fe,fefe,fefc,fcfe,fcfe,fefe,fefe,fcfc,fafc,fefa,fcfc,fafc,fcfe,fcfa,fefc,fefc,fefe,0200,fcfa,fefa,fcfc,fefc,fefc,fe00,fcfe,02fe,0200,fefe,fefe,0000,fcfc,fefe,fefe,fe00,fe00,0202,fefe,00fc,fafa,fafe,fefe,fcfc,02fc,fcfe,fcfe,0402,00fc,fafa,fefc,fefc,fefe,fafc,fc00,0208,0400,fefa,fafc,fefe,fefe,00fc,00fc,fafe,0204,0202,fafa,fcfe,fcfc,fcfa,fe00,fa02,00fe,0202,0200,fcfc,fefc,fcfc,0800,fcfa,0200,fa00,0200,fcfc,fefe,fcfe,fc00,0000,00fe,fcfa,0002,0000,00fe,fefe,fefe,fe04,fefe,fcfa,fcfc,fe00,0000,fcfc,fefe,0000,0000,02fe,fafa,fe00,fefe,fe00,fefc,fcfe,fefe,0204,fcfa,fe00,fefe,0000,00fe,fefe,00fe,00fc,04fc,fafa,fefe,fcfe,fcfe,fefe,fefe,0200,fcfe,fafa,fafc,fefe,fefe,fe00,fefe,fefe,00fc,00fc,fafa,fc00,fcfc,fcfe,fcfe,fefe,0004,fcfc,fefe,fefe,00fe,fefc,fcfc,fcfc,fefe,0608,0002,0000,0200,fe00,fcfe,fefe,fefe,fefa,0802,0404,0404,0202,fefa,00fe,fefc,00fe,f800,0404,0202,0200,0402,fe00,fcfc,fcfe,00fc,0608,0404,0606,0206,fe02,fefe,fcfc,fe00,0200,0400,0402,00fe,0204,02fe,fcfc,fefe,0608,0404,0002,00fe,0002,0602,fcfe,fefe,0000,0806,0604,02fc,fefe,0406,fcfa,fefe,fe00,00fe,0404,00fe,fefe,00fe,02fe,fefe,fefe,00fa,fe00,fe00,fafc,fefc,0002,fa00,fefe,0000,00fe,fefe,fefe,fcfc,fcfa,fe04,02fe,fefe,0400,fe00,00fe,fe00,02fe,0000,0600,0000,f800,0200,0000,fefe,fefa,fefe,0206,0000,00fe,0000,02fe,02fe,fc08,00fc,00fa,fcfa,fc02,0204,fc00,0002,06fe,fef6,fef8,fafc,04fc,0600,fcfa,fe04,0004,0402,fcfc,fcfe,fefa,fc00,0000,0402,0000,0000,fefc,00fe,fefe,0004,fa06,0600,00fa,0000,0202,f8f8,faf8,0000,fe00,fa02,02f8,0002,0204,0600,00fe,fefe,fc02,0600,0204,02fe,0400,0006,00fe,fafc,fefe,fcfc,f8fe,00fa,fcfe,fe02,0806,fefe,fe00,00fa,fcfe,fe02,00fc,f8fe,0608,0602,fefc,0000,0206,0200,00fe,fcfe,00fe,0204,0400,0002,0000,0408,fe02,fefc,fe02,fefc,0002,0406,0402,0002,0402,0202,fefe,00fe,fcfc,0204,0604,02fc,00fe,fc0c,00fc,fefe,fcfc,fa00,fe00,0404,f8fc,02fa,04fe,f600,fcfc,fcfc,fefc,0002,00fe,fe02,fa02,04fc,04fc,f8fc,fefc,fefe,0202,fefe,0200,02fe,0002,faf8,fafc,fcfc,fafe,0402,04f8,0004,fc02,fafc,f8fa,fcfc,fcfa,fe00,fefe,02fc,f8fc,00fc,fafa,fcfa,fcfa,fcfa,fe02,fefc,0806,00fe,fefa,f8fa,fcfa,fefa,f802,02fe,fc02,0204,fc00,fcfe,fefe,00fe,faf8,fcfe,0004,fe00,0000,fefc,fcfe,02fe,fefc,fcfa,fcfe,fe00,02fe,0604,00fe,0202,0202,fefa,00fc,02fa,0000,fefc,02fe,0000,02fe,0200,fefe,fc00,fc00,00fc,fcfe,fcfe,0000,0000,0000,fa00,f8fe,00fe,00fc,fe00,00fe,fcfe,0200,00fe,0000,0004,06fe,fafc,fefc,fcfc,fcfe,00fc,fe00,0004,0604,00fa,fc00,fafa,fefc,fefe,02f8,0002,0402,02f8,0200,00fc,fefc,fe00,00fc,fe04,0404,0006,fefc,02fc,fefe,fcfe,0002,fcfe,fa04,fefc,fe02,0202,0000,fefc,0000,00fc,fe02,fa02,0a04,fe02,04fe,fc00,00fe,fe02,fc02,0000,0406,fa04,0206,0200,fcfe,fefa,fc04,0202,0002,02fe,00fe,fe02,0004,00fc,08fc,fcf8,00fe,0004,00fc,0a00,04fc,0000,0204,0404,fefe,fe02,020a,0000,0000,0000,0000,0000,0000,0000,0000,0000,0000,0000,0000,0000,0000,0000,0000,0000,0000,0000,0000,0000,0000,0000,0000,0000,0000,0000,0000,0000,0000,0000,0000,0000,0000,0000,0000,0000,0000,0000,0000,0000,0000,0000,0000,0000,0000,0000,0000,0000,0000,0000,0000,0000,0000,0000,0000,0000,0000,0000,0000,0000,0000,0000,0000,0000,0000,0000,0000,0000,0000,0000,0000,0000,0000,0000,0000,0000,0000,0000,0000,0000,0000,0000,0000,0000,0000,0000,0000,0000,0000,0000,0000,0000,0000,0000,0000,0000,0000,0000,0000,0000,0000,0000,0000,0000,0000,0000,0000,0000,0000,0000,0000,0000,0000,0000,0000,0000,0000,0000,0000,0000,0000,0000,0000,0000,0000,0000,0000,0000,0000,0000,0000,0000,0000,0000,0000,0000,0000,0000,0000,0000,0000,0000,0000,0000,0000,0000,0000,0000,0000,0000,0000,0000,0000,0000,0000,0000,0000,0000,0000,0000,0000,0000,0000,0000,0000,0000,0000,0000,0000,0000,0000,0000,0000,0000,0000,0000,0000,0000,0000,0000,0000,0000,0000,0000,0000,0000,0000,0000,0000,0000,0000,0000,0000,0000,0000,0000,0000,0000,0000,0000,0000,0000,0000,0000,0000,0000,0000,0000,0000,0000,0000,0000,0000,0000,0000,0000,0000,0000,0000,0000,0000,0000,0000,0000,0000,0000,0000,0000,0000,0000,0000,0000,0000,0000,0000,0000,0000,0000,0000,0000,0000,0000,0000,0000,0000,0000,0000,0000,0000,0000,0000,0000,0000,0000,0000,0000,0000,0000,0000,0000,0000,0000,0000,0000,0000,0000,0000,0000,0000,0000,0000,0000,0000,0000,0000,0000,0000,0000,0000,0000,0000,0000,0000,0000,0000,0000,0000,0000,0000,0000,0000,0000,0000,0000,0000,0000,0000,0000,0000,0000,0000,0000,0000,0000,0000,0000,0000,0000,0000,0000,0000,0000,0000,0000,0000,0000,0000,0000,0000,0000,0000,0000,0000,0000,0000,0000,0000,0000,0000,0000,0000,0000,0000,0000,0000,0000,0000,0000,0000,0000,0000,0000,0000,0000,0000,0000,0000,0000,0000,0000,0000,0000,0000,0000,0000,0000,0000,0000,0000,0000,0000,0000,0000,0000,0000,0000,0000,0000,0000,0000,0000,0000,0000,0000,0000,0000,0000,0000,0000,0000,0000,0000,0000,0000,0000,0000,0000,0000,0000,0000,0000,0000,0000,0000,0000,0000,0000,0000,0000,0000,0000,0000,0000,0000,0000,0000,0000,0000,0000,0000,0000,0000,0000,0000,0000,0000,0000,0000,0000,0000,0000,0000,0000,0000,0000,0000,0000,0000,0000,0000,0000,0000,0000,0000,0000,0000,0000,0000,0000,0000,0000,0000,0000,0000,0000,04f8,000c,fa02,0000,0000,fe04,04fa,0604,0402,fef8,02fc,00fe,0000,f6fc,fc00,04fe,fc00,f6f8,f6f2,f4f8,fcfa,faf8,faf2,f6fa,fa02,00f6,02f2,f4fc,fc00,f2f4,f6f8,f8f8,faf6,fefe,f6f8,00fa,0202,fcfc,f8f6,f4fa,f2f4,f4fe,0400,f8fc,fe00,0000,fcfa,f4f2,f4f2,f8f8,0400,02fe,0204,0200,fefa,f6f2,f4f2,f0f0,fefe,0002,0604,0400,00fe,fefc,f6f6,f2f4,f8fe,0200,0408,0606,fe00,0202,faf6,fcf8,f4f0,0006,fefa,0806,fefe,00fe,00fe,fafc,fefa,f2f8,0a02,02fe,fefe,fe02,0202,fefe,fcfe,ecec,fc04,f6fc,fafe,fcfe,0202,0000,0604,f8f4,f2f8,0604,f4f4,0002,0206,0200,0606,08fe,eae8,fe06,fcfa,fafe,fe00,02fe,fe04,1212,f2ec,e8f4,fefe,faf8,02fe,0202,faf6,1014,06f6,e6e8,fafa,fe00,fe02,0000,00fe,fc0c,1814,eeea,f2f6,fefc,fefa,00fe,0002,f6f4,1416,00f6,f2f6,f8fc,fc00,fefc,fefc,fefc,000c,120c,f8f8,faf8,0002,fafe,fefc,0402,f8f8,0c0c,fafa,fefe,fe02,f8fc,fefe,0002,00fc,0006,0a04,fafc,fcfe,0200,fcfc,fefe,0602,fafa,0608,fefa,fefe,0000,fefa,fc00,0002,0000,fc00,0204,0000,fafc,fe02,fafc,0000,00fe,f8f8,0004,00fe,0202,00fe,fcfc,fafe,0000,00fe,fc00,0202,fe00,fef8,fe02,fcfc,fcfe,0400,fcfa,0404,fcfe,fafc,fe00,02fc,fafc,fe00,fefc,fcfe,02fc,faf8,fef8,0402,f8f6,fefe,fcfa,fafa,00fe,f6f6,f8fc,fe04,00fc,fafe,fefc,faf8,fafc,fcfa,f2f4,fef8,0200,00fe,fefe,faf6,f8f8,00fe,f8f6,f8fa,fcfe,fafa,02fe,fcfc,fcf8,fcfc,f6fe,fefa,faf8,02fa,0002,00fc,f8fc,fafc,02fe,fcfe,f600,fa02,fafc,00fe,fcfa,fcf8,fe00,fcfe,fcf6,fcf8,fa00,fcfc,fc02,f8f8,fafc,fefe,02fe,f8fa,f600,0400,fc00,fafa,f6f8,0000,fafe,fcf8,fa00,0000,fa04,04fc,fc04,0400,fef8,fefc,00fc,0606,0a08,fc06,00fa,fe02,00fa,faf8,0206,0808,0602,fefc,faf8,fe00,0402,0200,0402,0008,0404,0afc,fcfe,fafc,0204,0608,0200,0004,0210,0804,02fc,fefe,fa00,0404,0606,0002,fc02,000a,0804,fe02,fefa,fe00,0604,0404,00fa,000a,0a10,0200,0802,fafa,0406,0606,0202,fcfc,0e0a,0002,0604,fcfc,fe02,0404,0200,fa00,0002,fe08,0004,00fa,fafc,0404,0202,fcfa,faf8,060a,fa06,fe02,f8fa,fe00,fcfe,fcfc,f6fa,0e0a,0c02,0604,fefa,0000,fcfc,0202,faf2,fe04,0a02,0a04,0402,fefc,fcf8,fc00,fcf8,f6f6,1004,0402,0604,fefe,fefe,f6fc,0402,ecec,fcfc,0a08,0208,0200,fefe,faf8,0606,eee2,f6f8,0c04,0404,0406,fefe,fefe,0208,02fa,ecf8,0402,0a06,0208,0602,0000,fcfe,0e0a,e6e4,00fe,0408,0c06,0606,0000,0200,060c,02f4,f800,0200,0a02,0204,0402,0000,fe00,0c08,eef2,0000,020a,fe04,fe02,0200,00fc,080a,00f8,fafa,fefe,040c,0408,0000,fcfe,fe00,0602,f8fa,0202,0606,0000,0000,fcfe,00fe,0204,fef8,0200,0806,0608,fc00,0200,fcfe,0000,0402,f8fe,0608,040a,04fc,fefc,0000,fe00,0202,fcfa,0806,0604,fe02,fafe,fe00,0000,0002,0400,fa02,0604,fc06,06fc,fe00,0202,0000,0202,fefc,fe02,0204,0004,00fe,0404,0402,0200,0402,0200,fe00,04fe,02fe,0004,0404,0400,0404,fafc,fefc,0606,0400,02fe,0204,0204,0000,00fc,fefe,fc04,0008,fc04,0208,00fe,0200,0000,fc04,fa00,00fc,fe04,fc08,0002,fe00,00fe,fefe,0202,fcfc,0002,02fe,fe00,06fe,fe00,fc00,fe02,fefe,0000,02fe,00fc,0206,00fc,fefc,0002,0004,0400,0000,0400,fefc,0206,fefe,0004,0000,0600,04f8,fa02,00f8,fc02,0202,fe02,0a04,000a,0002,0200,000c,0000,0000,0000,0000,0000,0000,0000,0000,0000,0000,0000,0000,0000,0000,0000,0000,0000,0000,0000,0000,0000,0000,0000,0000,0000,0000,0000,0000,0000,0000,0000,0000,0000,0000,0000,0000,0000,0000,0000,0000,0000,0000,0000,0000,0000,0000,0000,0000,0000,0000,0000,0000,0000,0000,0000,0000,0000,0000,0000,0000,0000,0000,0000,0000,0000,0000,0000,0000,0000,0000,0000,0000,0000,0000,0000,0000,0000,0000,0000,0000,0000,0000,0000,0000,0000,0000,0000,0000,0000,0000,0000,0000,0000,0000,0000,0000,0000,0000,0000,0000,0000,0000,0000,0000,0000,0000,0000,0000,0000,0000,0000,0000,0000,0000,0000,0000,0000,0000,0000,0000,0000,0000,0000,0000,0000,0000,0000,0000,0000,0000,0000,0000,0000,0000,0000,0000,0000,0000,0000,0000,0000,0000,0000,0000,0000,0000,0000,0000,0000,0000,0000,0000,0000,0000,0000,0000,0000,0000,0000,0000,0000,0000,0000,0000,0000,0000,0000,0000,0000,0000,0000,0000,0000,0000,0000,0000,0000,0000,0000,0000,0000,0000,0000,0000,0000,0000,0000,0000,0000,0000,0000,0000,0000,0000,0000,0000,0000,0000,0000,0000,0000,0000,0000,0000,0000,0000,0000,0000,0000,0000,0000,0000,0000,0000,0000,0000,0000,0000,0000,0000,0000,0000,0000,0000,0000,0000,0000,0000,0000,0000,0000,0000,0000,0000,0000,0000,0000,0000,0000,0000,0000,0000,0000,0000,0000,0000,0000,0000,0000,0000,0000,0000,0000,0000,0000,0000,0000,0000,0000,0000,0000,0000,0000,0000,0000,0000,0000,0000,0000,0000,0000,0000,0000,0000,0000,0000,0000,0000,0000,0000,0000,0000,0000,0000,0000,0000,0000,0000,0000,0000,0000,0000,0000,0000,0000,0000,0000,0000,0000,0000,0000,0000,0000,0000,0000,0000,0000,0000,0000,0000,0000,0000,0000,0000,0000,0000,0000,0000,0000,0000,0000,0000,0000,0000,0000,0000,0000,0000,0000,0000,0000,0000,0000,0000,0000,0000,0000,0000,0000,0000,0000,0000,0000,0000,0000,0000,0000,0000,0000,0000,0000,0000,0000,0000,0000,0000,0000,0000,0000,0000,0000,0000,0000,0000,0000,0000,0000,0000,0000,0000,0000,0000,0000,0000,0000,0000,0000,0000,0000,0000,0000,0000,0000,0000,0000,0000,0000,0000,0000,0000,0000,0000,0000,0000,0000,0000,0000,0000,0000,0000,0000,0000,0000,0000,0000,0000,0000,0000,0000,0000,0000,0000,0000,0000,0000,0000,0000,0000,0000,0000,0000,0000,0000,0000,0000,0000,0000,0000,0000,0000,0000,0000,0000,0000,0000,0000,0000,0000,0000,0000,0000,0000,0000,0000,0000,0000,00fc,0c02,f6f6,f8fc,f6fc,fef6,f4fa,fcf8,fc00,00fa,fef4,f2f8,fcf6,0004,faf8,faf8,02fe,0204,04fc,f4f0,fcfa,0200,0402,fcfa,f8fa,fe06,fafe,faf4,f8f8,fe00,0602,0402,f8fc,fafe,fcfa,fcfa,f2fa,fe00,0804,0200,0600,f6f8,fafc,faf8,f6f4,fcfe,0406,0202,060c,fef6,fcfc,faf6,eef0,f4f8,fc00,0404,0204,0a02,f8fa,f4fc,f6f6,ecf0,fcfe,0404,0200,0406,fefa,0000,f4f6,e8ee,f6fc,0204,0204,00fe,0002,fefe,00fa,f4f2,f2f2,fcfe,0604,0200,fc00,00fa,0606,fcf8,ecf2,fafc,0206,0402,0000,fe00,00fe,0202,fcfa,fafc,00fe,0404,0000,0000,fefe,fafa,0602,fcfc,0000,0204,0402,fe00,0402,fefa,fafe,0200,00fe,00fe,0002,fe00,0204,02fe,f6f8,0400,0202,fefe,fe02,0200,0000,f8f4,f6f8,fafc,0000,fefe,0000,0000,fcfe,f8f2,ecf4,f8fc,fe00,0400,fcfe,02fe,fefe,f4f2,e8e6,f4fc,f8fc,0406,02fe,0002,0200,faf0,ecea,e8f0,faf8,0404,0406,fe04,0406,fefe,f0ee,ecea,f6fa,f6f8,0406,0608,080a,0602,f4f2,f2f2,ecee,f8fc,fcfa,0408,0c0e,0e0a,faf8,f4f4,eeee,f2f4,f4f4,0000,0a0a,0c0e,0400,faf8,f6f2,f0ee,fafc,fafa,0404,0c10,0606,fefc,faf8,f8f6,f4f8,f2f6,fcfe,0604,0604,0400,fcfe,fafc,fcf8,00fa,f8f8,fe00,0204,fe00,fafa,fafa,00fa,fcfc,f8fa,fefe,fefe,fefc,00fe,fcfc,fc00,0200,faf8,fcfc,fcfc,fcfe,fefe,fefc,0000,00fe,0000,f4fa,fcfa,fafa,fefe,00fe,0200,00fe,0400,fcfc,fcfc,fcfa,fefe,fefc,fe00,00fe,0204,fefe,f6fa,fe02,fcfc,fefc,fefc,0202,fe00,00fc,00fe,fafa,fcfc,fcfe,fefe,fcfc,fcfa,fcfa,0200,f2f6,f2f6,fafe,fefe,faf8,fcfa,f8fa,00fe,0202,f8f6,eef0,f6f6,f6f6,f4f6,f6f4,fc04,fe02,ecec,f6f0,e8ea,eef0,eef2,f6f8,fafa,0004,0002,1212,0a04,0406,0206,0602,0606,0e0a,0cfc,0e06,0604,0200,0406,0404,fe00,0408,080a,0a0a,0c0c,0408,0602,0202,0000,0006,0a06,0408,0608,0e0a,0806,0604,02fe,0000,0204,1010,0402,0a0a,0806,0806,0404,0002,0404,060c,08fe,0c02,080a,0a0a,0204,0404,0402,0404,0c0a,0206,0606,0406,0804,0202,0000,0204,080a,0604,0604,0804,0a08,0202,0000,0202,0408,080c,0402,0404,040c,0202,0200,0202,0402,0204,0a08,0804,0204,100a,0402,0200,0402,0404,0602,0608,0602,0c0c,0608,0402,0202,0204,fef8,040c,02fe,0208,0a08,0604,0002,0202,0400,0402,0604,fefc,0806,0602,0200,0406,0202,f8fa,0402,00fc,fc02,0200,fefe,0002,0400,02fc,0208,0408,f6f8,00fe,fefe,0004,0604,00fe,fa06,040a,fcf6,fefe,0000,0204,0604,00fe,0004,0810,fa00,fcfc,fe00,0204,0a0a,0404,0204,0a04,fe02,fcfc,fefe,0404,0a10,0806,0408,0c06,0006,fe04,02fe,fc00,060c,0806,0402,0806,0002,0804,02fe,fefe,0004,0600,0002,0606,0600,0800,00fe,fefe,fe00,0000,fafc,0404,fefe,fa08,08fa,0002,0202,00fe,fafa,fafc,00fc,fefc,0404,0002,0204,0202,fcfa,faf8,fcfa,fc00,fe02,0808,0408,0202,fefc,f8fa,f8fa,f8fc,fcfa,00fe,0602,0604,fefe,fcfc,fcfa,fcfa,0402,fe04,fc00,0608,0400,fcfc,fcfc,fafc,fafe,02fc,0404,0208,0402,0000,fcfa,fafc,00fe,0000,fc06,0406,0a04,02fe,fe00,fefe,fcfe,02fe,fcfc,0002,0c08,00fe,0000,0000,0400,0400,fcf8,0200,fc0a,08fa,0200,0200,fe00,0002,f800,0200,0604,040a,0002,00fc,02fe,0000,0202,fcfe,0206,0206,080a,06fe,fc00,0000,0404,0000,fefe,0606,0806,060c,0000,fcfe,040a,0608,0202,0806,0a02,060e,0a04,fefa,0400,080a,0600,0202,0600,0a02,0000,0000,0000,0000,0000,0000,0000,0000,0000,0000,0000,0000,0000,0000,0000,0000,0000,0000,0000,0000,0000,0000,0000,0000,0000,0000,0000,0000,0000,0000,0000,0000,0000,0000,0000,0000,0000,0000,0000,0000,0000,0000,0000,0000,0000,0000,0000,0000,0000,0000,0000,0000,0000,0000,0000,0000,0000,0000,0000,0000,0000,0000,0000,0000,0000,0000,0000,0000,0000,0000,0000,0000,0000,0000,0000,0000,0000,0000,0000,0000,0000,0000,0000,0000,0000,0000,0000,0000,0000,0000,0000,0000,0000,0000,0000,0000,0000,0000,0000,0000,0000,0000,0000,0000,0000,0000,0000,0000,0000,0000,0000,0000,0000,0000,0000,0000,0000,0000,0000,0000,0000,0000,0000,0000,0000,0000,0000,0000,0000,0000,0000,0000,0000,0000,0000,0000,0000,0000,0000,0000,0000,0000,0000,0000,0000,0000,0000,0000,0000,0000,0000,0000,0000,0000,0000,0000,0000,0000,0000,0000,0000,0000,0000,0000,0000,0000,0000,0000,0000,0000,0000,0000,0000,0000,0000,0000,0000,0000,0000,0000,0000,0000,0000,0000,0000,0000,0000,0000,0000,0000,0000,0000,0000,0000,0000,0000,0000,0000,0000,0000,0000,0000,0000,0000,0000,0000,0000,0000,0000,0000,0000,0000,0000,0000,0000,0000,0000,0000,0000,0000,0000,0000,0000,0000,0000,0000,0000,0000,0000,0000,0000,0000,0000,0000,0000,0000,0000,0000,0000,0000,0000,0000,0000,0000,0000,0000,0000,0000,0000,0000,0000,0000,0000,0000,0000,0000,0000,0000,0000,0000,0000,0000,0000,0000,0000,0000,0000,0000,0000,0000,0000,0000,0000,0000,0000,0000,0000,0000,0000,0000,0000,0000,0000,0000,0000,0000,0000,0000,0000,0000,0000,0000,0000,0000,0000,0000,0000,0000,0000,0000,0000,0000,0000,0000,0000,0000,0000,0000,0000,0000,0000,0000,0000,0000,0000,0000,0000,0000,0000,0000,0000,0000,0000,0000,0000,0000,0000,0000,0000,0000,0000,0000,0000,0000,0000,0000,0000,0000,0000,0000,0000,0000,0000,0000,0000,0000,0000,0000,0000,0000,0000,0000,0000,0000,0000,0000,0000,0000,0000,0000,0000,0000,0000,0000,0000,0000,0000,0000,0000,0000,0000,0000,0000,0000,0000,0000,0000,0000,0000,0000,0000,0000,0000,0000,0000,0000,0000,0000,0000,0000,0000,0000,0000,0000,0000,0000,0000,0000,0000,0000,0000,0000,0000,0000,0000,0000,0000,0000,0000,0000,0000,0000,0000,0000,0000,0000,0000,0000,0000,0000,0000,0000,0000,0000,0000,0000,0000,0000,0000,0000,0000,0000,0000,0000,0000,0000,0000,0000,0000,0000,0000,0000,0000,0000,0000,0000,0000,fcfe,fcfc,0000,fe00,fcfe,0000,0004,0402,fa00,fefe,fefa,fefc,00fe,fcfe,fafe,00fe,00fa,fcfc,fafc,0202,0000,fefe,fefe,fefe,0202,fcfa,fafa,00fe,0002,fe00,0002,fefa,fe00,02fc,fefc,fefc,0002,0202,0000,fefe,fcfc,fafe,00fc,fcfe,00fe,0002,fefe,0000,fefc,fefe,fefe,fcfa,00fe,fefe,00fe,fe00,fefe,fcfe,0200,00fe,fe00,0000,0000,fefe,00fe,fefc,fc00,fefe,00fe,fefc,00fe,00fe,fefe,00fe,fcfe,04fe,00fe,fefc,fe00,fefe,00fe,00fe,fefe,fcfc,00fe,0200,fe00,00fe,fefe,fe00,fefe,fefe,fc00,0200,fefe,0000,0000,0000,fefe,fefe,fcfa,0402,fe00,fefe,0000,00fe,fefe,fefe,fefe,04fe,00fe,fefe,fe00,0000,fefe,fefe,fcfe,fa00,0000,00fe,fefe,0000,fefe,fefe,fefe,fefe,fefe,fafc,fefe,fefe,fe00,fefe,fefe,fefe,00fe,fefe,fefe,fefe,fefe,0000,fefe,fe00,fefe,00fc,fcfe,fefe,fe00,fefe,fefe,fefe,fefe,fefe,fefe,00fc,fcfe,fefe,fefe,fefe,00fe,fe00,0200,fefc,fcfc,fefe,fefe,fefe,fefe,fefe,fefe,00fe,fefe,fefe,fefe,fefe,fefe,fefe,fefe,fe02,fefe,00fe,fe00,0000,fefe,fefe,fefe,fefe,0204,0202,0200,00fe,0000,fefe,fe00,fefe,fefe,0404,0202,0000,0000,fefe,fefe,fefe,fefe,fefe,0200,0000,0000,00fe,fefe,fefe,fefe,0200,0000,0200,0000,0000,fefe,fe00,fefe,fefe,0200,00fe,fefe,fe00,0000,fefe,fefe,fefe,0200,0202,0000,fefe,0002,0000,fefe,fefe,fe00,0000,0202,00fe,0000,0200,fefe,00fe,fefe,fefe,0000,0000,fe00,0000,00fe,00fe,fefe,00fe,fe00,fefe,fe00,00fe,fe00,fefe,fefe,0000,00fe,fe00,fe00,fefe,fefe,fe00,0000,fe00,0200,00fe,fefe,fe00,00fe,00fe,00fe,0000,fa02,0000,0000,fefe,fefe,00fe,00fe,fefe,00fe,0000,00f8,00fc,0002,fe00,fcfc,fcfc,fa02,0202,fe02,00fc,02fe,00f8,00fe,fcfc,02fc,0000,fefe,fefe,fefe,0202,fe02,fefe,fefe,fefe,fc00,0200,fe00,0002,02fe,fefe,0002,fe00,fe02,0000,00fc,0002,0600,fefe,fefc,0200,0000,fa02,fcfc,fefe,0204,0200,fe00,fe00,fe00,00fc,0004,0000,fe00,0002,0000,00fe,0200,fcfc,fafe,fefe,fefe,fe00,0000,0000,0000,00fa,fe00,fcfe,00fc,00fe,0000,0000,0000,0000,fe02,0000,0000,fefe,0000,0200,0200,0000,00fe,00fe,fcfe,fefe,fe00,0000,0000,0000,0000,fc00,00fa,fefe,fcfe,fe00,0000,0000,fefe,00fc,00fe,0004,00fc,fe00,fe00,fe00,00fe,fefe,fcfe,00fc,fcfc,fafe,fefe,fefe,fefe,fefe,fefe,fcfe,fc00,fefe,fefc,fefe,fefe,fefe,fefe,fefe,0000,fefc,fefe,fefe,fefe,fefe,fcfc,fefe,00fc,00fe,fcfe,fefc,fefe,fefe,fefe,fefe,fefe,00fc,fcfe,fcfe,fcfe,fefe,fefe,fcfc,fefe,0000,0404,0200,00fe,fefe,fefe,fefe,fefe,00fe,fe02,00fe,fe00,fefe,fefe,0000,fefe,fe00,0002,00fe,02fe,0000,fe00,fe00,fefe,fefe,fefe,fc00,0000,0000,00fe,fefe,00fe,fefe,fe00,02fa,0200,00fe,00fe,fe00,00fe,fefe,0000,fe00,fe00,fefc,fefe,fe00,00fe,0000,0000,fefe,fefe,0200,fe00,fcfe,fefe,0000,00fe,fe00,fefe,00fe,0000,fefe,fefe,fefe,fe00,fefe,fe00,0000,0602,00fe,fefe,fefe,fefe,fefe,fefe,0000,0000,0000,fc00,fefe,fefe,fe00,fefe,fe02,0202,0202,00fe,00fe,fefe,fe00,0000,fe00,fe04,00fe,fe02,0200,00fe,fefe,fe00,0000,0000,0002,0402,fc02,fefe,fe00,00fe,0000,0000,0200,0002,0204,fe02,0000,0000,00fe,fc00,0004,02fe,04fe,00fc,00fe,0000,0000,04fe,fefa,0000,0006,02fe,08fc,0200,0002,0204,0202,0002,fc04,0002,0000,0000,0000,0000,0000,0000,0000,0000,0000,0000,0000,0000,0000,0000,0000,0000,0000,0000,0000,0000,0000,0000,0000,0000,0000,0000,0000,0000,0000,0000,0000,0000,0000,0000,0000,0000,0000,0000,0000,0000,0000,0000,0000,0000,0000,0000,0000,0000,0000,0000,0000,0000,0000,0000,0000,0000,0000,0000,0000,0000,0000,0000,0000,0000,0000,0000,0000,0000,0000,0000,0000,0000,0000,0000,0000,0000,0000,0000,0000,0000,0000,0000,0000,0000,0000,0000,0000,0000,0000,0000,0000,0000,0000,0000,0000,0000,0000,0000,0000,0000,0000,0000,0000,0000,0000,0000,0000,0000,0000,0000,0000,0000,0000,0000,0000,0000,0000,0000,0000,0000,0000,0000,0000,0000,0000,0000,0000,0000,0000,0000,0000,0000,0000,0000,0000,0000,0000,0000,0000,0000,0000,0000,0000,0000,0000,0000,0000,0000,0000,0000,0000,0000,0000,0000,0000,0000,0000,0000,0000,0000,0000,0000,0000,0000,0000,0000,0000,0000,0000,0000,0000,0000,0000,0000,0000,0000,0000,0000,0000,0000,0000,0000,0000,0000,0000,0000,0000,0000,0000,0000,0000,0000,0000,0000,0000,0000,0000,0000,0000,0000,0000,0000,0000,0000,0000,0000,0000,0000,0000,0000,0000,0000,0000,0000,0000,0000,0000,0000,0000,0000,0000,0000,0000,0000,0000,0000,0000,0000,0000,0000,0000,0000,0000,0000,0000,0000,0000,0000,0000,0000,0000,0000,0000,0000,0000,0000,0000,0000,0000,0000,0000,0000,0000,0000,0000,0000,0000,0000,0000,0000,0000,0000,0000,0000,0000,0000,0000,0000,0000,0000,0000,0000,0000,0000,0000,0000,0000,0000,0000,0000,0000,0000,0000,0000,0000,0000,0000,0000,0000,0000,0000,0000,0000,0000,0000,0000,0000,0000,0000,0000,0000,0000,0000,0000,0000,0000,0000,0000,0000,0000,0000,0000,0000,0000,0000,0000,0000,0000,0000,0000,0000,0000,0000,0000,0000,0000,0000,0000,0000,0000,0000,0000,0000,0000,0000,0000,0000,0000,0000,0000,0000,0000,0000,0000,0000,0000,0000,0000,0000,0000,0000,0000,0000,0000,0000,0000,0000,0000,0000,0000,0000,0000,0000,0000,0000,0000,0000,0000,0000,0000,0000,0000,0000,0000,0000,0000,0000,0000,0000,0000,0000,0000,0000,0000,0000,0000,0000,0000,0000,0000,0000,0000,0000,0000,0000,0000,0000,0000,0000,0000,0000,0000,0000,0000,0000,0000,0000,0000,0000,0000,0000,0000,0000,0000,0000,0000,0000,0000,0000,0000,0000,0000,0000,0000,0000,0000,0000,0000,0000,0000,0000,0000,0000,0000,0000,0000,0000,0000,0000,0000,0000,0000,0000,0000,0000,0000,fc00,fc02,0408,fafe,00fc,f6fa,fc02,fcfe,0406,fcfc,0002,02fc,fefe,02fc,fefc,fe02,0400,02fc,0808,0402,0002,fefe,fc00,fefe,fefc,0002,0608,100c,0408,fefc,fcfe,fefa,fafa,00fe,0404,1414,0c0c,fefa,f6fc,f8fe,fcfa,00fc,080c,0812,1812,00f8,f8f6,f8f6,fcf8,f6fa,fcfe,0c10,1a14,0602,f8fc,f6f6,f8f8,f6f8,f8fc,0606,1612,0804,f8f4,f8fc,faf8,f2f4,f4f2,fafc,0e0c,0602,f6f4,f8fa,f6f8,f0ee,f2f2,f6f8,fefe,f8f4,f2f6,0000,f8f8,f8f8,ecee,f2f8,f6f2,f2f2,f4f4,0808,0600,faf6,f2f2,f0f2,f4f6,fcf8,f4f6,040c,0c08,fefe,f8f4,f6fa,f2f2,f2ec,fcfc,020a,1010,0400,fafc,fcfe,fefa,f6f6,00fe,080a,1216,0c0a,0602,0000,0002,fefa,fafc,0a0a,1014,140c,080a,0606,0402,0204,fcfc,fe00,0c0c,0e0e,fefc,0406,0604,0404,0404,0806,0400,0200,f4f0,f8fc,0a06,0404,0202,0000,fefc,00fc,eae6,ecf4,0002,0604,0200,0200,0000,02f8,eae6,eaf0,fcfc,00fe,fefc,fe00,0606,f0f2,eae4,e4ea,fafc,fafc,fafc,fcfe,0006,fe00,eaee,eeee,f8fc,0200,faf8,fafe,0000,0a08,f8f0,eaf2,00fe,0200,faf8,f8fa,00fe,0608,0204,f4f8,fcfe,02fc,faf8,f6f8,0002,0406,0406,0c08,02fc,0200,f8f8,f8fc,fe02,0200,0604,00fe,0a08,0202,fefa,fafc,0000,0404,0204,0202,0c0c,0604,0200,0002,0202,0004,0402,0202,0006,080a,0202,0204,0002,0202,0200,0000,02fe,0804,0604,0002,0404,0604,0000,fefc,fefc,0204,0406,0200,0406,0808,0400,fafc,fcfa,f8f8,02fe,fcfc,fe02,0406,0404,fcfa,fcfa,faf6,00fe,00fe,fefe,0202,0200,fefe,f8f8,f8fc,fc00,04fe,0000,0202,fcfa,fefc,faf8,faf8,f4fa,0000,0002,0402,fefc,f8fa,fafc,fafc,faf6,eef8,0c02,060a,0600,fefe,fefa,fcf4,f4f4,fcfa,0000,fc00,f8f8,fafa,fcf8,f8fe,fafe,00fe,fc06,06fc,fc00,f8fc,fcfa,f2f0,faee,fef8,04fa,f804,f4fe,fc00,0200,fefa,f0f4,f0f4,fafc,fefe,0004,fe00,fe00,fcfc,f2f6,f4fa,f0f4,f4f8,0204,04fe,0202,fefc,fcfa,f8f6,fafa,fef8,0006,fefe,02fc,fcfc,0002,0202,0406,00fc,06fe,00fe,fe02,f2f0,fcfe,0000,0206,0804,fcfe,fefe,fafa,ecee,f0f6,fe00,0408,0606,0200,0002,0802,f6f6,f4f2,fcfe,0406,0408,0406,00f8,fcf8,02fc,f2f2,fafa,fe00,0808,0200,04fa,fe04,fefc,faf8,fa00,fefe,0004,00fe,fc00,02fc,0604,fe00,0202,00fe,fcfe,fefc,faf8,f8fa,fcfe,fefe,0002,fe00,00fa,f8f6,f4f8,fcfc,f8f6,02f6,0402,04fe,00fe,f2f4,f4f6,fafc,f6f6,fe00,fafc,fe00,fefa,f4f4,fefe,fcfe,fcfa,f8fe,0006,fafe,fcfc,fafa,0608,0402,00fc,faf8,f8f6,0004,fefe,0000,0a10,0e0a,0402,0000,fafe,0400,f4fa,fe00,0a0c,1210,0806,0200,0400,0200,f8fa,00fe,0404,0a0a,0806,0000,0202,0000,0000,fc02,fe04,0404,0402,fc00,fe00,0402,fe00,fa00,00fe,fe00,fefc,f0f4,fe00,0004,02fe,0008,0202,fcfa,faf8,f4f0,fafc,0202,0804,00fc,fc02,02fe,fefc,faf8,fafc,0402,0608,0000,fafa,0604,fafa,00fe,0000,0202,0806,0404,0400,02fc,00fe,fe00,0000,0202,0606,0604,0002,0406,00fe,fcf6,fefc,0002,0204,0204,fefc,0608,0810,fcfc,fafa,fefe,0202,0400,fe00,0000,0600,0400,fefc,fcfe,0002,0202,fefc,fe02,04fc,fcfe,fc00,0200,fefe,fcfc,00fe,fefe,0004,0804,0a02,0204,0606,fefa,fcfe,fe00,0004,f8fe,0a06,0206,0404,fe00,fcfe,fcfc,fe00,02fa,0800,0208,0808,0404,02fe,0402,0002,02fe,fc08,0006,0a02,0a08,0202,0402,0400,fc00,08fa,02fe,080c,0a0e,0808,0a0a,0202,0406,fafa,fc04,040a,0000,0000,0000,0000,0000,0000,0000,0000,0000,0000,0000,0000,0000,0000,0000,0000,0000,0000,0000,0000,0000,0000,0000,0000,0000,0000,0000,0000,0000,0000,0000,0000,0000,0000,0000,0000,0000,0000,0000,0000,0000,0000,0000,0000,0000,0000,0000,0000,0000,0000,0000,0000,0000,0000,0000,0000,0000,0000,0000,0000,0000,0000,0000,0000,0000,0000,0000,0000,0000,0000,0000,0000,0000,0000,0000,0000,0000,0000,0000,0000,0000,0000,0000,0000,0000,0000,0000,0000,0000,0000,0000,0000,0000,0000,0000,0000,0000,0000,0000,0000,0000,0000,0000,0000,0000,0000,0000,0000,0000,0000,0000,0000,0000,0000,0000,0000,0000,0000,0000,0000,0000,0000,0000,0000,0000,0000,0000,0000,0000,0000,0000,0000,0000,0000,0000,0000,0000,0000,0000,0000,0000,0000,0000,0000,0000,0000,0000,0000,0000,0000,0000,0000,0000,0000,0000,0000,0000,0000,0000,0000,0000,0000,0000,0000,0000,0000,0000,0000,0000,0000,0000,0000,0000,0000,0000,0000,0000,0000,0000,0000,0000,0000,0000,0000,0000,0000,0000,0000,0000,0000,0000,0000,0000,0000,0000,0000,0000,0000,0000,0000,0000,0000,0000,0000,0000,0000,0000,0000,0000,0000,0000,0000,0000,0000,0000,0000,0000,0000,0000,0000,0000,0000,0000,0000,0000,0000,0000,0000,0000,0000,0000,0000,0000,0000,0000,0000,0000,0000,0000,0000,0000,0000,0000,0000,0000,0000,0000,0000,0000,0000,0000,0000,0000,0000,0000,0000,0000,0000,0000,0000,0000,0000,0000,0000,0000,0000,0000,0000,0000,0000,0000,0000,0000,0000,0000,0000,0000,0000,0000,0000,0000,0000,0000,0000,0000,0000,0000,0000,0000,0000,0000,0000,0000,0000,0000,0000,0000,0000,0000,0000,0000,0000,0000,0000,0000,0000,0000,0000,0000,0000,0000,0000,0000,0000,0000,0000,0000,0000,0000,0000,0000,0000,0000,0000,0000,0000,0000,0000,0000,0000,0000,0000,0000,0000,0000,0000,0000,0000,0000,0000,0000,0000,0000,0000,0000,0000,0000,0000,0000,0000,0000,0000,0000,0000,0000,0000,0000,0000,0000,0000,0000,0000,0000,0000,0000,0000,0000,0000,0000,0000,0000,0000,0000,0000,0000,0000,0000,0000,0000,0000,0000,0000,0000,0000,0000,0000,0000,0000,0000,0000,0000,0000,0000,0000,0000,0000,0000,0000,0000,0000,0000,0000,0000,0000,0000,0000,0000,0000,0000,0000,0000,0000,0000,0000,0000,0000,0000,0000,0000,0000,0000,0000,0000,0000,0000,0000,0000,0000,0000,0000,0000,0000,0000,0000,0000,0000,0000,0000,0000,0000,0000,0000,0000,0000,0000,0000,fcfc,0204,0200,fcfe,fe00,0204,fef6,0202,0206,0000,f802,faf8,00fa,fc04,02f8,02f6,fefe,fefe,00fc,fe02,f8fc,faf8,0000,fefa,f6fa,0604,fafe,fc00,fcfa,fcfa,f6f8,fcfc,fafa,02fc,fefe,0000,f8f6,fefc,f8f6,f8fa,faf6,fcfc,04fc,fcfa,00f8,f6f8,00fe,f0f0,fefe,fcfe,00fe,0000,0004,f6f2,fe00,f8f2,fafe,fcfc,fefe,0402,00fa,04fe,f6fc,fe00,f0f6,0202,0200,fcfe,fe00,fe06,fafa,0202,f6f0,0004,0200,00fa,fcfe,fafc,fefa,fe00,04fc,f8fc,0200,fefe,fafc,f8fa,fafe,0002,0206,f6f6,0006,fefc,faf6,fafe,f8fc,fefc,fcfe,fef8,fc00,0000,f6fc,f8f6,00fe,fc00,fefe,fefe,f2f8,0402,fcf6,fcfc,00fe,fafc,0204,fcfe,f8f4,0002,0400,fafc,f8fc,fef8,fefe,00f8,02fe,fcfe,0404,fef8,f6fa,00f8,fefa,fefc,fc00,faf8,0206,0402,f6f6,fafc,fefa,fe02,fefa,02fe,fe00,0402,fcfa,fafa,fefa,fefc,fefe,fc02,00fe,0000,fe00,fcfa,fafc,fef8,fe00,fcfc,0200,fafe,fafa,fafc,f8fa,f8f6,f2f2,fefc,0004,fefa,f8f6,faf6,faf8,fafe,f4f0,f6fa,fafc,0202,f8fa,f4f6,f2f4,f8f6,fc04,f6f4,f8fe,0204,fefa,f6f8,f6f4,f6f8,fafc,02fc,f6f6,fcfe,0604,faf8,f8f8,f6f6,f8f6,fcfe,fefa,f8fa,0204,0402,f6f6,faf8,faf8,fefa,fc04,02fe,00fe,0606,02fe,f6fa,fcfa,f8f8,fefe,0202,0002,0204,0606,faf6,f8fc,f8f8,fefe,fe02,0204,fefe,0204,0800,f4fa,f8f8,fcfc,fcfc,fe02,0200,0002,0404,faf8,f8f6,f8fc,0202,fafe,0202,0200,0202,0200,f8fa,faf8,fefe,fcfc,0202,00fe,fafe,0204,f6f4,fafa,00fe,00f8,fe00,0202,00fc,fe00,04fe,fefe,fcfe,0000,f4fa,fefe,0200,fcfe,0000,fafc,fcfc,0400,fc02,fa00,fcfc,fafa,fafc,0202,fefc,0204,f802,02f8,fefc,fafa,fcf4,fc00,fc02,0002,04fe,0000,0002,08fe,0000,00fe,04f8,000e,0c08,0400,0402,0404,0000,0202,fc04,fafa,0608,0e02,040e,0c06,fafe,0200,0000,fef4,0400,0606,020a,0408,0202,0806,0200,04fe,fcfe,0604,0608,04fe,06fe,0000,0002,0204,f6f6,0a0c,0406,0004,1004,fcfa,0606,0404,02fc,0006,0a0c,0a02,0802,0000,fefe,0202,0200,f8fc,0c0a,0604,0006,0404,fef8,fe02,0202,00fa,0406,0808,040a,0604,fcfa,f4fc,0402,0400,f8fc,0806,0602,1006,0cfe,f6f6,0002,0206,f8f8,0006,0402,0604,040c,fefa,f4fa,0200,00f8,fc00,0608,fafe,0608,0402,f6fa,fe00,fefe,f4f8,0602,0002,0408,0406,0002,f8fa,0202,faf8,0004,0404,0806,0a04,0802,fef8,fafc,00fe,f8fc,0600,04fe,0404,0806,fcfa,fafa,0004,fc00,0206,0202,fe00,0202,0602,02fc,fcfa,0602,0204,fe00,0404,0406,0c02,fefc,00fe,0204,0402,0400,0402,fe02,0200,040a,0200,fafe,0604,0004,fc00,0404,0402,04f8,0604,00fc,0204,0000,fe00,0204,fe00,0804,0c10,0000,fafe,0002,fefe,fe00,0606,0004,0e08,0606,fefa,0002,0000,00fc,0200,0408,000e,0608,00fc,fc02,0002,fafe,fafe,0404,0204,0002,0404,fe02,0002,fefc,fefa,0004,0008,060a,0404,0202,0204,0600,fefe,0000,fc02,0006,0808,0808,0402,0a0a,0200,fcfe,fc04,0202,0606,0206,0408,0608,0804,fefe,fa00,0402,0004,0404,0206,0606,0604,00fe,fcfa,fefc,0208,08fe,0c04,0406,0404,0000,fe00,fe02,0404,f802,fe04,0a02,0404,02fe,fcfe,fcfe,0400,0406,0608,0402,0806,0200,fafa,fefe,f6fc,0208,020c,060e,080a,0608,0000,fe00,04fc,0802,0406,020e,0802,0606,0804,0202,00fe,0006,0602,fa02,0a00,fe04,fe06,0204,02fc,0604,0404,0e08,000a,0406,0200,0406,02fe,0406,0404,040a,0600,0608,0000,0000,0000,0000,0000,0000,0000,0000,0000,0000,0000,0000,0000,0000,0000,0000,0000,0000,0000,0000,0000,0000,0000,0000,0000,0000,0000,0000,0000,0000,0000,0000,0000,0000,0000,0000,0000,0000,0000,0000,0000,0000,0000,0000,0000,0000,0000,0000,0000,0000,0000,0000,0000,0000,0000,0000,0000,0000,0000,0000,0000,0000,0000,0000,0000,0000,0000,0000,0000,0000,0000,0000,0000,0000,0000,0000,0000,0000,0000,0000,0000,0000,0000,0000,0000,0000,0000,0000,0000,0000,0000,0000,0000,0000,0000,0000,0000,0000,0000,0000,0000,0000,0000,0000,0000,0000,0000,0000,0000,0000,0000,0000,0000,0000,0000,0000,0000,0000,0000,0000,0000,0000,0000,0000,0000,0000,0000,0000,0000,0000,0000,0000,0000,0000,0000,0000,0000,0000,0000,0000,0000,0000,0000,0000,0000,0000,0000,0000,0000,0000,0000,0000,0000,0000,0000,0000,0000,0000,0000,0000,0000,0000,0000,0000,0000,0000,0000,0000,0000,0000,0000,0000,0000,0000,0000,0000,0000,0000,0000,0000,0000,0000,0000,0000,0000,0000,0000,0000,0000,0000,0000,0000,0000,0000,0000,0000,0000,0000,0000,0000,0000,0000,0000,0000,0000,0000,0000,0000,0000,0000,0000,0000,0000,0000,0000,0000,0000,0000,0000,0000,0000,0000,0000,0000,0000,0000,0000,0000,0000,0000,0000,0000,0000,0000,0000,0000,0000,0000,0000,0000,0000,0000,0000,0000,0000,0000,0000,0000,0000,0000,0000,0000,0000,0000,0000,0000,0000,0000,0000,0000,0000,0000,0000,0000,0000,0000,0000,0000,0000,0000,0000,0000,0000,0000,0000,0000,0000,0000,0000,0000,0000,0000,0000,0000,0000,0000,0000,0000,0000,0000,0000,0000,0000,0000,0000,0000,0000,0000,0000,0000,0000,0000,0000,0000,0000,0000,0000,0000,0000,0000,0000,0000,0000,0000,0000,0000,0000,0000,0000,0000,0000,0000,0000,0000,0000,0000,0000,0000,0000,0000,0000,0000,0000,0000,0000,0000,0000,0000,0000,0000,0000,0000,0000,0000,0000,0000,0000,0000,0000,0000,0000,0000,0000,0000,0000,0000,0000,0000,0000,0000,0000,0000,0000,0000,0000,0000,0000,0000,0000,0000,0000,0000,0000,0000,0000,0000,0000,0000,0000,0000,0000,0000,0000,0000,0000,0000,0000,0000,0000,0000,0000,0000,0000,0000,0000,0000,0000,0000,0000,0000,0000,0000,0000,0000,0000,0000,0000,0000,0000,0000,0000,0000,0000,0000,0000,0000,0000,0000,0000,0000,0000,0000,0000,0000,0000,0000,0000,0000,0000,0000,0000,0000,0000,0000,0000,0000,0000,0000,0000,0000,0000,0000,0000,0000,0000,0000,0000,00fe,fcfc,0000,0000,fcfe,fe00,0002,0408,fefe,fefe,fcfc,00fe,00fe,fefe,fc00,fe00,02fe,fefe,fcfe,0000,fefe,0000,fefe,fe00,0204,fc00,fcfc,00fe,0000,fefe,fefe,fefc,fefc,04fe,fcfe,fefe,fe00,fe00,fefe,fcfe,fefe,fafc,0200,fcfc,fefc,fefe,fefe,fefe,fefc,fefe,0202,00fe,fefe,fefe,fefe,fefe,fefe,fcfc,0000,0604,0002,0000,0000,fefe,fefe,fefe,fc00,0204,0402,fefc,0000,00fe,fefe,fefe,fcfe,04fe,0204,0200,0200,0000,00fe,fefe,fefe,fcfc,0000,0202,0002,0200,0000,fefe,fefe,fefe,fafc,fefe,0000,0000,0000,fefe,fefe,fefc,fcfc,00fe,fefe,fe00,0000,fe00,fefe,fefe,fefe,04fe,fcfc,fe00,fefe,fefe,fefe,fefe,fefe,fcfe,0000,fefe,fefe,fe00,fefe,fefe,00fe,fefe,fc00,fafc,fefe,fefe,00fe,fefe,fefe,fefe,fe00,fcfe,fcfe,fcfc,fefe,fefe,fefe,fefe,fefe,00fc,fcfc,fefc,fcfe,fefe,fefe,fefe,fefe,00fe,fefa,fefc,fcfc,fefe,00fe,fefe,fefe,00fe,fefa,fafa,fefc,fefe,fefe,fefe,fefe,fe00,fe00,fcfc,fcfc,fcfe,fe00,fefe,fefe,fefe,fefe,fe00,fafa,fefe,fefe,fefe,fefe,fefc,fefe,fefe,fefc,fefe,00fe,fefe,fefe,fefe,fefe,fefe,fcfe,fefe,fe00,fefe,fefc,fefe,fefe,00fe,fefe,fcfc,fe00,00fe,fefc,fefc,fcfe,fefe,fefe,fefe,fe00,0000,fefe,fefe,fefe,fefe,fefe,fefe,fefc,fefe,fefe,fefe,fefe,fefe,fefe,fefe,00fe,fe00,fe00,fefe,00fe,fe00,fefe,fefe,0000,0000,0000,00fe,fefe,00fe,fe00,fefe,fe00,00fe,00fe,fefe,fefe,0000,fefc,fefe,fefe,00fc,fefe,fefe,fefe,fefe,fefe,fcfc,fefe,0000,0000,0000,0000,fefe,00fe,00fe,fe00,fe00,0000,0000,fe00,0000,00fe,0000,fefe,0000,fa00,0200,0000,0000,fefe,0200,00fe,fe00,00fe,0000,02f6,fef8,fefe,fafc,f8fa,fcfc,f800,0000,0000,fefc,fcfc,f8f8,faf8,fcfa,fefa,fcfe,fe00,fefc,fcfe,fafa,f8fa,fcfc,fcfa,fcfe,fefc,00fe,fcfa,fafa,fcfa,fcfa,fefc,fcfa,00fe,00fe,00fc,fcfa,fcfc,fcfa,fcfc,00fe,fefe,fafe,fefe,fe00,00fe,fefe,fcfe,fefe,fcfe,fefc,0002,fe00,00fe,fefe,fefc,fefe,fefe,fefe,f800,fefe,fc00,fefe,0000,0000,0000,00fc,fc00,fcfe,fefe,00fe,0200,0002,0000,00fe,fe00,fcfa,00fc,fc00,00fe,0000,0000,0000,00fe,0000,fafc,fcfc,0000,fefe,0000,00fe,0000,fa00,0002,fcfe,fcfe,fefe,0000,fe00,fefe,fefe,fcfa,fe04,fefa,fefe,fefe,fefe,00fe,fefe,fcfc,00fa,fcfa,fcfc,fefe,fefe,fefe,00fe,fe00,f8fc,fefc,fcfe,fefe,fefe,fefe,0000,00fe,fcfc,fe00,fefe,fcfc,fefe,fefe,fefe,fefe,fefc,fcfc,fcf8,fcfe,fefc,fefe,fefe,fefe,fefe,fefc,fcfc,fafe,fcfc,fefe,fefe,fefe,fefe,fefe,00fc,0002,fefc,fefe,fefe,fefe,fefe,fefe,fefe,fe04,0000,fe00,fe00,fefe,fefe,fefe,fe00,fcfe,02fe,00fc,fe00,00fe,fefe,fefe,fe00,fefc,fe00,fcfe,fefe,fefe,fefe,fefe,fefe,fefe,00fa,02fe,fefe,fefe,fefe,fefe,fefe,00fe,fefe,fc00,fcfc,fefe,fefe,fefc,fcfe,fefe,fafe,00fc,04fc,fcfe,fefe,fefe,fefe,fefe,fefe,fcfe,fefc,fefc,fcfe,fefe,fefe,fefe,fefc,fcfe,fe00,02fe,fefe,fefe,fcfe,fefc,fefe,fefc,fcfe,0002,fefc,fcfe,fefe,fefe,fefe,fefe,fcfe,0000,fe02,fcfe,00fe,fefe,fefe,