memory_initialization_radix = 16;
memory_initialization_vector =
0002,0004,0006,0c0a,060e,0808,fa00,04f2,0a08,04fc,1210,100e,060c,080c,0e0c,f4fc,fc06,0006,0e08,120e,0e12,0a08,100c,040a,fafa,0802,0a0e,1612,120e,0c0c,0c08,1614,0006,f6fe,080a,1410,1418,0c10,080a,0c0a,0e14,fe00,0006,120e,1a1c,1818,080e,0404,100a,0208,fe06,04fc,1416,1c1c,1216,060c,0402,0c10,02fe,0402,0c08,1812,161a,0e10,0404,0806,060a,f6fc,fe00,060a,140e,1010,080c,0806,0c0c,0808,0602,f0f6,00f6,0c0c,100e,0c0a,0c0a,0808,fa04,faf6,e6e4,fcfa,0808,0806,0606,0c0a,0e0a,fefe,ecfa,faf6,0200,04fe,080a,0c0c,0a0c,fa04,f6fc,f8ee,fafc,fe00,0404,0806,080a,0406,f202,f4f4,fafa,fafc,0002,0200,0a0a,0608,f8fa,ecf0,f6f6,fcfa,fefe,fefe,0400,0806,fc06,f8f8,f8f6,f8f6,fcfc,fcf8,fcfa,0406,0a08,04fc,f2fa,fafa,00fe,fafc,faf8,fcfa,0404,040c,0000,fafc,fefc,fefe,f6fa,f8f8,faf8,0602,0000,fefe,fcfc,fefc,fafe,faf8,f8f8,fcf8,00fe,fe02,fc02,fe00,fefe,fafa,faf8,f6f6,fef8,fe00,fefa,fefe,fcfc,fafc,fafc,f8f8,f8f6,fefe,fc04,fcfa,fe00,fafe,f6f8,f8f6,f6f8,faf8,fcfe,fafa,fafe,fafc,fcfc,f8f8,f6f8,f8f8,fafa,fe04,fefe,fc00,fefc,fafc,f8f8,faf8,fcfa,00f8,fcfc,0002,fefe,fcfe,f8f8,f6f6,fafa,faf8,0004,fcfa,fcfc,fefe,fcfc,f8f8,f6f4,f6f4,00fa,f6fc,faf8,fcfe,fcfc,fcfc,f8f4,f8f8,f2f6,040c,f8f8,f6f8,fefc,fcfe,faf8,f8f6,f8f6,fcfa,fc02,fcfa,f8f8,fefa,fafa,fefe,f8fe,fafc,0404,fafc,f8f8,f8fa,f8fc,fafe,fcfe,fcfa,f600,0002,fafc,fcfa,fafc,fefa,00fe,fcfa,00fa,0202,fe02,0000,fcfa,fa00,0200,fcfc,fefe,00fe,02fe,0202,fefe,0000,0600,04fc,fc00,00f2,00fe,0606,0200,00fe,0606,0406,fe02,02fe,0000,0a08,0c08,0000,fa00,f8fc,f8f4,06fe,040a,100a,060a,0008,f6f6,fcf6,f4f8,fcf0,0604,fafe,100a,fe06,f6f6,fcfa,0200,fafa,fef8,0802,0a14,0604,fafa,f8f8,0400,fefe,f6f8,06f8,fe00,0804,f8fe,f8fc,fcfa,0402,0002,f8f2,0406,1006,fafe,f8f2,f6f4,fefc,0406,f4fa,fe02,0402,f80c,f6f4,f0f0,f4f6,02fe,fcfe,f8f0,0600,0a06,fafa,ecee,f4f0,fef8,0000,f6f8,fcf8,0800,fefc,eeec,f4f4,f6f6,00fe,f4f8,f2f2,0400,0408,f0f8,f8f6,fafc,fefa,fcfe,f0f4,fef4,0406,fe06,fef8,fafa,02fe,0404,fa00,f6f4,0004,0408,fa02,f8fc,00fe,0806,0404,f6fc,02fa,06fe,0404,fe00,fefc,0806,0606,fe04,f8f8,fc00,040c,0202,fafc,0602,0604,0a08,0002,f4fa,0606,0608,0202,00fe,0202,0c0a,060c,fe00,02f4,080a,00fe,fc02,0002,0400,0a0a,0006,f0ee,00fe,0600,0402,0202,0404,0604,0608,f4fa,fcf4,fe06,0404,0402,0404,0604,0608,0804,f6f6,0a0c,04fe,0408,0406,0204,0404,060a,0204,0400,0e08,040a,0404,0000,0404,0a06,0c08,0808,0606,0200,fe00,0000,0402,0606,0c06,100e,0a06,0402,0406,0000,0000,0604,0606,0a08,0602,020e,0e0a,0404,0200,0402,0608,0406,080a,0a08,0604,0402,0000,0200,0604,0606,0406,0202,f812,020c,0200,0402,0202,0604,0604,0602,0802,08fa,0206,02fe,0402,0404,0606,0806,0404,06fa,0206,0006,0206,0204,0400,0604,0804,0e04,06fc,0204,0402,0202,0002,0604,0600,0802,0004,0404,0202,0002,fe00,0000,0404,f8fe,0804,0606,0404,0402,0000,fe02,0000,fafc,0800,0e0e,0602,fe00,fcfc,0002,fefe,fefe,fcfa,0008,0a04,0808,fe00,0200,0006,0202,0200,0402,0404,0808,020a,0402,00fe,0206,0400,0204,0202,0202,0c04,0402,0402,0808,040a,0804,0604,12fc,0000,0000,0000,0000,0000,0000,0000,0000,0000,0000,0000,0000,0000,0000,0000,0000,0000,0000,0000,0000,0000,0000,0000,0000,0000,0000,0000,0000,0000,0000,0000,0000,0000,0000,0000,0000,0000,0000,0000,0000,0000,0000,0000,0000,0000,0000,0000,0000,0000,0000,0000,0000,0000,0000,0000,0000,0000,0000,0000,0000,0000,0000,0000,0000,0000,0000,0000,0000,0000,0000,0000,0000,0000,0000,0000,0000,0000,0000,0000,0000,0000,0000,0000,0000,0000,0000,0000,0000,0000,0000,0000,0000,0000,0000,0000,0000,0000,0000,0000,0000,0000,0000,0000,0000,0000,0000,0000,0000,0000,0000,0000,0000,0000,0000,0000,0000,0000,0000,0000,0000,0000,0000,0000,0000,0000,0000,0000,0000,0000,0000,0000,0000,0000,0000,0000,0000,0000,0000,0000,0000,0000,0000,0000,0000,0000,0000,0000,0000,0000,0000,0000,0000,0000,0000,0000,0000,0000,0000,0000,0000,0000,0000,0000,0000,0000,0000,0000,0000,0000,0000,0000,0000,0000,0000,0000,0000,0000,0000,0000,0000,0000,0000,0000,0000,0000,0000,0000,0000,0000,0000,0000,0000,0000,0000,0000,0000,0000,0000,0000,0000,0000,0000,0000,0000,0000,0000,0000,0000,0000,0000,0000,0000,0000,0000,0000,0000,0000,0000,0000,0000,0000,0000,0000,0000,0000,0000,0000,0000,0000,0000,0000,0000,0000,0000,0000,0000,0000,0000,0000,0000,0000,0000,0000,0000,0000,0000,0000,0000,0000,0000,0000,0000,0000,0000,0000,0000,0000,0000,0000,0000,0000,0000,0000,0000,0000,0000,0000,0000,0000,0000,0000,0000,0000,0000,0000,0000,0000,0000,0000,0000,0000,0000,0000,0000,0000,0000,0000,0000,0000,0000,0000,0000,0000,0000,0000,0000,0000,0000,0000,0000,0000,0000,0000,0000,0000,0000,0000,0000,0000,0000,0000,0000,0000,0000,0000,0000,0000,0000,0000,0000,0000,0000,0000,0000,0000,0000,0000,0000,0000,0000,0000,0000,0000,0000,0000,0000,0000,0000,0000,0000,0000,0000,0000,0000,0000,0000,0000,0000,0000,0000,0000,0000,0000,0000,0000,0000,0000,0000,0000,0000,0000,0000,0000,0000,0000,0000,0000,0000,0000,0000,0000,0000,0000,0000,0000,0000,0000,0000,0000,0000,0000,0000,0000,0000,0000,0000,0000,0000,0000,0000,0000,0000,0000,0000,0000,0000,0000,0000,0000,0000,0000,0000,0000,0000,0000,0000,0000,0000,0000,0000,0000,0000,0000,0000,0000,0000,0000,0000,0000,0000,0000,0000,0000,0000,0000,0000,0000,0000,0000,0000,0000,0000,0000,0000,0000,0000,0000,0000,0000,0000,0000,0000,0000,0000,0000,0000,
00fa,0606,0806,1016,1014,0e12,0814,fe02,0004,0a04,040a,0a08,120c,080c,1612,0a0e,0602,f8fe,0804,0002,0604,060a,0e0a,0c0c,0a08,fcfe,fef4,0602,0806,0408,0406,0810,0406,0804,f6f4,0200,0604,080a,0604,0808,0208,0404,f2f2,00fe,0402,0604,0204,0a08,040a,fcfa,0c08,f6f2,fefe,0404,0404,0a06,0806,fa00,00fa,f8fa,fefe,02fe,0404,0606,0808,0206,f4f4,0606,f2f4,fafe,0204,0806,0a08,0604,fefe,00fa,fe0a,fef8,fefc,0604,080a,060a,0204,fafe,0a06,fcf6,fafc,0000,0602,0806,0806,fe00,fcfa,f802,fc00,faf8,fcfc,fcfe,0202,fafe,f8fa,06fa,fefe,f8fa,fafa,fafa,fafc,f8fc,f6f8,f4f6,fa00,fefe,fcfc,fafa,f6f8,f8f8,f2f4,eef0,06f8,0202,fcfc,00fc,fafc,fafa,f6f6,f0f4,faee,04fe,0202,0000,fe00,fcfc,fcfe,f6f8,ecec,0406,0808,fc00,0000,fcfc,0000,fefc,f4f6,04fa,00f8,0406,0002,fc00,00fc,0202,fcfc,f6f6,0806,0406,0404,0404,00fe,0402,0004,fc00,0a04,0a04,0606,0002,0002,0202,0206,0204,0202,0e08,080a,0404,00fe,0000,0404,0206,0404,0606,0404,0204,0000,fe00,0002,0402,0000,0604,0c0c,0202,0002,fefe,00fe,fefe,0202,00fe,0604,0002,02fe,0202,0000,fefc,fefe,f8fe,0200,0006,fefe,0000,0202,fe02,fcfe,fafa,fcf6,04fe,fa02,fcf8,0002,0202,fefe,fafe,f8f8,faf8,f8fe,fcfa,0200,0000,fefe,00fe,f8fc,faf4,fcfa,fe00,fefc,fc00,fefc,fefc,0200,f4f8,f6f4,fafc,faf8,f8fa,faf8,fcfe,fe00,f6fe,f2ec,fefa,f4fc,faf8,f8fa,fafc,fcfc,f8fa,ecf0,f4f2,fcfe,eeee,f0f2,f8f6,fef8,f0f2,f0f6,eaee,fcfc,f2fa,eae8,ece8,ecec,f0f0,ecea,eeee,f6ee,fefe,e8ee,e4e4,e4de,eae6,e2e4,eae8,f0f0,02f6,f6fc,e8ec,dce2,d4da,dcd8,e0dc,f0e8,f6fa,0000,060a,0006,f0f6,f2f2,f0f2,f4f6,000a,0200,0804,1008,fc00,f0f4,f0ee,f6f4,00fe,0a04,f8fa,0402,0204,f8f4,f6f8,f6f2,f2f4,fefa,0204,0602,0202,fcfe,fcfa,f8f8,fcfe,fafc,0202,0a00,0206,0400,fe00,f8fa,fcfa,faf8,0202,0206,0006,0400,fefe,fcfc,faf8,00fc,0000,0604,fe02,0200,fefe,f8f8,fe00,fcfe,0404,0c06,0608,060a,fa00,fcfc,fefe,fcfc,00fc,0000,0812,fe00,0204,fe00,fefc,fcfc,fafa,fefc,0c00,0008,0406,0000,fe00,faf8,f8f8,f8fa,00fe,0408,0404,fefc,fe00,fafe,f8f8,f4f4,f2f2,fafa,0c08,fefe,0002,0200,f8fa,f8f8,f2f6,fef8,120c,fe04,02fe,0606,0000,fafc,fafc,fefc,140a,0e12,fe0a,0600,0606,0404,0002,0602,0c08,121a,0408,0002,0a0a,0808,0808,0806,0e0c,1612,040a,0200,0608,0a0a,0a0a,0c0e,0e0c,0a0e,0c10,0604,0000,0406,0a08,0a0a,0c0a,0c0c,0c0a,fe0a,0404,0400,0404,0a0a,0a0a,0a08,0c0c,060a,fe00,fafc,0002,0606,0a0a,080a,0a0a,0e0e,0006,fc06,00fe,0402,0806,080a,0a08,100c,0e0c,f802,fcfe,fcfc,0202,0808,0602,080a,0e0e,0008,fe00,fcf8,fefe,0202,0604,0400,0406,0e0c,0600,fcfe,fcfe,fcfc,0000,0000,0204,0a02,0208,fe08,fcfe,fcfe,fe00,0200,00fe,0202,0a0a,0800,fe02,0002,fefe,fcfc,fe00,0002,fe04,0804,0406,0202,0000,fefe,fcfe,00fe,fe02,0208,0602,0200,fe02,0002,fcfe,fc00,0000,fafe,0202,020a,fcfc,fefe,02fe,0000,0200,fe00,00fc,040a,fcfc,f8f6,fc02,0000,0204,fe04,0200,0a00,0206,f4f6,fcf6,02fe,0400,0004,0608,0200,0404,0000,f8f8,fefc,fefe,0200,0408,0606,0a04,0006,faf6,f6f4,fafa,00fe,0600,060c,0404,fe00,f602,fef6,f6f0,fefa,04f8,0204,0602,04fe,fc04,f800,f0f8,eeee,eef4,f2f2,0000,fefe,fc02,0000,0000,0000,0000,0000,0000,0000,0000,0000,0000,0000,0000,0000,0000,0000,0000,0000,0000,0000,0000,0000,0000,0000,0000,0000,0000,0000,0000,0000,0000,0000,0000,0000,0000,0000,0000,0000,0000,0000,0000,0000,0000,0000,0000,0000,0000,0000,0000,0000,0000,0000,0000,0000,0000,0000,0000,0000,0000,0000,0000,0000,0000,0000,0000,0000,0000,0000,0000,0000,0000,0000,0000,0000,0000,0000,0000,0000,0000,0000,0000,0000,0000,0000,0000,0000,0000,0000,0000,0000,0000,0000,0000,0000,0000,0000,0000,0000,0000,0000,0000,0000,0000,0000,0000,0000,0000,0000,0000,0000,0000,0000,0000,0000,0000,0000,0000,0000,0000,0000,0000,0000,0000,0000,0000,0000,0000,0000,0000,0000,0000,0000,0000,0000,0000,0000,0000,0000,0000,0000,0000,0000,0000,0000,0000,0000,0000,0000,0000,0000,0000,0000,0000,0000,0000,0000,0000,0000,0000,0000,0000,0000,0000,0000,0000,0000,0000,0000,0000,0000,0000,0000,0000,0000,0000,0000,0000,0000,0000,0000,0000,0000,0000,0000,0000,0000,0000,0000,0000,0000,0000,0000,0000,0000,0000,0000,0000,0000,0000,0000,0000,0000,0000,0000,0000,0000,0000,0000,0000,0000,0000,0000,0000,0000,0000,0000,0000,0000,0000,0000,0000,0000,0000,0000,0000,0000,0000,0000,0000,0000,0000,0000,0000,0000,0000,0000,0000,0000,0000,0000,0000,0000,0000,0000,0000,0000,0000,0000,0000,0000,0000,0000,0000,0000,0000,0000,0000,0000,0000,0000,0000,0000,0000,0000,0000,0000,0000,0000,0000,0000,0000,0000,0000,0000,0000,0000,0000,0000,0000,0000,0000,0000,0000,0000,0000,0000,0000,0000,0000,0000,0000,0000,0000,0000,0000,0000,0000,0000,0000,0000,0000,0000,0000,0000,0000,0000,0000,0000,0000,0000,0000,0000,0000,0000,0000,0000,0000,0000,0000,0000,0000,0000,0000,0000,0000,0000,0000,0000,0000,0000,0000,0000,0000,0000,0000,0000,0000,0000,0000,0000,0000,0000,0000,0000,0000,0000,0000,0000,0000,0000,0000,0000,0000,0000,0000,0000,0000,0000,0000,0000,0000,0000,0000,0000,0000,0000,0000,0000,0000,0000,0000,0000,0000,0000,0000,0000,0000,0000,0000,0000,0000,0000,0000,0000,0000,0000,0000,0000,0000,0000,0000,0000,0000,0000,0000,0000,0000,0000,0000,0000,0000,0000,0000,0000,0000,0000,0000,0000,0000,0000,0000,0000,0000,0000,0000,0000,0000,0000,0000,0000,0000,0000,0000,0000,0000,0000,0000,0000,0000,0000,0000,0000,0000,0000,0000,0000,0000,0000,0000,0000,0000,0000,0000,0000,0000,0000,0000,
00fe,fefe,fefc,0000,00fe,fefc,fefe,0200,0602,fefc,fefe,fcfc,fcfe,fefe,fefc,fefa,00fe,fc00,fefc,fcfa,fe00,00fe,fefe,fefe,fefe,0202,fefe,fafc,fcfe,fefe,fefe,fefe,fcfe,fefc,fe00,fcfc,fcfe,00fe,0000,0000,fefe,fefe,fefa,fe00,fcfa,0000,00fe,fefe,fefe,fcfe,fefe,fe00,fcfc,fefe,0000,fefe,fefe,fefe,fefc,0000,0002,00fe,0000,0002,fefe,fefe,fcfe,00fe,fe00,0000,fe00,00fe,fe00,fefe,fefe,fefc,fe02,fefe,fe00,0000,fe00,fefe,fe00,fcfe,fcfc,fc00,0002,fefe,0000,0000,fefe,fefe,fcfe,fefe,0000,fefe,00fe,fe00,00fe,fefe,fefe,fafc,0002,00fe,fe00,0000,00fe,fefe,fefe,fcfe,fe04,fcfe,00fe,fefe,00fe,fefe,fefe,fefe,fefc,00fe,0000,fefe,fefe,fefe,fefe,fefe,fefe,fefe,fefc,0000,00fe,00fe,fefe,fefe,fefe,fefe,fefe,fefc,fefe,fefe,00fe,fefe,0000,00fe,fc00,fefc,fcfe,fefe,fefe,fefe,fefe,fefe,fefe,fc00,fe00,fcfe,fe00,fefe,fefe,00fe,fefe,0000,fcfc,fcfc,fefe,fe00,fefe,fefe,fefe,00fe,fe00,fefe,fefc,fefe,fefe,fefe,fefe,fefe,fefe,fcfe,00fe,00fe,fefe,fefe,fefe,fefe,fe00,fefe,0202,0000,0000,fe00,fefe,00fe,fefe,fefe,0000,0002,0000,fefe,fefe,fefe,fe00,fe00,fefc,0000,0000,fe00,fefe,fefe,fefe,fefe,0000,0000,0000,fe00,fe00,fefe,fefe,fefe,fefe,0000,fefe,fe00,fe00,fefe,fefe,fefe,fefe,0000,0000,0000,fefe,00fe,fefe,fefe,fefe,0000,0000,0000,fe00,fefe,0000,fefe,fefe,00fe,fefe,00fe,0000,00fe,fefe,fefe,00fe,00fe,fe00,fefe,fefe,fefe,fefe,fefe,fefe,00fe,0000,fefe,00fe,fefe,fefe,fefe,fefe,fefe,00fe,0202,fe00,0000,fefe,fefe,fe00,fefe,0000,00fa,0002,0200,fe00,fe00,0002,fe00,0000,0000,0002,f800,fa02,00fe,fefe,fcf8,fafa,00fa,0002,00fc,fe00,fefe,f8fc,f8fc,fafa,fcfe,0202,fafe,fcfc,fefc,00fe,fefc,fefc,fcfc,fefe,fefc,fe02,fefc,fe00,fefe,fefe,fefe,fefc,00fe,00fe,fc00,fefc,fe02,fefe,fcfc,fc00,fefe,fefc,fcfc,00fe,0000,0000,0000,fe00,fefc,fa00,0200,0200,00fe,00fe,00fe,fe00,00fe,fcfc,fefa,fefc,fefe,fefe,fe00,fefe,0000,fcfe,fefc,fcfc,fc00,fefe,0000,0000,0000,00fe,fefe,fcfc,0000,fefc,fefe,0000,0000,0000,fe00,fefe,fefa,fcfe,fefc,00fe,0000,0000,0000,00fc,fcfc,fefe,fefc,00fe,0000,0000,0000,fcfe,fafe,02fe,fc00,00fe,00fe,fefe,fe00,fe00,fcfc,fcfe,fcfe,fcfc,fefe,00fe,fe00,fefe,fefe,fcfa,fefc,fefe,fefe,fefe,00fe,fefe,fefe,fefe,00fe,fe00,fcfc,fefe,fefe,fefe,fefe,fcfe,fafe,0000,fefc,fefe,fcfc,fefe,fefe,fefe,fefe,fa00,fefc,fefc,fefe,fefe,fefe,fefe,fefe,fefe,0202,fefe,fefe,fefe,fefe,fefe,fefe,fe00,02fe,fe00,fefe,0000,fefe,fe00,fefe,00fe,00fe,fcfe,0000,fefe,fefe,fefe,fefe,fe00,fefe,00fe,00fe,fe00,fefe,00fe,fefe,fefe,fefe,fc00,0002,fefe,fefe,fefe,fe00,fefe,fefe,00fc,fcfe,fcfe,fefe,fefe,fe00,fefe,00fe,00fe,fefe,0002,fefe,fefe,fe00,fefe,00fe,fefe,fefc,fcfe,0000,fefe,fefe,fefe,fefe,fe00,00fe,02fe,0000,fe00,fefe,fefe,fefe,fefe,fefe,fefe,0200,fe00,fefc,fefe,fefe,fefe,fefe,00fe,0000,0402,fefc,0000,fefe,fefe,00fe,00fe,04fe,0000,02fc,fe00,fefe,fefe,fefe,00fe,0000,0200,0204,00fc,fe00,fefe,fefe,00fe,00fe,0000,02fe,0204,02fe,0000,0000,fefe,fefe,00fe,fe04,0202,fe02,0200,0000,0002,fe02,fcfe,fe00,0404,fe00,fa08,0000,0000,0404,0002,00fe,02fc,0002,0000,0000,0000,0000,0000,0000,0000,0000,0000,0000,0000,0000,0000,0000,0000,0000,0000,0000,0000,0000,0000,0000,0000,0000,0000,0000,0000,0000,0000,0000,0000,0000,0000,0000,0000,0000,0000,0000,0000,0000,0000,0000,0000,0000,0000,0000,0000,0000,0000,0000,0000,0000,0000,0000,0000,0000,0000,0000,0000,0000,0000,0000,0000,0000,0000,0000,0000,0000,0000,0000,0000,0000,0000,0000,0000,0000,0000,0000,0000,0000,0000,0000,0000,0000,0000,0000,0000,0000,0000,0000,0000,0000,0000,0000,0000,0000,0000,0000,0000,0000,0000,0000,0000,0000,0000,0000,0000,0000,0000,0000,0000,0000,0000,0000,0000,0000,0000,0000,0000,0000,0000,0000,0000,0000,0000,0000,0000,0000,0000,0000,0000,0000,0000,0000,0000,0000,0000,0000,0000,0000,0000,0000,0000,0000,0000,0000,0000,0000,0000,0000,0000,0000,0000,0000,0000,0000,0000,0000,0000,0000,0000,0000,0000,0000,0000,0000,0000,0000,0000,0000,0000,0000,0000,0000,0000,0000,0000,0000,0000,0000,0000,0000,0000,0000,0000,0000,0000,0000,0000,0000,0000,0000,0000,0000,0000,0000,0000,0000,0000,0000,0000,0000,0000,0000,0000,0000,0000,0000,0000,0000,0000,0000,0000,0000,0000,0000,0000,0000,0000,0000,0000,0000,0000,0000,0000,0000,0000,0000,0000,0000,0000,0000,0000,0000,0000,0000,0000,0000,0000,0000,0000,0000,0000,0000,0000,0000,0000,0000,0000,0000,0000,0000,0000,0000,0000,0000,0000,0000,0000,0000,0000,0000,0000,0000,0000,0000,0000,0000,0000,0000,0000,0000,0000,0000,0000,0000,0000,0000,0000,0000,0000,0000,0000,0000,0000,0000,0000,0000,0000,0000,0000,0000,0000,0000,0000,0000,0000,0000,0000,0000,0000,0000,0000,0000,0000,0000,0000,0000,0000,0000,0000,0000,0000,0000,0000,0000,0000,0000,0000,0000,0000,0000,0000,0000,0000,0000,0000,0000,0000,0000,0000,0000,0000,0000,0000,0000,0000,0000,0000,0000,0000,0000,0000,0000,0000,0000,0000,0000,0000,0000,0000,0000,0000,0000,0000,0000,0000,0000,0000,0000,0000,0000,0000,0000,0000,0000,0000,0000,0000,0000,0000,0000,0000,0000,0000,0000,0000,0000,0000,0000,0000,0000,0000,0000,0000,0000,0000,0000,0000,0000,0000,0000,0000,0000,0000,0000,0000,0000,0000,0000,0000,0000,0000,0000,0000,0000,0000,0000,0000,0000,0000,0000,0000,0000,0000,0000,0000,0000,0000,0000,0000,0000,0000,0000,0000,0000,0000,0000,0000,0000,0000,0000,0000,0000,0000,0000,0000,0000,0000,0000,0000,0000,0000,0000,0000,0000,
0000,0404,fef6,f8fa,0404,0400,f0ee,fcf4,fc00,0204,fef6,fcfc,00fe,0200,f6f8,eeec,f6fa,eef6,f2fc,f6f0,f6fa,0200,0002,eef0,f8f4,fe08,f4f8,faf6,f6f8,fefa,0400,fafa,eef0,f002,f8fc,f6f4,f6f8,f6f8,0002,0000,f4f6,f6f4,f8fe,fc00,f4f6,fcfa,0000,fc00,fafa,f8f0,f8fc,fcfc,f8f6,f6f4,fcfc,fe00,fcfa,f6f6,f6f4,fcfc,fefc,f6fa,fcfa,fefc,0000,fcfa,f4f4,f4f6,fcfa,fcfa,fcfa,fcfc,fa00,00fe,f6f8,f6f0,fe02,fe04,fcfa,fafc,fefc,fcfe,f8fc,f8f6,ecec,0000,fe00,02fe,fafa,fefe,fafa,f6f6,f4f8,faf8,0006,0000,0200,fefe,fe00,f8f8,0200,eaee,0204,02fc,0202,fefa,0200,fafc,fefc,f0f6,fa02,fcfe,0602,fcfe,0000,fe00,fafc,fe00,f6ee,f6f8,fefe,fe00,0202,fc00,fefe,0200,f2f8,0002,fcfa,fe02,fcfa,fe00,fefa,fe00,fe04,f6fc,fc02,0400,fcfe,0202,fafa,0202,00fe,f8fa,fcfa,fe00,fc02,06fc,fc06,02fe,fe02,fe02,f8f8,0204,0204,fcfa,0808,f8f2,0404,fcfc,f6f6,00fc,0204,f800,0806,f0f8,0600,fc02,f8fe,faf6,0604,fc00,04fe,fc06,faf0,0404,0000,f6f4,0400,0000,fafa,0602,eaee,0204,fafe,f4fa,f8f8,fe00,f6f4,0000,f0fe,00f6,0002,fafc,eef4,fe00,f4f4,fefa,0404,f0ee,0204,faf8,f6f8,f4f4,f8f8,fcfa,0202,f2f8,02fa,fefe,f6f8,f4f4,fafe,fcfa,0202,fe00,f8f6,0004,f8fa,fe00,00f8,fafa,fe00,00fe,f8fa,00fc,00fe,fcf8,f6f6,fcfc,fefe,fafe,fefe,f8f8,fc00,f8fa,fcfe,faf8,0000,fafa,fafe,f8fa,fefa,fe00,fcf6,f6f6,fe00,fa02,fcfc,fef8,fafa,fefa,f4f8,f6fa,f8fc,02fe,fcfa,fafa,fcfa,fafa,fe00,faf6,00f8,0400,fcfe,fcfe,00fc,fafe,fefc,f8fa,fafc,fefe,fafe,faf8,00fe,fcfc,fcfe,0202,fcfa,fef2,fafa,f8fa,fcf8,fe00,fcfc,fefe,f8fc,fc02,0000,080a,0c0a,0606,060c,fe02,0200,1008,0c06,0606,0a0e,0a0a,00fe,0202,fefc,0a00,0e12,0608,0806,040a,0004,0200,fc04,fefe,0406,120a,060c,0808,0808,0202,0408,0200,0806,1406,0c0c,020a,0002,0400,0604,0002,0602,0806,0a06,060e,fe06,0204,0404,0204,0602,0808,0c0c,120c,0a02,0202,0402,0602,0204,0604,0402,0810,0208,0404,0606,0004,0404,0402,0606,0a06,0a06,0604,0200,0202,02fe,0202,0606,0808,0a04,0606,0200,0402,fe02,0202,0402,0802,0a0c,120a,0400,fcfe,0202,02fe,0200,fe00,0a08,0a06,0204,0006,0202,fefe,0402,fe00,0202,060c,0e08,0604,0000,fcfc,fefe,fcfe,fe00,0a04,120c,0406,0002,fafc,00fe,fcfe,fcfe,02fe,040a,080e,fefc,fe02,fcf8,fe00,fefc,fefc,0406,0e0a,fe08,0402,faf6,0404,fcfc,0202,0404,0200,0a0e,fe00,f800,0600,fc04,0604,0402,0206,0608,0406,0002,02fc,0c08,00fa,0408,0804,0404,0a08,02fe,fcfe,0808,f800,0e06,fe00,fe02,0c0a,0a06,fa00,0600,060e,00f6,060a,0002,0c06,0a0c,fcfa,fefa,0e08,f4f6,0a06,0002,0806,0e04,0002,fefe,0804,fa04,00f6,0608,02fc,0808,100c,fefc,0602,0404,f2f0,0808,0000,0408,080c,0604,0402,0606,f4fa,04fc,0806,0802,0c06,080a,0408,0608,fe02,faf8,0608,fefc,0804,1008,060c,080a,0404,faf8,0606,0002,0404,080e,0e10,0806,0204,f8fe,02fe,0004,02fe,0206,0808,0808,0004,fe00,faf8,0406,f802,02fc,0c08,1008,0608,fefc,00fe,0400,0200,08fe,0604,0a08,0e0e,0002,0402,0600,0202,0200,fe04,100c,060c,0600,00fc,0406,0202,0204,060a,0604,0a0e,0a0a,0404,0806,0804,0200,0606,0206,0802,0efe,000c,0406,0808,0202,0808,0a0c,1010,0404,0a08,0808,0a0a,0408,0402,0e0e,100c,0206,0e04,0000,0000,0000,0000,0000,0000,0000,0000,0000,0000,0000,0000,0000,0000,0000,0000,0000,0000,0000,0000,0000,0000,0000,0000,0000,0000,0000,0000,0000,0000,0000,0000,0000,0000,0000,0000,0000,0000,0000,0000,0000,0000,0000,0000,0000,0000,0000,0000,0000,0000,0000,0000,0000,0000,0000,0000,0000,0000,0000,0000,0000,0000,0000,0000,0000,0000,0000,0000,0000,0000,0000,0000,0000,0000,0000,0000,0000,0000,0000,0000,0000,0000,0000,0000,0000,0000,0000,0000,0000,0000,0000,0000,0000,0000,0000,0000,0000,0000,0000,0000,0000,0000,0000,0000,0000,0000,0000,0000,0000,0000,0000,0000,0000,0000,0000,0000,0000,0000,0000,0000,0000,0000,0000,0000,0000,0000,0000,0000,0000,0000,0000,0000,0000,0000,0000,0000,0000,0000,0000,0000,0000,0000,0000,0000,0000,0000,0000,0000,0000,0000,0000,0000,0000,0000,0000,0000,0000,0000,0000,0000,0000,0000,0000,0000,0000,0000,0000,0000,0000,0000,0000,0000,0000,0000,0000,0000,0000,0000,0000,0000,0000,0000,0000,0000,0000,0000,0000,0000,0000,0000,0000,0000,0000,0000,0000,0000,0000,0000,0000,0000,0000,0000,0000,0000,0000,0000,0000,0000,0000,0000,0000,0000,0000,0000,0000,0000,0000,0000,0000,0000,0000,0000,0000,0000,0000,0000,0000,0000,0000,0000,0000,0000,0000,0000,0000,0000,0000,0000,0000,0000,0000,0000,0000,0000,0000,0000,0000,0000,0000,0000,0000,0000,0000,0000,0000,0000,0000,0000,0000,0000,0000,0000,0000,0000,0000,0000,0000,0000,0000,0000,0000,0000,0000,0000,0000,0000,0000,0000,0000,0000,0000,0000,0000,0000,0000,0000,0000,0000,0000,0000,0000,0000,0000,0000,0000,0000,0000,0000,0000,0000,0000,0000,0000,0000,0000,0000,0000,0000,0000,0000,0000,0000,0000,0000,0000,0000,0000,0000,0000,0000,0000,0000,0000,0000,0000,0000,0000,0000,0000,0000,0000,0000,0000,0000,0000,0000,0000,0000,0000,0000,0000,0000,0000,0000,0000,0000,0000,0000,0000,0000,0000,0000,0000,0000,0000,0000,0000,0000,0000,0000,0000,0000,0000,0000,0000,0000,0000,0000,0000,0000,0000,0000,0000,0000,0000,0000,0000,0000,0000,0000,0000,0000,0000,0000,0000,0000,0000,0000,0000,0000,0000,0000,0000,0000,0000,0000,0000,0000,0000,0000,0000,0000,0000,0000,0000,0000,0000,0000,0000,0000,0000,0000,0000,0000,0000,0000,0000,0000,0000,0000,0000,0000,0000,0000,0000,0000,0000,0000,0000,0000,0000,0000,0000,0000,0000,0000,0000,0000,0000,0000,0000,0000,0000,0000,0000,0000,
02fe,0006,fafe,fcf2,fefc,f8fc,fafe,f60a,fefe,f404,fafa,f0f6,fa02,00fa,fafe,f6fa,fef8,0000,f8fc,fafc,f8f4,f8f6,00fe,fcfa,fef8,0004,fefa,fafe,f8f2,fafe,fefe,fafc,f8f8,fafc,fafc,fa00,f4f2,0000,fcf8,fc02,f6f8,f8fc,0002,fcfc,eef4,fef4,f8fa,0200,fe00,fcf6,fafc,fcfe,fcfa,f4ee,0004,02fe,0404,fc02,fcfe,fefc,fc00,ecf4,00f8,fcf8,0806,080a,fcfa,fcfc,fc00,faf6,f4f0,fa00,0404,0608,0000,fc00,00fe,f8f8,f0f4,00fa,02fc,0806,0002,fefc,f8f6,f800,fafa,f8f2,faf8,0402,0404,fc00,fcfc,0004,f6f6,f6fe,fc00,0002,0206,0002,fcfe,00fc,fcfc,fefa,0204,fefe,0404,fafc,fafa,fcfc,fcfc,f8fa,0000,0200,0200,fcfe,fafc,00fc,f800,faf8,faf4,0002,02fe,0204,fcfc,f8f8,0200,f608,eef2,02fc,0202,0a0a,0002,fcfe,fafa,0400,f2f6,f2ea,0202,0602,0406,fcfe,f4f6,fefa,0402,f6f8,fcf4,0206,080a,0204,f8fa,fcfa,0202,fc02,f4f4,02fc,0200,0204,fe00,fcfc,04fe,0204,0600,f8f8,fefe,0002,fe00,0202,0000,fefa,0806,fe04,fafc,fe00,fe00,0202,0604,fafc,0202,0806,fefe,fefa,0202,0202,0404,fc02,fcfc,0204,0406,fcfc,00fe,0202,0606,0808,faf6,fcfe,fefe,0200,fefe,0202,0604,0a08,f602,fafc,fefc,fefa,0200,0402,0404,0a06,0006,f6f4,fafe,f6fc,fcfc,0404,0204,0404,040c,f8f8,00fe,fcfa,f8f4,02fe,0002,0000,0a06,f8fc,fef8,fcfc,fafa,fcf8,0402,0004,00fe,0002,fcfc,fc02,0002,f8fa,fcfa,00fe,fafe,fcfc,fefc,fefc,0002,0204,f8fa,f6f8,f8f4,fafa,fafc,0000,0000,0200,fe00,f8f8,f4f2,f2f4,fcfc,04fe,0202,fefe,0404,fafc,f4f6,f8f2,faf6,fefc,0204,0208,0200,0000,f4f8,f2f4,eef2,fefe,0602,02fe,fcfe,0400,fcfe,f6f6,f4f6,f4f4,fefe,0406,0200,02f8,fcfc,fa06,0000,0400,0004,0404,fc00,04fa,0400,fcfe,0a06,fa00,0a06,0204,fa00,040a,fefe,fa02,02fe,0006,0600,0a0c,0000,00fe,fc00,fafa,fcfe,0a06,fefe,0e0c,080e,000c,f608,fafe,0400,04fc,040c,0e08,1010,0804,06f8,fa02,fefa,f6fa,0e0e,0a06,1010,0c14,fe08,0802,fafe,fe00,0802,0400,100e,1012,020a,06fc,06fc,f8fa,fafa,0006,080a,0c0a,0608,04fa,020c,fcf6,f6f6,0604,0802,080a,0608,fc04,0400,fefe,f8f8,00fa,fefc,0808,0202,0000,fafa,0608,fafc,f4f2,fa00,0606,0006,fefe,f8fc,02f4,02fc,f2fc,fefc,00fc,0604,0200,fcfc,f8fa,fc06,fcfe,f4ee,f6f8,0402,0806,0404,fa02,fef8,fe00,f4fa,f6f6,fef8,0808,080a,0406,00fe,0600,fe06,f4f2,f6f8,0200,0c0a,0a08,0000,fcfe,0400,fafe,f4f2,fef8,0802,0a0a,0404,02fc,08fa,020a,fa02,f2f2,faf8,0604,0206,fc02,00fe,0202,0a06,f8fe,f8f8,faf6,0002,f8fe,f6f4,f6fa,080c,0806,f8f8,f8f8,fafa,f8fa,f8fa,0202,fa00,0606,fe04,fcfc,fafa,f8fa,fcfc,faf8,fe04,0202,0606,fafa,f8fc,fafa,fafa,f8f4,0608,fcfa,02fc,0404,02fe,fcfc,fcfc,faf8,fcfa,fefc,faf8,fcf8,0002,fe02,0202,f8fc,f0ee,fefe,fef6,f4fe,fef8,0002,fe00,fefc,f4f4,fafa,04f4,00f2,f4f6,00fc,0200,fefc,fafa,f2f6,fcf6,f8fe,fcfa,f4f4,fefc,fafc,f8f8,f6f8,fcf8,fe02,faf8,faf8,f4f2,f8f8,f6f4,fef8,f6f6,00fc,fef6,fafa,f2f6,f2f0,f0f4,f8f8,fc02,faf4,02fe,f800,fef8,f4f4,f4f2,f6f6,0002,fafc,0a00,fafa,fe02,fafa,f6f2,f8f8,02fe,fe00,fcfa,02f0,02fa,fafc,fc00,faf4,f8fc,020a,fef6,00fa,fa00,fefc,fcfc,fafc,02fe,04fe,f6f8,04fc,0200,f8f8,00f8,fc00,fe00,fcfa,0202,04f8,0000,00f8,f8f0,00f8,f4fc,fcfe,f6f8,04f8,f6f8,f600,0000,0000,0000,0000,0000,0000,0000,0000,0000,0000,0000,0000,0000,0000,0000,0000,0000,0000,0000,0000,0000,0000,0000,0000,0000,0000,0000,0000,0000,0000,0000,0000,0000,0000,0000,0000,0000,0000,0000,0000,0000,0000,0000,0000,0000,0000,0000,0000,0000,0000,0000,0000,0000,0000,0000,0000,0000,0000,0000,0000,0000,0000,0000,0000,0000,0000,0000,0000,0000,0000,0000,0000,0000,0000,0000,0000,0000,0000,0000,0000,0000,0000,0000,0000,0000,0000,0000,0000,0000,0000,0000,0000,0000,0000,0000,0000,0000,0000,0000,0000,0000,0000,0000,0000,0000,0000,0000,0000,0000,0000,0000,0000,0000,0000,0000,0000,0000,0000,0000,0000,0000,0000,0000,0000,0000,0000,0000,0000,0000,0000,0000,0000,0000,0000,0000,0000,0000,0000,0000,0000,0000,0000,0000,0000,0000,0000,0000,0000,0000,0000,0000,0000,0000,0000,0000,0000,0000,0000,0000,0000,0000,0000,0000,0000,0000,0000,0000,0000,0000,0000,0000,0000,0000,0000,0000,0000,0000,0000,0000,0000,0000,0000,0000,0000,0000,0000,0000,0000,0000,0000,0000,0000,0000,0000,0000,0000,0000,0000,0000,0000,0000,0000,0000,0000,0000,0000,0000,0000,0000,0000,0000,0000,0000,0000,0000,0000,0000,0000,0000,0000,0000,0000,0000,0000,0000,0000,0000,0000,0000,0000,0000,0000,0000,0000,0000,0000,0000,0000,0000,0000,0000,0000,0000,0000,0000,0000,0000,0000,0000,0000,0000,0000,0000,0000,0000,0000,0000,0000,0000,0000,0000,0000,0000,0000,0000,0000,0000,0000,0000,0000,0000,0000,0000,0000,0000,0000,0000,0000,0000,0000,0000,0000,0000,0000,0000,0000,0000,0000,0000,0000,0000,0000,0000,0000,0000,0000,0000,0000,0000,0000,0000,0000,0000,0000,0000,0000,0000,0000,0000,0000,0000,0000,0000,0000,0000,0000,0000,0000,0000,0000,0000,0000,0000,0000,0000,0000,0000,0000,0000,0000,0000,0000,0000,0000,0000,0000,0000,0000,0000,0000,0000,0000,0000,0000,0000,0000,0000,0000,0000,0000,0000,0000,0000,0000,0000,0000,0000,0000,0000,0000,0000,0000,0000,0000,0000,0000,0000,0000,0000,0000,0000,0000,0000,0000,0000,0000,0000,0000,0000,0000,0000,0000,0000,0000,0000,0000,0000,0000,0000,0000,0000,0000,0000,0000,0000,0000,0000,0000,0000,0000,0000,0000,0000,0000,0000,0000,0000,0000,0000,0000,0000,0000,0000,0000,0000,0000,0000,0000,0000,0000,0000,0000,0000,0000,0000,0000,0000,0000,0000,0000,0000,0000,0000,0000,0000,0000,0000,0000,0000,0000,0000,0000,0000,0000,0000,0000,
00fe,fc00,fefc,fe00,fefe,fcfc,fe00,0200,0202,fc00,fe00,fcfe,fefe,fe00,fefe,fefa,0000,fcfe,fcfc,fcfa,fe00,fefe,fefe,fefe,fefe,0402,fefc,fcfa,fcfe,fefe,fefe,fefe,fcfe,fcfc,fcfa,fcfc,fcfe,00fe,fe00,fefe,fefe,fcfe,fcf8,fc00,fefa,fe00,fefe,fefe,fe00,fefe,fefe,fcfe,fcfc,00fe,00fe,fe00,fefe,fefe,fefe,fefe,fefe,fefa,0000,0000,fefe,0000,fefe,fcfe,fc00,fcfc,fefc,fe00,fe00,fefe,fefe,fefe,fe02,fcfc,fefe,fe00,fefe,fefe,fe00,fefe,fcfe,fefe,0000,fe00,0002,fefe,00fe,fefe,fefe,fe00,0000,00fe,00fe,fefe,fe00,fefe,fefe,fafc,0000,0200,00fe,0000,fefe,fefe,fefe,fefe,fe02,fefe,00fe,00fe,0000,fefe,fefe,fefe,fefc,fefe,fe00,fe00,fe00,00fe,fefe,00fe,fefe,fe00,fcfc,0000,0000,00fe,00fe,fefe,fefe,fefe,fefc,fefc,fe00,fefe,fefe,0000,fe00,fefe,fc00,00fc,fe00,00fe,fefe,fefe,fe00,0000,fefe,fc00,0000,fefe,fefe,fefe,0000,fefe,fefe,00fe,fcfc,fefe,fefe,fefe,fefe,fefe,fe00,00fe,fe00,fcfc,fefc,fe00,fe00,fe00,fefe,fefe,00fe,fe00,00fe,0000,fe00,fefe,fefe,fefe,fefe,fe00,0202,0200,0000,fefe,fefe,00fe,fefe,fcfc,0200,0204,0000,fe00,fefe,fefe,fefe,fefe,fcfe,0402,0002,00fe,fe00,fefe,fefe,fefe,fe00,02fe,0202,fe00,00fe,fefe,fefe,fefe,00fe,fe00,fe00,0000,fefe,0000,00fe,fe00,fefe,fe00,fe00,0000,00fe,fe00,00fe,fe00,fefe,0000,0000,0000,fe00,0000,fefe,fefe,fefe,00fe,fefe,fefe,fefe,00fe,00fe,fc00,fefe,fefe,fc00,fefe,fefe,fefe,fe00,fefe,fefc,fefe,0000,fefe,00fe,fefe,fefe,fcfe,fefe,fefe,fe00,0004,fefe,fe00,fefe,fefe,0000,fefe,0000,02fa,0000,00fe,fe00,fefe,0002,fe00,0000,fe00,0202,f806,f802,0000,00fe,fefa,fcfc,02fa,0204,fe00,fe00,fefe,fafc,fafc,fafc,fefe,0004,00fc,fefe,00fe,fefc,fefc,fefe,fcfe,fcfc,00fe,00fe,fefe,fe00,0000,fefe,fefe,fafe,0200,02fe,fa02,fefc,0002,fefe,fe00,fe00,0000,00fc,fefe,00fe,fe00,0000,0000,0000,0000,fe00,0200,00fc,fefe,00fe,fefe,0000,0000,fe00,00fc,fefe,fcfc,fefc,fefe,fefe,fe00,fc00,fcfe,00fe,fe00,fefe,0000,fefe,fe00,fefe,0000,00fe,fe00,fefe,fefe,0000,0000,0000,fe00,fe00,fefc,fcfc,fefe,fefe,fefe,fe00,0000,fefe,fe02,fefe,fefc,fefc,fefe,00fe,fe00,fefe,fcfe,0400,fc00,fefe,fefe,00fe,0000,fe00,fefe,fcfe,fcfc,fcfc,fefe,fefe,00fe,fefe,0000,fefa,fe00,fe00,fefe,fefe,fefe,00fe,fe00,fefe,00fe,0200,fefe,fefe,fefe,0000,fefe,fefe,fafe,00fe,fefc,fcfe,fefe,00fe,00fe,00fe,fefe,fe00,fefa,fefe,fefe,fefe,fefe,fefe,fefe,0000,0204,fefe,fe00,fefe,fefe,fefe,00fe,fe00,fe00,0002,00fe,fefe,fefe,fefe,fefe,0000,fefe,0200,0002,0000,fefe,fefe,fefe,00fe,fefe,fefe,0200,fe00,fe00,0000,fe00,00fe,fe00,fa00,0202,00fe,0000,00fe,fefe,fe00,fefe,00fe,00fe,fefe,fefe,fefe,fe00,fefe,00fe,fefe,0000,0204,00fc,fefc,fefe,fefe,fe00,00fe,00fc,fcfc,0002,00fe,fefe,fefe,fefe,fe00,00fe,0200,0002,fe00,fefe,fefe,fefe,fefe,fcfe,00fe,00fe,0002,fefc,fefe,fefe,fefe,fefe,fefe,0000,0604,fefe,fe00,fefe,fefe,00fe,fefe,0600,fe02,04fe,fe02,fefe,fefe,00fe,fefe,fe00,0602,0202,02fc,fe00,fefe,fefe,fefe,00fe,0200,04fe,0202,00fc,fe00,fefe,fcfe,02fc,00fe,fe04,fe02,fe00,00fe,fefe,fe02,fe04,fcfe,00fe,0202,0000,fc08,fe00,00fe,0404,0202,0000,00fe,0000,0000,0000,0000,0000,0000,0000,0000,0000,0000,0000,0000,0000,0000,0000,0000,0000,0000,0000,0000,0000,0000,0000,0000,0000,0000,0000,0000,0000,0000,0000,0000,0000,0000,0000,0000,0000,0000,0000,0000,0000,0000,0000,0000,0000,0000,0000,0000,0000,0000,0000,0000,0000,0000,0000,0000,0000,0000,0000,0000,0000,0000,0000,0000,0000,0000,0000,0000,0000,0000,0000,0000,0000,0000,0000,0000,0000,0000,0000,0000,0000,0000,0000,0000,0000,0000,0000,0000,0000,0000,0000,0000,0000,0000,0000,0000,0000,0000,0000,0000,0000,0000,0000,0000,0000,0000,0000,0000,0000,0000,0000,0000,0000,0000,0000,0000,0000,0000,0000,0000,0000,0000,0000,0000,0000,0000,0000,0000,0000,0000,0000,0000,0000,0000,0000,0000,0000,0000,0000,0000,0000,0000,0000,0000,0000,0000,0000,0000,0000,0000,0000,0000,0000,0000,0000,0000,0000,0000,0000,0000,0000,0000,0000,0000,0000,0000,0000,0000,0000,0000,0000,0000,0000,0000,0000,0000,0000,0000,0000,0000,0000,0000,0000,0000,0000,0000,0000,0000,0000,0000,0000,0000,0000,0000,0000,0000,0000,0000,0000,0000,0000,0000,0000,0000,0000,0000,0000,0000,0000,0000,0000,0000,0000,0000,0000,0000,0000,0000,0000,0000,0000,0000,0000,0000,0000,0000,0000,0000,0000,0000,0000,0000,0000,0000,0000,0000,0000,0000,0000,0000,0000,0000,0000,0000,0000,0000,0000,0000,0000,0000,0000,0000,0000,0000,0000,0000,0000,0000,0000,0000,0000,0000,0000,0000,0000,0000,0000,0000,0000,0000,0000,0000,0000,0000,0000,0000,0000,0000,0000,0000,0000,0000,0000,0000,0000,0000,0000,0000,0000,0000,0000,0000,0000,0000,0000,0000,0000,0000,0000,0000,0000,0000,0000,0000,0000,0000,0000,0000,0000,0000,0000,0000,0000,0000,0000,0000,0000,0000,0000,0000,0000,0000,0000,0000,0000,0000,0000,0000,0000,0000,0000,0000,0000,0000,0000,0000,0000,0000,0000,0000,0000,0000,0000,0000,0000,0000,0000,0000,0000,0000,0000,0000,0000,0000,0000,0000,0000,0000,0000,0000,0000,0000,0000,0000,0000,0000,0000,0000,0000,0000,0000,0000,0000,0000,0000,0000,0000,0000,0000,0000,0000,0000,0000,0000,0000,0000,0000,0000,0000,0000,0000,0000,0000,0000,0000,0000,0000,0000,0000,0000,0000,0000,0000,0000,0000,0000,0000,0000,0000,0000,0000,0000,0000,0000,0000,0000,0000,0000,0000,0000,0000,0000,0000,0000,0000,0000,0000,0000,0000,0000,0000,0000,0000,0000,0000,0000,0000,0000,0000,0000,0000,0000,0000,0000,0000,0000,0000,
0000,04fe,06fe,0602,0000,0600,fcfc,04fc,0006,0200,0af8,fc06,0200,fe00,00fc,f6fa,fef6,f8f8,fc02,fefc,fcfc,fefc,fc00,fafa,fafa,0206,fc00,00fe,fcfe,faf8,fefa,0000,fcfa,fafc,fa00,fe00,fc02,f4fa,f8f8,02fa,faf8,fe00,0008,fcfa,0204,fafc,fcfa,f6f6,fcfc,fefc,0202,fefc,0202,fe04,fafe,f8fa,fefe,fcfc,f8fa,0000,0000,080a,fe02,fcfc,fcfa,00fe,f6f8,fcf6,0000,0608,0408,fe00,f8fa,0000,f8fe,f4f2,0204,0000,0a06,0406,fcfe,fefe,0000,f2f2,f8f8,f6f8,0202,0806,0206,fefe,00f8,f8fa,f8f2,f4fa,fe00,0402,0406,0000,fe04,fafe,f6f8,f6fa,f6fa,fefa,fefe,fcfc,0202,fcfe,f4f4,f8f4,f8fe,fcf8,00fc,f4f2,00fe,fa00,f8fa,fafa,f8f0,fcf4,fafc,f2f6,fafa,0002,f8fa,f8fa,f0f6,fefe,fe02,fcfe,f6f4,0402,fcfe,fefe,fafa,faf6,0002,00fc,f6fc,fefa,0004,fcfc,fcfc,f6fa,00fe,fc02,fefe,f8f6,080a,fcfa,0000,fcfe,f8f6,02fe,fcfa,f6f6,0802,fc04,faf6,f8f6,fa00,0200,f6fa,f6fa,fef8,060a,f0f2,f8f8,fafa,fcf8,fefe,fefe,f8f8,0400,f8fc,f4ee,f8f8,fafe,02fe,0202,0002,00fc,0004,ecf0,f8f6,faf6,f6fa,00fe,0202,fcfe,fe00,f8fc,f4f2,f8f6,faf8,0004,0404,0000,00fc,fe00,f4f4,faf8,f8f8,fcf8,0402,0002,f8fe,fafa,faf8,fcfc,fefe,faf6,040a,0402,fe00,f8f8,fcfc,00fe,fefe,fafe,02fe,0000,0004,f8fc,f8f4,fcfa,fe00,0400,fcfc,fefc,02fe,fe00,f8f8,fcfa,0202,fefe,0206,00fc,fcfe,0000,fe00,fcfa,0200,0404,0604,0000,fefe,fefe,0002,fe02,00fe,0402,0404,0404,f8fe,fcfe,fefe,0402,0000,0202,0404,0206,fafe,fefc,fc00,00fe,0808,0404,0602,0002,0008,fefe,00fe,00fa,0602,0206,0608,0a0c,04fa,00fa,020c,00fe,0402,0408,0408,0a08,f8fe,fe04,0000,0c04,0c08,080a,020a,0a0c,0606,1004,0e04,0e04,0a10,060a,0806,0606,0206,0a00,0c10,0806,0a06,040c,0604,0608,0408,0004,0202,0c06,0a0a,0204,0a02,080a,0408,0608,0204,0804,0a0a,020a,02fe,0808,0204,0202,0604,0408,0a06,060a,0002,0806,0408,0002,0606,0202,080c,0c0a,0004,0002,0406,0408,0200,0204,06fe,020c,0408,fefc,0200,0804,0202,0400,0606,060c,0a0a,fafc,0002,fe00,0402,fcfe,0602,0e08,0a0c,0e08,02fc,faf6,fcf8,fe00,00fe,0400,0816,0c0a,fc00,fe00,f2f4,00fe,fafc,0200,0a06,080a,060a,0606,f8fe,fcf8,0000,00fc,0804,0e0a,1200,0c0a,0404,faf8,0000,fafc,0202,100c,0c0e,0c08,0608,faf8,00fc,0002,fefc,0c0c,040a,060c,0406,0004,fafc,0404,fcfc,0e08,060e,0e0a,0208,0002,fcfa,00fc,fe04,0800,100c,040a,100c,fe06,fe00,fefc,0606,faf8,0c0c,0c08,060a,fc04,fafc,fefc,0400,fe06,0402,0a08,fc06,0c0a,fefc,0000,fcfe,0808,faf8,0402,0406,0802,00fe,0000,02fc,0604,fa04,02fa,0402,0c02,040c,0402,0404,0204,0606,f6f6,0402,0a0a,0cfe,0402,0404,0806,0404,fc00,02fa,0606,0606,0a06,0206,0606,0002,0202,faf6,0606,0804,040a,0402,0404,0404,0200,00fe,0606,0808,0e08,060a,fe02,fcfe,fcfe,0200,0404,0a08,0404,080a,0002,fefa,fcf8,0200,0604,100c,060a,0604,0e08,02fe,fafa,fefc,0606,0a08,040a,0408,0206,0808,fe00,00fc,0602,080a,0808,0602,0c00,0c06,0a08,0002,0208,0804,0404,0206,0404,0806,0a06,0606,0602,0406,0004,0404,fe00,0600,0a14,0c0c,0606,0202,0000,fefe,fe02,0204,0208,0606,0604,0206,0200,fafc,fcfa,00fc,0cfe,0a02,0004,0402,fefe,fcfa,f8fa,f8fa,0004,0208,0804,0406,0204,fefc,f8f6,fef8,00fe,0600,0400,0000,0000,0000,0000,0000,0000,0000,0000,0000,0000,0000,0000,0000,0000,0000,0000,0000,0000,0000,0000,0000,0000,0000,0000,0000,0000,0000,0000,0000,0000,0000,0000,0000,0000,0000,0000,0000,0000,0000,0000,0000,0000,0000,0000,0000,0000,0000,0000,0000,0000,0000,0000,0000,0000,0000,0000,0000,0000,0000,0000,0000,0000,0000,0000,0000,0000,0000,0000,0000,0000,0000,0000,0000,0000,0000,0000,0000,0000,0000,0000,0000,0000,0000,0000,0000,0000,0000,0000,0000,0000,0000,0000,0000,0000,0000,0000,0000,0000,0000,0000,0000,0000,0000,0000,0000,0000,0000,0000,0000,0000,0000,0000,0000,0000,0000,0000,0000,0000,0000,0000,0000,0000,0000,0000,0000,0000,0000,0000,0000,0000,0000,0000,0000,0000,0000,0000,0000,0000,0000,0000,0000,0000,0000,0000,0000,0000,0000,0000,0000,0000,0000,0000,0000,0000,0000,0000,0000,0000,0000,0000,0000,0000,0000,0000,0000,0000,0000,0000,0000,0000,0000,0000,0000,0000,0000,0000,0000,0000,0000,0000,0000,0000,0000,0000,0000,0000,0000,0000,0000,0000,0000,0000,0000,0000,0000,0000,0000,0000,0000,0000,0000,0000,0000,0000,0000,0000,0000,0000,0000,0000,0000,0000,0000,0000,0000,0000,0000,0000,0000,0000,0000,0000,0000,0000,0000,0000,0000,0000,0000,0000,0000,0000,0000,0000,0000,0000,0000,0000,0000,0000,0000,0000,0000,0000,0000,0000,0000,0000,0000,0000,0000,0000,0000,0000,0000,0000,0000,0000,0000,0000,0000,0000,0000,0000,0000,0000,0000,0000,0000,0000,0000,0000,0000,0000,0000,0000,0000,0000,0000,0000,0000,0000,0000,0000,0000,0000,0000,0000,0000,0000,0000,0000,0000,0000,0000,0000,0000,0000,0000,0000,0000,0000,0000,0000,0000,0000,0000,0000,0000,0000,0000,0000,0000,0000,0000,0000,0000,0000,0000,0000,0000,0000,0000,0000,0000,0000,0000,0000,0000,0000,0000,0000,0000,0000,0000,0000,0000,0000,0000,0000,0000,0000,0000,0000,0000,0000,0000,0000,0000,0000,0000,0000,0000,0000,0000,0000,0000,0000,0000,0000,0000,0000,0000,0000,0000,0000,0000,0000,0000,0000,0000,0000,0000,0000,0000,0000,0000,0000,0000,0000,0000,0000,0000,0000,0000,0000,0000,0000,0000,0000,0000,0000,0000,0000,0000,0000,0000,0000,0000,0000,0000,0000,0000,0000,0000,0000,0000,0000,0000,0000,0000,0000,0000,0000,0000,0000,0000,0000,0000,0000,0000,0000,0000,0000,0000,0000,0000,0000,0000,0000,0000,0000,0000,0000,0000,0000,0000,0000,0000,0000,0000,0000,0000,0000,0000,0000,
04fe,fe00,00fe,fefa,0006,0800,fe06,00f6,0602,fcfa,fefa,f8f8,0200,fcfe,fefa,faf8,00fe,fc02,fcfa,02fa,0606,0402,fe02,fe00,0000,fafe,fcf8,f4fc,02fe,060a,fe00,faf2,f8fa,0206,fc00,f0f2,f4f2,f6f6,f6f4,f2ec,f2f2,00fa,fcfe,f802,e8f0,ecec,eaec,f0f0,eeec,f8f6,0200,0004,f6fe,ecec,eaec,f2ee,f2f2,f4f0,fcf8,0606,0006,f8f4,f4f8,f4f2,fafc,f8fc,00fe,0000,0a0e,060e,0000,fefe,0000,fcfe,fefe,0006,0a06,0a0c,0c0e,0a0c,0606,0404,0402,0604,f8fe,120c,1818,1416,0c0e,060a,0406,0408,040a,fefe,0e12,1a1a,1412,1212,0608,0804,0604,f4fa,0604,0c0c,1214,1012,0a0e,02fe,0002,fe00,fcfc,fe00,0604,0604,080a,fc00,00fc,fefc,fcf8,f8fe,f8f4,f8fa,f8fa,fcfa,fafa,fcfe,f8fc,00fa,f8f8,f4f6,f2f6,f8f4,fcfa,fcfc,fefc,04fa,fafa,fcfa,fcfa,f8f8,fafa,fefe,00fe,fc00,f8fc,fefe,fefc,fe02,fafc,fefa,fefe,0404,fe04,fef8,fcfe,0202,fcfc,fafa,fafc,0602,0406,0200,fcfe,0000,fafa,f8fa,fefc,00fe,0608,0200,0400,00fe,fc00,fefc,fcfc,0000,0402,0200,0402,fe04,faf8,fcfc,00fe,00fe,fcfe,fe00,fe00,0202,f0f4,f6f6,fefe,fe00,fe00,fcfc,f6f6,0a0c,f4fa,f2f0,fcf8,fe00,fc00,fefc,f6fc,fefa,0004,f4f2,fcf8,fefc,fcfc,fcfc,fefe,f2f2,080c,f8fa,fcf8,fcfe,fcfa,fefa,fefc,f4f8,02fc,0a0e,fcfe,fafc,fafc,fcfc,fcfe,00fe,f4f4,120e,080a,fefe,fafa,fafc,fcfc,02fe,f6f8,02fa,100e,0408,fcfe,fcfa,fafc,0400,f600,fcfa,0000,0602,0006,fefc,00fe,fefe,0202,f6f6,fcfc,fc02,0404,fe02,fefc,0002,fe00,fafe,fefc,fe00,f8fa,00fa,fafe,04fa,0602,fcfc,fcfa,fe02,0400,fafc,fafc,fefe,0200,fcfe,fafa,02f6,0a04,0206,fe02,fe00,02fe,0002,fc00,0200,0000,fafa,f6fc,f0ee,fc00,0000,0206,0e02,0404,0afe,f400,f6ec,f4ec,f8fa,f6fc,02fa,0404,0604,fa00,f0f6,eaee,f0f0,f4f4,f6f2,02fe,fc00,040a,f8fa,eaf2,e6e4,f2ec,f4f6,fcfa,02fe,0208,fe00,f2fa,eaee,eee8,f4f4,fefe,0800,fefc,0802,0004,f4f6,f0f2,f8f6,00fc,0406,020a,fa08,02fc,0204,fcfa,fcfc,00fe,0a08,0606,02fe,0002,0a06,0206,0604,0602,0608,0408,0004,0404,0804,0a0e,0c0c,0c0c,0e0c,0806,0004,f8fc,fc00,0806,0c06,0e10,0e0e,0408,fe02,02f6,02fa,00fc,0202,0804,0a0a,0402,fefe,fcfa,02fe,fef6,fafe,f8fc,fefe,fcfe,fe02,fcfe,04fc,06fc,fcfa,f4f2,eef0,f4f4,02fc,0000,fefe,fa04,f4fe,f8fa,f4f2,f6f6,02fe,0804,0200,00fa,fa08,fafe,fafa,0000,0200,0604,0006,fcfe,06f6,fefc,02fc,0002,0002,0404,0a08,fcfc,faf6,04f8,00fc,0604,0404,0000,0402,fe02,fa00,fcfa,02fa,00fe,0606,fe02,fcfe,0202,00fe,f6f6,fc00,fcfa,fcf8,0000,fc00,00fa,0200,fe00,00f8,fefc,f0f4,fcfa,0200,fcfc,fefe,0204,fefc,00fc,f2f6,f4ee,fcfa,fe00,00fe,02fc,0008,0600,0002,f4f8,fcfa,fefe,00fe,00fc,0602,fc02,0000,0804,0204,0406,0200,0004,00fe,0004,0400,0606,0e0e,0c0a,0608,0202,fe02,0200,0400,fe00,1012,1012,0e0c,0204,0000,fefe,f6f8,fcfc,06fc,1012,0c0a,060a,0000,fefe,fafa,f4f8,0afe,0806,040a,0608,0202,fefc,fcfe,f6f4,0602,f8fe,02fe,0202,0000,fc02,00fc,fefa,f8fe,02fc,fafa,fafc,fcfc,fcfa,fc00,04fc,0002,06fe,fafe,faf4,f2f4,fafa,fefc,00fe,0200,fe02,fe08,fafc,faf8,f6f4,f8fa,fcfe,0400,02fa,0204,f800,02fc,fafc,f8fa,00fa,0202,0004,0800,fe00,fa04,fc00,fe02,fefe,0000,0200,0200,040a,0002,02fa,02fe,fcfa,0200,0806,fefe,0afe,020c,0000,0000,0000,0000,0000,0000,0000,0000,0000,0000,0000,0000,0000,0000,0000,0000,0000,0000,0000,0000,0000,0000,0000,0000,0000,0000,0000,0000,0000,0000,0000,0000,0000,0000,0000,0000,0000,0000,0000,0000,0000,0000,0000,0000,0000,0000,0000,0000,0000,0000,0000,0000,0000,0000,0000,0000,0000,0000,0000,0000,0000,0000,0000,0000,0000,0000,0000,0000,0000,0000,0000,0000,0000,0000,0000,0000,0000,0000,0000,0000,0000,0000,0000,0000,0000,0000,0000,0000,0000,0000,0000,0000,0000,0000,0000,0000,0000,0000,0000,0000,0000,0000,0000,0000,0000,0000,0000,0000,0000,0000,0000,0000,0000,0000,0000,0000,0000,0000,0000,0000,0000,0000,0000,0000,0000,0000,0000,0000,0000,0000,0000,0000,0000,0000,0000,0000,0000,0000,0000,0000,0000,0000,0000,0000,0000,0000,0000,0000,0000,0000,0000,0000,0000,0000,0000,0000,0000,0000,0000,0000,0000,0000,0000,0000,0000,0000,0000,0000,0000,0000,0000,0000,0000,0000,0000,0000,0000,0000,0000,0000,0000,0000,0000,0000,0000,0000,0000,0000,0000,0000,0000,0000,0000,0000,0000,0000,0000,0000,0000,0000,0000,0000,0000,0000,0000,0000,0000,0000,0000,0000,0000,0000,0000,0000,0000,0000,0000,0000,0000,0000,0000,0000,0000,0000,0000,0000,0000,0000,0000,0000,0000,0000,0000,0000,0000,0000,0000,0000,0000,0000,0000,0000,0000,0000,0000,0000,0000,0000,0000,0000,0000,0000,0000,0000,0000,0000,0000,0000,0000,0000,0000,0000,0000,0000,0000,0000,0000,0000,0000,0000,0000,0000,0000,0000,0000,0000,0000,0000,0000,0000,0000,0000,0000,0000,0000,0000,0000,0000,0000,0000,0000,0000,0000,0000,0000,0000,0000,0000,0000,0000,0000,0000,0000,0000,0000,0000,0000,0000,0000,0000,0000,0000,0000,0000,0000,0000,0000,0000,0000,0000,0000,0000,0000,0000,0000,0000,0000,0000,0000,0000,0000,0000,0000,0000,0000,0000,0000,0000,0000,0000,0000,0000,0000,0000,0000,0000,0000,0000,0000,0000,0000,0000,0000,0000,0000,0000,0000,0000,0000,0000,0000,0000,0000,0000,0000,0000,0000,0000,0000,0000,0000,0000,0000,0000,0000,0000,0000,0000,0000,0000,0000,0000,0000,0000,0000,0000,0000,0000,0000,0000,0000,0000,0000,0000,0000,0000,0000,0000,0000,0000,0000,0000,0000,0000,0000,0000,0000,0000,0000,0000,0000,0000,0000,0000,0000,0000,0000,0000,0000,0000,0000,0000,0000,0000,0000,0000,0000,0000,0000,0000,0000,0000,0000,0000,0000,0000,0000,0000,0000,0000,0000,0000,0000,0000,0000,0000,
fe00,fefe,fafa,fefe,fefe,fcfc,fefe,0200,0204,fefe,fcfc,fafc,fefc,fefe,fefa,fefa,00fe,fc02,fefe,fcfa,fe00,00fe,fefe,fefe,fefe,0202,fefa,fafc,fe00,fefe,fefe,fefe,fcfe,fcfe,fe04,fefe,fcfe,fefe,0000,fefe,fefe,fc00,fcf8,0002,fcfc,fefc,fefe,fcfe,fefe,fcfe,fefe,0002,fc00,fcfe,fefe,fefe,fefe,fefe,fcfe,0202,040a,0000,fefe,fefe,fcfc,fefe,fefe,00fe,0604,0406,fcfe,fefe,fefe,fcfc,fe00,fefc,0204,0604,0002,fefe,00fe,fcfe,fefe,fefe,fcfc,0000,0404,0000,0002,fe00,fefc,fefe,fefe,fcfc,0000,00fe,0000,fe00,fefe,fefe,fefe,fafc,0000,00fe,0200,0000,fe00,00fe,fefe,fefe,fe04,fcfe,00fe,0000,0000,fefe,00fe,0000,fefa,0000,00fe,00fe,0000,fefe,fe00,0000,fefe,00fe,fcfa,fe00,0000,fefe,fefe,00fe,fe00,fefe,fefe,fefe,fefe,fefe,fefe,fefe,0000,fefe,fc00,00fc,fe00,fcfe,fefe,fefe,fefe,fe00,fefe,fc00,fe02,fefe,fefe,fefe,fefe,00fe,fefe,fcfe,fcfc,fcfe,fefc,fefe,fefe,fefe,fefe,fefe,fcfe,fcfc,fcfe,fefe,fefc,fefe,fefe,fefe,00fe,fcfc,fefe,fefe,fefe,fefc,fefe,fefe,fefe,fefe,0000,0000,fefe,fefe,fefc,fefe,fefe,fefc,0200,0000,fefe,fefe,fefe,fefe,fefe,fe00,fefc,0000,fe00,fcfe,fcfe,fefe,fefe,fefe,fefe,02fe,0000,fcfe,fefe,fefc,fefe,fefe,fefe,fe00,fe00,fe00,fefe,fefe,fefe,fefe,fefe,fe00,0000,00fe,fefe,00fe,fefe,fefe,fefe,0000,0000,0000,fe00,00fe,fe00,fefe,fefe,00fe,fe00,00fe,00fe,fefe,fe00,fcfe,fefe,fefe,fe00,0000,fefe,fefe,fe00,fefc,fefc,fefe,0000,fe00,0000,fe00,fefe,fefe,fcfe,fefe,fefe,0004,0000,0000,00fe,00fe,0000,fefc,0000,02f6,0002,0000,0002,fe00,0002,fe02,fe00,fe00,0002,f402,f6fe,fefc,fcfa,f8f6,faf8,00f8,fe00,00fe,fefc,fcfc,f8f8,f4fa,f8fa,fafe,00fc,fafc,fafa,fefc,fcfa,fcfa,fcfc,fcfa,fcfc,fefc,fa00,faf8,f8fc,fcfa,fcfc,fcfc,fcfc,fe00,00fc,fa00,fcfc,fafc,fafc,fcfc,fefe,fc00,fafa,fcfa,0200,fe02,fcfc,fcfc,fefe,fefe,fcfe,04fe,0000,0002,fcfc,fcfc,fefe,fefe,fefe,fcf8,fcfc,00fe,fefe,fefe,fefe,00fe,fefe,fefc,fcfc,fe00,0000,0000,fefe,00fe,fe00,00fe,fcfa,fc00,00fe,fe00,0000,fe00,0000,fc00,0000,fcf8,fcfc,00fe,0000,fefe,fefe,0000,fefa,fc00,fefc,fefc,fefe,0000,00fe,fefe,fefe,fa00,04fe,fafe,fefe,00fe,00fe,0000,fe00,fcfc,f6fe,fafe,fcfc,fefe,fefe,fefe,0000,fefe,faf6,fcfa,fefe,fefe,fefe,fefe,00fe,0000,fcfc,fefe,fefe,fefc,fefe,fcfe,fefe,00fe,fcfe,fcfe,fc02,fefa,fcfc,fcfc,fefe,fefe,00fe,fcfe,fcfe,fefa,fefc,fcfc,fcfe,fefe,fefe,fcfc,fafe,0204,fcfe,fe00,fcfe,fcfc,fefe,fefe,fefe,00fc,0000,fefe,fefe,fcfc,fefe,fefe,fefc,fcfc,fa00,fc00,00fe,fcfe,fefe,fefe,fefe,fefe,fefc,fefe,fe00,fefe,fefe,fefe,fefe,fcfc,f8fe,fefe,fefe,fcfe,fefe,fefe,fefe,fefe,fcfc,fcfc,fcfc,fefe,fefe,fefe,fefe,fefe,fcfa,fefe,fe02,fcfe,fefc,fefe,fefe,fefe,fefc,fefe,fafe,fe00,fcfc,fefe,fefe,fefe,fefe,fefe,0000,fe02,fefe,fefe,fefe,fefe,fefc,fcfe,fefe,0200,fe00,fcfc,fefe,fcfe,fcfc,fefc,00fc,0400,0200,fcfa,fefe,fefe,fefc,fefe,fefc,0400,fe00,0202,fcfe,fcfe,fefe,fefe,00fe,fefe,0202,0200,fefc,fcfe,fcfc,fefe,fefe,fefe,fe02,0200,00fe,00fc,00fe,fefe,fe00,0200,00fc,fe02,0004,fc00,fc00,00fe,0002,fe06,fcfc,fe00,0202,0000,fe0a,fe00,0200,0404,0004,fefe,00fe,0000,0000,0000,0000,0000,0000,0000,0000,0000,0000,0000,0000,0000,0000,0000,0000,0000,0000,0000,0000,0000,0000,0000,0000,0000,0000,0000,0000,0000,0000,0000,0000,0000,0000,0000,0000,0000,0000,0000,0000,0000,0000,0000,0000,0000,0000,0000,0000,0000,0000,0000,0000,0000,0000,0000,0000,0000,0000,0000,0000,0000,0000,0000,0000,0000,0000,0000,0000,0000,0000,0000,0000,0000,0000,0000,0000,0000,0000,0000,0000,0000,0000,0000,0000,0000,0000,0000,0000,0000,0000,0000,0000,0000,0000,0000,0000,0000,0000,0000,0000,0000,0000,0000,0000,0000,0000,0000,0000,0000,0000,0000,0000,0000,0000,0000,0000,0000,0000,0000,0000,0000,0000,0000,0000,0000,0000,0000,0000,0000,0000,0000,0000,0000,0000,0000,0000,0000,0000,0000,0000,0000,0000,0000,0000,0000,0000,0000,0000,0000,0000,0000,0000,0000,0000,0000,0000,0000,0000,0000,0000,0000,0000,0000,0000,0000,0000,0000,0000,0000,0000,0000,0000,0000,0000,0000,0000,0000,0000,0000,0000,0000,0000,0000,0000,0000,0000,0000,0000,0000,0000,0000,0000,0000,0000,0000,0000,0000,0000,0000,0000,0000,0000,0000,0000,0000,0000,0000,0000,0000,0000,0000,0000,0000,0000,0000,0000,0000,0000,0000,0000,0000,0000,0000,0000,0000,0000,0000,0000,0000,0000,0000,0000,0000,0000,0000,0000,0000,0000,0000,0000,0000,0000,0000,0000,0000,0000,0000,0000,0000,0000,0000,0000,0000,0000,0000,0000,0000,0000,0000,0000,0000,0000,0000,0000,0000,0000,0000,0000,0000,0000,0000,0000,0000,0000,0000,0000,0000,0000,0000,0000,0000,0000,0000,0000,0000,0000,0000,0000,0000,0000,0000,0000,0000,0000,0000,0000,0000,0000,0000,0000,0000,0000,0000,0000,0000,0000,0000,0000,0000,0000,0000,0000,0000,0000,0000,0000,0000,0000,0000,0000,0000,0000,0000,0000,0000,0000,0000,0000,0000,0000,0000,0000,0000,0000,0000,0000,0000,0000,0000,0000,0000,0000,0000,0000,0000,0000,0000,0000,0000,0000,0000,0000,0000,0000,0000,0000,0000,0000,0000,0000,0000,0000,0000,0000,0000,0000,0000,0000,0000,0000,0000,0000,0000,0000,0000,0000,0000,0000,0000,0000,0000,0000,0000,0000,0000,0000,0000,0000,0000,0000,0000,0000,0000,0000,0000,0000,0000,0000,0000,0000,0000,0000,0000,0000,0000,0000,0000,0000,0000,0000,0000,0000,0000,0000,0000,0000,0000,0000,0000,0000,0000,0000,0000,0000,0000,0000,0000,0000,0000,0000,0000,0000,0000,0000,0000,0000,0000,0000,0000,0000,0000,0000,0000,0000,0000,0000,0000,
fefe,fcfe,fe00,00fe,fefe,fcfe,fe00,0000,0202,fe00,0002,fe00,fe00,fe00,fefc,fefc,0000,fa00,00fc,fefe,0002,fefe,fefe,fefe,fefc,00fc,fe00,fefe,0002,0000,fefe,00fe,fcfe,fefc,fe00,0000,fefe,fefc,fe00,00fe,fefe,fcfe,fefa,fe02,fcfe,fefe,fefe,fefe,fefe,fefe,fefe,fe00,fefe,fcfe,00fe,fefe,fefe,fefe,fefe,0000,0002,00fe,fefe,fe00,fefe,fefe,fefe,00fe,0000,0000,fefe,fe00,fefe,fefe,fefe,fefc,0002,0000,fe00,fefe,fefe,fefe,fefe,fcfe,fcfc,00fe,0002,00fe,fe00,fefe,fefe,fefe,fcfe,fefe,0000,fefe,00fe,fe00,fefe,fefe,fcfe,fafc,0000,0000,fefe,0000,fefe,fefe,fefe,fefe,fe02,fc00,fefe,00fe,fefe,fefe,fefe,fefe,00fa,0200,fefe,fefe,fefe,fefe,fefe,fefe,fefe,fefe,fefc,fefe,fefe,fefe,00fe,fefe,fefe,fefe,fcfe,fefe,fefe,fefe,fefe,fefe,fefe,00fe,fe00,fefc,fefe,fefe,fefe,00fe,fefe,fe00,fefe,fc00,fe00,fefe,fefe,fefe,fefe,fefe,fefe,fe00,fcfc,fcfc,fefc,fefe,fefe,fefe,00fe,0000,fefe,fcfc,fcfc,fefe,fefe,fefe,fefe,fefe,00fe,fcfe,fefe,fefe,fefe,fefe,fefe,fe00,fefe,0000,0000,fefe,00fe,fefe,fefe,fe00,fefe,fefe,0000,0000,fe00,00fe,fefe,fefe,0000,fe00,fcfe,0000,0000,fefe,fefe,fefe,fefe,fefe,fe00,0000,0000,fefe,fefe,fefe,fefe,fefe,fe00,fe00,fe00,fefe,fefe,fefe,fefe,fefe,fefe,fe00,fe00,0000,fefe,00fe,00fe,fefe,fefe,00fe,0000,0000,fe00,fefe,fefe,fefc,fefe,00fe,fe00,0000,fefe,0000,fefe,fcfe,fefe,fefe,fe00,00fe,fefe,fefe,fe00,fefc,fcfc,fefe,0000,fe00,fefe,fefe,fefc,fefe,fefe,fefe,0000,02fe,fefe,00fe,fefe,fefe,fe00,fefe,0000,04fa,0000,00fe,fefe,fcfe,fe00,fc02,00fe,fe00,0002,f802,f800,0000,fefa,f8f8,fcf8,02fc,fe02,fefe,fefc,fcfc,f8fa,f8fc,fafc,fefe,0000,fafc,fcfa,02fc,fefc,fcfa,fefa,fcfe,fafa,fefc,fc00,fcfc,fafe,fcfa,fcfc,fefe,fcfc,00fc,fefe,fafe,fcfe,fefe,fafc,fefe,fe00,fefe,fefa,fcfc,fefe,0002,fefe,fefe,fe00,fefc,fcfe,02fe,00fe,0000,fe00,fe00,fefe,fefe,fcfe,fef8,fcfc,fcfa,fefc,fefe,fefe,fefe,fcfe,fcfa,fcfc,fefe,fe00,00fe,fefe,fefe,fefe,0000,fcfc,fc00,fefe,fe00,fe00,00fe,00fe,fe00,fe00,fcfa,fcfc,fefe,fefe,fefe,00fe,0000,00fa,fc00,00fc,fefc,fefe,fefe,00fe,fefe,fcfc,fc00,04fe,fafe,fefc,fefc,fefe,fefe,fefe,fcfc,f8fe,fafc,fcfa,fefc,fefc,fefe,fefe,fefc,fef8,fcfa,fefe,fc00,fcfc,fefe,fefe,fefe,fcfc,fcfc,fcfe,fefc,fefe,fefe,fefe,fefe,fcfe,fafe,fefe,fcfa,fefe,fcfc,fefe,fefe,00fe,fefc,fafe,fcfc,fefc,fcfc,fcfe,fefe,fcfe,fefc,fafe,0002,fcfe,fefe,fcfc,fefc,fefe,fefe,fefe,00fc,fe00,fefe,fcfe,fefe,fefe,fefc,fefe,fefc,fefe,fe00,fefe,fefe,fefe,fefe,fefe,fefc,fcfc,fefe,fefe,fefe,fefe,fefe,fefe,fcfe,f8fc,fefc,fe00,fefe,fefe,fefe,fefe,fcfe,fcfc,fefc,fcfc,fefe,fcfe,fefe,fefe,fefe,fefc,fcfc,fc02,fefc,fefe,fefe,fefe,fefe,fefe,00fe,fafe,fe00,fefc,fefe,fefe,fefe,fefe,fefe,fefe,fe04,fcfe,fefe,fefe,fefe,fefe,fc00,fefe,fefe,fe04,fefc,fefe,fefe,fefe,fefe,00fc,0200,0000,fcfc,fefe,fefe,fefc,fefe,fefe,06fe,fc00,00fe,fcfe,fcfc,fcfc,fefe,00fe,fefc,0402,0204,fcf8,fcfe,fefc,fefe,fefe,fefe,fc02,0000,00fe,fcfc,fefe,fefe,fcfe,00fe,00fc,0000,0002,fcfc,fafc,fefe,fe00,fc04,fafa,fefe,0400,fa00,fa06,fefe,fefe,0402,0000,fefe,fefc,00fe,0000,0000,0000,0000,0000,0000,0000,0000,0000,0000,0000,0000,0000,0000,0000,0000,0000,0000,0000,0000,0000,0000,0000,0000,0000,0000,0000,0000,0000,0000,0000,0000,0000,0000,0000,0000,0000,0000,0000,0000,0000,0000,0000,0000,0000,0000,0000,0000,0000,0000,0000,0000,0000,0000,0000,0000,0000,0000,0000,0000,0000,0000,0000,0000,0000,0000,0000,0000,0000,0000,0000,0000,0000,0000,0000,0000,0000,0000,0000,0000,0000,0000,0000,0000,0000,0000,0000,0000,0000,0000,0000,0000,0000,0000,0000,0000,0000,0000,0000,0000,0000,0000,0000,0000,0000,0000,0000,0000,0000,0000,0000,0000,0000,0000,0000,0000,0000,0000,0000,0000,0000,0000,0000,0000,0000,0000,0000,0000,0000,0000,0000,0000,0000,0000,0000,0000,0000,0000,0000,0000,0000,0000,0000,0000,0000,0000,0000,0000,0000,0000,0000,0000,0000,0000,0000,0000,0000,0000,0000,0000,0000,0000,0000,0000,0000,0000,0000,0000,0000,0000,0000,0000,0000,0000,0000,0000,0000,0000,0000,0000,0000,0000,0000,0000,0000,0000,0000,0000,0000,0000,0000,0000,0000,0000,0000,0000,0000,0000,0000,0000,0000,0000,0000,0000,0000,0000,0000,0000,0000,0000,0000,0000,0000,0000,0000,0000,0000,0000,0000,0000,0000,0000,0000,0000,0000,0000,0000,0000,0000,0000,0000,0000,0000,0000,0000,0000,0000,0000,0000,0000,0000,0000,0000,0000,0000,0000,0000,0000,0000,0000,0000,0000,0000,0000,0000,0000,0000,0000,0000,0000,0000,0000,0000,0000,0000,0000,0000,0000,0000,0000,0000,0000,0000,0000,0000,0000,0000,0000,0000,0000,0000,0000,0000,0000,0000,0000,0000,0000,0000,0000,0000,0000,0000,0000,0000,0000,0000,0000,0000,0000,0000,0000,0000,0000,0000,0000,0000,0000,0000,0000,0000,0000,0000,0000,0000,0000,0000,0000,0000,0000,0000,0000,0000,0000,0000,0000,0000,0000,0000,0000,0000,0000,0000,0000,0000,0000,0000,0000,0000,0000,0000,0000,0000,0000,0000,0000,0000,0000,0000,0000,0000,0000,0000,0000,0000,0000,0000,0000,0000,0000,0000,0000,0000,0000,0000,0000,0000,0000,0000,0000,0000,0000,0000,0000,0000,0000,0000,0000,0000,0000,0000,0000,0000,0000,0000,0000,0000,0000,0000,0000,0000,0000,0000,0000,0000,0000,0000,0000,0000,0000,0000,0000,0000,0000,0000,0000,0000,0000,0000,0000,0000,0000,0000,0000,0000,0000,0000,0000,0000,0000,0000,0000,0000,0000,0000,0000,0000,0000,0000,0000,0000,0000,0000,0000,0000,0000,0000,0000,0000,0000,0000,0000,0000,0000,0000,0000,
0000,fc00,fefc,0200,fefe,fcfc,fefe,0200,0604,fe00,0000,fc00,fefe,fe00,00fe,fefa,0000,fa00,fefc,fefc,fe02,0000,fefe,fefe,fe00,0002,fcfa,fafc,fe00,fe00,fe00,0000,fcfe,fefe,fefe,fefc,fe00,00fe,fe00,0000,fefe,fefe,fcf8,fe02,fefc,0000,00fe,fefe,0000,fefe,fefe,fefe,fefc,00fe,00fe,fe00,fefe,0000,fefe,00fe,fe02,00fc,0000,0002,fefe,0000,fe00,00fe,fe00,00fe,fefe,0000,fe00,fefe,fe00,fefc,0004,0200,0002,0000,0000,fefe,fe00,fcfe,fafc,0000,0404,0002,0002,fe00,0000,fefe,fefe,fcfe,0204,00fe,00fe,0000,fe00,fefe,fefe,fafc,0202,00fe,fefe,0000,0000,fefe,fefe,fefe,0004,fe00,00fe,00fe,0000,fe00,fefe,fefe,fefc,0202,0000,fefe,0000,00fe,00fe,00fe,fefe,00fe,fcfc,fe00,fefe,0000,00fe,fefe,fefe,fe00,fefc,fefc,fcfe,fefc,0000,0000,fefe,00fe,fc02,fefc,fcfc,fefe,0000,fefe,fefe,fe00,0000,fc00,fc00,fefc,fefe,0000,fefe,0000,00fe,fe00,fafc,fcfc,fefe,fe00,fefe,fefe,fefe,0000,fe00,fcfc,fcfe,fe00,fefe,00fe,fefe,fefe,fefe,fcfc,fefe,0000,fe00,fefe,fefe,fefe,00fe,fefc,0000,0000,0000,fefe,fefe,fefe,fefe,fefc,00fe,0202,00fe,0000,fefe,fefe,fe00,fe00,fcfc,0000,fe00,0000,fefe,fefe,fe00,fefe,fe00,00fe,0202,0000,0000,00fe,00fe,fefe,00fe,fe00,0000,0000,fefe,0000,00fe,00fe,fefe,0000,0200,0200,fefe,0000,00fe,fefe,fefe,0000,0000,0002,0002,0000,0000,fe00,fefe,00fe,fe00,00fe,0000,0000,00fe,fe00,fefe,fefe,fe00,00fe,fefe,fefe,fefe,fefe,fefc,fefe,0000,fefe,00fe,fefe,00fe,fefe,fefe,fefe,fefe,0004,0000,00fe,00fe,0000,fe00,fefe,0000,04f8,0000,00fe,fe00,fe00,fe02,0002,00fe,fe00,0000,f802,fa04,0000,fefe,fcf6,fafa,02fa,0204,02fe,fe00,fc00,f8fc,fafc,fafa,fcfe,0000,fefc,fcfe,00fe,00fe,fcfc,fcfa,fcfc,fcfc,00fe,0004,fefe,fe00,fefe,fcfe,fefe,00fc,0000,0200,fa02,fcfe,fe00,fcfc,fcfe,fe00,02fe,fefc,fcfc,0000,0000,fe00,fe00,0002,0000,fc02,0400,0200,0000,00fe,0000,0200,0000,0000,fef8,fcfc,fefe,0000,0000,00fe,0000,fc00,fefe,fefe,0002,0202,0200,0000,0002,0000,0000,fefc,fe02,0200,0002,0202,0200,0000,0000,00fe,fcfa,fefc,00fe,0000,0000,0000,0000,00fc,fc02,00fe,fefc,fefe,0000,0000,fe00,fefe,fefc,0600,fcfe,00fe,00fe,fefe,0000,fefe,fefa,fc02,fcfe,fcfc,fefe,fefe,fefe,0000,0000,00fa,fefe,fefe,fcfe,fefe,fefe,00fe,fe00,fcfc,0200,fe00,fefc,fefe,fefe,0000,fe00,fefe,fa02,0200,fefe,fcfe,fefe,0000,fefe,00fe,fefe,fcfe,fefa,fcfe,fefc,fefe,fefe,fefe,fefe,fefe,0404,fc00,fe00,fefe,fefe,fefe,00fe,fe00,00fe,0000,00fe,0000,fefe,0000,00fe,00fe,00fe,00fe,fe02,0000,0000,0000,fe00,fe00,fe00,fefc,00fe,0000,0000,fefe,0000,fefe,0000,fa00,0000,0000,fe00,00fe,0000,fe00,0000,fefc,fe00,fcfe,00fe,fefe,00fe,0000,0000,0000,00fe,fc04,fefe,fefe,fefe,0000,0000,00fe,fefe,fc00,00fe,00fe,fefe,fefe,0000,fe00,0000,0000,0002,0000,fe00,fefe,fefe,fefe,fe00,fefe,0000,0000,00fe,fe00,00fe,fe00,00fe,02fe,0402,0202,fcfe,fe00,0000,00fe,fe00,fe00,06fe,0000,04fe,0002,fe00,fefe,00fe,00fe,00fe,0402,0404,00fc,fe00,fefe,0000,0000,02fe,0202,02fe,0204,02fe,0000,00fe,fe00,0200,02fe,fe02,fe04,fe04,fe00,0000,0002,fe06,fcfc,0000,0404,0200,fe0a,0000,0000,0204,0202,0000,00fe,0002,0000,0000,0000,0000,0000,0000,0000,0000,0000,0000,0000,0000,0000,0000,0000,0000,0000,0000,0000,0000,0000,0000,0000,0000,0000,0000,0000,0000,0000,0000,0000,0000,0000,0000,0000,0000,0000,0000,0000,0000,0000,0000,0000,0000,0000,0000,0000,0000,0000,0000,0000,0000,0000,0000,0000,0000,0000,0000,0000,0000,0000,0000,0000,0000,0000,0000,0000,0000,0000,0000,0000,0000,0000,0000,0000,0000,0000,0000,0000,0000,0000,0000,0000,0000,0000,0000,0000,0000,0000,0000,0000,0000,0000,0000,0000,0000,0000,0000,0000,0000,0000,0000,0000,0000,0000,0000,0000,0000,0000,0000,0000,0000,0000,0000,0000,0000,0000,0000,0000,0000,0000,0000,0000,0000,0000,0000,0000,0000,0000,0000,0000,0000,0000,0000,0000,0000,0000,0000,0000,0000,0000,0000,0000,0000,0000,0000,0000,0000,0000,0000,0000,0000,0000,0000,0000,0000,0000,0000,0000,0000,0000,0000,0000,0000,0000,0000,0000,0000,0000,0000,0000,0000,0000,0000,0000,0000,0000,0000,0000,0000,0000,0000,0000,0000,0000,0000,0000,0000,0000,0000,0000,0000,0000,0000,0000,0000,0000,0000,0000,0000,0000,0000,0000,0000,0000,0000,0000,0000,0000,0000,0000,0000,0000,0000,0000,0000,0000,0000,0000,0000,0000,0000,0000,0000,0000,0000,0000,0000,0000,0000,0000,0000,0000,0000,0000,0000,0000,0000,0000,0000,0000,0000,0000,0000,0000,0000,0000,0000,0000,0000,0000,0000,0000,0000,0000,0000,0000,0000,0000,0000,0000,0000,0000,0000,0000,0000,0000,0000,0000,0000,0000,0000,0000,0000,0000,0000,0000,0000,0000,0000,0000,0000,0000,0000,0000,0000,0000,0000,0000,0000,0000,0000,0000,0000,0000,0000,0000,0000,0000,0000,0000,0000,0000,0000,0000,0000,0000,0000,0000,0000,0000,0000,0000,0000,0000,0000,0000,0000,0000,0000,0000,0000,0000,0000,0000,0000,0000,0000,0000,0000,0000,0000,0000,0000,0000,0000,0000,0000,0000,0000,0000,0000,0000,0000,0000,0000,0000,0000,0000,0000,0000,0000,0000,0000,0000,0000,0000,0000,0000,0000,0000,0000,0000,0000,0000,0000,0000,0000,0000,0000,0000,0000,0000,0000,0000,0000,0000,0000,0000,0000,0000,0000,0000,0000,0000,0000,0000,0000,0000,0000,0000,0000,0000,0000,0000,0000,0000,0000,0000,0000,0000,0000,0000,0000,0000,0000,0000,0000,0000,0000,0000,0000,0000,0000,0000,0000,0000,0000,0000,0000,0000,0000,0000,0000,0000,0000,0000,0000,0000,0000,0000,0000,0000,0000,0000,0000,0000,0000,0000,0000,0000,0000,0000,0000,0000,0000,
fe00,0200,f8fa,00fa,fcfa,00fa,fc00,0004,0404,fcfa,fcf6,fefc,fcfa,00fa,0000,fe00,fef8,0000,f8fc,0600,fa00,fefc,0600,0000,02fe,0202,fc00,0000,0202,fe04,0204,0002,fefc,fe02,0406,fefc,0802,0408,04fe,0808,0202,fefa,0006,fefe,0200,0000,fe00,0202,0202,fefe,fcfc,fefe,00fe,fefe,0002,00fe,0606,fe00,fcfc,0604,fa00,fc02,00fc,fefa,0602,0406,fe00,fefa,0204,00fe,f8f6,fc02,0202,0006,0000,fefe,0600,0404,f4fa,0202,00fe,0606,faf8,fefe,f8fc,0000,fcfc,04fe,0402,0602,f6fe,fefe,fefe,fefe,fcfa,f8fc,0608,0406,0204,fcf8,0002,fcfc,00fe,fafa,0200,0404,0402,f6f8,0600,fefe,f8fc,fafa,f8f6,0604,0404,fafe,fcf8,0006,f8f8,0002,f8f6,0400,0402,f8fe,fcf8,0604,fe00,fcfc,f6fe,fcfe,0206,fe00,f8f4,02fe,fcfe,fefc,0004,fcf2,0402,fc00,f2f8,00fc,fe02,f8fa,0202,f2f4,fefc,0002,fafa,fcf8,0202,f6f6,fcfc,fa06,faf8,fcfa,fcfc,fafa,0000,f8fe,fcfa,fcfe,fefe,faf8,fcfc,fefe,0000,fafc,fafa,fcfc,0400,fe00,fcfe,0000,0406,f6f8,faf8,fafc,fcfc,0202,0404,00fe,0404,f800,f2f0,fcfa,fcfc,fefa,0402,0204,0402,0002,eef0,fcf8,fcfc,f6fa,fcf8,0202,0402,0202,f2f4,f4f2,fefe,fc00,f8f4,02fc,0202,0202,f8fa,f4f4,fcfa,00fe,fafa,fafe,0200,0204,fafe,f8f6,faf6,fefe,fefe,fefc,fcfa,00fe,fcfe,f8f8,fcf8,fe00,fefe,f6fa,00fe,fe00,fefc,fcfc,fefe,fcfc,fafc,fafc,00fc,fe00,0000,fefe,00fe,fefe,fcfe,fefc,f8fa,0002,fefc,fafe,0000,fe00,fefe,fcfa,fa00,02fe,0000,fefe,00fe,0202,fcfe,fcfc,00fe,f8fa,0402,fe00,0200,0002,0000,0002,fefe,00fc,04fe,fe06,fefc,fefe,0002,fcfe,00fe,02f6,fefe,0604,fcfe,0404,0404,04fe,fefe,0200,0202,02fe,00fa,0606,0406,0400,0c0c,060a,040a,0c04,0400,0200,0606,0004,0a0c,fe06,fc08,0c0c,0206,02fa,0804,0608,0806,0c0a,0200,0402,0202,0000,0402,0604,0200,080e,080a,0004,000e,fa04,0000,fefc,0004,0a08,0c0a,0a06,0afc,0814,0000,fcfc,0606,0600,060a,0c0c,fe0a,060c,0208,fc00,02fc,fefc,0a04,fc00,0808,08f8,06fe,0002,faf8,0206,0000,02fe,fcf6,06fe,0808,0002,f8f8,0806,0608,0002,f2f6,04fc,020a,00fe,fcfc,00fc,0604,0004,fefe,f6f0,0604,0804,fa02,f8f6,0004,0406,f8fc,fafc,00f6,0600,0004,f800,0202,0604,fcfe,00fe,fefe,fc0c,0008,0402,fcf6,0406,0004,fcf8,0202,0200,0204,0604,f8fe,0606,0404,fafa,02fe,0206,04fe,0808,0002,fef8,0406,fcfe,fcfa,0002,fcfc,0204,040a,fafe,0202,fe00,fcfe,0400,fefe,fe04,000a,0606,0202,fefe,fefe,00fc,fc00,fcfc,fcfe,0200,0608,fe02,00fe,fefe,0000,f6f6,0402,fc00,0608,0404,fefe,0200,fe00,f4fc,fef6,0600,fe02,0404,0204,0202,0000,f4f8,00fa,fe02,0602,00fc,fefe,fefe,0204,f4fe,faf2,00fc,0606,fe06,fafc,0200,04fe,fe02,f4f2,02fc,0802,0006,fcfc,fefa,00fe,0402,f8fc,faf8,fcfe,0602,0202,fafe,fefc,00fc,fe00,f8f8,fefa,fe00,0404,0002,fefc,fafc,0000,fafe,00fe,0002,0000,fef8,fcfe,fe00,fefe,fe00,fafc,00fc,00f8,0806,00fa,00fc,00fe,fe02,fe00,fafc,0000,020e,fefc,fefe,00fe,0202,0404,fa00,00fe,00fa,fe02,00fe,fefe,0400,0204,0006,fafe,0004,0604,fcfe,0400,0404,0204,0806,0000,0604,0202,0806,0602,0202,0408,0604,0408,0202,fc00,0800,0604,0406,0408,0608,0604,0200,0802,fe08,0600,0600,0406,0200,0002,0004,0804,0600,0206,0206,0804,0608,0806,0404,0602,0800,02fa,0408,0000,0000,0000,0000,0000,0000,0000,0000,0000,0000,0000,0000,0000,0000,0000,0000,0000,0000,0000,0000,0000,0000,0000,0000,0000,0000,0000,0000,0000,0000,0000,0000,0000,0000,0000,0000,0000,0000,0000,0000,0000,0000,0000,0000,0000,0000,0000,0000,0000,0000,0000,0000,0000,0000,0000,0000,0000,0000,0000,0000,0000,0000,0000,0000,0000,0000,0000,0000,0000,0000,0000,0000,0000,0000,0000,0000,0000,0000,0000,0000,0000,0000,0000,0000,0000,0000,0000,0000,0000,0000,0000,0000,0000,0000,0000,0000,0000,0000,0000,0000,0000,0000,0000,0000,0000,0000,0000,0000,0000,0000,0000,0000,0000,0000,0000,0000,0000,0000,0000,0000,0000,0000,0000,0000,0000,0000,0000,0000,0000,0000,0000,0000,0000,0000,0000,0000,0000,0000,0000,0000,0000,0000,0000,0000,0000,0000,0000,0000,0000,0000,0000,0000,0000,0000,0000,0000,0000,0000,0000,0000,0000,0000,0000,0000,0000,0000,0000,0000,0000,0000,0000,0000,0000,0000,0000,0000,0000,0000,0000,0000,0000,0000,0000,0000,0000,0000,0000,0000,0000,0000,0000,0000,0000,0000,0000,0000,0000,0000,0000,0000,0000,0000,0000,0000,0000,0000,0000,0000,0000,0000,0000,0000,0000,0000,0000,0000,0000,0000,0000,0000,0000,0000,0000,0000,0000,0000,0000,0000,0000,0000,0000,0000,0000,0000,0000,0000,0000,0000,0000,0000,0000,0000,0000,0000,0000,0000,0000,0000,0000,0000,0000,0000,0000,0000,0000,0000,0000,0000,0000,0000,0000,0000,0000,0000,0000,0000,0000,0000,0000,0000,0000,0000,0000,0000,0000,0000,0000,0000,0000,0000,0000,0000,0000,0000,0000,0000,0000,0000,0000,0000,0000,0000,0000,0000,0000,0000,0000,0000,0000,0000,0000,0000,0000,0000,0000,0000,0000,0000,0000,0000,0000,0000,0000,0000,0000,0000,0000,0000,0000,0000,0000,0000,0000,0000,0000,0000,0000,0000,0000,0000,0000,0000,0000,0000,0000,0000,0000,0000,0000,0000,0000,0000,0000,0000,0000,0000,0000,0000,0000,0000,0000,0000,0000,0000,0000,0000,0000,0000,0000,0000,0000,0000,0000,0000,0000,0000,0000,0000,0000,0000,0000,0000,0000,0000,0000,0000,0000,0000,0000,0000,0000,0000,0000,0000,0000,0000,0000,0000,0000,0000,0000,0000,0000,0000,0000,0000,0000,0000,0000,0000,0000,0000,0000,0000,0000,0000,0000,0000,0000,0000,0000,0000,0000,0000,0000,0000,0000,0000,0000,0000,0000,0000,0000,0000,0000,0000,0000,0000,0000,0000,0000,0000,0000,0000,0000,0000,0000,0000,0000,0000,0000,0000,0000,0000,0000,0000,
00fe,fcfe,fefc,0000,00fe,fcfe,fe00,0000,fe04,02fc,0000,fc00,fe00,fe00,00fc,fefa,00fe,fa00,fcfc,fcfc,fe00,fe00,fefe,fefe,fefe,0002,fefe,fcfc,fc00,fe00,00fe,fefe,fafe,fefc,0002,fefe,fcfe,fefc,fe00,fefe,fefe,fcfe,faf8,fe02,fcfa,fcfe,00fe,fefe,fefe,fcfe,00fe,0000,fcfe,fcfc,00fe,fefe,fefe,fefe,fefe,0002,0202,0000,fefe,0000,fcfe,fefe,fefe,00fe,0000,0002,fcfe,fefe,fcfe,fefe,fefe,fefc,0002,0000,fe00,0000,fe00,fcfe,fefe,fcfe,fafc,fe00,0200,00fe,fe02,fcfe,fefe,fefe,fefc,fcfe,fefe,fefc,00fe,fe00,fefe,fefe,fefe,fafc,0000,00fe,fefe,0000,fefe,fefe,fefe,fefe,fe04,fefe,0000,0000,fefe,fefe,fefc,fefe,fefc,0002,fefe,fefe,0000,fefe,fe00,fefe,fefe,fefe,fcfc,fefe,fefe,fefe,00fe,fefe,fefe,fefe,fefe,fefc,fefc,fefc,00fe,00fe,fefe,fefe,fc00,fcfc,fcfc,fefe,fefe,fefe,fefe,00fe,fe00,fcfe,fefe,fcfc,fefe,fefe,fefe,00fe,fe00,fe00,fafa,fafc,fcfc,fefe,fefe,fefe,fefe,fe00,fefe,fcfc,fcfc,fefe,fefe,fefe,fefe,fefe,00fe,fcfc,fefe,fefe,fefe,fefe,fefe,fefe,fe00,fefe,0000,00fe,0000,fe00,fefe,00fe,fefe,fcfe,0002,0000,fe00,00fe,fefe,fefe,fe00,fe00,fefc,0000,0000,0000,fefe,fefe,fefe,fefe,0000,0200,0002,0000,fe00,fefe,00fe,fefe,fefe,0000,0002,0000,fe00,fefe,fefe,fefe,fefe,0202,0202,0200,fe00,0000,00fe,fefe,fefe,0000,0202,0202,0000,fe00,00fe,fcfe,fefe,fefe,fefe,0000,0000,fefe,fefe,fcfe,fefe,fefe,fc00,00fe,fefe,fefc,fe00,fefc,fcfc,fefe,0000,fe00,fe00,fefe,fefe,fcfe,fcfc,fefe,fefe,0002,fefe,00fe,00fe,fefe,fefe,fefc,fe00,02fa,0000,0000,fe00,fe00,fc00,fe00,fe00,fc00,0002,f802,f800,00fe,fefc,faf8,fafa,00fa,0002,02fe,fe00,fe00,f8fc,f8fc,f8fa,fcfe,0000,fcfc,fcfa,00fc,00fe,fcfc,fcfc,fcfa,fcfc,fefa,fc02,fefc,fe00,fcfc,fafc,fcfc,00fc,fefe,00fe,fa00,fefc,fe02,fcfe,fafc,fe00,fefc,fcfc,fcfc,00fe,0204,fe00,fefe,fefe,00fe,fa00,02fe,0200,0200,0000,fefe,fefe,fe00,fcfe,faf8,fcfa,fcfc,00fe,0000,fefe,0000,fcfe,fefc,fcfc,fe02,fefe,0002,fefe,00fe,0000,fefe,fcfa,fe00,fefe,0000,fe00,fe00,0000,fe00,fefe,fcf8,fcfc,00fe,0000,fefe,0000,0000,00fc,fa00,00fe,fefc,fefe,fe00,00fe,fefe,fcfe,fcfe,02fc,fafe,fefe,00fe,fefe,fefe,fe00,fcfa,f8fe,fafe,fcfa,fefc,fcfe,fefe,fefe,fefe,fcf8,fcf8,fcfc,fefe,fefe,fefe,fefe,fefe,fcfc,fefe,fefe,fefc,fefc,fefe,fefe,fefc,fcfe,fafe,fefe,fefa,fcfe,fcfc,fefe,fefe,fefc,fcfc,fcfe,fefc,fefc,fcfc,fefe,fefe,fcfe,fefc,fafc,fe02,fefe,fefe,fefe,fefc,fefe,fefe,fc00,00fc,fe00,00fe,fefe,fefe,fe00,fefc,fefc,fefc,fafc,fc00,fefe,fefe,fefe,fefe,fefe,fefe,fcfc,fe00,fefe,fefe,fefe,fe00,fefe,fefe,f8fe,fefc,fefe,fefe,fefe,fefe,fefe,fcfe,fefc,fafc,fcfe,fefe,fefe,fefe,fefe,00fe,fefa,fefe,fe00,fcfe,fefc,fefe,fefe,fefe,fefe,fefc,fcfc,0000,fefc,fcfe,fefe,fefe,fefe,fefe,0000,0004,fc00,fefc,fefc,fefe,fefe,fcfe,fefe,0002,fe04,fefc,fefe,fefe,fefc,fefc,00fc,0002,0202,fcfc,fefe,fefe,fcfe,fefe,fefe,04fe,fcfe,0400,fe00,fefc,fefe,fefe,fefe,fefe,0002,0404,fefa,fc00,fefc,fefe,00fe,fefc,0002,0200,0202,fefc,fefe,fefe,fc00,fefe,02fc,fe02,0002,fe00,fcfe,fefe,fe00,fc04,fafa,fe00,0402,fcfe,fc08,fefe,0000,0200,fe02,fefe,02fc,00fe,0000,0000,0000,0000,0000,0000,0000,0000,0000,0000,0000,0000,0000,0000,0000,0000,0000,0000,0000,0000,0000,0000,0000,0000,0000,0000,0000,0000,0000,0000,0000,0000,0000,0000,0000,0000,0000,0000,0000,0000,0000,0000,0000,0000,0000,0000,0000,0000,0000,0000,0000,0000,0000,0000,0000,0000,0000,0000,0000,0000,0000,0000,0000,0000,0000,0000,0000,0000,0000,0000,0000,0000,0000,0000,0000,0000,0000,0000,0000,0000,0000,0000,0000,0000,0000,0000,0000,0000,0000,0000,0000,0000,0000,0000,0000,0000,0000,0000,0000,0000,0000,0000,0000,0000,0000,0000,0000,0000,0000,0000,0000,0000,0000,0000,0000,0000,0000,0000,0000,0000,0000,0000,0000,0000,0000,0000,0000,0000,0000,0000,0000,0000,0000,0000,0000,0000,0000,0000,0000,0000,0000,0000,0000,0000,0000,0000,0000,0000,0000,0000,0000,0000,0000,0000,0000,0000,0000,0000,0000,0000,0000,0000,0000,0000,0000,0000,0000,0000,0000,0000,0000,0000,0000,0000,0000,0000,0000,0000,0000,0000,0000,0000,0000,0000,0000,0000,0000,0000,0000,0000,0000,0000,0000,0000,0000,0000,0000,0000,0000,0000,0000,0000,0000,0000,0000,0000,0000,0000,0000,0000,0000,0000,0000,0000,0000,0000,0000,0000,0000,0000,0000,0000,0000,0000,0000,0000,0000,0000,0000,0000,0000,0000,0000,0000,0000,0000,0000,0000,0000,0000,0000,0000,0000,0000,0000,0000,0000,0000,0000,0000,0000,0000,0000,0000,0000,0000,0000,0000,0000,0000,0000,0000,0000,0000,0000,0000,0000,0000,0000,0000,0000,0000,0000,0000,0000,0000,0000,0000,0000,0000,0000,0000,0000,0000,0000,0000,0000,0000,0000,0000,0000,0000,0000,0000,0000,0000,0000,0000,0000,0000,0000,0000,0000,0000,0000,0000,0000,0000,0000,0000,0000,0000,0000,0000,0000,0000,0000,0000,0000,0000,0000,0000,0000,0000,0000,0000,0000,0000,0000,0000,0000,0000,0000,0000,0000,0000,0000,0000,0000,0000,0000,0000,0000,0000,0000,0000,0000,0000,0000,0000,0000,0000,0000,0000,0000,0000,0000,0000,0000,0000,0000,0000,0000,0000,0000,0000,0000,0000,0000,0000,0000,0000,0000,0000,0000,0000,0000,0000,0000,0000,0000,0000,0000,0000,0000,0000,0000,0000,0000,0000,0000,0000,0000,0000,0000,0000,0000,0000,0000,0000,0000,0000,0000,0000,0000,0000,0000,0000,0000,0000,0000,0000,0000,0000,0000,0000,0000,0000,0000,0000,0000,0000,0000,0000,0000,0000,0000,0000,0000,0000,0000,0000,0000,0000,0000,0000,0000,0000,0000,0000,0000,0000,0000,0000,0000,0000,
0000,fef8,02fe,fe00,fefe,fcfc,0000,0802,0404,00fc,00fe,f8fc,fa00,0002,fcfa,fcfc,0000,fa00,fefc,fcfa,fe02,00fc,fcfe,fafa,fefc,0406,fefe,fcfc,fe00,fefc,00fe,00fe,fa02,fcfc,fe00,fefe,fcfe,fefc,fefc,fefe,fefe,fcfc,fcfa,fafe,fcfc,fcfa,fefc,fafc,fcfe,fcfe,fefe,0002,fafc,fafe,fcfc,fcfe,fcfe,00fe,fefc,fe02,0002,fefe,fefe,0000,fcfc,fefe,fefe,00fe,00fe,0202,fefe,fc00,fafa,fefa,fefe,fcfc,fc02,fefc,fefc,0204,fc00,fafa,fcfe,fcfe,fefe,fcfa,00fc,0802,0004,fafe,fcfa,fefe,fefe,fc00,fc00,fefa,0402,0202,fafa,fefc,fcfc,fafc,00fe,02fa,fe00,0202,0002,fcfc,fcfe,fcfc,0008,fafc,0002,00fa,0002,fcfc,fefe,fefc,00fc,0000,fe00,fafc,0200,0000,fe00,fefe,fefe,04fe,fefe,fafc,fcfc,00fe,0000,fcfc,fefe,0000,0000,fe02,fafa,00fe,fefe,00fe,fcfe,fefc,fefe,0402,fafc,00fe,fefe,0000,fe00,fefe,fe00,fc00,fc04,fafa,fefe,fefc,fefc,fefe,fefe,0002,fefc,fafa,fcfa,fefe,fefe,00fe,fefe,fefe,fc00,fc00,fafa,00fc,fcfc,fefc,fefc,fefe,0400,fcfc,fefe,fefe,fe00,fcfe,fcfc,fcfc,fefe,0806,0200,0000,0002,00fe,fefc,fefe,fefe,fafe,0208,0404,0404,0202,fafe,fe00,fcfe,fe00,00f8,0404,0202,0002,0204,00fe,fcfc,fefc,fc00,0806,0404,0606,0602,02fe,fefe,fcfc,00fe,0002,0004,0204,fe00,0402,fe02,fcfc,fefe,0806,0404,0200,fe00,0200,0206,fefc,fefe,0000,0608,0406,fc02,fefe,0604,fafc,fefe,00fe,fe00,0404,fe00,fefe,fe00,fe02,fefe,fefe,fa00,00fe,00fe,fcfa,fcfe,0200,00fa,fefe,0000,fe00,fefe,fefe,fcfc,fafc,04fe,fe02,fefe,0004,00fe,fe00,00fe,fe02,0000,0006,0000,00f8,0002,0000,fefe,fafe,fefe,0602,0000,fe00,0000,fe02,fe02,08fc,fc00,fa00,fafc,02fc,0402,00fc,0200,fe06,f6fe,f8fe,fcfa,fc04,0006,fafc,04fe,0400,0204,fcfc,fefc,fafe,00fc,0000,0204,0000,0000,fcfe,fe00,fefe,0400,06fa,0006,fa00,0000,0202,f8f8,f8fa,0000,00fe,02fa,f802,0200,0402,0006,fe00,fefe,02fc,0006,0402,fe02,0004,0600,fe00,fcfa,fefe,fcfc,fef8,fa00,fefc,02fe,0608,fefe,00fe,fa00,fefc,02fe,fc00,fef8,0806,0206,fcfe,0000,0602,0002,fe00,fefc,fe00,0402,0004,0200,0000,0804,02fe,fcfe,02fe,fcfe,0200,0604,0204,0200,0204,0202,fefe,fe00,fcfc,0402,0406,fc02,fe00,0cfc,fc00,fefe,fcfc,00fa,00fe,0404,fcf8,fa02,fe04,00f6,fcfc,fcfc,fcfe,0200,fe00,02fe,02fa,fc04,fc04,fcf8,fcfe,fefe,0202,fefe,0002,fe02,0200,f8fa,fcfa,fcfc,fefa,0204,f804,0400,02fc,fcfa,faf8,fcfc,fafc,00fe,fefe,fc02,fcf8,fc00,fafa,fafc,fafc,fafc,02fe,fcfe,0608,fe00,fafe,faf8,fafc,fafe,02f8,fe02,02fc,0402,00fc,fefc,fefe,fe00,f8fa,fefc,0400,00fe,0000,fcfe,fefc,fe02,fcfe,fafc,fefc,00fe,fe02,0406,fe00,0202,0202,fafe,fc00,fa02,0000,fcfe,fe02,0000,fe02,0002,fefe,00fc,00fc,fc00,fefc,fefc,0000,0000,0000,00fa,fef8,fe00,fc00,00fe,fe00,fefc,0002,fe00,0000,0400,fe06,fcfa,fcfe,fcfc,fefc,fc00,00fe,0400,0406,fa00,00fc,fafa,fcfe,fefe,f802,0200,0204,f802,0002,fc00,fcfe,00fe,fc00,04fe,0404,0600,fcfe,fc02,fefe,fefc,0200,fefc,04fa,fcfe,02fe,0202,0000,fcfe,0000,fc00,02fe,02fa,040a,02fe,fe04,00fc,fe00,02fe,02fc,0000,0604,04fa,0602,0002,fefc,fafe,04fc,0202,0200,fe02,fe00,02fe,0400,fc00,fc08,f8fc,fe00,0400,fc00,000a,fc04,0000,0402,0404,fefe,02fe,0a02,0000,0000,0000,0000,0000,0000,0000,0000,0000,0000,0000,0000,0000,0000,0000,0000,0000,0000,0000,0000,0000,0000,0000,0000,0000,0000,0000,0000,0000,0000,0000,0000,0000,0000,0000,0000,0000,0000,0000,0000,0000,0000,0000,0000,0000,0000,0000,0000,0000,0000,0000,0000,0000,0000,0000,0000,0000,0000,0000,0000,0000,0000,0000,0000,0000,0000,0000,0000,0000,0000,0000,0000,0000,0000,0000,0000,0000,0000,0000,0000,0000,0000,0000,0000,0000,0000,0000,0000,0000,0000,0000,0000,0000,0000,0000,0000,0000,0000,0000,0000,0000,0000,0000,0000,0000,0000,0000,0000,0000,0000,0000,0000,0000,0000,0000,0000,0000,0000,0000,0000,0000,0000,0000,0000,0000,0000,0000,0000,0000,0000,0000,0000,0000,0000,0000,0000,0000,0000,0000,0000,0000,0000,0000,0000,0000,0000,0000,0000,0000,0000,0000,0000,0000,0000,0000,0000,0000,0000,0000,0000,0000,0000,0000,0000,0000,0000,0000,0000,0000,0000,0000,0000,0000,0000,0000,0000,0000,0000,0000,0000,0000,0000,0000,0000,0000,0000,0000,0000,0000,0000,0000,0000,0000,0000,0000,0000,0000,0000,0000,0000,0000,0000,0000,0000,0000,0000,0000,0000,0000,0000,0000,0000,0000,0000,0000,0000,0000,0000,0000,0000,0000,0000,0000,0000,0000,0000,0000,0000,0000,0000,0000,0000,0000,0000,0000,0000,0000,0000,0000,0000,0000,0000,0000,0000,0000,0000,0000,0000,0000,0000,0000,0000,0000,0000,0000,0000,0000,0000,0000,0000,0000,0000,0000,0000,0000,0000,0000,0000,0000,0000,0000,0000,0000,0000,0000,0000,0000,0000,0000,0000,0000,0000,0000,0000,0000,0000,0000,0000,0000,0000,0000,0000,0000,0000,0000,0000,0000,0000,0000,0000,0000,0000,0000,0000,0000,0000,0000,0000,0000,0000,0000,0000,0000,0000,0000,0000,0000,0000,0000,0000,0000,0000,0000,0000,0000,0000,0000,0000,0000,0000,0000,0000,0000,0000,0000,0000,0000,0000,0000,0000,0000,0000,0000,0000,0000,0000,0000,0000,0000,0000,0000,0000,0000,0000,0000,0000,0000,0000,0000,0000,0000,0000,0000,0000,0000,0000,0000,0000,0000,0000,0000,0000,0000,0000,0000,0000,0000,0000,0000,0000,0000,0000,0000,0000,0000,0000,0000,0000,0000,0000,0000,0000,0000,0000,0000,0000,0000,0000,0000,0000,0000,0000,0000,0000,0000,0000,0000,0000,0000,0000,0000,0000,0000,0000,0000,0000,0000,0000,0000,0000,0000,0000,0000,0000,0000,0000,0000,0000,0000,0000,0000,0000,0000,0000,0000,0000,0000,0000,0000,0000,0000,0000,0000,0000,0000,0000,
f804,0c00,02fa,0000,0000,04fe,fa04,0406,0204,f8fe,fc02,fe00,0000,fcf6,00fc,fe04,00fc,f8f6,f2f6,f8f4,fafc,f8fa,f2fa,faf6,02fa,f600,f202,fcf4,00fc,f4f2,f8f6,f8f8,f6fa,fefe,f8f6,fa00,0202,fcfc,f6f8,faf4,f4f2,fef4,0004,fcf8,00fe,0000,fafc,f2f4,f2f4,f8f8,0004,fe02,0402,0002,fafe,f2f6,f2f4,f0f0,fefe,0200,0406,0004,fe00,fcfe,f6f6,f4f2,fef8,0002,0804,0606,00fe,0202,f6fa,f8fc,f0f4,0600,fafe,0608,fefe,fe00,fe00,fcfa,fafe,f8f2,020a,fe02,fefe,02fe,0202,fefe,fefc,ecec,04fc,fcf6,fefa,fefc,0202,0000,0406,f4f8,f8f2,0406,f4f4,0200,0602,0002,0606,fe08,e8ea,06fe,fafc,fefa,00fe,fe02,04fe,1212,ecf2,f4e8,fefe,f8fa,fe02,0202,f6fa,1410,f606,e8e6,fafa,00fe,02fe,0000,fe00,0cfc,1418,eaee,f6f2,fcfe,fafe,fe00,0200,f4f6,1614,f600,f6f2,fcf8,00fc,fcfe,fcfe,fcfe,0c00,0c12,f8f8,f8fa,0200,fefa,fcfe,0204,f8f8,0c0c,fafa,fefe,02fe,fcf8,fefe,0200,fc00,0600,040a,fcfa,fefc,0002,fcfc,fefe,0206,fafa,0806,fafe,fefe,0000,fafe,00fc,0200,0000,00fc,0402,0000,fcfa,02fe,fcfa,0000,fe00,f8f8,0400,fe00,0202,fe00,fcfc,fefa,0000,fe00,00fc,0202,00fe,f8fe,02fe,fcfc,fefc,0004,fafc,0404,fefc,fcfa,00fe,fc02,fcfa,00fe,fcfe,fefc,fc02,f8fa,f8fe,0204,f6f8,fefe,fafc,fafa,fe00,f6f6,fcf8,04fe,fc00,fefa,fcfe,f8fa,fcfa,fafc,f4f2,f8fe,0002,fe00,fefe,f6fa,f8f8,fe00,f6f8,faf8,fefc,fafa,fe02,fcfc,f8fc,fcfc,fef6,fafe,f8fa,fa02,0200,fc00,fcf8,fcfa,fe02,fefc,00f6,02fa,fcfa,fe00,fafc,f8fc,00fe,fefc,f6fc,f8fc,00fa,fcfc,02fc,f8f8,fcfa,fefe,fe02,faf8,00f6,0004,00fc,fafa,f8f6,0000,fefa,f8fc,00fa,0000,04fa,fc04,04fc,0004,f8fe,fcfe,fc00,0606,080a,06fc,fa00,02fe,fa00,f8fa,0602,0808,0206,fcfe,f8fa,00fe,0204,0002,0204,0800,0404,fc0a,fefc,fcfa,0402,0806,0002,0400,1002,0408,fc02,fefe,00fa,0404,0606,0200,02fc,0a00,0408,02fe,fafe,00fe,0406,0404,fa00,0a00,100a,0002,0208,fafa,0604,0606,0202,fcfc,0a0e,0200,0406,fcfc,02fe,0404,0002,00fa,0200,08fe,0400,fa00,fcfa,0404,0202,fafc,f8fa,0a06,06fa,02fe,faf8,00fe,fefc,fcfc,faf6,0a0e,020c,0406,fafe,0000,fcfc,0202,f2fa,04fe,020a,040a,0204,fcfe,f8fc,00fc,f8fc,f6f6,0410,0204,0406,fefe,fefe,fcf6,0204,ecec,fcfc,080a,0802,0002,fefe,f8fa,0606,e2ee,f8f6,040c,0404,0604,fefe,fefe,0802,fa02,f8ec,0204,060a,0802,0206,0000,fefc,0a0e,e4e6,fe00,0804,060c,0606,0000,0002,0c06,f402,00f8,0002,020a,0402,0204,0000,00fe,080c,f2ee,0000,0a02,04fe,02fe,0002,fc00,0a08,f800,fafa,fefe,0c04,0804,0000,fefc,00fe,0206,faf8,0202,0606,0000,0000,fefc,fe00,0402,f8fe,0002,0608,0806,00fc,0002,fefc,0000,0204,fef8,0806,0a04,fc04,fcfe,0000,00fe,0202,fafc,0608,0406,02fe,fefa,00fe,0000,0200,0004,02fa,0406,06fc,fc06,00fe,0202,0000,0202,fcfe,02fe,0402,0400,fe00,0404,0204,0002,0204,0002,00fe,fe04,fe02,0400,0404,0004,0404,fcfa,fcfe,0606,0004,fe02,0402,0402,0000,fc00,fefe,04fc,0800,04fc,0802,fe00,0002,0000,04fc,00fa,fc00,04fe,08fc,0200,00fe,fe00,fefe,0202,fcfc,0200,fe02,00fe,fe06,00fe,00fc,02fe,fefe,0000,fe02,fc00,0602,fc00,fcfe,0200,0400,0004,0000,0004,fcfe,0602,fefe,0400,0000,0006,f804,02fa,f800,02fc,0202,02fe,040a,0a00,0200,0002,0c00,0000,0000,0000,0000,0000,0000,0000,0000,0000,0000,0000,0000,0000,0000,0000,0000,0000,0000,0000,0000,0000,0000,0000,0000,0000,0000,0000,0000,0000,0000,0000,0000,0000,0000,0000,0000,0000,0000,0000,0000,0000,0000,0000,0000,0000,0000,0000,0000,0000,0000,0000,0000,0000,0000,0000,0000,0000,0000,0000,0000,0000,0000,0000,0000,0000,0000,0000,0000,0000,0000,0000,0000,0000,0000,0000,0000,0000,0000,0000,0000,0000,0000,0000,0000,0000,0000,0000,0000,0000,0000,0000,0000,0000,0000,0000,0000,0000,0000,0000,0000,0000,0000,0000,0000,0000,0000,0000,0000,0000,0000,0000,0000,0000,0000,0000,0000,0000,0000,0000,0000,0000,0000,0000,0000,0000,0000,0000,0000,0000,0000,0000,0000,0000,0000,0000,0000,0000,0000,0000,0000,0000,0000,0000,0000,0000,0000,0000,0000,0000,0000,0000,0000,0000,0000,0000,0000,0000,0000,0000,0000,0000,0000,0000,0000,0000,0000,0000,0000,0000,0000,0000,0000,0000,0000,0000,0000,0000,0000,0000,0000,0000,0000,0000,0000,0000,0000,0000,0000,0000,0000,0000,0000,0000,0000,0000,0000,0000,0000,0000,0000,0000,0000,0000,0000,0000,0000,0000,0000,0000,0000,0000,0000,0000,0000,0000,0000,0000,0000,0000,0000,0000,0000,0000,0000,0000,0000,0000,0000,0000,0000,0000,0000,0000,0000,0000,0000,0000,0000,0000,0000,0000,0000,0000,0000,0000,0000,0000,0000,0000,0000,0000,0000,0000,0000,0000,0000,0000,0000,0000,0000,0000,0000,0000,0000,0000,0000,0000,0000,0000,0000,0000,0000,0000,0000,0000,0000,0000,0000,0000,0000,0000,0000,0000,0000,0000,0000,0000,0000,0000,0000,0000,0000,0000,0000,0000,0000,0000,0000,0000,0000,0000,0000,0000,0000,0000,0000,0000,0000,0000,0000,0000,0000,0000,0000,0000,0000,0000,0000,0000,0000,0000,0000,0000,0000,0000,0000,0000,0000,0000,0000,0000,0000,0000,0000,0000,0000,0000,0000,0000,0000,0000,0000,0000,0000,0000,0000,0000,0000,0000,0000,0000,0000,0000,0000,0000,0000,0000,0000,0000,0000,0000,0000,0000,0000,0000,0000,0000,0000,0000,0000,0000,0000,0000,0000,0000,0000,0000,0000,0000,0000,0000,0000,0000,0000,0000,0000,0000,0000,0000,0000,0000,0000,0000,0000,0000,0000,0000,0000,0000,0000,0000,0000,0000,0000,0000,0000,0000,0000,0000,0000,0000,0000,0000,0000,0000,0000,0000,0000,0000,0000,0000,0000,0000,0000,0000,0000,0000,0000,0000,0000,0000,0000,0000,0000,0000,0000,0000,0000,0000,0000,0000,0000,0000,0000,0000,0000,
fc00,020c,f6f6,fcf8,fcf6,f6fe,faf4,f8fc,00fc,fa00,f4fe,f8f2,f6fc,0400,f8fa,f8fa,fe02,0402,fc04,f0f4,fafc,0002,0204,fafc,faf8,06fe,fefa,f4fa,f8f8,00fe,0206,0204,fcf8,fefa,fafc,fafc,faf2,00fe,0408,0002,0006,f8f6,fcfa,f8fa,f4f6,fefc,0604,0202,0c06,f6fe,fcfc,f6fa,f0ee,f8f4,00fc,0404,0402,020a,faf8,fcf4,f6f6,f0ec,fefc,0404,0002,0604,fafe,0000,f6f4,eee8,fcf6,0402,0402,fe00,0200,fefe,fa00,f2f4,f2f2,fefc,0406,0002,00fc,fa00,0606,f8fc,f2ec,fcfa,0602,0204,0000,00fe,fe00,0202,fafc,fcfa,fe00,0404,0000,0000,fefe,fafa,0206,fcfc,0000,0402,0204,00fe,0204,fafe,fefa,0002,fe00,fe00,0200,00fe,0402,fe02,f8f6,0004,0202,fefe,02fe,0002,0000,f4f8,f8f6,fcfa,0000,fefe,0000,0000,fefc,f2f8,f4ec,fcf8,00fe,0004,fefc,fe02,fefe,f2f4,e6e8,fcf4,fcf8,0604,fe02,0200,0002,f0fa,eaec,f0e8,f8fa,0404,0604,04fe,0604,fefe,eef0,eaec,faf6,f8f6,0604,0806,0a08,0206,f2f4,f2f2,eeec,fcf8,fafc,0804,0e0c,0a0e,f8fa,f4f4,eeee,f4f2,f4f4,0000,0a0a,0e0c,0004,f8fa,f2f6,eef0,fcfa,fafa,0404,100c,0606,fcfe,f8fa,f6f8,f8f4,f6f2,fefc,0406,0406,0004,fefc,fcfa,f8fc,fa00,f8f8,00fe,0402,00fe,fafa,fafa,fa00,fcfc,faf8,fefe,fefe,fcfe,fe00,fcfc,00fc,0002,f8fa,fcfc,fcfc,fefc,fefe,fcfe,0000,fe00,0000,faf4,fafc,fafa,fefe,fe00,0002,fe00,0004,fcfc,fcfc,fafc,fefe,fcfe,00fe,fe00,0402,fefe,faf6,02fe,fcfc,fcfe,fcfe,0202,00fe,fc00,fe00,fafa,fcfc,fefc,fefe,fcfc,fafc,fafc,0002,f6f2,f6f2,fefa,fefe,f8fa,fafc,faf8,fe00,0202,f6f8,f0ee,f6f6,f6f6,f6f4,f4f6,04fc,02fe,ecec,f0f6,eae8,f0ee,f2ee,f8f6,fafa,0400,0200,1212,040a,0604,0602,0206,0606,0a0e,fc0c,060e,0406,0002,0604,0404,00fe,0804,0a08,0a0a,0c0c,0804,0206,0202,0000,0600,060a,0804,0806,0a0e,0608,0406,fe02,0000,0402,1010,0204,0a0a,0608,0608,0404,0200,0404,0c06,fe08,020c,0a08,0a0a,0402,0404,0204,0404,0a0c,0602,0606,0604,0408,0202,0000,0402,0a08,0406,0406,0408,080a,0202,0000,0202,0804,0c08,0204,0404,0c04,0202,0002,0202,0204,0402,080a,0408,0402,0a10,0204,0002,0204,0404,0206,0806,0206,0c0c,0806,0204,0202,0402,f8fe,0c04,fe02,0802,080a,0406,0200,0202,0004,0204,0406,fcfe,0608,0206,0002,0604,0202,faf8,0204,fc00,02fc,0002,fefe,0200,0004,fc02,0802,0804,f8f6,fe00,fefe,0400,0406,fe00,06fa,0a04,f6fc,fefe,0000,0402,0406,fe00,0400,1008,00fa,fcfc,00fe,0402,0a0a,0404,0402,040a,02fe,fcfc,fefe,0404,100a,0608,0804,060c,0600,04fe,fe02,00fc,0c06,0608,0204,0608,0200,0408,fe02,fefe,0400,0006,0200,0606,0006,0008,fe00,fefe,00fe,0000,fcfa,0404,fefe,08fa,fa08,0200,0202,fe00,fafa,fcfa,fc00,fcfe,0404,0200,0402,0202,fafc,f8fa,fafc,00fc,02fe,0808,0804,0202,fcfe,faf8,faf8,fcf8,fafc,fe00,0206,0406,fefe,fcfc,fafc,fafc,0204,04fe,00fc,0806,0004,fcfc,fcfc,fcfa,fefa,fc02,0404,0802,0204,0000,fafc,fcfa,fe00,0000,06fc,0604,040a,fe02,00fe,fefe,fefc,fe02,fcfc,0200,080c,fe00,0000,0000,0004,0004,f8fc,0002,0afc,fa08,0002,0002,00fe,0200,00f8,0002,0406,0a04,0200,fc00,fe02,0000,0202,fefc,0602,0602,0a08,fe06,00fc,0000,0404,0000,fefe,0606,0608,0c06,0000,fefc,0a04,0806,0202,0608,020a,0e06,040a,fafe,0004,0a08,0006,0202,0006,020a,0000,0000,0000,0000,0000,0000,0000,0000,0000,0000,0000,0000,0000,0000,0000,0000,0000,0000,0000,0000,0000,0000,0000,0000,0000,0000,0000,0000,0000,0000,0000,0000,0000,0000,0000,0000,0000,0000,0000,0000,0000,0000,0000,0000,0000,0000,0000,0000,0000,0000,0000,0000,0000,0000,0000,0000,0000,0000,0000,0000,0000,0000,0000,0000,0000,0000,0000,0000,0000,0000,0000,0000,0000,0000,0000,0000,0000,0000,0000,0000,0000,0000,0000,0000,0000,0000,0000,0000,0000,0000,0000,0000,0000,0000,0000,0000,0000,0000,0000,0000,0000,0000,0000,0000,0000,0000,0000,0000,0000,0000,0000,0000,0000,0000,0000,0000,0000,0000,0000,0000,0000,0000,0000,0000,0000,0000,0000,0000,0000,0000,0000,0000,0000,0000,0000,0000,0000,0000,0000,0000,0000,0000,0000,0000,0000,0000,0000,0000,0000,0000,0000,0000,0000,0000,0000,0000,0000,0000,0000,0000,0000,0000,0000,0000,0000,0000,0000,0000,0000,0000,0000,0000,0000,0000,0000,0000,0000,0000,0000,0000,0000,0000,0000,0000,0000,0000,0000,0000,0000,0000,0000,0000,0000,0000,0000,0000,0000,0000,0000,0000,0000,0000,0000,0000,0000,0000,0000,0000,0000,0000,0000,0000,0000,0000,0000,0000,0000,0000,0000,0000,0000,0000,0000,0000,0000,0000,0000,0000,0000,0000,0000,0000,0000,0000,0000,0000,0000,0000,0000,0000,0000,0000,0000,0000,0000,0000,0000,0000,0000,0000,0000,0000,0000,0000,0000,0000,0000,0000,0000,0000,0000,0000,0000,0000,0000,0000,0000,0000,0000,0000,0000,0000,0000,0000,0000,0000,0000,0000,0000,0000,0000,0000,0000,0000,0000,0000,0000,0000,0000,0000,0000,0000,0000,0000,0000,0000,0000,0000,0000,0000,0000,0000,0000,0000,0000,0000,0000,0000,0000,0000,0000,0000,0000,0000,0000,0000,0000,0000,0000,0000,0000,0000,0000,0000,0000,0000,0000,0000,0000,0000,0000,0000,0000,0000,0000,0000,0000,0000,0000,0000,0000,0000,0000,0000,0000,0000,0000,0000,0000,0000,0000,0000,0000,0000,0000,0000,0000,0000,0000,0000,0000,0000,0000,0000,0000,0000,0000,0000,0000,0000,0000,0000,0000,0000,0000,0000,0000,0000,0000,0000,0000,0000,0000,0000,0000,0000,0000,0000,0000,0000,0000,0000,0000,0000,0000,0000,0000,0000,0000,0000,0000,0000,0000,0000,0000,0000,0000,0000,0000,0000,0000,0000,0000,0000,0000,0000,0000,0000,0000,0000,0000,0000,0000,0000,0000,0000,0000,0000,0000,0000,0000,0000,0000,0000,0000,0000,0000,0000,0000,0000,0000,0000,0000,0000,0000,0000,
0000,fefc,fcfc,0000,00fe,fefc,0000,0400,0204,00fa,fefe,fafe,fcfe,fe00,fefc,fefa,fe00,fa00,fcfc,fcfa,0202,0000,fefe,fefe,fefe,0202,fafc,fafa,fe00,0200,00fe,0200,fafe,00fe,fc02,fcfe,fcfe,0200,0202,0000,fefe,fcfc,fefa,fc00,fefc,fe00,0200,fefe,0000,fcfe,fefe,fefe,fafc,fe00,fefe,fe00,00fe,fefe,fefc,0002,fe00,00fe,0000,0000,fefe,fe00,fcfe,00fc,fefe,fe00,fcfe,fe00,fe00,fefe,fe00,fefc,fe04,fe00,fcfe,00fe,fefe,fe00,fe00,fefe,fcfc,fe00,0002,00fe,fe00,fefe,00fe,fefe,fefe,00fc,0002,fefe,0000,0000,0000,fefe,fefe,fafc,0204,00fe,fefe,0000,fe00,fefe,fefe,fefe,fe04,fe00,fefe,00fe,0000,fefe,fefe,fefc,00fa,0000,fe00,fefe,0000,fefe,fefe,fefe,fefe,fefe,fcfa,fefe,fefe,00fe,fefe,fefe,fefe,fe00,fefe,fefe,fefe,fefe,0000,fefe,00fe,fefe,fc00,fefc,fefe,00fe,fefe,fefe,fefe,fefe,fefe,fefe,fc00,fefc,fefe,fefe,fefe,fe00,00fe,0002,fcfe,fcfc,fefe,fefe,fefe,fefe,fefe,fefe,fe00,fefe,fefe,fefe,fefe,fefe,fefe,fefe,02fe,fefe,fe00,00fe,0000,fefe,fefe,fefe,fefe,0402,0202,0002,fe00,0000,fefe,00fe,fefe,fefe,0404,0202,0000,0000,fefe,fefe,fefe,fefe,fefe,0002,0000,0000,fe00,fefe,fefe,fefe,0002,0000,0002,0000,0000,fefe,00fe,fefe,fefe,0002,fe00,fefe,00fe,0000,fefe,fefe,fefe,0002,0202,0000,fefe,0200,0000,fefe,fefe,00fe,0000,0202,fe00,0000,0002,fefe,fe00,fefe,fefe,0000,0000,00fe,0000,fe00,fe00,fefe,fe00,00fe,fefe,00fe,fe00,00fe,fefe,fefe,0000,fe00,00fe,00fe,fefe,fefe,00fe,0000,00fe,0002,fe00,fefe,00fe,fe00,fe00,fe00,0000,02fa,0000,0000,fefe,fefe,fe00,fe00,fefe,fe00,0000,f800,fc00,0200,00fe,fcfc,fcfc,02fa,0202,02fe,fc00,fe02,f800,fe00,fcfc,fc02,0000,fefe,fefe,fefe,0202,02fe,fefe,fefe,fefe,00fc,0002,00fe,0200,fe02,fefe,0200,00fe,02fe,0000,fc00,0200,0006,fefe,fcfe,0002,0000,02fa,fcfc,fefe,0402,0002,00fe,00fe,00fe,fc00,0400,0000,00fe,0200,0000,fe00,0002,fcfc,fefa,fefe,fefe,00fe,0000,0000,0000,fa00,00fe,fefc,fc00,fe00,0000,0000,0000,0000,02fe,0000,0000,fefe,0000,0002,0002,0000,fe00,fe00,fefc,fefe,00fe,0000,0000,0000,0000,00fc,fa00,fefe,fefc,00fe,0000,0000,fefe,fc00,fe00,0400,fc00,00fe,00fe,00fe,fe00,fefe,fefc,fc00,fcfc,fefa,fefe,fefe,fefe,fefe,fefe,fefc,00fc,fefe,fcfe,fefe,fefe,fefe,fefe,fefe,0000,fcfe,fefe,fefe,fefe,fefe,fcfc,fefe,fc00,fe00,fefc,fcfe,fefe,fefe,fefe,fefe,fefe,fc00,fefc,fefc,fefc,fefe,fefe,fcfc,fefe,0000,0404,0002,fe00,fefe,fefe,fefe,fefe,fe00,02fe,fe00,00fe,fefe,fefe,0000,fefe,00fe,0200,fe00,fe02,0000,00fe,00fe,fefe,fefe,fefe,00fc,0000,0000,fe00,fefe,fe00,fefe,00fe,fa02,0002,fe00,fe00,00fe,fe00,fefe,0000,00fe,00fe,fcfe,fefe,00fe,fe00,0000,0000,fefe,fefe,0002,00fe,fefc,fefe,0000,fe00,00fe,fefe,fe00,0000,fefe,fefe,fefe,00fe,fefe,00fe,0000,0206,fe00,fefe,fefe,fefe,fefe,fefe,0000,0000,0000,00fc,fefe,fefe,00fe,fefe,02fe,0202,0202,fe00,fe00,fefe,00fe,0000,00fe,04fe,fe00,02fe,0002,fe00,fefe,00fe,0000,0000,0200,0204,02fc,fefe,00fe,fe00,0000,0000,0002,0200,0402,02fe,0000,0000,fe00,00fc,0400,fe02,fe04,fc00,fe00,0000,0000,fe04,fafe,0000,0600,fe02,fc08,0002,0200,0402,0202,0200,04fc,0200,0000,0000,0000,0000,0000,0000,0000,0000,0000,0000,0000,0000,0000,0000,0000,0000,0000,0000,0000,0000,0000,0000,0000,0000,0000,0000,0000,0000,0000,0000,0000,0000,0000,0000,0000,0000,0000,0000,0000,0000,0000,0000,0000,0000,0000,0000,0000,0000,0000,0000,0000,0000,0000,0000,0000,0000,0000,0000,0000,0000,0000,0000,0000,0000,0000,0000,0000,0000,0000,0000,0000,0000,0000,0000,0000,0000,0000,0000,0000,0000,0000,0000,0000,0000,0000,0000,0000,0000,0000,0000,0000,0000,0000,0000,0000,0000,0000,0000,0000,0000,0000,0000,0000,0000,0000,0000,0000,0000,0000,0000,0000,0000,0000,0000,0000,0000,0000,0000,0000,0000,0000,0000,0000,0000,0000,0000,0000,0000,0000,0000,0000,0000,0000,0000,0000,0000,0000,0000,0000,0000,0000,0000,0000,0000,0000,0000,0000,0000,0000,0000,0000,0000,0000,0000,0000,0000,0000,0000,0000,0000,0000,0000,0000,0000,0000,0000,0000,0000,0000,0000,0000,0000,0000,0000,0000,0000,0000,0000,0000,0000,0000,0000,0000,0000,0000,0000,0000,0000,0000,0000,0000,0000,0000,0000,0000,0000,0000,0000,0000,0000,0000,0000,0000,0000,0000,0000,0000,0000,0000,0000,0000,0000,0000,0000,0000,0000,0000,0000,0000,0000,0000,0000,0000,0000,0000,0000,0000,0000,0000,0000,0000,0000,0000,0000,0000,0000,0000,0000,0000,0000,0000,0000,0000,0000,0000,0000,0000,0000,0000,0000,0000,0000,0000,0000,0000,0000,0000,0000,0000,0000,0000,0000,0000,0000,0000,0000,0000,0000,0000,0000,0000,0000,0000,0000,0000,0000,0000,0000,0000,0000,0000,0000,0000,0000,0000,0000,0000,0000,0000,0000,0000,0000,0000,0000,0000,0000,0000,0000,0000,0000,0000,0000,0000,0000,0000,0000,0000,0000,0000,0000,0000,0000,0000,0000,0000,0000,0000,0000,0000,0000,0000,0000,0000,0000,0000,0000,0000,0000,0000,0000,0000,0000,0000,0000,0000,0000,0000,0000,0000,0000,0000,0000,0000,0000,0000,0000,0000,0000,0000,0000,0000,0000,0000,0000,0000,0000,0000,0000,0000,0000,0000,0000,0000,0000,0000,0000,0000,0000,0000,0000,0000,0000,0000,0000,0000,0000,0000,0000,0000,0000,0000,0000,0000,0000,0000,0000,0000,0000,0000,0000,0000,0000,0000,0000,0000,0000,0000,0000,0000,0000,0000,0000,0000,0000,0000,0000,0000,0000,0000,0000,0000,0000,0000,0000,0000,0000,0000,0000,0000,0000,0000,0000,0000,0000,0000,0000,0000,0000,0000,0000,0000,0000,0000,0000,0000,0000,0000,0000,0000,0000,0000,0000,0000,0000,0000,0000,
00fc,02fc,0804,fefa,fc00,faf6,02fc,fefc,0604,fcfc,0200,fc02,fefe,fc02,fcfe,02fe,0004,fc02,0808,0204,0200,fefe,00fc,fefe,fcfe,0200,0806,0c10,0804,fcfe,fefc,fafe,fafa,fe00,0404,1414,0c0c,fafe,fcf6,fef8,fafc,fc00,0c08,1208,1218,f800,f6f8,f6f8,f8fc,faf6,fefc,100c,141a,0206,fcf8,f6f6,f8f8,f8f6,fcf8,0606,1216,0408,f4f8,fcf8,f8fa,f4f2,f2f4,fcfa,0c0e,0206,f4f6,faf8,f8f6,eef0,f2f2,f8f6,fefe,f4f8,f6f2,0000,f8f8,f8f8,eeec,f8f2,f2f6,f2f2,f4f4,0808,0006,f6fa,f2f2,f2f0,f6f4,f8fc,f6f4,0c04,080c,fefe,f4f8,faf6,f2f2,ecf2,fcfc,0a02,1010,0004,fcfa,fefc,fafe,f6f6,fe00,0a08,1612,0a0c,0206,0000,0200,fafe,fcfa,0a0a,1410,0c14,0a08,0606,0204,0402,fcfc,00fe,0c0c,0e0e,fcfe,0604,0406,0404,0404,0608,0004,0002,f0f4,fcf8,060a,0404,0202,0000,fcfe,fc00,e6ea,f4ec,0200,0406,0002,0002,0000,f802,e6ea,f0ea,fcfc,fe00,fcfe,00fe,0606,f2f0,e4ea,eae4,fcfa,fcfa,fcfa,fefc,0600,00fe,eeea,eeee,fcf8,0002,f8fa,fefa,0000,080a,f0f8,f2ea,fe00,0002,f8fa,faf8,fe00,0806,0402,f8f4,fefc,fc02,f8fa,f8f6,0200,0604,0604,080c,fc02,0002,f8f8,fcf8,02fe,0002,0406,fe00,080a,0202,fafe,fcfa,0000,0404,0402,0202,0c0c,0406,0002,0200,0202,0400,0204,0202,0600,0a08,0202,0402,0200,0202,0002,0000,fe02,0408,0406,0200,0404,0406,0000,fcfe,fcfe,0402,0604,0002,0604,0808,0004,fcfa,fafc,f8f8,fe02,fcfc,02fe,0604,0404,fafc,fafc,f6fa,fe00,fe00,fefe,0202,0002,fefe,f8f8,fcf8,00fc,fe04,0000,0202,fafc,fcfe,f8fa,f8fa,faf4,0000,0200,0204,fcfe,faf8,fcfa,fcfa,f6fa,f8ee,020c,0a06,0006,fefe,fafe,f4fc,f4f4,fafc,0000,00fc,f8f8,fafa,f8fc,fef8,fefa,fe00,06fc,fc06,00fc,fcf8,fafc,f0f2,eefa,f8fe,fa04,04f8,fef4,00fc,0002,fafe,f4f0,f4f0,fcfa,fefe,0400,00fe,00fe,fcfc,f6f2,faf4,f4f0,f8f4,0402,fe04,0202,fcfe,fafc,f6f8,fafa,f8fe,0600,fefe,fc02,fcfc,0200,0202,0604,fc00,fe06,fe00,02fe,f0f2,fefc,0000,0602,0408,fefc,fefe,fafa,eeec,f6f0,00fe,0804,0606,0002,0200,0208,f6f6,f2f4,fefc,0604,0804,0604,f800,f8fc,fc02,f2f2,fafa,00fe,0808,0002,fa04,04fe,fcfe,f8fa,00fa,fefe,0400,fe00,00fc,fc02,0406,00fe,0202,fe00,fefc,fcfe,f8fa,faf8,fefc,fefe,0200,00fe,fa00,f6f8,f8f4,fcfc,f6f8,f602,0204,fe04,fe00,f4f2,f6f4,fcfa,f6f6,00fe,fcfa,00fe,fafe,f4f4,fefe,fefc,fafc,fef8,0600,fefa,fcfc,fafa,0806,0204,fc00,f8fa,f6f8,0400,fefe,0000,100a,0a0e,0204,0000,fefa,0004,faf4,00fe,0c0a,1012,0608,0002,0004,0002,faf8,fe00,0404,0a0a,0608,0000,0202,0000,0000,02fc,04fe,0404,0204,00fc,00fe,0204,00fe,00fa,fe00,00fe,fcfe,f4f0,00fe,0400,fe02,0800,0202,fafc,f8fa,f0f4,fcfa,0202,0408,fc00,02fc,fe02,fcfe,f8fa,fcfa,0204,0806,0000,fafa,0406,fafa,fe00,0000,0202,0608,0404,0004,fc02,fe00,00fe,0000,0202,0606,0406,0200,0604,fe00,f6fc,fcfe,0200,0402,0402,fcfe,0806,1008,fcfc,fafa,fefe,0202,0004,00fe,0000,0006,0004,fcfe,fefc,0200,0202,fcfe,02fe,fc04,fefc,00fc,0002,fefe,fcfc,fe00,fefe,0400,0408,020a,0402,0606,fafe,fefc,00fe,0400,fef8,060a,0602,0404,00fe,fefc,fcfc,00fe,fa02,0008,0802,0808,0404,fe02,0204,0200,fe02,08fc,0600,020a,080a,0202,0204,0004,00fc,fa08,fe02,0c08,0e0a,0808,0a0a,0202,0604,fafa,04fc,0a04,0000,0000,0000,0000,0000,0000,0000,0000,0000,0000,0000,0000,0000,0000,0000,0000,0000,0000,0000,0000,0000,0000,0000,0000,0000,0000,0000,0000,0000,0000,0000,0000,0000,0000,0000,0000,0000,0000,0000,0000,0000,0000,0000,0000,0000,0000,0000,0000,0000,0000,0000,0000,0000,0000,0000,0000,0000,0000,0000,0000,0000,0000,0000,0000,0000,0000,0000,0000,0000,0000,0000,0000,0000,0000,0000,0000,0000,0000,0000,0000,0000,0000,0000,0000,0000,0000,0000,0000,0000,0000,0000,0000,0000,0000,0000,0000,0000,0000,0000,0000,0000,0000,0000,0000,0000,0000,0000,0000,0000,0000,0000,0000,0000,0000,0000,0000,0000,0000,0000,0000,0000,0000,0000,0000,0000,0000,0000,0000,0000,0000,0000,0000,0000,0000,0000,0000,0000,0000,0000,0000,0000,0000,0000,0000,0000,0000,0000,0000,0000,0000,0000,0000,0000,0000,0000,0000,0000,0000,0000,0000,0000,0000,0000,0000,0000,0000,0000,0000,0000,0000,0000,0000,0000,0000,0000,0000,0000,0000,0000,0000,0000,0000,0000,0000,0000,0000,0000,0000,0000,0000,0000,0000,0000,0000,0000,0000,0000,0000,0000,0000,0000,0000,0000,0000,0000,0000,0000,0000,0000,0000,0000,0000,0000,0000,0000,0000,0000,0000,0000,0000,0000,0000,0000,0000,0000,0000,0000,0000,0000,0000,0000,0000,0000,0000,0000,0000,0000,0000,0000,0000,0000,0000,0000,0000,0000,0000,0000,0000,0000,0000,0000,0000,0000,0000,0000,0000,0000,0000,0000,0000,0000,0000,0000,0000,0000,0000,0000,0000,0000,0000,0000,0000,0000,0000,0000,0000,0000,0000,0000,0000,0000,0000,0000,0000,0000,0000,0000,0000,0000,0000,0000,0000,0000,0000,0000,0000,0000,0000,0000,0000,0000,0000,0000,0000,0000,0000,0000,0000,0000,0000,0000,0000,0000,0000,0000,0000,0000,0000,0000,0000,0000,0000,0000,0000,0000,0000,0000,0000,0000,0000,0000,0000,0000,0000,0000,0000,0000,0000,0000,0000,0000,0000,0000,0000,0000,0000,0000,0000,0000,0000,0000,0000,0000,0000,0000,0000,0000,0000,0000,0000,0000,0000,0000,0000,0000,0000,0000,0000,0000,0000,0000,0000,0000,0000,0000,0000,0000,0000,0000,0000,0000,0000,0000,0000,0000,0000,0000,0000,0000,0000,0000,0000,0000,0000,0000,0000,0000,0000,0000,0000,0000,0000,0000,0000,0000,0000,0000,0000,0000,0000,0000,0000,0000,0000,0000,0000,0000,0000,0000,0000,0000,0000,0000,0000,0000,0000,0000,0000,0000,0000,0000,0000,0000,0000,0000,0000,0000,0000,0000,0000,0000,0000,0000,0000,0000,0000,
fcfc,0402,0002,fefc,00fe,0402,f6fe,0202,0602,0000,02f8,f8fa,fa00,04fc,f802,f602,fefe,fefe,fc00,02fe,fcf8,f8fa,0000,fafe,faf6,0406,fefa,00fc,fafc,fafc,f8f6,fcfc,fafa,fc02,fefe,0000,f6f8,fcfe,f6f8,faf8,f6fa,fcfc,fc04,fafc,f800,f8f6,fe00,f0f0,fefe,fefc,fe00,0000,0400,f2f6,00fe,f2f8,fefa,fcfc,fefe,0204,fa00,fe04,fcf6,00fe,f6f0,0202,0002,fefc,00fe,06fe,fafa,0202,f0f6,0400,0002,fa00,fefc,fcfa,fafe,00fe,fc04,fcf8,0002,fefe,fcfa,faf8,fefa,0200,0602,f6f6,0600,fcfe,f6fa,fefa,fcf8,fcfe,fefc,f8fe,00fc,0000,fcf6,f6f8,fe00,00fc,fefe,fefe,f8f2,0204,f6fc,fcfc,fe00,fcfa,0402,fefc,f4f8,0200,0004,fcfa,fcf8,f8fe,fefe,f800,fe02,fefc,0404,f8fe,faf6,f800,fafe,fcfe,00fc,f8fa,0602,0204,f6f6,fcfa,fafe,02fe,fafe,fe02,00fe,0204,fafc,fafa,fafe,fcfe,fefe,02fc,fe00,0000,00fe,fafc,fcfa,f8fe,00fe,fcfc,0002,fefa,fafa,fcfa,faf8,f6f8,f2f2,fcfe,0400,fafe,f6f8,f6fa,f8fa,fefa,f0f4,faf6,fcfa,0202,faf8,f6f4,f4f2,f6f8,04fc,f4f6,fef8,0402,fafe,f8f6,f4f6,f8f6,fcfa,fc02,f6f6,fefc,0406,f8fa,f8f8,f6f6,f6f8,fefc,fafe,faf8,0402,0204,f6f6,f8fa,f8fa,fafe,04fc,fe02,fe00,0606,fe02,faf6,fafc,f8f8,fefe,0202,0200,0402,0606,f6fa,fcf8,f8f8,fefe,02fe,0402,fefe,0402,0008,faf4,f8f8,fcfc,fcfc,02fe,0002,0200,0404,f8fa,f6f8,fcf8,0202,fefa,0202,0002,0202,0002,faf8,f8fa,fefe,fcfc,0202,fe00,fefa,0402,f4f6,fafa,fe00,f800,00fe,0202,fc00,00fe,fe04,fefe,fefc,0000,faf4,fefe,0002,fefc,0000,fcfa,fcfc,0004,02fc,00fa,fcfc,fafa,fcfa,0202,fcfe,0402,02f8,f802,fcfe,fafa,f4fc,00fc,02fc,0200,fe04,0000,0200,fe08,0000,fe00,f804,0e00,080c,0004,0204,0404,0000,0202,04fc,fafa,0806,020e,0e04,060c,fefa,0002,0000,f4fe,0004,0606,0a02,0804,0202,0608,0002,fe04,fefc,0406,0806,fe04,fe06,0000,0200,0402,f6f6,0c0a,0604,0400,0410,fafc,0606,0404,fc02,0600,0c0a,020a,0208,0000,fefe,0202,0002,fcf8,0a0c,0406,0600,0404,f8fe,02fe,0202,fa00,0604,0808,0a04,0406,fafc,fcf4,0204,0004,fcf8,0608,0206,0610,fe0c,f6f6,0200,0602,f8f8,0600,0204,0406,0c04,fafe,faf4,0002,f800,00fc,0806,fefa,0806,0204,faf6,00fe,fefe,f8f4,0206,0200,0804,0604,0200,faf8,0202,f8fa,0400,0404,0608,040a,0208,f8fe,fcfa,fe00,fcf8,0006,fe04,0404,0608,fafc,fafa,0400,00fc,0602,0202,00fe,0202,0206,fc02,fafc,0206,0402,00fe,0404,0604,020c,fcfe,fe00,0402,0204,0004,0204,02fe,0002,0a04,0002,fefa,0406,0400,00fc,0404,0204,f804,0406,fc00,0402,0000,00fe,0402,00fe,0408,100c,0000,fefa,0200,fefe,00fe,0606,0400,080e,0606,fafe,0200,0000,fc00,0002,0804,0e00,0806,fc00,02fc,0200,fefa,fefa,0404,0402,0200,0404,02fe,0200,fcfe,fafe,0400,0800,0a06,0404,0202,0402,0006,fefe,0000,02fc,0600,0808,0808,0204,0a0a,0002,fefc,04fc,0202,0606,0602,0804,0806,0408,fefe,00fa,0204,0400,0404,0602,0606,0406,fe00,fafc,fcfe,0802,fe08,040c,0604,0404,0000,00fe,02fe,0404,02f8,04fe,020a,0404,fe02,fefc,fefc,0004,0604,0806,0204,0608,0002,fafa,fefe,fcf6,0802,0c02,0e06,0a08,0806,0000,00fe,fc04,0208,0604,0e02,0208,0606,0408,0202,fe00,0600,0206,02fa,000a,04fe,06fe,0402,fc02,0406,0404,080e,0a00,0604,0002,0604,fe02,0604,0404,0a04,0006,0806,0000,0000,0000,0000,0000,0000,0000,0000,0000,0000,0000,0000,0000,0000,0000,0000,0000,0000,0000,0000,0000,0000,0000,0000,0000,0000,0000,0000,0000,0000,0000,0000,0000,0000,0000,0000,0000,0000,0000,0000,0000,0000,0000,0000,0000,0000,0000,0000,0000,0000,0000,0000,0000,0000,0000,0000,0000,0000,0000,0000,0000,0000,0000,0000,0000,0000,0000,0000,0000,0000,0000,0000,0000,0000,0000,0000,0000,0000,0000,0000,0000,0000,0000,0000,0000,0000,0000,0000,0000,0000,0000,0000,0000,0000,0000,0000,0000,0000,0000,0000,0000,0000,0000,0000,0000,0000,0000,0000,0000,0000,0000,0000,0000,0000,0000,0000,0000,0000,0000,0000,0000,0000,0000,0000,0000,0000,0000,0000,0000,0000,0000,0000,0000,0000,0000,0000,0000,0000,0000,0000,0000,0000,0000,0000,0000,0000,0000,0000,0000,0000,0000,0000,0000,0000,0000,0000,0000,0000,0000,0000,0000,0000,0000,0000,0000,0000,0000,0000,0000,0000,0000,0000,0000,0000,0000,0000,0000,0000,0000,0000,0000,0000,0000,0000,0000,0000,0000,0000,0000,0000,0000,0000,0000,0000,0000,0000,0000,0000,0000,0000,0000,0000,0000,0000,0000,0000,0000,0000,0000,0000,0000,0000,0000,0000,0000,0000,0000,0000,0000,0000,0000,0000,0000,0000,0000,0000,0000,0000,0000,0000,0000,0000,0000,0000,0000,0000,0000,0000,0000,0000,0000,0000,0000,0000,0000,0000,0000,0000,0000,0000,0000,0000,0000,0000,0000,0000,0000,0000,0000,0000,0000,0000,0000,0000,0000,0000,0000,0000,0000,0000,0000,0000,0000,0000,0000,0000,0000,0000,0000,0000,0000,0000,0000,0000,0000,0000,0000,0000,0000,0000,0000,0000,0000,0000,0000,0000,0000,0000,0000,0000,0000,0000,0000,0000,0000,0000,0000,0000,0000,0000,0000,0000,0000,0000,0000,0000,0000,0000,0000,0000,0000,0000,0000,0000,0000,0000,0000,0000,0000,0000,0000,0000,0000,0000,0000,0000,0000,0000,0000,0000,0000,0000,0000,0000,0000,0000,0000,0000,0000,0000,0000,0000,0000,0000,0000,0000,0000,0000,0000,0000,0000,0000,0000,0000,0000,0000,0000,0000,0000,0000,0000,0000,0000,0000,0000,0000,0000,0000,0000,0000,0000,0000,0000,0000,0000,0000,0000,0000,0000,0000,0000,0000,0000,0000,0000,0000,0000,0000,0000,0000,0000,0000,0000,0000,0000,0000,0000,0000,0000,0000,0000,0000,0000,0000,0000,0000,0000,0000,0000,0000,0000,0000,0000,0000,0000,0000,0000,0000,0000,0000,0000,0000,0000,0000,0000,0000,0000,0000,0000,0000,0000,0000,0000,0000,0000,0000,
